{
  "version": "1.0",
  "truncation": null,
  "padding": null,
  "added_tokens": [
    {
      "id": 0,
      "content": "<pad>",
      "single_word": false,
      "lstrip": false,
      "rstrip": false,
      "normalized": false,
      "special": true
    },
    {
      "id": 1,
      "content": "</s>",
      "single_word": false,
      "lstrip": false,
      "rstrip": false,
      "normalized": false,
      "special": true
    },
    {
      "id": 2,
      "content": "<unk>",
      "single_word": false,
      "lstrip": false,
      "rstrip": false,
      "normalized": false,
      "special": true
    },
    {
      "id": 3,
      "content": "<mask>",
      "single_word": false,
      "lstrip": false,
      "rstrip": false,
      "normalized": false,
      "special": true
    },
    {
      "id": 32768,
      "content": "<image>",
      "single_word": false,
      "lstrip": false,
      "rstrip": false,
      "normalized": false,
      "special": true
    },
    {
      "id": 32769,
      "content": "<PERSON>",
      "single_word": false,
      "lstrip": false,
      "rstrip": false,
      "normalized": false,
      "special": true
    }
  ],
  "normalizer": {
    "type": "Sequence",
    "normalizers": [
      {
        "type": "Nmt"
      },
      {
        "type": "NFKC"
      },
      {
        "type": "Replace",
        "pattern": {
          "Regex": " {2,}"
        },
        "content": " "
      },
      {
        "type": "Lowercase"
      }
    ]
  },
  "pre_tokenizer": {
    "type": "Sequence",
    "pretokenizers": [
      {
        "type": "Metaspace",
        "replacement": "▁",
        "add_prefix_space": true,
        "prepend_scheme": "always"
      },
      {
        "type": "Digits",
        "individual_digits": true
      },
      {
        "type": "Punctuation",
        "behavior": "Isolated"
      }
    ]
  },
  "post_processor": {
    "type": "TemplateProcessing",
    "single": [
      {
        "Sequence": {
          "id": "A",
          "type_id": 0
        }
      },
      {
        "SpecialToken": {
          "id": "</s>",
          "type_id": 0
        }
      }
    ],
    "pair": [
      {
        "Sequence": {
          "id": "A",
          "type_id": 0
        }
      },
      {
        "Sequence": {
          "id": "B",
          "type_id": 1
        }
      }
    ],
    "special_tokens": {
      "</s>": {
        "id": "</s>",
        "ids": [
          1
        ],
        "tokens": [
          "</s>"
        ]
      }
    }
  },
  "decoder": {
    "type": "Metaspace",
    "replacement": "▁",
    "add_prefix_space": true,
    "prepend_scheme": "always"
  },
  "model": {
    "type": "Unigram",
    "unk_id": 2,
    "vocab": [
      [
        "<pad>",
        0.0
      ],
      [
        "</s>",
        0.0
      ],
      [
        "<unk>",
        0.0
      ],
      [
        "<mask>",
        0.0
      ],
      [
        "▁",
        -1.835696049583184
      ],
      [
        ".",
        -2.8843592150005346
      ],
      [
        ":",
        -3.450425654259659
      ],
      [
        "*",
        -3.511402196992707
      ],
      [
        ",",
        -3.6091170237866623
      ],
      [
        "▁the",
        -3.77103477854066
      ],
      [
        "s",
        -3.7917258463016896
      ],
      [
        "'",
        -3.93716072865047
      ],
      [
        "a",
        -3.99588554360189
      ],
      [
        "i",
        -4.278657390971851
      ],
      [
        "mot",
        -4.3029290892031025
      ],
      [
        "▁you",
        -4.4004805690571445
      ],
      [
        "▁and",
        -4.431452697470638
      ],
      [
        "?",
        -4.433674953757956
      ],
      [
        "▁to",
        -4.477834303517556
      ],
      [
        "chi",
        -4.4917086642976365
      ],
      [
        "t",
        -4.581363606160389
      ],
      [
        "▁it",
        -4.671958317220648
      ],
      [
        "▁of",
        -4.7096905474256285
      ],
      [
        "▁in",
        -4.8622120713038814
      ],
      [
        "▁that",
        -4.893022330273501
      ],
      [
        "\"",
        -4.999238508243437
      ],
      [
        "-",
        -5.112005243479597
      ],
      [
        "▁is",
        -5.248988606227849
      ],
      [
        "▁he",
        -5.289981101150053
      ],
      [
        "▁was",
        -5.375627137897526
      ],
      [
        "=",
        -5.4504099966481885
      ],
      [
        "o",
        -5.493533040750322
      ],
      [
        "]",
        -5.527761518689529
      ],
      [
        "[",
        -5.527802861846002
      ],
      [
        "d",
        -5.528792445302571
      ],
      [
        "m",
        -5.534423277598341
      ],
      [
        "▁on",
        -5.540632943022025
      ],
      [
        "ed",
        -5.565877087450872
      ],
      [
        "▁what",
        -5.57549100748688
      ],
      [
        "h",
        -5.58274562579593
      ],
      [
        "!",
        -5.647531474232343
      ],
      [
        "▁for",
        -5.658686872706834
      ],
      [
        "▁we",
        -5.688367239049512
      ],
      [
        "y",
        -5.797180469327008
      ],
      [
        "▁this",
        -5.799435584969514
      ],
      [
        "▁with",
        -5.839680435668358
      ],
      [
        "1",
        -5.854078903311397
      ],
      [
        "e",
        -5.879393427615161
      ],
      [
        "▁do",
        -5.886216825696394
      ],
      [
        "▁no",
        -5.896651776250328
      ],
      [
        "▁they",
        -5.924698226266527
      ],
      [
        "▁there",
        -5.944452455648895
      ],
      [
        "▁have",
        -5.946712683014496
      ],
      [
        "▁be",
        -5.991094905076778
      ],
      [
        "▁are",
        -6.0073064519976995
      ],
      [
        "▁not",
        -6.010687338960999
      ],
      [
        "▁she",
        -6.023601239270272
      ],
      [
        "0",
        -6.031278869986881
      ],
      [
        "▁me",
        -6.057347051156057
      ],
      [
        "▁one",
        -6.08456933819922
      ],
      [
        "▁as",
        -6.096524089726236
      ],
      [
        "▁can",
        -6.114311102353318
      ],
      [
        "▁but",
        -6.120293867617814
      ],
      [
        "▁his",
        -6.128229769695274
      ],
      [
        "2",
        -6.16352155083352
      ],
      [
        "▁yeah",
        -6.20951736682256
      ],
      [
        "re",
        -6.224339727356126
      ],
      [
        "▁her",
        -6.231025099357783
      ],
      [
        "▁your",
        -6.240418535523393
      ],
      [
        "ly",
        -6.246048947831948
      ],
      [
        "▁so",
        -6.258829342667115
      ],
      [
        "▁all",
        -6.262652277136402
      ],
      [
        "▁know",
        -6.29432590121483
      ],
      [
        "▁don",
        -6.295393315446285
      ],
      [
        "▁had",
        -6.303818178752378
      ],
      [
        "▁my",
        -6.317385920434216
      ],
      [
        "ing",
        -6.326362507396906
      ],
      [
        "inv",
        -6.340869993510378
      ],
      [
        "▁like",
        -6.3479151677510295
      ],
      [
        "▁up",
        -6.362747772867692
      ],
      [
        "▁go",
        -6.382811776236949
      ],
      [
        "▁from",
        -6.489090285435871
      ],
      [
        "9",
        -6.5022876030804095
      ],
      [
        "▁out",
        -6.530705743878661
      ],
      [
        "▁here",
        -6.546313606132845
      ],
      [
        "n",
        -6.5680401095612115
      ],
      [
        "▁get",
        -6.574621613778401
      ],
      [
        "▁him",
        -6.584722310294643
      ],
      [
        "▁if",
        -6.603653550573728
      ],
      [
        "ll",
        -6.6109923245166
      ],
      [
        "▁were",
        -6.619831217962709
      ],
      [
        "▁just",
        -6.622298538848657
      ],
      [
        "▁now",
        -6.625617433497263
      ],
      [
        "▁by",
        -6.632101777630105
      ],
      [
        "▁right",
        -6.63733363951687
      ],
      [
        "fat",
        -6.64573305568296
      ],
      [
        "▁see",
        -6.667566553203184
      ],
      [
        "▁well",
        -6.673243370736575
      ],
      [
        "▁then",
        -6.708120655877247
      ],
      [
        "▁an",
        -6.720352020758689
      ],
      [
        "▁about",
        -6.722760646113187
      ],
      [
        "▁when",
        -6.72481555720654
      ],
      [
        "▁or",
        -6.7766552930234365
      ],
      [
        "▁think",
        -6.779201605457711
      ],
      [
        "r",
        -6.78225072657961
      ],
      [
        "▁who",
        -6.784400623671715
      ],
      [
        "▁them",
        -6.799426053515914
      ],
      [
        "▁got",
        -6.800028745370442
      ],
      [
        "▁did",
        -6.803521006055641
      ],
      [
        ")",
        -6.805239338732003
      ],
      [
        "▁said",
        -6.806033517570427
      ],
      [
        "(",
        -6.812045562019112
      ],
      [
        "▁some",
        -6.833241125210979
      ],
      [
        "▁where",
        -6.871548243805229
      ],
      [
        "▁would",
        -6.897753891150881
      ],
      [
        "▁come",
        -6.902076371838751
      ],
      [
        "ve",
        -6.902101087528768
      ],
      [
        "▁look",
        -6.906474141473069
      ],
      [
        "▁xxx",
        -6.90874048086045
      ],
      [
        ";",
        -6.913357438869966
      ],
      [
        "▁will",
        -6.916360370434475
      ],
      [
        "▁yes",
        -6.94916088320957
      ],
      [
        "er",
        -6.951785045902472
      ],
      [
        "▁good",
        -6.952723007539742
      ],
      [
        "▁want",
        -6.956780159004394
      ],
      [
        "“",
        -6.967455569188566
      ],
      [
        "▁okay",
        -6.98151278073075
      ],
      [
        "b",
        -6.994373036080056
      ],
      [
        "”",
        -7.001425495622923
      ],
      [
        "▁little",
        -7.025830606144558
      ],
      [
        "’",
        -7.026176611443203
      ],
      [
        "▁how",
        -7.035628759212981
      ],
      [
        "▁going",
        -7.043016448916871
      ],
      [
        "▁down",
        -7.05145830332617
      ],
      [
        "▁put",
        -7.058987170725153
      ],
      [
        "▁time",
        -7.06850413400676
      ],
      [
        "▁been",
        -7.077358655363245
      ],
      [
        "▁more",
        -7.0888171241878535
      ],
      [
        "3",
        -7.089875630832191
      ],
      [
        "▁two",
        -7.111686820332579
      ],
      [
        "▁back",
        -7.111901234821898
      ],
      [
        "▁very",
        -7.112091604769017
      ],
      [
        "▁which",
        -7.1217638609486205
      ],
      [
        "8",
        -7.143273107749236
      ],
      [
        "▁has",
        -7.15005976533544
      ],
      [
        "▁their",
        -7.1520059127667945
      ],
      [
        "▁over",
        -7.198163872641354
      ],
      [
        "▁could",
        -7.210909733832279
      ],
      [
        "5",
        -7.218937806117797
      ],
      [
        "▁let",
        -7.2361830212757585
      ],
      [
        "▁say",
        -7.290727853108258
      ],
      [
        "▁other",
        -7.294732588855894
      ],
      [
        "4",
        -7.299323903158296
      ],
      [
        "7",
        -7.301546631051107
      ],
      [
        "6",
        -7.342221440235912
      ],
      [
        "▁why",
        -7.384678800043854
      ],
      [
        "▁make",
        -7.386814740059057
      ],
      [
        "▁into",
        -7.391982584043644
      ],
      [
        "▁take",
        -7.396551334680504
      ],
      [
        "l",
        -7.409899447289343
      ],
      [
        "▁people",
        -7.414346925498169
      ],
      [
        "▁gonna",
        -7.422167691230904
      ],
      [
        "▁way",
        -7.42227715091213
      ],
      [
        "c",
        -7.439756380896391
      ],
      [
        "▁because",
        -7.444741492304699
      ],
      [
        "▁off",
        -7.450018109794248
      ],
      [
        "in",
        -7.450320929305095
      ],
      [
        "g",
        -7.451414127934383
      ],
      [
        "▁first",
        -7.484779619031952
      ],
      [
        "▁man",
        -7.488581413123763
      ],
      [
        "_",
        -7.529911488552259
      ],
      [
        "▁uh",
        -7.532198670121156
      ],
      [
        "▁too",
        -7.535544634525616
      ],
      [
        "▁these",
        -7.541168752866056
      ],
      [
        "▁after",
        -7.546534348662536
      ],
      [
        "▁any",
        -7.551060804136405
      ],
      [
        "▁tell",
        -7.5826989752382765
      ],
      [
        "▁only",
        -7.592109329228158
      ],
      [
        "▁us",
        -7.606048601039614
      ],
      [
        "▁really",
        -7.617281688695325
      ],
      [
        "▁our",
        -7.6205734587859855
      ],
      [
        "▁didn",
        -7.637360796802406
      ],
      [
        "▁again",
        -7.650022267662967
      ],
      [
        "▁something",
        -7.66098718325598
      ],
      [
        "▁much",
        -7.679515728709562
      ],
      [
        "u",
        -7.681476639180646
      ],
      [
        "f",
        -7.709947810240498
      ],
      [
        "▁made",
        -7.724650279354528
      ],
      [
        "▁big",
        -7.735996553934953
      ],
      [
        "▁than",
        -7.7500246722290065
      ],
      [
        "▁before",
        -7.750315897852067
      ],
      [
        "▁should",
        -7.769609808675492
      ],
      [
        "on",
        -7.786576542237102
      ],
      [
        "▁away",
        -7.790193796609758
      ],
      [
        "▁does",
        -7.797613479648708
      ],
      [
        "▁mean",
        -7.806408091435223
      ],
      [
        "▁three",
        -7.810322351716163
      ],
      [
        "▁wanna",
        -7.810509300798493
      ],
      [
        "▁new",
        -7.817498551398586
      ],
      [
        "▁need",
        -7.821932972402077
      ],
      [
        "▁those",
        -7.832539701179993
      ],
      [
        "▁went",
        -7.83984795857964
      ],
      [
        "▁day",
        -7.842860940234805
      ],
      [
        "▁never",
        -7.859194675873583
      ],
      [
        "▁give",
        -7.864225254903513
      ],
      [
        "▁doing",
        -7.865316676854507
      ],
      [
        "%",
        -7.873889757615274
      ],
      [
        "▁also",
        -7.890081606585701
      ],
      [
        "▁home",
        -7.902308456377808
      ],
      [
        "▁long",
        -7.904634796448404
      ],
      [
        "▁um",
        -7.906035743029369
      ],
      [
        "▁another",
        -7.910758446470773
      ],
      [
        "▁many",
        -7.920261583631341
      ],
      [
        "w",
        -7.920634579551283
      ],
      [
        "▁house",
        -7.928919663969079
      ],
      [
        "the",
        -7.929292427159291
      ],
      [
        "▁thing",
        -7.9309283942167745
      ],
      [
        "▁old",
        -7.934807438372744
      ],
      [
        "▁came",
        -7.93741689713776
      ],
      [
        "▁thought",
        -7.940032715186071
      ],
      [
        "▁work",
        -7.945370825885854
      ],
      [
        "▁things",
        -7.963016205418734
      ],
      [
        "▁play",
        -7.963210045641919
      ],
      [
        "▁great",
        -7.965235920797237
      ],
      [
        "▁through",
        -7.965372319656314
      ],
      [
        "▁still",
        -7.96878016341361
      ],
      [
        "▁must",
        -8.004231642868456
      ],
      [
        "▁boy",
        -8.010893685447847
      ],
      [
        "▁last",
        -8.027958708583787
      ],
      [
        "▁find",
        -8.028015396911925
      ],
      [
        "▁won",
        -8.033632746972303
      ],
      [
        "▁may",
        -8.03522830787789
      ],
      [
        "▁place",
        -8.035830020141189
      ],
      [
        "▁help",
        -8.037954834089017
      ],
      [
        "p",
        -8.040347182929356
      ],
      [
        "/",
        -8.041996472562635
      ],
      [
        "▁even",
        -8.042513386109096
      ],
      [
        "add",
        -8.052924757431674
      ],
      [
        "▁isn",
        -8.061595524357692
      ],
      [
        "▁car",
        -8.065064718011312
      ],
      [
        "▁done",
        -8.071336429750666
      ],
      [
        "exp",
        -8.077991997265649
      ],
      [
        "▁baby",
        -8.092452322956415
      ],
      [
        "▁mother",
        -8.097401896164431
      ],
      [
        "▁called",
        -8.10181063504944
      ],
      [
        "▁sure",
        -8.11230330923117
      ],
      [
        "▁might",
        -8.112310466661604
      ],
      [
        "▁most",
        -8.119011496664767
      ],
      [
        "k",
        -8.11982698897991
      ],
      [
        "▁head",
        -8.123256314653094
      ],
      [
        "▁name",
        -8.129714317024579
      ],
      [
        "▁please",
        -8.138072228030062
      ],
      [
        "laughs",
        -8.141256919729484
      ],
      [
        "and",
        -8.145139508372823
      ],
      [
        "▁thank",
        -8.157196944946893
      ],
      [
        "▁girl",
        -8.159476514075413
      ],
      [
        "▁night",
        -8.162735994586711
      ],
      [
        "▁erm",
        -8.167066901176527
      ],
      [
        "▁better",
        -8.168803073827952
      ],
      [
        "▁book",
        -8.175753238507102
      ],
      [
        "▁bit",
        -8.177108883463866
      ],
      [
        "▁around",
        -8.179346766845972
      ],
      [
        "▁found",
        -8.197791417922812
      ],
      [
        "▁nice",
        -8.203981293290836
      ],
      [
        "▁hey",
        -8.204690671238199
      ],
      [
        "▁water",
        -8.212138093141762
      ],
      [
        "▁while",
        -8.215767114052648
      ],
      [
        "▁hand",
        -8.217962753429733
      ],
      [
        "cause",
        -8.22844194812725
      ],
      [
        "▁being",
        -8.230948809747817
      ],
      [
        "▁mummy",
        -8.233317972580215
      ],
      [
        "v",
        -8.236477927404804
      ],
      [
        "▁shall",
        -8.247658777704627
      ],
      [
        "▁life",
        -8.249306223141648
      ],
      [
        "▁doesn",
        -8.258623425546627
      ],
      [
        "▁school",
        -8.2602068907857
      ],
      [
        "▁next",
        -8.260335912412064
      ],
      [
        "▁anything",
        -8.261989775275257
      ],
      [
        "▁such",
        -8.264884867305373
      ],
      [
        "▁years",
        -8.26846100206356
      ],
      [
        "ies",
        -8.27261139811283
      ],
      [
        "▁mhm",
        -8.28133518169973
      ],
      [
        "▁eat",
        -8.283997009080117
      ],
      [
        "▁love",
        -8.288500599169637
      ],
      [
        "▁father",
        -8.290379271746012
      ],
      [
        "▁talk",
        -8.299720664500041
      ],
      [
        "▁same",
        -8.3012363485291
      ],
      [
        "▁open",
        -8.303308652976337
      ],
      [
        "▁used",
        -8.305814731919524
      ],
      [
        "▁else",
        -8.310711129099126
      ],
      [
        "▁under",
        -8.316455250805337
      ],
      [
        "▁four",
        -8.328264272444624
      ],
      [
        "▁part",
        -8.33501924748558
      ],
      [
        "▁world",
        -8.34271110765664
      ],
      [
        "▁own",
        -8.342783019664077
      ],
      [
        "▁room",
        -8.345958113883539
      ],
      [
        "▁lot",
        -8.361937305366439
      ],
      [
        "▁always",
        -8.365155021903186
      ],
      [
        "▁use",
        -8.365869633247204
      ],
      [
        "▁keep",
        -8.366874363340727
      ],
      [
        "you",
        -8.370090161642299
      ],
      [
        "sis",
        -8.377415586800621
      ],
      [
        "▁told",
        -8.383838958746733
      ],
      [
        "▁nothing",
        -8.385283956625045
      ],
      [
        "▁saw",
        -8.390319874602303
      ],
      [
        "▁daddy",
        -8.39072943614818
      ],
      [
        "▁left",
        -8.392893480753434
      ],
      [
        "▁kind",
        -8.395540072085108
      ],
      [
        "▁gone",
        -8.420767926507029
      ],
      [
        "▁looks",
        -8.423286856036341
      ],
      [
        "▁every",
        -8.427935411140236
      ],
      [
        "▁show",
        -8.440000472798074
      ],
      [
        "▁remember",
        -8.441278959158677
      ],
      [
        "▁sorry",
        -8.445871303021642
      ],
      [
        "▁goes",
        -8.456886869504698
      ],
      [
        "▁miss",
        -8.456974742652399
      ],
      [
        "▁ever",
        -8.457995549353539
      ],
      [
        "▁five",
        -8.46176640455727
      ],
      [
        "▁leave",
        -8.467710676022662
      ],
      [
        "▁though",
        -8.469298758670952
      ],
      [
        "▁money",
        -8.475606222114015
      ],
      [
        "▁coming",
        -8.485927060748716
      ],
      [
        "▁took",
        -8.486595673928374
      ],
      [
        "▁sit",
        -8.49018801311403
      ],
      [
        "▁huh",
        -8.49307113807937
      ],
      [
        "▁enough",
        -8.496899473504351
      ],
      [
        "▁end",
        -8.502142507949946
      ],
      [
        "▁door",
        -8.503734519049544
      ],
      [
        "tea",
        -8.50687176885943
      ],
      [
        "▁face",
        -8.510789551629754
      ],
      [
        "▁maybe",
        -8.51203965206102
      ],
      [
        "▁morning",
        -8.514069878420493
      ],
      [
        "▁men",
        -8.520829180277206
      ],
      [
        "▁turn",
        -8.521234457965107
      ],
      [
        "▁until",
        -8.522864612515253
      ],
      [
        "▁once",
        -8.523186937342286
      ],
      [
        "▁course",
        -8.524505184562148
      ],
      [
        "▁wait",
        -8.536453381298838
      ],
      [
        "▁eyes",
        -8.541465841248083
      ],
      [
        "an",
        -8.542956768912651
      ],
      [
        "▁hard",
        -8.546028101831988
      ],
      [
        "▁call",
        -8.549704016022355
      ],
      [
        "▁stop",
        -8.55042570061553
      ],
      [
        "▁says",
        -8.550491957233351
      ],
      [
        "able",
        -8.556690494987215
      ],
      [
        "▁quite",
        -8.557783463201332
      ],
      [
        "▁red",
        -8.56292472867169
      ],
      [
        "▁try",
        -8.573772870175127
      ],
      [
        "▁today",
        -8.573917888790751
      ],
      [
        "▁best",
        -8.578152592931444
      ],
      [
        "▁both",
        -8.585277509350119
      ],
      [
        "▁year",
        -8.587469578099912
      ],
      [
        "▁hear",
        -8.595655198533072
      ],
      [
        "▁side",
        -8.597222797214465
      ],
      [
        "▁looking",
        -8.599576752963012
      ],
      [
        "|",
        -8.6006888580424
      ],
      [
        "▁city",
        -8.60139054371147
      ],
      [
        "yes",
        -8.601800050048682
      ],
      [
        "▁yet",
        -8.604881858803378
      ],
      [
        "▁haft",
        -8.607045213494375
      ],
      [
        "▁asked",
        -8.608972591876592
      ],
      [
        "▁dear",
        -8.617133674073091
      ],
      [
        "▁seen",
        -8.620069491668318
      ],
      [
        "▁each",
        -8.624791100995285
      ],
      [
        "▁round",
        -8.625459271328065
      ],
      [
        "▁few",
        -8.626545695712636
      ],
      [
        "▁different",
        -8.627447076589599
      ],
      [
        "—",
        -8.628034076095549
      ],
      [
        "▁♪",
        -8.634262559123577
      ],
      [
        "bro",
        -8.634963036675806
      ],
      [
        "▁read",
        -8.635375696293542
      ],
      [
        "▁sir",
        -8.635427862134756
      ],
      [
        "▁getting",
        -8.636057854299445
      ],
      [
        "▁mommy",
        -8.639022775982653
      ],
      [
        "▁young",
        -8.640982963147191
      ],
      [
        "▁blue",
        -8.645160980070129
      ],
      [
        "▁stay",
        -8.648466782117572
      ],
      [
        "▁together",
        -8.649794968802944
      ],
      [
        "▁mrs",
        -8.651136674221615
      ],
      [
        "▁god",
        -8.656494832839625
      ],
      [
        "▁feel",
        -8.665672813517004
      ],
      [
        "▁second",
        -8.667018895818618
      ],
      [
        "▁believe",
        -8.670669456848257
      ],
      [
        "▁without",
        -8.672234053983523
      ],
      [
        "▁later",
        -8.673494290747527
      ],
      [
        "▁box",
        -8.676220843388949
      ],
      [
        "▁ready",
        -8.678127969404137
      ],
      [
        "▁children",
        -8.679922702203656
      ],
      [
        "▁known",
        -8.685444055041497
      ],
      [
        "▁number",
        -8.690113297949818
      ],
      [
        "▁soon",
        -8.690162340931346
      ],
      [
        "▁ball",
        -8.695559656010737
      ],
      [
        "▁mind",
        -8.69556395064216
      ],
      [
        "▁everything",
        -8.697524626484494
      ],
      [
        "▁between",
        -8.698769592772763
      ],
      [
        "▁having",
        -8.699217232908213
      ],
      [
        "▁half",
        -8.701131564487385
      ],
      [
        "▁far",
        -8.701589309367673
      ],
      [
        "we",
        -8.704519094622482
      ],
      [
        "▁heard",
        -8.705929884897456
      ],
      [
        "–",
        -8.707217835913267
      ],
      [
        "▁story",
        -8.70807094898828
      ],
      [
        "▁alright",
        -8.708107255765077
      ],
      [
        "▁haven",
        -8.71116352864631
      ],
      [
        "▁himself",
        -8.716828944261543
      ],
      [
        "▁upon",
        -8.720411384033449
      ],
      [
        "▁sort",
        -8.730578258952738
      ],
      [
        "▁happened",
        -8.732804052462836
      ],
      [
        "mch",
        -8.737738826455132
      ],
      [
        "▁dog",
        -8.740254342242016
      ],
      [
        "▁friend",
        -8.74239858217729
      ],
      [
        "▁looked",
        -8.743310819081552
      ],
      [
        "▁since",
        -8.750814028914457
      ],
      [
        "▁watch",
        -8.756217546090184
      ],
      [
        "▁bad",
        -8.75820283174126
      ],
      [
        "▁white",
        -8.761179510879867
      ],
      [
        "par",
        -8.761977705384526
      ],
      [
        "▁fire",
        -8.762760199043873
      ],
      [
        "▁pretty",
        -8.764508637173508
      ],
      [
        "▁small",
        -8.764764837689944
      ],
      [
        "▁hands",
        -8.76543367714585
      ],
      [
        "▁bed",
        -8.767362877518021
      ],
      [
        "▁hold",
        -8.767804508581488
      ],
      [
        "▁black",
        -8.77517295901865
      ],
      [
        "▁talking",
        -8.776295574738059
      ],
      [
        "man",
        -8.776386524744229
      ],
      [
        "▁live",
        -8.77699737296829
      ],
      [
        "dad",
        -8.784046801385527
      ],
      [
        "us",
        -8.784258663984156
      ],
      [
        "but",
        -8.789463463297762
      ],
      [
        "▁united",
        -8.789880253657028
      ],
      [
        "▁wanted",
        -8.790059392262389
      ],
      [
        "▁table",
        -8.790200904671226
      ],
      [
        "▁actually",
        -8.800805348517503
      ],
      [
        "▁american",
        -8.80447249987422
      ],
      [
        "▁along",
        -8.808703951087459
      ],
      [
        "▁knew",
        -8.824906002672853
      ],
      [
        "▁making",
        -8.826721857776453
      ],
      [
        "▁hour",
        -8.826795924610854
      ],
      [
        "▁moment",
        -8.828476423934859
      ],
      [
        "▁hello",
        -8.830954120283975
      ],
      [
        "▁top",
        -8.831812768057631
      ],
      [
        "▁set",
        -8.83455870282767
      ],
      [
        "▁high",
        -8.837267405312819
      ],
      [
        "▁movie",
        -8.83963341676954
      ],
      [
        "▁party",
        -8.840810157769145
      ],
      [
        "▁answer",
        -8.841291103766414
      ],
      [
        "▁against",
        -8.845613251665892
      ],
      [
        "▁start",
        -8.847352496124376
      ],
      [
        "▁green",
        -8.847673002781887
      ],
      [
        "▁six",
        -8.849056562672919
      ],
      [
        "▁family",
        -8.849546115420402
      ],
      [
        "he",
        -8.851441990073669
      ],
      [
        "▁gave",
        -8.854233393734688
      ],
      [
        "▁during",
        -8.860067806509944
      ],
      [
        "▁boys",
        -8.860711403079916
      ],
      [
        "gma",
        -8.862299245669561
      ],
      [
        "▁run",
        -8.870904880396886
      ],
      [
        "▁light",
        -8.873454848958245
      ],
      [
        "▁child",
        -8.87375011818893
      ],
      [
        "▁close",
        -8.874472495801474
      ],
      [
        "▁ask",
        -8.874600477830745
      ],
      [
        "▁wasn",
        -8.877857600046179
      ],
      [
        "▁color",
        -8.877988594961703
      ],
      [
        "▁paper",
        -8.881068435829846
      ],
      [
        "▁died",
        -8.885922703244104
      ],
      [
        "what",
        -8.887379662745063
      ],
      [
        "mar",
        -8.896350621314818
      ],
      [
        "▁idea",
        -8.896478155756288
      ],
      [
        "▁matter",
        -8.898022314139459
      ],
      [
        "▁heart",
        -8.90578536514696
      ],
      [
        "▁jack",
        -8.90844848066445
      ],
      [
        "▁near",
        -8.915338312167608
      ],
      [
        "▁almost",
        -8.918136284246586
      ],
      [
        "▁trying",
        -8.92117445923159
      ],
      [
        "▁voice",
        -8.923147778351442
      ],
      [
        "that",
        -8.924551012304034
      ],
      [
        "▁states",
        -8.92583592317668
      ],
      [
        "▁food",
        -8.932127374169166
      ],
      [
        "▁move",
        -8.932562845012784
      ],
      [
        "▁started",
        -8.933773102055971
      ],
      [
        "▁john",
        -8.935480433753426
      ],
      [
        "▁days",
        -8.938402404129802
      ],
      [
        "▁whole",
        -8.940713806949258
      ],
      [
        "▁floor",
        -8.94556555677553
      ],
      [
        "▁person",
        -8.947715825333034
      ],
      [
        "▁bring",
        -8.94812705928833
      ],
      [
        "▁noise",
        -8.948538375884507
      ],
      [
        "▁game",
        -8.950502110101336
      ],
      [
        "▁wouldn",
        -8.954611554930516
      ],
      [
        "▁real",
        -8.959347124409614
      ],
      [
        "▁state",
        -8.961569566900891
      ],
      [
        "▁saying",
        -8.964996163191474
      ],
      [
        "▁care",
        -8.968751472332686
      ],
      [
        "▁hi",
        -8.969099676570805
      ],
      [
        "▁war",
        -8.971907861524617
      ],
      [
        "▁playing",
        -8.972341834415163
      ],
      [
        "▁already",
        -8.973826211132248
      ],
      [
        "▁probably",
        -8.975008008409622
      ],
      [
        "▁sleep",
        -8.976703265810327
      ],
      [
        "well",
        -8.977198188834207
      ],
      [
        "▁fine",
        -8.977636791038167
      ],
      [
        "▁happy",
        -8.981795383036966
      ],
      [
        "▁word",
        -8.986707542164869
      ],
      [
        "▁aren",
        -8.992584396447098
      ],
      [
        "▁wrong",
        -8.993596359168738
      ],
      [
        "▁picture",
        -8.99585050877439
      ],
      [
        "▁girls",
        -8.99678913444792
      ],
      [
        "▁train",
        -8.99711893476993
      ],
      [
        "▁woman",
        -8.997671598326342
      ],
      [
        "▁gotta",
        -9.000664661744574
      ],
      [
        "▁drink",
        -9.007317411463005
      ],
      [
        "▁minute",
        -9.01081485377401
      ],
      [
        "▁chair",
        -9.011098664817872
      ],
      [
        "▁mom",
        -9.01308732747711
      ],
      [
        "▁large",
        -9.01439542165157
      ],
      [
        "▁thomas",
        -9.016300799534568
      ],
      [
        "▁hope",
        -9.020662449242826
      ],
      [
        "▁pick",
        -9.020671238157664
      ],
      [
        "▁hair",
        -9.027222143757838
      ],
      [
        "▁air",
        -9.027815319148916
      ],
      [
        "▁began",
        -9.029684797814776
      ],
      [
        "▁question",
        -9.03019978878916
      ],
      [
        "▁son",
        -9.030914515572755
      ],
      [
        "▁became",
        -9.031734516746162
      ],
      [
        "▁group",
        -9.03284597633897
      ],
      [
        "▁listen",
        -9.03736072422479
      ],
      [
        "▁town",
        -9.038177837983373
      ],
      [
        "▁born",
        -9.041208212945216
      ],
      [
        "▁country",
        -9.04546672366229
      ],
      [
        "▁present",
        -9.046619496874069
      ],
      [
        "▁friends",
        -9.046649602037968
      ],
      [
        "▁guess",
        -9.049233179080836
      ],
      [
        "▁north",
        -9.05161838426599
      ],
      [
        "▁feet",
        -9.059745096941136
      ],
      [
        "▁lost",
        -9.060255338816452
      ],
      [
        "▁point",
        -9.062191588022747
      ],
      [
        "▁ten",
        -9.064407816781909
      ],
      [
        "▁bear",
        -9.066931081726494
      ],
      [
        "▁poor",
        -9.067081135543695
      ],
      [
        "+",
        -9.067784877365993
      ],
      [
        "▁understand",
        -9.069196953543276
      ],
      [
        "nan",
        -9.071790950697562
      ],
      [
        "▁cat",
        -9.074446254017651
      ],
      [
        "▁behind",
        -9.075111334414617
      ],
      [
        "▁team",
        -9.076894511110185
      ],
      [
        "▁sometimes",
        -9.078128577958838
      ],
      [
        "▁walk",
        -9.078239085420266
      ],
      [
        "▁mine",
        -9.082618282044711
      ],
      [
        "▁full",
        -9.082968527576734
      ],
      [
        "▁cut",
        -9.08927856966448
      ],
      [
        "▁outside",
        -9.090516618391751
      ],
      [
        "huh",
        -9.091840862688109
      ],
      [
        "▁county",
        -9.099337599530571
      ],
      [
        "▁front",
        -9.101325914696393
      ],
      [
        "▁doctor",
        -9.104128542437987
      ],
      [
        "seemed",
        -9.109099549539902
      ],
      [
        "▁lady",
        -9.114939281246224
      ],
      [
        "▁pass",
        -9.119329586040212
      ],
      [
        "▁job",
        -9.120953327204198
      ],
      [
        "▁brought",
        -9.120959908021836
      ],
      [
        "▁age",
        -9.122929223697342
      ],
      [
        "fch",
        -9.122947920941591
      ],
      [
        "▁stuff",
        -9.13162714259567
      ],
      [
        "j",
        -9.131988246697109
      ],
      [
        "▁week",
        -9.1330838886653
      ],
      [
        "▁national",
        -9.134825908031056
      ],
      [
        "turned",
        -9.137463712870268
      ],
      [
        "▁music",
        -9.137742743587657
      ],
      [
        "ness",
        -9.138173562048598
      ],
      [
        "▁played",
        -9.13883058189128
      ],
      [
        "▁short",
        -9.142412711089976
      ],
      [
        "▁captain",
        -9.144141962143928
      ],
      [
        "▁wish",
        -9.14527932508346
      ],
      [
        "▁king",
        -9.147115433170434
      ],
      [
        "▁death",
        -9.147571729100372
      ],
      [
        "▁guy",
        -9.147651324034694
      ],
      [
        "▁pull",
        -9.149912768899435
      ],
      [
        "▁sea",
        -9.15294519011201
      ],
      [
        "▁piece",
        -9.154238003013406
      ],
      [
        "▁hot",
        -9.156369331025047
      ],
      [
        "▁couldn",
        -9.15799216663445
      ],
      [
        "▁fish",
        -9.15821535892396
      ],
      [
        "▁comes",
        -9.16190659301675
      ],
      [
        "▁yourself",
        -9.16262764448724
      ],
      [
        "▁late",
        -9.162851233086236
      ],
      [
        "▁sound",
        -9.166283870094288
      ],
      [
        "▁often",
        -9.166560131176595
      ],
      [
        "▁dead",
        -9.167272614853498
      ],
      [
        "▁hurt",
        -9.171408892553334
      ],
      [
        "▁however",
        -9.173827431445144
      ],
      [
        "▁rest",
        -9.176954474825465
      ],
      [
        "▁un",
        -9.17804652195968
      ],
      [
        "▁line",
        -9.178641694166142
      ],
      [
        "x",
        -9.179540121969378
      ],
      [
        "▁cup",
        -9.18126039469658
      ],
      [
        "▁hundred",
        -9.184029343057642
      ],
      [
        "▁throw",
        -9.184792436578135
      ],
      [
        "▁times",
        -9.185423380833903
      ],
      [
        "born",
        -9.186167671208208
      ],
      [
        "▁south",
        -9.186600032909563
      ],
      [
        "▁brother",
        -9.187406791106891
      ],
      [
        "▁stand",
        -9.188586806506066
      ],
      [
        "▁beautiful",
        -9.20295783788364
      ],
      [
        "▁taken",
        -9.208130223454628
      ],
      [
        "▁twenty",
        -9.212578258314863
      ],
      [
        "▁early",
        -9.21301676932458
      ],
      [
        "car",
        -9.21315606261598
      ],
      [
        "▁myself",
        -9.21316166506157
      ],
      [
        "▁inside",
        -9.214805063221172
      ],
      [
        "▁yellow",
        -9.215318946702382
      ],
      [
        "▁felt",
        -9.216309967140726
      ],
      [
        "▁someone",
        -9.21905226787156
      ],
      [
        "▁rather",
        -9.219186974633333
      ],
      [
        "▁tree",
        -9.219925648971296
      ],
      [
        "▁fall",
        -9.222609941610695
      ],
      [
        "▁dad",
        -9.22363746800788
      ],
      [
        "▁taking",
        -9.22539688863136
      ],
      [
        "▁means",
        -9.227682677934268
      ],
      [
        "▁general",
        -9.232158053202983
      ],
      [
        "▁song",
        -9.23580446392512
      ],
      [
        "men",
        -9.236816614133598
      ],
      [
        "▁ha",
        -9.237702077618971
      ],
      [
        "ch",
        -9.239646223199887
      ],
      [
        "▁true",
        -9.240422738645853
      ],
      [
        "▁women",
        -9.242012957791497
      ],
      [
        "▁river",
        -9.244963207083492
      ],
      [
        "▁perhaps",
        -9.248140449952226
      ],
      [
        "▁continue",
        -9.248544798611151
      ],
      [
        "▁change",
        -9.25060728857672
      ],
      [
        "▁page",
        -9.256234007266013
      ],
      [
        "▁order",
        -9.256533637606942
      ],
      [
        "▁mouth",
        -9.259624731371998
      ],
      [
        "▁horse",
        -9.26075761221279
      ],
      [
        "▁business",
        -9.269439395708046
      ],
      [
        "▁minutes",
        -9.270262160851717
      ],
      [
        "▁fact",
        -9.270465452355658
      ],
      [
        "▁funny",
        -9.272627112852064
      ],
      [
        "▁mum",
        -9.273662356407254
      ],
      [
        "▁road",
        -9.27551339464472
      ],
      [
        "▁words",
        -9.277415019405176
      ],
      [
        "or",
        -9.277419899421774
      ],
      [
        "▁cold",
        -9.277862213436798
      ],
      [
        "▁pay",
        -9.278426559950534
      ],
      [
        "▁case",
        -9.284773955807111
      ],
      [
        "▁speak",
        -9.284876559430748
      ],
      [
        "hat",
        -9.285203636360103
      ],
      [
        "▁ago",
        -9.28956502373897
      ],
      [
        "▁fell",
        -9.29465226509305
      ],
      [
        "▁wife",
        -9.294985620196266
      ],
      [
        "▁wonder",
        -9.299393000162963
      ],
      [
        "▁seven",
        -9.300011616793848
      ],
      [
        "▁somebody",
        -9.3020012685597
      ],
      [
        "▁uhhuh",
        -9.303340108478247
      ],
      [
        "▁company",
        -9.305865730281052
      ],
      [
        "▁careful",
        -9.306389257569336
      ],
      [
        "▁either",
        -9.311307686328302
      ],
      [
        "▁given",
        -9.312176224501782
      ],
      [
        "▁form",
        -9.313725931176364
      ],
      [
        "▁sister",
        -9.320758975255098
      ],
      [
        "um",
        -9.324452776843856
      ],
      [
        "ity",
        -9.336334642995045
      ],
      [
        "▁working",
        -9.336486208975014
      ],
      [
        "▁alone",
        -9.33823544007582
      ],
      [
        "▁several",
        -9.339525502075936
      ],
      [
        "▁sent",
        -9.339651962921712
      ],
      [
        "▁eight",
        -9.343332373726444
      ],
      [
        "▁least",
        -9.349064825212118
      ],
      [
        "land",
        -9.34924601860297
      ],
      [
        "▁toys",
        -9.349545071355656
      ],
      [
        "▁phone",
        -9.350849119483703
      ],
      [
        "▁ma",
        -9.352526603473173
      ],
      [
        "▁boat",
        -9.353489837871717
      ],
      [
        "▁important",
        -9.358980392073248
      ],
      [
        "▁chance",
        -9.35913624169898
      ],
      [
        "▁english",
        -9.35926027353659
      ],
      [
        "▁milk",
        -9.35929092934712
      ],
      [
        "▁body",
        -9.362583614245484
      ],
      [
        "cha",
        -9.362996244802495
      ],
      [
        "▁dinner",
        -9.363100650122467
      ],
      [
        "▁march",
        -9.369706769969172
      ],
      [
        "▁buy",
        -9.371319174756117
      ],
      [
        "▁fun",
        -9.37202879642701
      ],
      [
        "▁across",
        -9.37341525106538
      ],
      [
        "▁makes",
        -9.377473156916723
      ],
      [
        "▁sun",
        -9.379626244693686
      ],
      [
        "▁cover",
        -9.380032517919869
      ],
      [
        "▁till",
        -9.388462927500289
      ],
      [
        "pat",
        -9.388822493459443
      ],
      [
        "▁wants",
        -9.39170778250256
      ],
      [
        "▁problem",
        -9.39377096607714
      ],
      [
        "▁quiet",
        -9.396149874781685
      ],
      [
        "▁government",
        -9.399073357912089
      ],
      [
        "▁hit",
        -9.400021743125263
      ],
      [
        "▁cos",
        -9.400214821734192
      ],
      [
        "ber",
        -9.401821312981289
      ],
      [
        "▁release",
        -9.403381655309532
      ],
      [
        "▁letter",
        -9.403663345210068
      ],
      [
        "▁guys",
        -9.404848833331595
      ],
      [
        "▁thanks",
        -9.40541921270778
      ],
      [
        "▁finished",
        -9.407758034482958
      ],
      [
        "▁animals",
        -9.409002012920826
      ],
      [
        "▁reason",
        -9.409088107406452
      ],
      [
        "▁french",
        -9.417043231690895
      ],
      [
        "▁meet",
        -9.419272287459496
      ],
      [
        "▁wow",
        -9.423721452284736
      ],
      [
        "z",
        -9.431466107472776
      ],
      [
        "makes",
        -9.431551267928922
      ],
      [
        "▁write",
        -9.432200797101988
      ],
      [
        "▁kill",
        -9.433444588664932
      ],
      [
        "rself",
        -9.4352782763259
      ],
      [
        "▁everybody",
        -9.437365991999206
      ],
      [
        "▁among",
        -9.437377319512658
      ],
      [
        "▁dark",
        -9.439654297181926
      ],
      [
        "▁ran",
        -9.440451809015997
      ],
      [
        "▁france",
        -9.441772450861132
      ],
      [
        "▁service",
        -9.443598212172482
      ],
      [
        "▁glad",
        -9.44468476870246
      ],
      [
        "▁sitting",
        -9.447531407690269
      ],
      [
        "▁deal",
        -9.448208303210995
      ],
      [
        "▁university",
        -9.450253453976623
      ],
      [
        "▁ground",
        -9.4503265432784
      ],
      [
        "▁power",
        -9.451584198200877
      ],
      [
        "▁history",
        -9.451996238546297
      ],
      [
        "▁main",
        -9.452217516086678
      ],
      [
        "▁building",
        -9.454870419979123
      ],
      [
        "▁break",
        -9.455891321880095
      ],
      [
        "▁dress",
        -9.457491307256722
      ],
      [
        "▁mark",
        -9.45853887770784
      ],
      [
        "one",
        -9.460037422258097
      ],
      [
        "▁series",
        -9.460376330739306
      ],
      [
        "▁sec",
        -9.461205595658871
      ],
      [
        "▁window",
        -9.4638195618249
      ],
      [
        "▁tried",
        -9.46513629150387
      ],
      [
        "▁thinking",
        -9.465535963350868
      ],
      [
        "▁bye",
        -9.475475253232592
      ],
      [
        "▁strong",
        -9.476729297776052
      ],
      [
        "▁bag",
        -9.479108434317856
      ],
      [
        "▁others",
        -9.479201555941623
      ],
      [
        "▁nose",
        -9.479501699292037
      ],
      [
        "▁trouble",
        -9.481531357857722
      ],
      [
        "▁living",
        -9.483651643653472
      ],
      [
        "▁clear",
        -9.4837023803775
      ],
      [
        "▁anyway",
        -9.485633919435484
      ],
      [
        "▁system",
        -9.486573850744552
      ],
      [
        "▁york",
        -9.486938542444854
      ],
      [
        "▁past",
        -9.487079840615309
      ],
      [
        "▁football",
        -9.488663916359524
      ],
      [
        "▁president",
        -9.493374601228457
      ],
      [
        "▁fair",
        -9.496007252971047
      ],
      [
        "▁brown",
        -9.496758449846007
      ],
      [
        "child",
        -9.499125910611122
      ],
      [
        "▁killed",
        -9.501022147046529
      ],
      [
        "▁street",
        -9.501358383949064
      ],
      [
        "▁running",
        -9.502839073908833
      ],
      [
        "▁become",
        -9.505120614541168
      ],
      [
        "▁park",
        -9.506713075433964
      ],
      [
        "▁june",
        -9.507518599588966
      ],
      [
        "▁truck",
        -9.508581460511971
      ],
      [
        "▁usually",
        -9.509755434447351
      ],
      [
        "▁direct",
        -9.516985793156918
      ],
      [
        "▁daughter",
        -9.517067058740407
      ],
      [
        "▁nine",
        -9.521465399073586
      ],
      [
        "▁kept",
        -9.522767419841388
      ],
      [
        "▁push",
        -9.52669285462776
      ],
      [
        "▁seat",
        -9.527332532640944
      ],
      [
        "▁tomorrow",
        -9.527543857667007
      ],
      [
        "▁birthday",
        -9.532735424857629
      ],
      [
        "▁uncle",
        -9.535041930245178
      ],
      [
        "▁bird",
        -9.540364903261464
      ],
      [
        "▁slow",
        -9.54070455769648
      ],
      [
        "▁free",
        -9.542230712028816
      ],
      [
        "how",
        -9.543224429072223
      ],
      [
        "▁police",
        -9.544328914812986
      ],
      [
        "▁darling",
        -9.545113693213256
      ],
      [
        "▁ooh",
        -9.546056142270473
      ],
      [
        "▁la",
        -9.549602824830416
      ],
      [
        "gra",
        -9.55277465021508
      ],
      [
        "▁office",
        -9.55286190740224
      ],
      [
        "▁held",
        -9.553641832442674
      ],
      [
        "▁summer",
        -9.55491912073205
      ],
      [
        "▁whether",
        -9.555545243969934
      ],
      [
        "▁club",
        -9.556230575386142
      ],
      [
        "▁special",
        -9.556978162369528
      ],
      [
        "▁station",
        -9.557331911179505
      ],
      [
        "▁books",
        -9.55735131086252
      ],
      [
        "▁afraid",
        -9.557509097902836
      ],
      [
        "▁suppose",
        -9.56624119320331
      ],
      [
        "▁foot",
        -9.567904686034357
      ],
      [
        "▁human",
        -9.568546665449771
      ],
      [
        "▁happen",
        -9.568825420496385
      ],
      [
        "‘",
        -9.571259382064571
      ],
      [
        "less",
        -9.57694108764654
      ],
      [
        "▁whatever",
        -9.578349688082737
      ],
      [
        "▁fast",
        -9.580105373344
      ],
      [
        "▁fight",
        -9.58091284456118
      ],
      [
        "▁shut",
        -9.581692732830648
      ],
      [
        "▁bus",
        -9.58552571367224
      ],
      [
        "▁kids",
        -9.585862677822863
      ],
      [
        "▁check",
        -9.589480235830884
      ],
      [
        "▁rock",
        -9.59026422701617
      ],
      [
        "lived",
        -9.590812787228222
      ],
      [
        "▁area",
        -9.592059658534517
      ],
      [
        "▁land",
        -9.592326147233084
      ],
      [
        "▁return",
        -9.593627729836482
      ],
      [
        "▁januar",
        -9.593906974370118
      ],
      [
        "▁member",
        -9.594441281144432
      ],
      [
        "▁cross",
        -9.594930240542343
      ],
      [
        "▁seems",
        -9.594942544374518
      ],
      [
        "▁easy",
        -9.597763867838117
      ],
      [
        "▁lovely",
        -9.600812307995472
      ],
      [
        "▁west",
        -9.600843188825491
      ],
      [
        "▁department",
        -9.601621252022358
      ],
      [
        "▁tired",
        -9.602296908995315
      ],
      [
        "▁single",
        -9.604394917179512
      ],
      [
        "▁visit",
        -9.605785779723686
      ],
      [
        "▁dis",
        -9.606514681396911
      ],
      [
        "▁draw",
        -9.60742316672787
      ],
      [
        "▁language",
        -9.610837309943255
      ],
      [
        "▁ice",
        -9.613641100681278
      ],
      [
        "▁ben",
        -9.616351307979553
      ],
      [
        "▁replie",
        -9.618070177891498
      ],
      [
        "▁catch",
        -9.618200467821858
      ],
      [
        "▁orange",
        -9.622247346673037
      ],
      [
        "▁sat",
        -9.624224932489138
      ],
      [
        "▁fraser",
        -9.625290160186736
      ],
      [
        "▁lots",
        -9.62626737116986
      ],
      [
        "there",
        -9.626610249731671
      ],
      [
        "▁season",
        -9.627642621271937
      ],
      [
        "▁themselves",
        -9.630196799818114
      ],
      [
        "▁career",
        -9.630387959525464
      ],
      [
        "▁clothes",
        -9.63065575652684
      ],
      [
        "▁british",
        -9.632889748903844
      ],
      [
        "▁stood",
        -9.632899704385672
      ],
      [
        "▁crie",
        -9.632936755022133
      ],
      [
        "▁married",
        -9.63530677946941
      ],
      [
        "▁sounds",
        -9.63684208470974
      ],
      [
        "▁within",
        -9.637924054044868
      ],
      [
        "▁fit",
        -9.638351680746986
      ],
      [
        "childe",
        -9.64139338235946
      ],
      [
        "▁indian",
        -9.64210305527948
      ],
      [
        "friend",
        -9.64219336492415
      ],
      [
        "▁television",
        -9.645338386701512
      ],
      [
        "▁ring",
        -9.64554641855236
      ],
      [
        "▁earth",
        -9.646598894267768
      ],
      [
        "▁ok",
        -9.647863077374003
      ],
      [
        "▁figure",
        -9.647920917644017
      ],
      [
        "▁count",
        -9.650848412472644
      ],
      [
        "▁eye",
        -9.652021808539654
      ],
      [
        "singing",
        -9.6527770655141
      ],
      [
        "▁joe",
        -9.653055526043673
      ],
      [
        "why",
        -9.653975945799944
      ],
      [
        "by",
        -9.654586099171745
      ],
      [
        "▁bob",
        -9.656545194903336
      ],
      [
        "▁middle",
        -9.657585184414923
      ],
      [
        "up",
        -9.660616338131163
      ],
      [
        "▁difficult",
        -9.66112132185046
      ],
      [
        "▁soft",
        -9.662034214625056
      ],
      [
        "▁peter",
        -9.662414002950223
      ],
      [
        "▁couple",
        -9.6632114205065
      ],
      [
        "▁forget",
        -9.665133682746127
      ],
      [
        "▁tom",
        -9.665423403142327
      ],
      [
        "▁cool",
        -9.666095208865231
      ],
      [
        "▁touch",
        -9.667096269100096
      ],
      [
        "don",
        -9.668578559351536
      ],
      [
        "▁excuse",
        -9.66910023173375
      ],
      [
        "▁possible",
        -9.66948014085258
      ],
      [
        "▁named",
        -9.670104104012886
      ],
      [
        "▁evening",
        -9.670585587724878
      ],
      [
        "▁die",
        -9.673277051933852
      ],
      [
        "▁shoes",
        -9.673807683737753
      ],
      [
        "▁wear",
        -9.675102909688382
      ],
      [
        "▁send",
        -9.67826046648831
      ],
      [
        "▁quickly",
        -9.678457542929342
      ],
      [
        "▁enter",
        -9.680423868995268
      ],
      [
        "▁forward",
        -9.682874611087344
      ],
      [
        "▁million",
        -9.683335193542806
      ],
      [
        "▁silly",
        -9.686970958940364
      ],
      [
        "▁eating",
        -9.688432806578827
      ],
      [
        "▁cannot",
        -9.688471072866031
      ],
      [
        "▁instead",
        -9.68849359793187
      ],
      [
        "▁frog",
        -9.689136851628982
      ],
      [
        "▁garden",
        -9.689864467374058
      ],
      [
        "▁lives",
        -9.692165824483787
      ],
      [
        "▁putting",
        -9.692776018470152
      ],
      [
        "▁certain",
        -9.69323209013974
      ],
      [
        "▁album",
        -9.693906694499692
      ],
      [
        "mother",
        -9.694722548972562
      ],
      [
        "▁although",
        -9.696025981844736
      ],
      [
        "▁christmas",
        -9.696338064069712
      ],
      [
        "▁ship",
        -9.69685208038869
      ],
      [
        "▁stick",
        -9.697298750613175
      ],
      [
        "▁exactly",
        -9.699403911500154
      ],
      [
        "▁broken",
        -9.700451195027252
      ],
      [
        "▁star",
        -9.70127708488816
      ],
      [
        "▁april",
        -9.701880529057936
      ],
      [
        "▁camp",
        -9.702965862079706
      ],
      [
        "▁drive",
        -9.703327366292992
      ],
      [
        "▁less",
        -9.70396350907645
      ],
      [
        "#",
        -9.704195947110492
      ],
      [
        "www",
        -9.70559432035552
      ],
      [
        "▁october",
        -9.70578643766877
      ],
      [
        "▁safe",
        -9.706139090535316
      ],
      [
        "▁arm",
        -9.706372399406218
      ],
      [
        "▁third",
        -9.70639679566612
      ],
      [
        "▁lay",
        -9.706870212862684
      ],
      [
        "▁wind",
        -9.706902009973978
      ],
      [
        "▁waiting",
        -9.706928529601322
      ],
      [
        "▁tonight",
        -9.709569756373494
      ],
      [
        "▁frank",
        -9.710865121680431
      ],
      [
        "▁amy",
        -9.712028380084536
      ],
      [
        "▁nin",
        -9.712401742217796
      ],
      [
        "she",
        -9.712431482612022
      ],
      [
        "▁worked",
        -9.713621193024368
      ],
      [
        "▁al",
        -9.714069973844529
      ],
      [
        "▁quick",
        -9.715175509768592
      ],
      [
        "▁master",
        -9.7163226395747
      ],
      [
        "▁award",
        -9.716471666851746
      ],
      [
        "▁plan",
        -9.71763462783691
      ],
      [
        "▁feeling",
        -9.718572780852751
      ],
      [
        "▁septem",
        -9.719737673521744
      ],
      [
        "▁david",
        -9.720620024059324
      ],
      [
        "gasp",
        -9.720657374865503
      ],
      [
        "nearly",
        -9.721508704046848
      ],
      [
        "▁church",
        -9.723845730573752
      ],
      [
        "▁indeed",
        -9.72632177955515
      ],
      [
        "▁smile",
        -9.72653219029558
      ],
      [
        "▁moved",
        -9.727306631594397
      ],
      [
        "▁island",
        -9.7275241362392
      ],
      [
        "▁towards",
        -9.727934206004466
      ],
      [
        "▁everyone",
        -9.728656807154884
      ],
      [
        "ate",
        -9.72870517536636
      ],
      [
        "▁list",
        -9.730646032717113
      ],
      [
        "▁august",
        -9.73070337908278
      ],
      [
        "▁record",
        -9.730863856163548
      ],
      [
        "▁above",
        -9.732028720237633
      ],
      [
        "▁player",
        -9.732929907422047
      ],
      [
        "▁low",
        -9.733393413334298
      ],
      [
        "for",
        -9.733885925722928
      ],
      [
        "▁board",
        -9.73474901472862
      ],
      [
        "▁noises",
        -9.735624190652509
      ],
      [
        "▁clean",
        -9.739382803569734
      ],
      [
        "hungry",
        -9.740021794221558
      ],
      [
        "▁shot",
        -9.7403189923213
      ],
      [
        "▁juice",
        -9.741193573312522
      ],
      [
        "▁longer",
        -9.741420313905731
      ],
      [
        "▁whose",
        -9.741731462366356
      ],
      [
        "&",
        -9.7426235092063
      ],
      [
        "▁duck",
        -9.743313270905071
      ],
      [
        "▁beside",
        -9.74375187378631
      ],
      [
        "▁strange",
        -9.744648472653582
      ],
      [
        "▁wheel",
        -9.745461625254372
      ],
      [
        "▁husband",
        -9.746010258189743
      ],
      [
        "▁caught",
        -9.746347886136476
      ],
      [
        "▁pardon",
        -9.746403920923091
      ],
      [
        "▁crayon",
        -9.749376349077856
      ],
      [
        "▁gets",
        -9.75103520023428
      ],
      [
        "months",
        -9.751802875959076
      ],
      [
        "▁finish",
        -9.751827416543374
      ],
      [
        "▁wall",
        -9.752064198160827
      ],
      [
        "▁lord",
        -9.752776914161313
      ],
      [
        "▁toward",
        -9.752986393907324
      ],
      [
        "▁straight",
        -9.75314169228914
      ],
      [
        "▁position",
        -9.755074344761365
      ],
      [
        "▁common",
        -9.755858737621542
      ],
      [
        "▁november",
        -9.75608248827616
      ],
      [
        "▁england",
        -9.757108450702487
      ],
      [
        "▁tea",
        -9.75855807493816
      ],
      [
        "▁attack",
        -9.759085048565996
      ],
      [
        "▁example",
        -9.759372655081018
      ],
      [
        "▁discover",
        -9.760577154009608
      ],
      [
        "▁sign",
        -9.76125928867101
      ],
      [
        "▁east",
        -9.762255915753348
      ],
      [
        "▁region",
        -9.76349949578625
      ],
      [
        "not",
        -9.764236687748737
      ],
      [
        "they",
        -9.765154249025162
      ],
      [
        "▁arms",
        -9.765200232787556
      ],
      [
        "▁chief",
        -9.770434723935905
      ],
      [
        "▁shout",
        -9.770470714007102
      ],
      [
        "▁term",
        -9.770919031192586
      ],
      [
        "▁class",
        -9.773591421938807
      ],
      [
        "day",
        -9.773786797348292
      ],
      [
        "▁takes",
        -9.77398437424986
      ],
      [
        "▁follow",
        -9.775041478316382
      ],
      [
        "▁village",
        -9.77554682239128
      ],
      [
        "▁sing",
        -9.776064514311608
      ],
      [
        "▁hospital",
        -9.777262740660127
      ],
      [
        "▁ride",
        -9.77841267776578
      ],
      [
        "▁decemb",
        -9.780135389439096
      ],
      [
        "▁helen",
        -9.78061354598659
      ],
      [
        "▁febr",
        -9.782053679414258
      ],
      [
        "▁miles",
        -9.782503588818512
      ],
      [
        "▁explain",
        -9.783448321347882
      ],
      [
        "▁rose",
        -9.785795649994844
      ],
      [
        "▁public",
        -9.786738011912869
      ],
      [
        "▁yesterday",
        -9.787159382845385
      ],
      [
        "▁notice",
        -9.787618567156825
      ],
      [
        "returned",
        -9.787945818107676
      ],
      [
        "▁remain",
        -9.789001801326274
      ],
      [
        "▁news",
        -9.792141175280046
      ],
      [
        "▁blood",
        -9.79219316344978
      ],
      [
        "▁mary",
        -9.792564128089191
      ],
      [
        "▁report",
        -9.793506751349616
      ],
      [
        "▁yep",
        -9.7956191745852
      ],
      [
        "$",
        -9.796664820957536
      ],
      [
        "▁ahead",
        -9.799158387503711
      ],
      [
        "▁support",
        -9.79946817140929
      ],
      [
        "▁act",
        -9.800955578431294
      ],
      [
        "▁save",
        -9.802336487197932
      ],
      [
        "▁suddenly",
        -9.802833579630754
      ],
      [
        "▁kitchen",
        -9.803762496135162
      ],
      [
        "▁standing",
        -9.804312809140932
      ],
      [
        "▁band",
        -9.804702423305002
      ],
      [
        "▁tape",
        -9.805383451439566
      ],
      [
        "▁chapter",
        -9.80576739089434
      ],
      [
        "▁broke",
        -9.806343389441189
      ],
      [
        "▁german",
        -9.807874716884758
      ],
      [
        "▁nobody",
        -9.810003324760858
      ],
      [
        "▁fear",
        -9.81003798129631
      ],
      [
        "▁sweet",
        -9.81081395657285
      ],
      [
        "▁anyone",
        -9.810980124491172
      ],
      [
        "▁reach",
        -9.8127148641303
      ],
      [
        "▁engine",
        -9.816192962237604
      ],
      [
        "▁thousand",
        -9.81640304164693
      ],
      [
        "written",
        -9.816755181799117
      ],
      [
        "▁certainly",
        -9.818339385920432
      ],
      [
        "noise",
        -9.818704505815386
      ],
      [
        "▁july",
        -9.82044076595616
      ],
      [
        "be",
        -9.820675891948662
      ],
      [
        "tur",
        -9.821352306666377
      ],
      [
        "stopped",
        -9.821447430170693
      ],
      [
        "▁following",
        -9.821454921533396
      ],
      [
        "▁paul",
        -9.822083468529796
      ],
      [
        "▁points",
        -9.822192493415756
      ],
      [
        "▁afternoon",
        -9.822842704871556
      ],
      [
        "of",
        -9.82418861086111
      ],
      [
        "▁former",
        -9.824998010646324
      ],
      [
        "▁carry",
        -9.827432150863798
      ],
      [
        "sings",
        -9.82960606840073
      ],
      [
        "▁seem",
        -9.833030353963132
      ],
      [
        "▁telling",
        -9.835598851805177
      ],
      [
        "▁changed",
        -9.836359434441146
      ],
      [
        "reached",
        -9.836702169956691
      ],
      [
        "▁cake",
        -9.837409436761195
      ],
      [
        "▁games",
        -9.838396624692482
      ],
      [
        "▁decided",
        -9.839429364169916
      ],
      [
        "▁co",
        -9.84050943341828
      ],
      [
        "▁learn",
        -9.84108595613618
      ],
      [
        "▁district",
        -9.841795493927632
      ],
      [
        "▁george",
        -9.844292688720245
      ],
      [
        "ar",
        -9.844919956394776
      ],
      [
        "▁gun",
        -9.845064731214942
      ],
      [
        "▁pretend",
        -9.845316903513028
      ],
      [
        "▁hall",
        -9.846482069669609
      ],
      [
        "now",
        -9.84662219693904
      ],
      [
        "▁worry",
        -9.846773772055052
      ],
      [
        "points",
        -9.84686316680877
      ],
      [
        "▁breakfast",
        -9.847997710026377
      ],
      [
        "▁london",
        -9.848126226548835
      ],
      [
        "▁major",
        -9.848557813205597
      ],
      [
        "▁mama",
        -9.849679528355122
      ],
      [
        "▁honey",
        -9.85033817090954
      ],
      [
        "▁race",
        -9.850977701084885
      ],
      [
        "▁win",
        -9.85122595506398
      ],
      [
        "▁using",
        -9.852460786773062
      ],
      [
        "giving",
        -9.853370993791158
      ],
      [
        "▁cow",
        -9.853400928899632
      ],
      [
        "▁fellow",
        -9.854521759983143
      ],
      [
        "▁trees",
        -9.855737763891268
      ],
      [
        "uar",
        -9.856265954571674
      ],
      [
        "▁followed",
        -9.856291414960763
      ],
      [
        "▁space",
        -9.8578365504859
      ],
      [
        "▁sight",
        -9.858371575796337
      ],
      [
        "time",
        -9.858701837848562
      ],
      [
        "▁college",
        -9.85889619611764
      ],
      [
        "▁dat",
        -9.859413232124542
      ],
      [
        "▁toy",
        -9.861391573202102
      ],
      [
        "▁plant",
        -9.861519408250672
      ],
      [
        "▁sick",
        -9.862151711106206
      ],
      [
        "▁exclaim",
        -9.86360161197739
      ],
      [
        "laugh",
        -9.863837785460424
      ],
      [
        "▁mess",
        -9.864010785191097
      ],
      [
        "▁warm",
        -9.869911801774585
      ],
      [
        "▁bottom",
        -9.87026816312867
      ],
      [
        "▁deep",
        -9.87362724108745
      ],
      [
        "▁consider",
        -9.87452387148416
      ],
      [
        "▁dance",
        -9.875629183150622
      ],
      [
        "▁supposed",
        -9.875868179915187
      ],
      [
        "▁interest",
        -9.877111301275738
      ],
      [
        "▁force",
        -9.878162035785165
      ],
      [
        "▁ones",
        -9.878176435920654
      ],
      [
        "▁stuck",
        -9.886157250632351
      ],
      [
        "clock",
        -9.886392648003357
      ],
      [
        "▁phil",
        -9.888338192928291
      ],
      [
        "▁blow",
        -9.889562098771355
      ],
      [
        "▁health",
        -9.89107623150277
      ],
      [
        "▁built",
        -9.89241767726206
      ],
      [
        "▁fuck",
        -9.895004011802634
      ],
      [
        "▁snow",
        -9.895246235589957
      ],
      [
        "illustration",
        -9.895950599652796
      ],
      [
        "▁include",
        -9.897554674880531
      ],
      [
        "▁object",
        -9.89813677593735
      ],
      [
        "▁somewhere",
        -9.898229103361633
      ],
      [
        "▁apple",
        -9.9001566774228
      ],
      [
        "▁hasn",
        -9.901082668629012
      ],
      [
        "▁happens",
        -9.9022515675139
      ],
      [
        "▁bright",
        -9.90231438505172
      ],
      [
        "▁anybody",
        -9.903025540523911
      ],
      [
        "▁league",
        -9.903176066298196
      ],
      [
        "▁aunt",
        -9.903927516018708
      ],
      [
        "▁heavy",
        -9.905790258716188
      ],
      [
        "▁ye",
        -9.907122815759932
      ],
      [
        "▁meeting",
        -9.909312301200504
      ],
      [
        "▁pieces",
        -9.909468778070933
      ],
      [
        "▁wild",
        -9.91141348817264
      ],
      [
        "loi",
        -9.914999058201008
      ],
      [
        "▁hole",
        -9.915120039786652
      ],
      [
        "▁holding",
        -9.916556324236122
      ],
      [
        "▁thirty",
        -9.916670839566295
      ],
      [
        "▁film",
        -9.920715619338822
      ],
      [
        "▁shop",
        -9.922960846207465
      ],
      [
        "▁bought",
        -9.923270199700266
      ],
      [
        "▁weeks",
        -9.923733899844624
      ],
      [
        "▁watching",
        -9.925490800785026
      ],
      [
        "▁international",
        -9.92550956721464
      ],
      [
        "▁army",
        -9.926037610382055
      ],
      [
        "▁sense",
        -9.926171683565924
      ],
      [
        "▁pictures",
        -9.926606046608814
      ],
      [
        "▁wood",
        -9.92691812993473
      ],
      [
        "▁post",
        -9.928997123225043
      ],
      [
        "▁hell",
        -9.93011671048122
      ],
      [
        "▁bath",
        -9.93036050928326
      ],
      [
        "▁truth",
        -9.930548510854516
      ],
      [
        "go",
        -9.931432898692584
      ],
      [
        "▁gold",
        -9.931772760825602
      ],
      [
        "▁coffee",
        -9.933260671998662
      ],
      [
        "▁bottle",
        -9.933532001833964
      ],
      [
        "→",
        -9.934071558775011
      ],
      [
        "▁turns",
        -9.93426244555906
      ],
      [
        "rya",
        -9.936790707959563
      ],
      [
        "out",
        -9.936844338745235
      ],
      [
        "▁field",
        -9.936886287722812
      ],
      [
        "▁month",
        -9.93878860027808
      ],
      [
        "▁cry",
        -9.940709490472816
      ],
      [
        "▁leaving",
        -9.943644615482077
      ],
      [
        "▁bridge",
        -9.94432329174152
      ],
      [
        "▁chicken",
        -9.945182196500856
      ],
      [
        "▁share",
        -9.945873668071462
      ],
      [
        "▁enjoy",
        -9.94749336344549
      ],
      [
        "▁betty",
        -9.949911317070589
      ],
      [
        "▁busy",
        -9.950446915196224
      ],
      [
        "▁cook",
        -9.955457555097608
      ],
      [
        "▁bill",
        -9.957149073050225
      ],
      [
        "▁jump",
        -9.959374518385546
      ],
      [
        "▁needs",
        -9.95965185467575
      ],
      [
        "▁raise",
        -9.95994233471321
      ],
      [
        "▁pause",
        -9.962614187414037
      ],
      [
        "▁current",
        -9.96299318685165
      ],
      [
        "▁control",
        -9.96369750556418
      ],
      [
        "▁secret",
        -9.963972635013528
      ],
      [
        "▁expect",
        -9.965301508770724
      ],
      [
        "▁bread",
        -9.967136939561115
      ],
      [
        "mo",
        -9.967777474281544
      ],
      [
        "▁anymore",
        -9.968539908719958
      ],
      [
        "▁law",
        -9.969785184783062
      ],
      [
        "▁trust",
        -9.97027999769857
      ],
      [
        "▁role",
        -9.970430706204509
      ],
      [
        "▁spoke",
        -9.972664801959626
      ],
      [
        "▁dollar",
        -9.973458690634027
      ],
      [
        "this",
        -9.976408057027797
      ],
      [
        "all",
        -9.976549582729714
      ],
      [
        "▁finally",
        -9.97684416102662
      ],
      [
        "▁circle",
        -9.977532939188269
      ],
      [
        "▁stone",
        -9.977533482170829
      ],
      [
        "▁result",
        -9.978323137732191
      ],
      [
        "▁whom",
        -9.978733678479442
      ],
      [
        "▁lunch",
        -9.97947003715847
      ],
      [
        "my",
        -9.98005969400126
      ],
      [
        "▁further",
        -9.982625794556183
      ],
      [
        "▁machine",
        -9.983968253741436
      ],
      [
        "▁welcome",
        -9.984410324724752
      ],
      [
        "▁wrote",
        -9.985921333412351
      ],
      [
        "▁hang",
        -9.98744038099791
      ],
      [
        "▁legs",
        -9.988172720745233
      ],
      [
        "▁doubt",
        -9.98842037753391
      ],
      [
        "fad",
        -9.98847934029002
      ],
      [
        "▁step",
        -9.989266405051833
      ],
      [
        "received",
        -9.99112840398798
      ],
      [
        "▁led",
        -9.992698832892309
      ],
      [
        "▁level",
        -9.992929028810062
      ],
      [
        "▁build",
        -9.993028414838516
      ],
      [
        "▁ought",
        -9.994361072061132
      ],
      [
        "▁store",
        -9.99542209527227
      ],
      [
        "▁officer",
        -9.995462916526268
      ],
      [
        "▁includin",
        -9.997019871866804
      ],
      [
        "▁flowers",
        -9.997228191621632
      ],
      [
        "▁beginning",
        -9.99781656510342
      ],
      [
        "▁population",
        -9.999621678656624
      ],
      [
        "▁teeth",
        -9.99981414803439
      ],
      [
        "then",
        -10.00002257830432
      ],
      [
        "▁puzzle",
        -10.000936933351596
      ],
      [
        "▁parents",
        -10.003218317792491
      ],
      [
        "▁kid",
        -10.005466674099818
      ],
      [
        "▁enem",
        -10.005898150664596
      ],
      [
        "▁minister",
        -10.005960552467329
      ],
      [
        "▁members",
        -10.0076569496732
      ],
      [
        "▁teacher",
        -10.0080145168537
      ],
      [
        "▁lose",
        -10.009248125557257
      ],
      [
        "▁america",
        -10.009795482466457
      ],
      [
        "▁grow",
        -10.00993220844611
      ],
      [
        "▁animal",
        -10.009973091552922
      ],
      [
        "▁cheese",
        -10.012141245032328
      ],
      [
        "▁natural",
        -10.012986517412898
      ],
      [
        "▁distance",
        -10.013229965613432
      ],
      [
        "▁winter",
        -10.013369361810044
      ],
      [
        "uk",
        -10.013370171473149
      ],
      [
        "▁pink",
        -10.014650313042374
      ],
      [
        "▁wide",
        -10.01473644382172
      ],
      [
        "▁dry",
        -10.01633000015349
      ],
      [
        "▁rabbit",
        -10.016886672857304
      ],
      [
        "▁grand",
        -10.0169756837206
      ],
      [
        "▁except",
        -10.018299556270165
      ],
      [
        "▁bank",
        -10.018630139838397
      ],
      [
        "▁view",
        -10.01886352906854
      ],
      [
        "▁none",
        -10.020800756746294
      ],
      [
        "▁shit",
        -10.02393051774078
      ],
      [
        "▁childe",
        -10.024009974514328
      ],
      [
        "▁original",
        -10.02463895130407
      ],
      [
        "▁walking",
        -10.026592953932262
      ],
      [
        "▁lie",
        -10.027115896273887
      ],
      [
        "looks",
        -10.027409619672277
      ],
      [
        "▁attention",
        -10.029759185821304
      ],
      [
        "ation",
        -10.030921882022394
      ],
      [
        "▁works",
        -10.03149391521738
      ],
      [
        "▁james",
        -10.032245586289129
      ],
      [
        "▁loud",
        -10.032699974009926
      ],
      [
        "▁wonderful",
        -10.034135249566605
      ],
      [
        "▁information",
        -10.034428692527657
      ],
      [
        "▁hurry",
        -10.034638604656918
      ],
      [
        "▁direction",
        -10.03588684767167
      ],
      [
        "▁jwww",
        -10.037788426226466
      ],
      [
        "▁appeared",
        -10.038078946015668
      ],
      [
        "▁event",
        -10.038480738341889
      ],
      [
        "▁moving",
        -10.039721821514224
      ],
      [
        "▁lake",
        -10.04252621016208
      ],
      [
        "carried",
        -10.043186258925331
      ],
      [
        "▁jim",
        -10.0453113417811
      ],
      [
        "▁corner",
        -10.0462881415602
      ],
      [
        "▁fifty",
        -10.048041114893431
      ],
      [
        "▁crying",
        -10.050029613854964
      ],
      [
        "▁track",
        -10.051059729901192
      ],
      [
        "▁silver",
        -10.052071768695184
      ],
      [
        "▁join",
        -10.053661204253252
      ],
      [
        "▁moon",
        -10.054048349483129
      ],
      [
        "▁commune",
        -10.054194751002624
      ],
      [
        "▁hill",
        -10.055890636003337
      ],
      [
        "▁local",
        -10.057111971669116
      ],
      [
        "created",
        -10.057305873296906
      ],
      [
        "▁allowed",
        -10.058658600041529
      ],
      [
        "▁pig",
        -10.059387498877197
      ],
      [
        "▁sky",
        -10.06085003149498
      ],
      [
        "▁robert",
        -10.061142042620618
      ],
      [
        "▁le",
        -10.061312370698968
      ],
      [
        "like",
        -10.063712790861643
      ],
      [
        "▁japan",
        -10.065160312569486
      ],
      [
        "▁bang",
        -10.065533998343742
      ],
      [
        "▁beat",
        -10.065934572211734
      ],
      [
        "ary",
        -10.068526192355126
      ],
      [
        "▁shape",
        -10.068842190126537
      ],
      [
        "▁nor",
        -10.070441803510413
      ],
      [
        "▁mad",
        -10.070529194121802
      ],
      [
        "▁kiss",
        -10.0714652241223
      ],
      [
        "▁meant",
        -10.072048865584998
      ],
      [
        "▁th",
        -10.07250291492795
      ],
      [
        "▁paint",
        -10.07575723759956
      ],
      [
        "▁finger",
        -10.078837777554329
      ],
      [
        "▁sam",
        -10.079805855480975
      ],
      [
        "▁fly",
        -10.080057752721055
      ],
      [
        "▁suggest",
        -10.081026515534546
      ],
      [
        "▁drop",
        -10.081311774661533
      ],
      [
        "▁experience",
        -10.081847811178356
      ],
      [
        "▁droppe",
        -10.082203120063856
      ],
      [
        "▁kitty",
        -10.082574324407055
      ],
      [
        "▁charge",
        -10.08328778177296
      ],
      [
        "▁interesting",
        -10.083402444141658
      ],
      [
        "▁walked",
        -10.083958427627698
      ],
      [
        "laughing",
        -10.084645238503777
      ],
      [
        "▁writing",
        -10.084768916938772
      ],
      [
        "▁shouldn",
        -10.086048727212852
      ],
      [
        "▁century",
        -10.087836393365468
      ],
      [
        "▁test",
        -10.08820793306854
      ],
      [
        "▁produce",
        -10.088327878018374
      ],
      [
        "▁pop",
        -10.089640935190346
      ],
      [
        "▁spot",
        -10.092921780985106
      ],
      [
        "▁laugh",
        -10.094467951410678
      ],
      [
        "▁court",
        -10.094931403264962
      ],
      [
        "▁due",
        -10.095088043451373
      ],
      [
        "paid",
        -10.095480795425624
      ],
      [
        "▁entire",
        -10.09580134206306
      ],
      [
        "▁popular",
        -10.096351524984684
      ],
      [
        "▁council",
        -10.09654764446902
      ],
      [
        "▁sad",
        -10.097610056528165
      ],
      [
        "▁elephant",
        -10.09813680057988
      ],
      [
        "▁seeing",
        -10.098457398200347
      ],
      [
        "▁farm",
        -10.099585081871094
      ],
      [
        "▁type",
        -10.101046828314468
      ],
      [
        "▁accept",
        -10.101195785544192
      ],
      [
        "▁surprise",
        -10.10296221973863
      ],
      [
        "▁egg",
        -10.104096766375164
      ],
      [
        "▁camera",
        -10.104467364190898
      ],
      [
        "▁teddy",
        -10.10596133472922
      ],
      [
        "▁stars",
        -10.10605293258215
      ],
      [
        "▁cars",
        -10.106479660450775
      ],
      [
        "▁lead",
        -10.107113711209765
      ],
      [
        "▁favorite",
        -10.107535547056528
      ],
      [
        "▁gentle",
        -10.108821040791138
      ],
      [
        "▁queen",
        -10.109758406088558
      ],
      [
        "▁fucking",
        -10.110308885577677
      ],
      [
        "▁knock",
        -10.110685820944996
      ],
      [
        "▁hate",
        -10.110714173894342
      ],
      [
        "▁proper",
        -10.111370506367964
      ],
      [
        "▁conversation",
        -10.112615289898956
      ],
      [
        "▁cream",
        -10.113807413607972
      ],
      [
        "▁shoulder",
        -10.113827987118574
      ],
      [
        "▁spoon",
        -10.114681523962298
      ],
      [
        "counter",
        -10.11571782171089
      ],
      [
        "vocalize",
        -10.116825810482217
      ],
      [
        "▁reading",
        -10.119123437957596
      ],
      [
        "▁art",
        -10.11952718295035
      ],
      [
        "▁plate",
        -10.119774914229511
      ],
      [
        "▁rising",
        -10.121139858888666
      ],
      [
        "▁grandma",
        -10.121384926182929
      ],
      [
        "▁rain",
        -10.12262134441968
      ],
      [
        "▁fix",
        -10.122870768425845
      ],
      [
        "▁especially",
        -10.124431923357104
      ],
      [
        "▁dream",
        -10.125435509797134
      ],
      [
        "▁account",
        -10.130344848229536
      ],
      [
        "▁grass",
        -10.131965827352143
      ],
      [
        "▁crazy",
        -10.13410758513309
      ],
      [
        "wise",
        -10.135420077159624
      ],
      [
        "▁based",
        -10.136230934956426
      ],
      [
        "room",
        -10.137195886719924
      ],
      [
        "▁mention",
        -10.137403550186168
      ],
      [
        "▁michael",
        -10.13886689339128
      ],
      [
        "▁pocket",
        -10.139017790206584
      ],
      [
        "▁button",
        -10.139024537893723
      ],
      [
        "▁match",
        -10.140868840686526
      ],
      [
        "let",
        -10.142044510966809
      ],
      [
        "▁politician",
        -10.143611997241614
      ],
      [
        "▁forest",
        -10.14503171622425
      ],
      [
        "▁grew",
        -10.146337617057712
      ],
      [
        "box",
        -10.146537185512283
      ],
      [
        "▁promise",
        -10.148991121699822
      ],
      [
        "▁according",
        -10.149433212001856
      ],
      [
        "▁interested",
        -10.149799445174947
      ],
      [
        "me",
        -10.151228086554683
      ],
      [
        "▁clever",
        -10.152064842788688
      ],
      [
        "▁computer",
        -10.153513807464686
      ],
      [
        "▁smell",
        -10.153812143159186
      ],
      [
        "▁tail",
        -10.15432522892681
      ],
      [
        "▁sharp",
        -10.154841957164097
      ],
      [
        "▁worth",
        -10.155208819755506
      ],
      [
        "▁van",
        -10.155813762777932
      ],
      [
        "▁spring",
        -10.15613857131689
      ],
      [
        "▁uhoh",
        -10.15621511806956
      ],
      [
        "▁scared",
        -10.156590030785772
      ],
      [
        "▁serious",
        -10.156610466733891
      ],
      [
        "▁terrible",
        -10.158589166174718
      ],
      [
        "▁video",
        -10.159132883877318
      ],
      [
        "▁roll",
        -10.16410650050678
      ],
      [
        "▁itself",
        -10.16550371886595
      ],
      [
        "▁rule",
        -10.165984429960512
      ],
      [
        "▁square",
        -10.166011107850256
      ],
      [
        "urs",
        -10.166173612778133
      ],
      [
        "▁future",
        -10.167655999146692
      ],
      [
        "▁spirit",
        -10.1676874685298
      ],
      [
        "▁lad",
        -10.168176054776165
      ],
      [
        "▁province",
        -10.169626203710775
      ],
      [
        "▁situation",
        -10.170204444445156
      ],
      [
        "▁prove",
        -10.170314742914517
      ],
      [
        "▁monkey",
        -10.171502381907583
      ],
      [
        "▁twelve",
        -10.17379418734195
      ],
      [
        "▁chocolate",
        -10.176223962100028
      ],
      [
        "▁hide",
        -10.179579198274087
      ],
      [
        "▁forgot",
        -10.180021136039027
      ],
      [
        "▁lower",
        -10.181099898583827
      ],
      [
        "▁laughed",
        -10.18122096576718
      ],
      [
        "▁showed",
        -10.18215997517601
      ],
      [
        "▁drawing",
        -10.18306004233373
      ],
      [
        "▁character",
        -10.183435650032925
      ],
      [
        "▁doll",
        -10.183922083806554
      ],
      [
        "▁alive",
        -10.184569240963862
      ],
      [
        "▁dut",
        -10.18519988891214
      ],
      [
        "pick",
        -10.18538837034619
      ],
      [
        "▁battle",
        -10.185423952924298
      ],
      [
        "▁carl",
        -10.187061394710312
      ],
      [
        "▁leg",
        -10.187136350566098
      ],
      [
        "▁bigger",
        -10.187534809654634
      ],
      [
        "▁rich",
        -10.187945573577128
      ],
      [
        "▁official",
        -10.188888341212197
      ],
      [
        "side",
        -10.189014692718466
      ],
      [
        "▁san",
        -10.189682903135653
      ],
      [
        "▁subject",
        -10.19095294822152
      ],
      [
        "▁storm",
        -10.191808134483782
      ],
      [
        "▁choo",
        -10.192027941212322
      ],
      [
        "▁monster",
        -10.192348912040057
      ],
      [
        "▁capital",
        -10.19299413679208
      ],
      [
        "ment",
        -10.193450208996673
      ],
      [
        "▁glass",
        -10.194038354473966
      ],
      [
        "▁famous",
        -10.19459747468585
      ],
      [
        "babble",
        -10.194823290035288
      ],
      [
        "brother",
        -10.197660592279068
      ],
      [
        "▁union",
        -10.19841431532694
      ],
      [
        "▁cookie",
        -10.198493691198175
      ],
      [
        "▁california",
        -10.198708809710284
      ],
      [
        "▁eggs",
        -10.201535459804186
      ],
      [
        "where",
        -10.204387167011706
      ],
      [
        "▁lying",
        -10.20588584892812
      ],
      [
        "▁actor",
        -10.206030183930952
      ],
      [
        "▁period",
        -10.209001999489114
      ],
      [
        "▁dirty",
        -10.211485586835712
      ],
      [
        "▁self",
        -10.212840105316946
      ],
      [
        "▁ears",
        -10.214761205703647
      ],
      [
        "▁lion",
        -10.21557970409212
      ],
      [
        "▁card",
        -10.217203392703173
      ],
      [
        "▁laughing",
        -10.219914269090616
      ],
      [
        "▁per",
        -10.223599198748994
      ],
      [
        "▁bar",
        -10.224499776937291
      ],
      [
        "▁danger",
        -10.225198559873023
      ],
      [
        "▁driver",
        -10.225927960386922
      ],
      [
        "▁fresh",
        -10.22698253939956
      ],
      [
        "▁aye",
        -10.229100608702776
      ],
      [
        "▁turning",
        -10.229756996280674
      ],
      [
        "▁center",
        -10.233006730976989
      ],
      [
        "▁dinosaur",
        -10.234368473804697
      ],
      [
        "▁realize",
        -10.23513157426003
      ],
      [
        "▁mouse",
        -10.236502485887852
      ],
      [
        "▁base",
        -10.237047882054307
      ],
      [
        "▁manner",
        -10.23731282180653
      ],
      [
        "▁neck",
        -10.238303306083552
      ],
      [
        "▁key",
        -10.239074780073878
      ],
      [
        "below",
        -10.242604179481786
      ],
      [
        "▁director",
        -10.242624288038536
      ],
      [
        "▁therefore",
        -10.242941065148583
      ],
      [
        "▁tall",
        -10.243152679621492
      ],
      [
        "▁cloud",
        -10.243211505397028
      ],
      [
        "▁germany",
        -10.243912923571688
      ],
      [
        "▁closed",
        -10.244333620975278
      ],
      [
        "▁india",
        -10.24489541476598
      ],
      [
        "▁fingers",
        -10.246540765331202
      ],
      [
        "▁storie",
        -10.247046031460538
      ],
      [
        "▁speed",
        -10.247677960737589
      ],
      [
        "▁championship",
        -10.247814482123152
      ],
      [
        "▁perfect",
        -10.248002832051714
      ],
      [
        "cat",
        -10.248375420737828
      ],
      [
        "▁stage",
        -10.249558016800943
      ],
      [
        "▁sleeping",
        -10.2498984332538
      ],
      [
        "▁awful",
        -10.250884752748194
      ],
      [
        "▁species",
        -10.2508979559885
      ],
      [
        "▁needed",
        -10.254270140331895
      ],
      [
        "served",
        -10.254921636203925
      ],
      [
        "▁countries",
        -10.257138359167152
      ],
      [
        "▁tower",
        -10.257235166659871
      ],
      [
        "▁size",
        -10.258769506638998
      ],
      [
        "▁scene",
        -10.262678587659805
      ],
      [
        "▁mountain",
        -10.26305295455309
      ],
      [
        "▁sheep",
        -10.263258337609484
      ],
      [
        "▁coat",
        -10.264779738358351
      ],
      [
        "▁program",
        -10.265502357853952
      ],
      [
        "▁price",
        -10.265888131985426
      ],
      [
        "▁spent",
        -10.265911761935495
      ],
      [
        "weren",
        -10.266084426859123
      ],
      [
        "▁imagine",
        -10.266916998777187
      ],
      [
        "▁stupid",
        -10.267824942282145
      ],
      [
        "▁simple",
        -10.269084786507648
      ],
      [
        "▁studie",
        -10.2715296283667
      ],
      [
        "▁forty",
        -10.272060888958425
      ],
      [
        "▁condition",
        -10.272144603151364
      ],
      [
        "▁radio",
        -10.272208471017178
      ],
      [
        "▁asking",
        -10.274575624004829
      ],
      [
        "▁parts",
        -10.277249697402128
      ],
      [
        "▁butter",
        -10.27800284190984
      ],
      [
        "▁taste",
        -10.28035582979853
      ],
      [
        "▁gas",
        -10.280954075559
      ],
      [
        "▁hotel",
        -10.281315266493005
      ],
      [
        "▁asleep",
        -10.281631028804217
      ],
      [
        "▁title",
        -10.28274207538148
      ],
      [
        "▁anne",
        -10.283219017409706
      ],
      [
        "▁difference",
        -10.283482756027906
      ],
      [
        "▁roman",
        -10.283738649320584
      ],
      [
        "▁date",
        -10.286954606496822
      ],
      [
        "▁final",
        -10.28799729063465
      ],
      [
        "▁professional",
        -10.288043964386734
      ],
      [
        "▁particular",
        -10.288825295545193
      ],
      [
        "▁naught",
        -10.28916428725593
      ],
      [
        "▁edge",
        -10.290486831202148
      ],
      [
        "▁remark",
        -10.29057465457781
      ],
      [
        "▁beyon",
        -10.291112151012568
      ],
      [
        "▁older",
        -10.291334508406203
      ],
      [
        "▁movement",
        -10.291881477510648
      ],
      [
        "▁study",
        -10.293244473149498
      ],
      [
        "▁wake",
        -10.293759467814262
      ],
      [
        "▁picked",
        -10.29569478577341
      ],
      [
        "▁birds",
        -10.29608206135711
      ],
      [
        "▁kingdom",
        -10.298004839411982
      ],
      [
        "▁similar",
        -10.29857329355272
      ],
      [
        "▁leader",
        -10.298646052220452
      ],
      [
        "▁thus",
        -10.298810889212268
      ],
      [
        "▁loved",
        -10.299039435074612
      ],
      [
        "▁pain",
        -10.299832572399003
      ],
      [
        "▁worse",
        -10.301163214163369
      ],
      [
        "▁plays",
        -10.30166836972342
      ],
      [
        "▁lee",
        -10.302081236052254
      ],
      [
        "▁amount",
        -10.30213346546784
      ],
      [
        "▁honor",
        -10.302224577199212
      ],
      [
        "▁purpose",
        -10.302573627775734
      ],
      [
        "▁action",
        -10.305033297531567
      ],
      [
        "▁cost",
        -10.307027526343209
      ],
      [
        "▁allow",
        -10.307534809601536
      ],
      [
        "▁sunday",
        -10.307614399697052
      ],
      [
        "▁tony",
        -10.309056444811866
      ],
      [
        "▁central",
        -10.310097085847897
      ],
      [
        "▁handle",
        -10.31177303804575
      ],
      [
        "els",
        -10.31256144787115
      ],
      [
        "▁destroy",
        -10.313131189631996
      ],
      [
        "▁murder",
        -10.314155556444694
      ],
      [
        "▁pounds",
        -10.316268775230464
      ],
      [
        "▁western",
        -10.31659558351965
      ],
      [
        "▁approach",
        -10.316928846213164
      ],
      [
        "▁market",
        -10.317194211431572
      ],
      [
        "ous",
        -10.317477562152094
      ],
      [
        "ann",
        -10.317549489276692
      ],
      [
        "▁societ",
        -10.317908290113122
      ],
      [
        "▁adult",
        -10.31824964241692
      ],
      [
        "▁wound",
        -10.318785491472424
      ],
      [
        "▁upstairs",
        -10.319860092606204
      ],
      [
        "▁shore",
        -10.320830892055186
      ],
      [
        "▁begin",
        -10.321795014580903
      ],
      [
        "▁bell",
        -10.323149981818444
      ],
      [
        "▁spend",
        -10.323452481384816
      ],
      [
        "places",
        -10.324612072889709
      ],
      [
        "▁press",
        -10.325362641984562
      ],
      [
        "come",
        -10.32537295084162
      ],
      [
        "▁shoot",
        -10.328069397229005
      ],
      [
        "▁smoke",
        -10.329017641199492
      ],
      [
        "▁horses",
        -10.329471777593998
      ],
      [
        "▁lift",
        -10.32972881475997
      ],
      [
        "▁professor",
        -10.330581270939875
      ],
      [
        "▁learned",
        -10.330827468103838
      ],
      [
        "▁harry",
        -10.331230001455404
      ],
      [
        "▁issue",
        -10.331591993583343
      ],
      [
        "▁pleasure",
        -10.332008846694563
      ],
      [
        "who",
        -10.33236225714645
      ],
      [
        "▁russian",
        -10.33267677745675
      ],
      [
        "starts",
        -10.333003610653652
      ],
      [
        "▁block",
        -10.33321473634776
      ],
      [
        "▁sell",
        -10.334499897938798
      ],
      [
        "▁china",
        -10.336673376999745
      ],
      [
        "▁meat",
        -10.336684045225528
      ],
      [
        "▁length",
        -10.338295916496666
      ],
      [
        "▁energy",
        -10.33898186182194
      ],
      [
        "▁japanese",
        -10.341336343546155
      ],
      [
        "▁spread",
        -10.34143029313652
      ],
      [
        "▁science",
        -10.34273923559746
      ],
      [
        "▁nature",
        -10.342901145590002
      ],
      [
        "▁kick",
        -10.342918564479792
      ],
      [
        "▁political",
        -10.343174433981185
      ],
      [
        "cries",
        -10.343627422382417
      ],
      [
        "▁appear",
        -10.343628269630983
      ],
      [
        "▁skin",
        -10.34442627992751
      ],
      [
        "▁bite",
        -10.344743404171652
      ],
      [
        "▁driving",
        -10.345679598636051
      ],
      [
        "▁private",
        -10.345778873500638
      ],
      [
        "▁cri",
        -10.345886261210168
      ],
      [
        "▁dolly",
        -10.348906211095947
      ],
      [
        "▁various",
        -10.34916989274091
      ],
      [
        "▁coast",
        -10.349840993078242
      ],
      [
        "▁luck",
        -10.350491949075607
      ],
      [
        "kar",
        -10.350921089532688
      ],
      [
        "▁escape",
        -10.351791957306958
      ],
      [
        "ling",
        -10.35306549241608
      ],
      [
        "kat",
        -10.353281619872895
      ],
      [
        "▁calling",
        -10.354033942249655
      ],
      [
        "field",
        -10.355767462450768
      ],
      [
        "▁rough",
        -10.35595280174178
      ],
      [
        "▁joined",
        -10.356837584541132
      ],
      [
        "▁declare",
        -10.357090612137185
      ],
      [
        "▁bow",
        -10.357253896654868
      ],
      [
        "▁super",
        -10.35779218070828
      ],
      [
        "▁hiding",
        -10.3587199815173
      ],
      [
        "panish",
        -10.359320228008563
      ],
      [
        "▁richard",
        -10.359772201474575
      ],
      [
        "▁goodness",
        -10.360077927765126
      ],
      [
        "▁silence",
        -10.361055681162888
      ],
      [
        "▁william",
        -10.362924129976996
      ],
      [
        "▁happening",
        -10.363512345444422
      ],
      [
        "▁drew",
        -10.365506194213232
      ],
      [
        "▁tiny",
        -10.365548718686265
      ],
      [
        "ville",
        -10.36669768538252
      ],
      [
        "▁brush",
        -10.367490557686777
      ],
      [
        "▁pen",
        -10.367669245908315
      ],
      [
        "▁respect",
        -10.367860259802548
      ],
      [
        "▁australia",
        -10.367893600099002
      ],
      [
        "kay",
        -10.369239202599536
      ],
      [
        "▁purple",
        -10.369279219837486
      ],
      [
        "unk",
        -10.370875525384914
      ],
      [
        "▁dogs",
        -10.371058688045371
      ],
      [
        "▁prize",
        -10.37108495144841
      ],
      [
        "▁bowl",
        -10.37207490110193
      ],
      [
        "▁bert",
        -10.372610646760316
      ],
      [
        "▁breath",
        -10.374322522863384
      ],
      [
        "▁census",
        -10.374537419167757
      ],
      [
        "roz",
        -10.374999608405666
      ],
      [
        "▁christian",
        -10.375033123189969
      ],
      [
        "▁ear",
        -10.375349078080824
      ],
      [
        "▁oops",
        -10.377641309945322
      ],
      [
        "▁glance",
        -10.37771778487792
      ],
      [
        "▁personal",
        -10.378048712538892
      ],
      [
        "▁burn",
        -10.378070307675213
      ],
      [
        "▁attempt",
        -10.379261580867215
      ],
      [
        "▁sail",
        -10.37984458507144
      ],
      [
        "▁beach",
        -10.380667238956637
      ],
      [
        "▁education",
        -10.38091450910716
      ],
      [
        "▁europe",
        -10.382704497904433
      ],
      [
        "▁royal",
        -10.383090316388747
      ],
      [
        "▁apart",
        -10.383109647976116
      ],
      [
        "▁tiger",
        -10.38334721781839
      ],
      [
        "reaches",
        -10.383867474168932
      ],
      [
        "▁liked",
        -10.384237813851213
      ],
      [
        "▁absolutely",
        -10.384384858435393
      ],
      [
        "▁patient",
        -10.385338123791172
      ],
      [
        "▁starting",
        -10.38674359005181
      ],
      [
        "▁jesus",
        -10.386887250061704
      ],
      [
        "▁eager",
        -10.386903620448146
      ],
      [
        "▁angry",
        -10.38805819487424
      ],
      [
        "▁native",
        -10.389100754094176
      ],
      [
        "▁sarah",
        -10.389403019669816
      ],
      [
        "▁search",
        -10.39035418600691
      ],
      [
        "pointing",
        -10.390817154705614
      ],
      [
        "▁puts",
        -10.391738189235625
      ],
      [
        "▁speaking",
        -10.392419344535446
      ],
      [
        "ur",
        -10.393277029578815
      ],
      [
        "▁arrived",
        -10.393560219618
      ],
      [
        "▁saturday",
        -10.393581870419322
      ],
      [
        "military",
        -10.39520863157891
      ],
      [
        "▁centre",
        -10.395414717094608
      ],
      [
        "▁names",
        -10.396586125015755
      ],
      [
        "▁protect",
        -10.398814155393213
      ],
      [
        "▁falling",
        -10.399338449795229
      ],
      [
        "▁social",
        -10.399821944320184
      ],
      [
        "▁trip",
        -10.399865525921092
      ],
      [
        "▁sugar",
        -10.403467864037456
      ],
      [
        "▁ladies",
        -10.404516157574127
      ],
      [
        "▁crash",
        -10.405343122100252
      ],
      [
        "▁holiday",
        -10.405682924690552
      ],
      [
        "▁peace",
        -10.406808594365804
      ],
      [
        "▁calm",
        -10.40719726809737
      ],
      [
        "▁contain",
        -10.407292269550242
      ],
      [
        "▁iron",
        -10.408254374721412
      ],
      [
        "▁shoe",
        -10.408306343034528
      ],
      [
        "▁recent",
        -10.409763207241408
      ],
      [
        "▁publish",
        -10.41033198702472
      ],
      [
        "▁holds",
        -10.410447243341164
      ],
      [
        "amp",
        -10.411371739421371
      ],
      [
        "▁singer",
        -10.411406270295592
      ],
      [
        "▁threw",
        -10.411718710595617
      ],
      [
        "▁effort",
        -10.412510889391395
      ],
      [
        "▁flying",
        -10.413082430463383
      ],
      [
        "▁increase",
        -10.413242462799598
      ],
      [
        "▁henry",
        -10.41353210820566
      ],
      [
        "▁forth",
        -10.41405677731089
      ],
      [
        "▁fighting",
        -10.414706280732172
      ],
      [
        "▁goin",
        -10.415458317256771
      ],
      [
        "▁agree",
        -10.415504999436893
      ],
      [
        "▁surprised",
        -10.41551769329349
      ],
      [
        "▁sh",
        -10.41626127751953
      ],
      [
        "▁proud",
        -10.41688138933316
      ],
      [
        "▁whisper",
        -10.417689759931932
      ],
      [
        "▁pleasant",
        -10.417942960747112
      ],
      [
        "▁prince",
        -10.418849360952684
      ],
      [
        "▁double",
        -10.420469932946132
      ],
      [
        "▁perform",
        -10.42066886672695
      ],
      [
        "▁project",
        -10.421570997616314
      ],
      [
        "▁lucky",
        -10.421710076217437
      ],
      [
        "▁nurse",
        -10.422019310663844
      ],
      [
        "▁background",
        -10.422104238821392
      ],
      [
        "▁pair",
        -10.422557120522503
      ],
      [
        "▁balloon",
        -10.423182836777883
      ],
      [
        "▁shirt",
        -10.424185277090348
      ],
      [
        "letters",
        -10.424192139368364
      ],
      [
        "▁fail",
        -10.4242197691382
      ],
      [
        "▁feature",
        -10.424624322295625
      ],
      [
        "▁regular",
        -10.42585542388364
      ],
      [
        "▁rush",
        -10.426176474043
      ],
      [
        "▁wearing",
        -10.426189722446972
      ],
      [
        "▁anxious",
        -10.42709330666747
      ],
      [
        "immediately",
        -10.427174591881595
      ],
      [
        "▁cell",
        -10.427231349726815
      ],
      [
        "▁separate",
        -10.42758490781102
      ],
      [
        "▁regard",
        -10.428793870848748
      ],
      [
        "q",
        -10.428888499520331
      ],
      [
        "▁weather",
        -10.429358924564031
      ],
      [
        "▁plane",
        -10.429863752947671
      ],
      [
        "▁shows",
        -10.43283348169684
      ],
      [
        "texas",
        -10.433156295020655
      ],
      [
        "filled",
        -10.434478236286832
      ],
      [
        "can",
        -10.434528183018283
      ],
      [
        "▁model",
        -10.435485338052157
      ],
      [
        "▁snake",
        -10.436922592173117
      ],
      [
        "▁version",
        -10.437994366820774
      ],
      [
        "▁basket",
        -10.43868393917371
      ],
      [
        "ally",
        -10.438770594258576
      ],
      [
        "▁steps",
        -10.439431447893986
      ],
      [
        "▁journey",
        -10.439748967806503
      ],
      [
        "▁election",
        -10.440882747007258
      ],
      [
        "▁missed",
        -10.441164977522924
      ],
      [
        "▁disappear",
        -10.441562941286891
      ],
      [
        "completely",
        -10.442184098416664
      ],
      [
        "▁extra",
        -10.443089677695507
      ],
      [
        "▁mike",
        -10.444629998691742
      ],
      [
        "▁anywhere",
        -10.44505084201505
      ],
      [
        "house",
        -10.446403409822189
      ],
      [
        "sighs",
        -10.447209658145784
      ],
      [
        "▁northern",
        -10.44766553820602
      ],
      [
        "▁soul",
        -10.44782969192195
      ],
      [
        "▁roof",
        -10.448530471962236
      ],
      [
        "chuckles",
        -10.450136415464245
      ],
      [
        "▁damn",
        -10.450897970062652
      ],
      [
        "▁modern",
        -10.45107792413059
      ],
      [
        "▁charlie",
        -10.451482318461228
      ],
      [
        "▁bother",
        -10.452625734608302
      ],
      [
        "▁gate",
        -10.453579928323348
      ],
      [
        "▁sold",
        -10.453582420040908
      ],
      [
        "▁european",
        -10.454327738683066
      ],
      [
        "agreed",
        -10.454641676660373
      ],
      [
        "▁episode",
        -10.455417794730783
      ],
      [
        "▁necessar",
        -10.45541799585803
      ],
      [
        "age",
        -10.458694404277027
      ],
      [
        "night",
        -10.459664287564811
      ],
      [
        "▁onto",
        -10.459927451388983
      ],
      [
        "▁shake",
        -10.460254690138672
      ],
      [
        "▁prisoner",
        -10.4605867848548
      ],
      [
        "▁puppet",
        -10.460758875285345
      ],
      [
        "▁quarter",
        -10.461046921639705
      ],
      [
        "dded",
        -10.461372196346794
      ],
      [
        "▁friday",
        -10.461592182023118
      ],
      [
        "▁laid",
        -10.462359550725033
      ],
      [
        "▁fifteen",
        -10.462365919562716
      ],
      [
        "▁fruit",
        -10.462749987762791
      ],
      [
        "▁neither",
        -10.46344357404629
      ],
      [
        "▁effect",
        -10.464902929821168
      ],
      [
        "▁spider",
        -10.465064800167433
      ],
      [
        "▁appearance",
        -10.465416485957778
      ],
      [
        "ley",
        -10.46649945882296
      ],
      [
        "▁instant",
        -10.466773625772513
      ],
      [
        "▁jane",
        -10.468006722165896
      ],
      [
        "▁remove",
        -10.468136919661202
      ],
      [
        "▁higher",
        -10.468481043058548
      ],
      [
        "▁watched",
        -10.468726324878643
      ],
      [
        "▁weapon",
        -10.469296370451987
      ],
      [
        "▁opportunit",
        -10.46931127581954
      ],
      [
        "▁lines",
        -10.469800967786124
      ],
      [
        "▁dangerous",
        -10.470084586571442
      ],
      [
        "begins",
        -10.470354956543122
      ],
      [
        "▁rapid",
        -10.470561904074524
      ],
      [
        "▁announce",
        -10.471471241465157
      ],
      [
        "▁simply",
        -10.471662028053109
      ],
      [
        "▁telephone",
        -10.47182592857104
      ],
      [
        "▁vessel",
        -10.47189968115753
      ],
      [
        "▁score",
        -10.47274983320704
      ],
      [
        "▁empty",
        -10.473088584421586
      ],
      [
        "▁arrest",
        -10.473525061616757
      ],
      [
        "▁eleanor",
        -10.473653083540665
      ],
      [
        "asily",
        -10.473731900053249
      ],
      [
        "way",
        -10.474651683128071
      ],
      [
        "▁blocks",
        -10.475966470576864
      ],
      [
        "▁medicine",
        -10.476000499296289
      ],
      [
        "▁slight",
        -10.476291109052728
      ],
      [
        "▁flight",
        -10.47762228993338
      ],
      [
        "▁huge",
        -10.47786544779034
      ],
      [
        "▁female",
        -10.47936009279909
      ],
      [
        "▁lid",
        -10.4807483227632
      ],
      [
        "▁excited",
        -10.480782036420496
      ],
      [
        "▁numbers",
        -10.481976295418487
      ],
      [
        "▁flower",
        -10.482509249906766
      ],
      [
        "▁dick",
        -10.48300714466872
      ],
      [
        "▁flat",
        -10.48500579954804
      ],
      [
        "▁paris",
        -10.48610178819775
      ],
      [
        "▁singing",
        -10.486891641439527
      ],
      [
        "▁treat",
        -10.48791148488981
      ],
      [
        "ned",
        -10.488991995754857
      ],
      [
        "▁accident",
        -10.489212098128665
      ],
      [
        "▁fault",
        -10.489323491859402
      ],
      [
        "old",
        -10.4901957593388
      ],
      [
        "▁fox",
        -10.491549596692366
      ],
      [
        "▁charles",
        -10.492928415396069
      ],
      [
        "▁babies",
        -10.493352465891432
      ],
      [
        "puts",
        -10.495935258215834
      ],
      [
        "▁castle",
        -10.496319913205696
      ],
      [
        "▁total",
        -10.497651373602768
      ],
      [
        "wood",
        -10.49769448574656
      ],
      [
        "▁training",
        -10.498043356213392
      ],
      [
        "read",
        -10.498907383543362
      ],
      [
        "▁governor",
        -10.499312146874589
      ],
      [
        "▁twice",
        -10.49965135793038
      ],
      [
        "▁recognize",
        -10.499843862892224
      ],
      [
        "▁bay",
        -10.500728801911922
      ],
      [
        "▁whoops",
        -10.501972956098328
      ],
      [
        "▁grant",
        -10.50212320067531
      ],
      [
        "▁bunny",
        -10.5023950393037
      ],
      [
        "expected",
        -10.503425723872022
      ],
      [
        "▁afterward",
        -10.50363908391445
      ],
      [
        "▁prime",
        -10.503908129940156
      ],
      [
        "▁belong",
        -10.50491582758922
      ],
      [
        "▁haha",
        -10.505322417704672
      ],
      [
        "ham",
        -10.50535358322474
      ],
      [
        "▁feed",
        -10.506956562028206
      ],
      [
        "▁trade",
        -10.507457770393014
      ],
      [
        "▁windows",
        -10.50788493392891
      ],
      [
        "▁cousin",
        -10.50813333183408
      ],
      [
        "▁joy",
        -10.508990239015182
      ],
      [
        "▁italian",
        -10.509027548382416
      ],
      [
        "▁equal",
        -10.509045722708052
      ],
      [
        "community",
        -10.510126556288036
      ],
      [
        "▁degree",
        -10.511936094889888
      ],
      [
        "▁gives",
        -10.512044386160843
      ],
      [
        "▁bound",
        -10.51290415360263
      ],
      [
        "▁larges",
        -10.512918144064372
      ],
      [
        "▁supper",
        -10.513020317749524
      ],
      [
        "▁plenty",
        -10.513354171070157
      ],
      [
        "▁guest",
        -10.513443580854393
      ],
      [
        "▁exist",
        -10.515565542961811
      ],
      [
        "▁string",
        -10.517322927653929
      ],
      [
        "▁earlier",
        -10.517454499094784
      ],
      [
        "▁martin",
        -10.517710633699888
      ],
      [
        "▁represent",
        -10.517797865586209
      ],
      [
        "▁plain",
        -10.520220459821932
      ],
      [
        "▁lesson",
        -10.520413686264984
      ],
      [
        "▁pleased",
        -10.52099510078084
      ],
      [
        "▁swimming",
        -10.521542719089464
      ],
      [
        "▁ancient",
        -10.52297060495537
      ],
      [
        "▁climb",
        -10.524949724926644
      ],
      [
        "▁bike",
        -10.525049268037122
      ],
      [
        "▁boo",
        -10.525991272024294
      ],
      [
        "▁yup",
        -10.526574355382646
      ],
      [
        "problems",
        -10.527757913905004
      ],
      [
        "▁practice",
        -10.527758393532617
      ],
      [
        "▁brief",
        -10.528382493051891
      ],
      [
        "▁affair",
        -10.529887765903794
      ],
      [
        "looking",
        -10.530270604196616
      ],
      [
        "▁opening",
        -10.530819906278982
      ],
      [
        "▁row",
        -10.531017545947908
      ],
      [
        "▁saved",
        -10.5322003340651
      ],
      [
        "▁lieutenant",
        -10.534630459255371
      ],
      [
        "▁painting",
        -10.534728635202072
      ],
      [
        "▁pot",
        -10.535040241331604
      ],
      [
        "▁needt",
        -10.536462251272036
      ],
      [
        "▁songs",
        -10.536767479009589
      ],
      [
        "▁correct",
        -10.537471351509971
      ],
      [
        "▁listening",
        -10.537931272208478
      ],
      [
        "▁pour",
        -10.538619777244818
      ],
      [
        "▁border",
        -10.53942202525861
      ],
      [
        "▁path",
        -10.540593497920986
      ],
      [
        "ended",
        -10.54083964513302
      ],
      [
        "▁struck",
        -10.54309659274443
      ],
      [
        "ka",
        -10.543306396882532
      ],
      [
        "▁decision",
        -10.544129815143393
      ],
      [
        "▁offer",
        -10.544803179241628
      ],
      [
        "▁firm",
        -10.545378112153074
      ],
      [
        "▁gather",
        -10.545419011223531
      ],
      [
        "▁bonnet",
        -10.54607103447051
      ],
      [
        "▁usual",
        -10.546982354845383
      ],
      [
        "▁fallen",
        -10.550435041822052
      ],
      [
        "involved",
        -10.550733527994932
      ],
      [
        "▁southern",
        -10.55080442465304
      ],
      [
        "▁gain",
        -10.551128963126803
      ],
      [
        "▁adam",
        -10.551957564009664
      ],
      [
        "▁steven",
        -10.552379389974098
      ],
      [
        "▁woods",
        -10.552816349282208
      ],
      [
        "▁evident",
        -10.553265678211703
      ],
      [
        "▁downstair",
        -10.55353193278932
      ],
      [
        "▁judge",
        -10.554443524976548
      ],
      [
        "▁obviously",
        -10.55579650998978
      ],
      [
        "▁success",
        -10.555883566258624
      ],
      [
        "▁evidence",
        -10.557130935168676
      ],
      [
        "▁express",
        -10.557845579504534
      ],
      [
        "sung",
        -10.558022922971148
      ],
      [
        "soldiers",
        -10.558233364617832
      ],
      [
        "watches",
        -10.55891982565111
      ],
      [
        "▁choose",
        -10.559026286188786
      ],
      [
        "▁wa",
        -10.559179784114852
      ],
      [
        "▁research",
        -10.56101490010026
      ],
      [
        "▁duh",
        -10.561047752532478
      ],
      [
        "▁channel",
        -10.561079101683898
      ],
      [
        "▁choice",
        -10.562447259941298
      ],
      [
        "▁motion",
        -10.56273389258266
      ],
      [
        "▁knife",
        -10.564181801594014
      ],
      [
        "ger",
        -10.565350927796132
      ],
      [
        "▁prison",
        -10.566673567187031
      ],
      [
        "▁crew",
        -10.567009968663935
      ],
      [
        "▁successful",
        -10.567216811128034
      ],
      [
        "growing",
        -10.567703424224764
      ],
      [
        "▁tight",
        -10.568084695721064
      ],
      [
        "▁ocean",
        -10.568867093760971
      ],
      [
        "▁santa",
        -10.568908540849185
      ],
      [
        "▁deck",
        -10.56942730169427
      ],
      [
        "▁writer",
        -10.569739155495814
      ],
      [
        "▁sudden",
        -10.570270643247618
      ],
      [
        "▁electric",
        -10.570846643932288
      ],
      [
        "ard",
        -10.57152175653802
      ],
      [
        "▁bo",
        -10.571757071601834
      ],
      [
        "▁process",
        -10.572517012186632
      ],
      [
        "▁po",
        -10.573620954859177
      ],
      [
        "music",
        -10.57402184256356
      ],
      [
        "▁officers",
        -10.574201339274524
      ],
      [
        "▁studio",
        -10.574960344736628
      ],
      [
        "▁message",
        -10.57498300789288
      ],
      [
        "▁gift",
        -10.577533117610324
      ],
      [
        "▁sex",
        -10.577538815368216
      ],
      [
        "▁guns",
        -10.578084413343138
      ],
      [
        "fully",
        -10.578106809295727
      ],
      [
        "good",
        -10.578137860219258
      ],
      [
        "▁authorit",
        -10.57838614464363
      ],
      [
        "▁range",
        -10.579128216271046
      ],
      [
        "jen",
        -10.579528969873104
      ],
      [
        "▁meaning",
        -10.579928477520886
      ],
      [
        "chines",
        -10.581900740613357
      ],
      [
        "▁risk",
        -10.582647467143428
      ],
      [
        "▁unit",
        -10.583217869121905
      ],
      [
        "▁coach",
        -10.583867521719542
      ],
      [
        "▁agent",
        -10.584034714261085
      ],
      [
        "▁eleven",
        -10.584720106133483
      ],
      [
        "▁commander",
        -10.5849285717111
      ],
      [
        "▁saint",
        -10.58506624851652
      ],
      [
        "hook",
        -10.585458048832876
      ],
      [
        "▁airport",
        -10.585565344629025
      ],
      [
        "▁lights",
        -10.586445165932428
      ],
      [
        "▁golden",
        -10.587424617562064
      ],
      [
        "▁princess",
        -10.587697946803976
      ],
      [
        "▁magazine",
        -10.588484853575869
      ],
      [
        "▁rate",
        -10.588789297509734
      ],
      [
        "▁ross",
        -10.591346822030108
      ],
      [
        "▁fourth",
        -10.593027700244102
      ],
      [
        "here",
        -10.594259622757138
      ],
      [
        "▁purdie",
        -10.595098485056369
      ],
      [
        "just",
        -10.595472091643746
      ],
      [
        "▁vote",
        -10.595769339844711
      ],
      [
        "▁mission",
        -10.59718106033674
      ],
      [
        "▁ge",
        -10.597263498566551
      ],
      [
        "while",
        -10.597428320233629
      ],
      [
        "with",
        -10.597689584633512
      ],
      [
        "▁brain",
        -10.597842379764677
      ],
      [
        "▁canada",
        -10.598160166496092
      ],
      [
        "off",
        -10.599246105154537
      ],
      [
        "▁disease",
        -10.60061767361001
      ],
      [
        "▁mistake",
        -10.600781596665527
      ],
      [
        "line",
        -10.601647051866742
      ],
      [
        "nic",
        -10.602088602790875
      ],
      [
        "▁tears",
        -10.60221470088246
      ],
      [
        "▁claim",
        -10.602752214271682
      ],
      [
        "▁oil",
        -10.604104462016856
      ],
      [
        "▁suffer",
        -10.604666712790555
      ],
      [
        "nina",
        -10.60539378134791
      ],
      [
        "▁pie",
        -10.605649653808497
      ],
      [
        "▁suit",
        -10.60581575918459
      ],
      [
        "▁bloody",
        -10.605935571413816
      ],
      [
        "▁manager",
        -10.60635069530576
      ],
      [
        "▁division",
        -10.60655198685297
      ],
      [
        "▁travel",
        -10.606779956633796
      ],
      [
        "▁slide",
        -10.607669155736902
      ],
      [
        "managed",
        -10.608762744824386
      ],
      [
        "▁silent",
        -10.60987799584898
      ],
      [
        "▁pat",
        -10.6112822399547
      ],
      [
        "▁strength",
        -10.613315532239104
      ],
      [
        "▁boss",
        -10.614400328588168
      ],
      [
        "▁lips",
        -10.614669824228326
      ],
      [
        "▁giant",
        -10.615610661626022
      ],
      [
        "▁pizza",
        -10.615875148724587
      ],
      [
        "▁valley",
        -10.616361434294236
      ],
      [
        "▁promised",
        -10.61689727190728
      ],
      [
        "▁pitch",
        -10.616963956544112
      ],
      [
        "▁committee",
        -10.617392939626296
      ],
      [
        "▁damage",
        -10.617550205491984
      ],
      [
        "ford",
        -10.617752009266042
      ],
      [
        "▁detail",
        -10.619007210219532
      ],
      [
        "when",
        -10.619125180252016
      ],
      [
        "▁actress",
        -10.619774835350109
      ],
      [
        "▁magic",
        -10.61990779782189
      ],
      [
        "▁normal",
        -10.622548540017718
      ],
      [
        "ela",
        -10.622808478210558
      ],
      [
        "▁lawyer",
        -10.623454821568114
      ],
      [
        "▁wolf",
        -10.623612625442654
      ],
      [
        "▁dancing",
        -10.624352720266318
      ],
      [
        "▁pirate",
        -10.624355328770834
      ],
      [
        "▁keeping",
        -10.625398208165112
      ],
      [
        "▁influence",
        -10.625636113232492
      ],
      [
        "▁thou",
        -10.626073885682516
      ],
      [
        "▁site",
        -10.626231540737642
      ],
      [
        "▁stole",
        -10.62706596743528
      ],
      [
        "▁crime",
        -10.627302386614364
      ],
      [
        "morrow",
        -10.627914951965824
      ],
      [
        "▁bedroom",
        -10.627927583521709
      ],
      [
        "▁stranger",
        -10.629713527350363
      ],
      [
        "▁guard",
        -10.629835113769682
      ],
      [
        "▁mountains",
        -10.630308544608186
      ],
      [
        "▁smart",
        -10.630420789427047
      ],
      [
        "▁meal",
        -10.630602293618937
      ],
      [
        "⌈",
        -10.630726515841705
      ],
      [
        "▁victor",
        -10.630810727535971
      ],
      [
        "▁value",
        -10.632608162246845
      ],
      [
        "▁teach",
        -10.633867406260263
      ],
      [
        "▁pound",
        -10.634003451943006
      ],
      [
        "▁worried",
        -10.634961403485844
      ],
      [
        "▁brave",
        -10.6352181236025
      ],
      [
        "▁julia",
        -10.635368712275376
      ],
      [
        "▁students",
        -10.635473598112998
      ],
      [
        "▁prepared",
        -10.63580566153748
      ],
      [
        "▁youth",
        -10.637607485770111
      ],
      [
        "▁surface",
        -10.638933246559144
      ],
      [
        "▁mummie",
        -10.638975370046564
      ],
      [
        "▁spoken",
        -10.639233840509394
      ],
      [
        "▁heat",
        -10.63990148702726
      ],
      [
        "▁impossible",
        -10.640787462824878
      ],
      [
        "▁everywhere",
        -10.642875523230805
      ],
      [
        "bye",
        -10.643613669868724
      ],
      [
        "⌉",
        -10.644422232988086
      ],
      [
        "⌋",
        -10.644882003103028
      ],
      [
        "▁faith",
        -10.646711127744076
      ],
      [
        "▁dere",
        -10.646720805092569
      ],
      [
        "⌊",
        -10.646723200368564
      ],
      [
        "▁dare",
        -10.650645480114491
      ],
      [
        "▁port",
        -10.651162933942777
      ],
      [
        "▁cards",
        -10.651675734545082
      ],
      [
        "▁civil",
        -10.652071553755407
      ],
      [
        "▁towel",
        -10.652306114280536
      ],
      [
        "▁taught",
        -10.652414281286903
      ],
      [
        "▁yum",
        -10.654153364495974
      ],
      [
        "very",
        -10.654389282649344
      ],
      [
        "▁command",
        -10.65449983127832
      ],
      [
        "silence",
        -10.65485333665616
      ],
      [
        "▁falls",
        -10.65739448623247
      ],
      [
        "▁tries",
        -10.657456576622227
      ],
      [
        "▁joke",
        -10.657546079145218
      ],
      [
        "▁wipe",
        -10.6581237420209
      ],
      [
        "▁gentleman",
        -10.658677526540275
      ],
      [
        "▁cloth",
        -10.659669426269405
      ],
      [
        "▁creature",
        -10.660819703588622
      ],
      [
        "▁smith",
        -10.660889580007051
      ],
      [
        "ance",
        -10.66141098305063
      ],
      [
        "▁throat",
        -10.666601945703604
      ],
      [
        "▁operation",
        -10.666638142363958
      ],
      [
        "▁moves",
        -10.66688930019794
      ],
      [
        "lin",
        -10.667718193125346
      ],
      [
        "▁pants",
        -10.669488924472695
      ],
      [
        "▁nineteen",
        -10.670821164202156
      ],
      [
        "▁unle",
        -10.671409619111191
      ],
      [
        "▁frighten",
        -10.672557020198926
      ],
      [
        "▁collect",
        -10.672623283319822
      ],
      [
        "▁tongue",
        -10.67281107573412
      ],
      [
        "june",
        -10.673056955871989
      ],
      [
        "▁style",
        -10.673359054122418
      ],
      [
        "▁thick",
        -10.673596898388611
      ],
      [
        "▁gray",
        -10.67384553036861
      ],
      [
        "~",
        -10.674282160233044
      ],
      [
        "▁network",
        -10.674998326481338
      ],
      [
        "▁response",
        -10.675898348985257
      ],
      [
        "▁cast",
        -10.67686305793189
      ],
      [
        "▁introduce",
        -10.6770108443137
      ],
      [
        "▁municipalit",
        -10.677548047689
      ],
      [
        "▁boots",
        -10.678309361281174
      ],
      [
        "▁finding",
        -10.67861382246588
      ],
      [
        "▁newspaper",
        -10.6795152381884
      ],
      [
        "▁complete",
        -10.68085565158891
      ],
      [
        "▁address",
        -10.682367935113971
      ],
      [
        "located",
        -10.68251986970289
      ],
      [
        "▁monday",
        -10.682874476114904
      ],
      [
        "▁evil",
        -10.683541798322992
      ],
      [
        "▁closer",
        -10.68452931655796
      ],
      [
        "▁grown",
        -10.684577992665108
      ],
      [
        "aft",
        -10.68478324725144
      ],
      [
        "▁signal",
        -10.68508995277897
      ],
      [
        "▁marry",
        -10.68583499465678
      ],
      [
        "▁intend",
        -10.68648725253289
      ],
      [
        "▁louis",
        -10.688235195681123
      ],
      [
        "▁security",
        -10.690190835193883
      ],
      [
        "▁marriage",
        -10.690245214388437
      ],
      [
        "▁development",
        -10.69153862717171
      ],
      [
        "▁stairs",
        -10.691882511179063
      ],
      [
        "▁crown",
        -10.69451125080306
      ],
      [
        "▁runs",
        -10.694655749875224
      ],
      [
        "▁opposite",
        -10.696672945563732
      ],
      [
        "▁content",
        -10.696750325095143
      ],
      [
        "▁toast",
        -10.698086340096868
      ],
      [
        "▁forgotten",
        -10.698125047782357
      ],
      [
        "▁washington",
        -10.698819226383408
      ],
      [
        "▁becky",
        -10.69888426086724
      ],
      [
        "▁opinion",
        -10.698913190104316
      ],
      [
        "▁pan",
        -10.69906214119855
      ],
      [
        "bout",
        -10.699140672245935
      ],
      [
        "shown",
        -10.699210980528052
      ],
      [
        "▁capture",
        -10.69965891239518
      ],
      [
        "▁vocalise",
        -10.699796391853257
      ],
      [
        "▁load",
        -10.69993782240239
      ],
      [
        "▁honest",
        -10.701242605040251
      ],
      [
        "▁jumped",
        -10.701443015343049
      ],
      [
        "▁max",
        -10.702120498630336
      ],
      [
        "▁brilliant",
        -10.702135104149535
      ],
      [
        "cough",
        -10.70478147799252
      ],
      [
        "▁medal",
        -10.70479146974488
      ],
      [
        "▁republic",
        -10.704840165971298
      ],
      [
        "▁stream",
        -10.704898497732811
      ],
      [
        "▁relationship",
        -10.705556654226196
      ],
      [
        "▁fill",
        -10.705919000789688
      ],
      [
        "▁definitely",
        -10.706061048113297
      ],
      [
        "▁rope",
        -10.706272364485702
      ],
      [
        "▁flag",
        -10.707819662231884
      ],
      [
        "▁crowd",
        -10.710675549450446
      ],
      [
        "▁chris",
        -10.710773603680224
      ],
      [
        "▁weight",
        -10.711494515102842
      ],
      [
        "▁tale",
        -10.71181812692216
      ],
      [
        "▁cases",
        -10.714035809193655
      ],
      [
        "▁farmer",
        -10.714638751022605
      ],
      [
        "▁knee",
        -10.715046568582547
      ],
      [
        "▁laura",
        -10.715195205041985
      ],
      [
        "▁academ",
        -10.715805326024942
      ],
      [
        "▁possibly",
        -10.715842132403193
      ],
      [
        "some",
        -10.716912678326532
      ],
      [
        "▁elect",
        -10.718995840633614
      ],
      [
        "▁rocks",
        -10.719539556919036
      ],
      [
        "year",
        -10.720554693480352
      ],
      [
        "▁fixed",
        -10.721057740624364
      ],
      [
        "▁sub",
        -10.721573301531418
      ],
      [
        "▁zoo",
        -10.72290536853037
      ],
      [
        "▁africa",
        -10.72294654593071
      ],
      [
        "▁eastern",
        -10.723190824847174
      ],
      [
        "▁goodbye",
        -10.723430634888338
      ],
      [
        "▁advance",
        -10.723658394762886
      ],
      [
        "▁fellows",
        -10.723820861264544
      ],
      [
        "▁apparently",
        -10.724992813554891
      ],
      [
        "▁secretary",
        -10.72591179881372
      ],
      [
        "▁measure",
        -10.725945688154717
      ],
      [
        "▁fortune",
        -10.726568925567822
      ],
      [
        "▁aged",
        -10.726866028537362
      ],
      [
        "▁riding",
        -10.727291967626975
      ],
      [
        "▁bump",
        -10.727522770779952
      ],
      [
        "▁smaller",
        -10.727644064261815
      ],
      [
        "▁christ",
        -10.728767061904769
      ],
      [
        "▁ordered",
        -10.728992035280871
      ],
      [
        "▁microphone",
        -10.72909143028796
      ],
      [
        "▁sake",
        -10.729629609592642
      ],
      [
        "▁design",
        -10.729844380983677
      ],
      [
        "▁host",
        -10.729968330304787
      ],
      [
        "▁bin",
        -10.730078180088348
      ],
      [
        "▁shopping",
        -10.730388167290162
      ],
      [
        "▁ninety",
        -10.730430246710217
      ],
      [
        "▁lap",
        -10.730630751281828
      ],
      [
        "▁billy",
        -10.731027547426995
      ],
      [
        "▁changes",
        -10.731446895047895
      ],
      [
        "▁beep",
        -10.732448353655377
      ],
      [
        "▁grace",
        -10.732599624388662
      ],
      [
        "▁houses",
        -10.733046592540171
      ],
      [
        "▁rid",
        -10.733941610867012
      ],
      [
        "▁formula",
        -10.73453360031139
      ],
      [
        "▁cabin",
        -10.736284082853167
      ],
      [
        "▁victim",
        -10.736817868160776
      ],
      [
        "▁soldier",
        -10.737144226371232
      ],
      [
        "her",
        -10.738666339192005
      ],
      [
        "particularly",
        -10.738848485506004
      ],
      [
        "▁tractor",
        -10.738904049991334
      ],
      [
        "▁greatest",
        -10.73895803502038
      ],
      [
        "▁empire",
        -10.738997321643032
      ],
      [
        "▁librar",
        -10.7391361032616
      ],
      [
        "giggle",
        -10.739143176738828
      ],
      [
        "▁mister",
        -10.739895001361347
      ],
      [
        "stood",
        -10.740046854557452
      ],
      [
        "▁biscuit",
        -10.741284933334486
      ],
      [
        "drinking",
        -10.74293883149252
      ],
      [
        "▁ba",
        -10.743575904121345
      ],
      [
        "▁spain",
        -10.743686511347263
      ],
      [
        "▁manage",
        -10.743817264083876
      ],
      [
        "▁carrying",
        -10.743820621503076
      ],
      [
        "▁corn",
        -10.744077332804274
      ],
      [
        "▁planet",
        -10.745491372171584
      ],
      [
        "▁horsie",
        -10.746447179267255
      ],
      [
        "▁servant",
        -10.747997285708925
      ],
      [
        "▁nursery",
        -10.74815983689005
      ],
      [
        "▁bobby",
        -10.749151510987954
      ],
      [
        "▁source",
        -10.750235877856609
      ],
      [
        "▁museum",
        -10.750953984943902
      ],
      [
        "▁sports",
        -10.751285799346594
      ],
      [
        "▁ourselves",
        -10.752090129729051
      ],
      [
        "founded",
        -10.752351328598348
      ],
      [
        "▁seconds",
        -10.7530247577328
      ],
      [
        "▁dan",
        -10.75346188509826
      ],
      [
        "▁clown",
        -10.754904029685845
      ],
      [
        "▁safety",
        -10.7552236083435
      ],
      [
        "▁bull",
        -10.757316438524535
      ],
      [
        "▁ca",
        -10.75926688389063
      ],
      [
        "gun",
        -10.759610951073316
      ],
      [
        "▁leading",
        -10.75961206953843
      ],
      [
        "was",
        -10.760253581421503
      ],
      [
        "▁uhuh",
        -10.760434409315462
      ],
      [
        "▁salt",
        -10.76068495078921
      ],
      [
        "▁sylvia",
        -10.76131949060698
      ],
      [
        "▁orders",
        -10.761506361032826
      ],
      [
        "▁willing",
        -10.761786765612296
      ],
      [
        "▁easier",
        -10.76234903812863
      ],
      [
        "▁desire",
        -10.762653931088028
      ],
      [
        "▁beauty",
        -10.762802135301468
      ],
      [
        "▁nope",
        -10.763059082402387
      ],
      [
        "perfectly",
        -10.763963966918716
      ],
      [
        "▁wedding",
        -10.764081846169605
      ],
      [
        "▁florenc",
        -10.764094927043123
      ],
      [
        "▁gay",
        -10.765486330761938
      ],
      [
        "head",
        -10.76667981057631
      ],
      [
        "▁doggie",
        -10.767540101733264
      ],
      [
        "▁wan",
        -10.767846540813004
      ],
      [
        "▁memory",
        -10.768026422152118
      ],
      [
        "▁greater",
        -10.768851781691591
      ],
      [
        "▁fence",
        -10.770127844525309
      ],
      [
        "▁fool",
        -10.770479850991377
      ],
      [
        "▁papa",
        -10.771419876096996
      ],
      [
        "▁avail",
        -10.771827886691632
      ],
      [
        "▁banana",
        -10.771984964601096
      ],
      [
        "aid",
        -10.772065447380932
      ],
      [
        "▁lara",
        -10.772408049216518
      ],
      [
        "did",
        -10.773009116854409
      ],
      [
        "whispers",
        -10.773378098675774
      ],
      [
        "▁helping",
        -10.774417519744087
      ],
      [
        "▁spell",
        -10.774667777680987
      ],
      [
        "shout",
        -10.774889208750489
      ],
      [
        "▁washing",
        -10.774910748944285
      ],
      [
        "les",
        -10.77565235481136
      ],
      [
        "▁attend",
        -10.776745118221177
      ],
      [
        "▁sentence",
        -10.77692065262945
      ],
      [
        "▁decide",
        -10.777125705885751
      ],
      [
        "▁cheek",
        -10.778563932451677
      ],
      [
        "▁olympics",
        -10.779167995108969
      ],
      [
        "▁wave",
        -10.779228611733693
      ],
      [
        "▁heaven",
        -10.780348151765
      ],
      [
        "▁occasion",
        -10.781120859985643
      ],
      [
        "▁greek",
        -10.781211943697272
      ],
      [
        "▁penny",
        -10.781767540952636
      ],
      [
        "▁trick",
        -10.782113678603036
      ],
      [
        "▁younger",
        -10.783469372071076
      ],
      [
        "▁strike",
        -10.783564757321336
      ],
      [
        "▁grave",
        -10.78365826942412
      ],
      [
        "▁shock",
        -10.78685682370223
      ],
      [
        "shire",
        -10.78686335014316
      ],
      [
        "▁ladder",
        -10.787967075682284
      ],
      [
        "▁excellent",
        -10.789271134626304
      ],
      [
        "▁forever",
        -10.789493671747689
      ],
      [
        "▁wine",
        -10.789970706731268
      ],
      [
        "▁mass",
        -10.79065741917513
      ],
      [
        "▁blind",
        -10.791049655624146
      ],
      [
        "▁colonel",
        -10.792131612926273
      ],
      [
        "▁respond",
        -10.79295115059048
      ],
      [
        "town",
        -10.79316665738088
      ],
      [
        "▁narrow",
        -10.793894201972238
      ],
      [
        "▁australian",
        -10.794303880408853
      ],
      [
        "▁showing",
        -10.794538160148488
      ],
      [
        "▁bare",
        -10.794839903398952
      ],
      [
        "▁scarce",
        -10.795393183523444
      ],
      [
        "▁element",
        -10.795793096601953
      ],
      [
        "have",
        -10.796083284505205
      ],
      [
        "▁scot",
        -10.796966475444748
      ],
      [
        "making",
        -10.797957692423036
      ],
      [
        "▁clock",
        -10.798383658021006
      ],
      [
        "▁prevent",
        -10.799187298159234
      ],
      [
        "▁upset",
        -10.799254987018626
      ],
      [
        "▁contact",
        -10.79951032519448
      ],
      [
        "▁medical",
        -10.799683951892142
      ],
      [
        "▁mount",
        -10.800793567275164
      ],
      [
        "▁blanket",
        -10.801040350645309
      ],
      [
        "look",
        -10.801116085506752
      ],
      [
        "▁standard",
        -10.801841803576886
      ],
      [
        "▁association",
        -10.801943446778576
      ],
      [
        "▁stretch",
        -10.802083996920391
      ],
      [
        "▁staff",
        -10.803891456082429
      ],
      [
        "▁compete",
        -10.804008957138493
      ],
      [
        "▁mate",
        -10.80455998854224
      ],
      [
        "ten",
        -10.804621294228811
      ],
      [
        "▁refer",
        -10.804647935051308
      ],
      [
        "▁individual",
        -10.804928705525686
      ],
      [
        "▁tent",
        -10.805016894517214
      ],
      [
        "▁curious",
        -10.805161931929955
      ],
      [
        "▁knowledge",
        -10.805658378593602
      ],
      [
        "▁cap",
        -10.80584649288966
      ],
      [
        "posta",
        -10.806681054408308
      ],
      [
        "▁islands",
        -10.806766883716524
      ],
      [
        "▁desert",
        -10.807674678167956
      ],
      [
        "cities",
        -10.807690260525716
      ],
      [
        "your",
        -10.808464073415514
      ],
      [
        "▁acting",
        -10.808929064701111
      ],
      [
        "▁sixt",
        -10.809776144719123
      ],
      [
        "speech",
        -10.80995025277311
      ],
      [
        "▁bathroom",
        -10.810110775546594
      ],
      [
        "ric",
        -10.810286184248213
      ],
      [
        "▁cancer",
        -10.811708709556314
      ],
      [
        "▁joseph",
        -10.811826254646784
      ],
      [
        "▁forced",
        -10.811920101571795
      ],
      [
        "▁require",
        -10.813188273623574
      ],
      [
        "▁production",
        -10.813615855408244
      ],
      [
        "▁brothers",
        -10.813807050612272
      ],
      [
        "▁pressure",
        -10.814707966924798
      ],
      [
        "▁ruin",
        -10.81498385760004
      ],
      [
        "▁nick",
        -10.815020299561247
      ],
      [
        "▁comfortable",
        -10.81504382968294
      ],
      [
        "▁qualit",
        -10.815090472323313
      ],
      [
        "▁tickle",
        -10.816766686915653
      ],
      [
        "▁martine",
        -10.817113256902472
      ],
      [
        "jo",
        -10.81712667449504
      ],
      [
        "▁pencil",
        -10.817654704564912
      ],
      [
        "▁included",
        -10.817873778176292
      ],
      [
        "more",
        -10.820780882642232
      ],
      [
        "▁forgive",
        -10.82094789675429
      ],
      [
        "▁passenger",
        -10.821120006147272
      ],
      [
        "▁dozen",
        -10.82127447882311
      ],
      [
        "▁cute",
        -10.821377618091123
      ],
      [
        "▁desk",
        -10.822148601472596
      ],
      [
        "▁tim",
        -10.822321493128754
      ],
      [
        "▁reply",
        -10.822770964236138
      ],
      [
        "▁concern",
        -10.823421323831322
      ],
      [
        "▁pre",
        -10.824033144332248
      ],
      [
        "takes",
        -10.82416852144416
      ],
      [
        "▁neat",
        -10.824950896127888
      ],
      [
        "▁fancy",
        -10.825166978069891
      ],
      [
        "▁swim",
        -10.827225795616414
      ],
      [
        "é",
        -10.830025476929382
      ],
      [
        "▁scott",
        -10.83010542178689
      ],
      [
        "▁zzz",
        -10.830484365530186
      ],
      [
        "▁credit",
        -10.830585699285583
      ],
      [
        "▁thin",
        -10.831086759804888
      ],
      [
        "▁serve",
        -10.831237300210857
      ],
      [
        "▁amazing",
        -10.832045433448371
      ],
      [
        "▁bart",
        -10.832577940625796
      ],
      [
        "somewhat",
        -10.833260994793129
      ],
      [
        "▁jimmy",
        -10.834615821514443
      ],
      [
        "▁carriage",
        -10.835284497425985
      ],
      [
        "▁yay",
        -10.8361857559806
      ],
      [
        "▁parliament",
        -10.836556821888443
      ],
      [
        "▁companion",
        -10.836920401646154
      ],
      [
        "▁refuse",
        -10.837141029280204
      ],
      [
        "▁maggie",
        -10.837314155883217
      ],
      [
        "▁trial",
        -10.837681751335037
      ],
      [
        "▁calls",
        -10.83775416396218
      ],
      [
        "▁speech",
        -10.838343689948696
      ],
      [
        "▁section",
        -10.838488945503798
      ],
      [
        "▁dust",
        -10.83856845868661
      ],
      [
        "▁succeed",
        -10.838607306839643
      ],
      [
        "ship",
        -10.838616487550432
      ],
      [
        "▁weird",
        -10.839099120005656
      ],
      [
        "▁upper",
        -10.839455410946933
      ],
      [
        "▁retire",
        -10.839914831098016
      ],
      [
        "▁holy",
        -10.840541699433466
      ],
      [
        "▁hanging",
        -10.840757729883144
      ],
      [
        "▁records",
        -10.841392732059555
      ],
      [
        "see",
        -10.841911250867224
      ],
      [
        "▁loss",
        -10.84387385009094
      ],
      [
        "▁performance",
        -10.843987110165063
      ],
      [
        "ng",
        -10.844218734796351
      ],
      [
        "▁organization",
        -10.844498641301971
      ],
      [
        "▁author",
        -10.84470345995182
      ],
      [
        "settled",
        -10.847686729291093
      ],
      [
        "▁expression",
        -10.84770886498122
      ],
      [
        "biggest",
        -10.848725808978909
      ],
      [
        "our",
        -10.849417117825492
      ],
      [
        "▁task",
        -10.850713679890214
      ],
      [
        "▁favor",
        -10.850975087832644
      ],
      [
        "▁replace",
        -10.850999889158174
      ],
      [
        "▁concerned",
        -10.851528040802505
      ],
      [
        "▁pool",
        -10.852562110105591
      ],
      [
        "▁recording",
        -10.853614109397594
      ],
      [
        "▁male",
        -10.854065573623249
      ],
      [
        "▁metal",
        -10.85435099876948
      ],
      [
        "▁latter",
        -10.85440422537951
      ],
      [
        "ugh",
        -10.855481469783289
      ],
      [
        "▁swing",
        -10.856000036754438
      ],
      [
        "▁wondering",
        -10.856638145966624
      ],
      [
        "▁engage",
        -10.857576247870965
      ],
      [
        "▁worst",
        -10.857859448324842
      ],
      [
        "▁mirror",
        -10.85951424409723
      ],
      [
        "▁barn",
        -10.859560432024503
      ],
      [
        "▁cooking",
        -10.860553525682423
      ],
      [
        "▁select",
        -10.861116176806291
      ],
      [
        "▁grandmother",
        -10.862097129374137
      ],
      [
        "▁anna",
        -10.862246249913175
      ],
      [
        "▁glasses",
        -10.862515945045567
      ],
      [
        "▁powerful",
        -10.863102201260824
      ],
      [
        "▁smiling",
        -10.863865719148215
      ],
      [
        "▁dutch",
        -10.86403376588308
      ],
      [
        "▁jigsaw",
        -10.8640682201011
      ],
      [
        "▁madam",
        -10.864110536406608
      ],
      [
        "▁angel",
        -10.86451124513785
      ],
      [
        "▁developed",
        -10.86543096920312
      ],
      [
        "▁burst",
        -10.866502743578216
      ],
      [
        "▁afford",
        -10.866935642564725
      ],
      [
        "▁vi",
        -10.86694268891048
      ],
      [
        "lie",
        -10.867283051538251
      ],
      [
        "▁leap",
        -10.86775081273537
      ],
      [
        "▁hills",
        -10.86820277499231
      ],
      [
        "▁positive",
        -10.868303414845943
      ],
      [
        "▁propert",
        -10.86857153234022
      ],
      [
        "▁bringing",
        -10.868842701569758
      ],
      [
        "▁dragon",
        -10.869071828544506
      ],
      [
        "▁airplane",
        -10.869695735873623
      ],
      [
        "▁tip",
        -10.869876444188948
      ],
      [
        "▁rescue",
        -10.870207328715738
      ],
      [
        "chester",
        -10.871457803337494
      ],
      [
        "ability",
        -10.87212590782016
      ],
      [
        "lau",
        -10.872704302246936
      ],
      [
        "▁mid",
        -10.8728045939548
      ],
      [
        "▁pet",
        -10.873039898419592
      ],
      [
        "▁nervous",
        -10.873259607138928
      ],
      [
        "▁request",
        -10.87387015996474
      ],
      [
        "offered",
        -10.87391288774844
      ],
      [
        "▁sandwich",
        -10.874097287787691
      ],
      [
        "▁avoid",
        -10.874426784321845
      ],
      [
        "▁secure",
        -10.876085406027975
      ],
      [
        "▁independent",
        -10.876244067316746
      ],
      [
        "▁broad",
        -10.876710575541743
      ],
      [
        "dying",
        -10.87672868223973
      ],
      [
        "▁walls",
        -10.878817127138484
      ],
      [
        "▁emperor",
        -10.879164286078984
      ],
      [
        "}",
        -10.879647199987929
      ],
      [
        "▁product",
        -10.879786881137598
      ],
      [
        "▁plastic",
        -10.880034017010908
      ],
      [
        "▁flew",
        -10.88023917414996
      ],
      [
        "▁culture",
        -10.881139147662196
      ],
      [
        "ellie",
        -10.881168635116138
      ],
      [
        "▁teams",
        -10.881810846148223
      ],
      [
        "▁aware",
        -10.882076634945646
      ],
      [
        "▁vehicle",
        -10.882104625829207
      ],
      [
        "▁bi",
        -10.882871767859854
      ],
      [
        "▁chicago",
        -10.88361733210408
      ],
      [
        "▁edward",
        -10.883631575187335
      ],
      [
        "▁launch",
        -10.88367100178682
      ],
      [
        "▁freedom",
        -10.884160539362476
      ],
      [
        "▁eaten",
        -10.884545441092962
      ],
      [
        "▁polly",
        -10.885776738881406
      ],
      [
        "▁benefit",
        -10.886663273836898
      ],
      [
        "▁soup",
        -10.887110489630745
      ],
      [
        "▁irish",
        -10.887647284595603
      ],
      [
        "▁advantage",
        -10.888961833990994
      ],
      [
        "▁hurried",
        -10.889025182159184
      ],
      [
        "▁gordon",
        -10.890960895334224
      ],
      [
        "▁receive",
        -10.891020951468612
      ],
      [
        "▁jean",
        -10.892695656217525
      ],
      [
        "▁birth",
        -10.89384351845408
      ],
      [
        "▁comfort",
        -10.894457104876416
      ],
      [
        "▁doin",
        -10.894486493280658
      ],
      [
        "▁bomba",
        -10.89454861915776
      ],
      [
        "together",
        -10.894725296041884
      ],
      [
        "▁switch",
        -10.894853214638244
      ],
      [
        "den",
        -10.894925721525208
      ],
      [
        "▁gosh",
        -10.894966439523357
      ],
      [
        "▁waste",
        -10.894993881269452
      ],
      [
        "▁repeated",
        -10.895706706809104
      ],
      [
        "▁fairy",
        -10.895888046082678
      ],
      [
        "▁pack",
        -10.896386931718416
      ],
      [
        "▁seriously",
        -10.898368215086466
      ],
      [
        "▁passing",
        -10.898583905916182
      ],
      [
        "back",
        -10.899303203378825
      ],
      [
        "▁starr",
        -10.899432715390354
      ],
      [
        "▁artist",
        -10.899470012619489
      ],
      [
        "▁deer",
        -10.900222428775848
      ],
      [
        "▁previous",
        -10.900643002325191
      ],
      [
        "▁ireland",
        -10.900826533337312
      ],
      [
        "▁sigh",
        -10.901795676557391
      ],
      [
        "law",
        -10.902075117613643
      ],
      [
        "▁novel",
        -10.902358763144584
      ],
      [
        "▁trail",
        -10.902460922527917
      ],
      [
        "▁sailor",
        -10.90263059228603
      ],
      [
        "gently",
        -10.903057119647109
      ],
      [
        "actually",
        -10.905106004196496
      ],
      [
        "laughter",
        -10.905659230224792
      ],
      [
        "▁tummy",
        -10.90685745394077
      ],
      [
        "neath",
        -10.907215518884271
      ],
      [
        "▁alex",
        -10.90755263012781
      ],
      [
        "▁moo",
        -10.908119062001584
      ],
      [
        "▁socks",
        -10.909284169819053
      ],
      [
        "▁poo",
        -10.910293655663764
      ],
      [
        "▁rise",
        -10.910430694276473
      ],
      [
        "voice",
        -10.911046822079705
      ],
      [
        "▁florida",
        -10.911426439474674
      ],
      [
        "▁beast",
        -10.912022440047853
      ],
      [
        "▁honour",
        -10.912047434452624
      ],
      [
        "▁yyy",
        -10.912891302984775
      ],
      [
        "▁knocked",
        -10.91364354946858
      ],
      [
        "▁provide",
        -10.914335638447994
      ],
      [
        "`",
        -10.914561988024207
      ],
      [
        "▁average",
        -10.915436514234596
      ],
      [
        "▁rome",
        -10.915507618945016
      ],
      [
        "▁item",
        -10.917250025917992
      ],
      [
        "▁rings",
        -10.917871172215971
      ],
      [
        "▁los",
        -10.92000533377761
      ],
      [
        "abel",
        -10.920320597448326
      ],
      [
        "▁boom",
        -10.92044261464294
      ],
      [
        "▁stands",
        -10.921014882083076
      ],
      [
        "▁chairman",
        -10.921030073238134
      ],
      [
        "▁bu",
        -10.921430264375411
      ],
      [
        "▁weekend",
        -10.92191434589824
      ],
      [
        "▁familie",
        -10.922620628144518
      ],
      [
        "over",
        -10.92263775669782
      ],
      [
        "▁rare",
        -10.923080063154895
      ],
      [
        "▁utter",
        -10.923118918781029
      ],
      [
        "▁clearly",
        -10.923349458446904
      ],
      [
        "▁becoming",
        -10.92478876176972
      ],
      [
        "▁sides",
        -10.924965172762356
      ],
      [
        "▁african",
        -10.924970668719052
      ],
      [
        "▁transport",
        -10.925107879823614
      ],
      [
        "▁reported",
        -10.925135093930049
      ],
      [
        "▁determined",
        -10.926635060839091
      ],
      [
        "▁constant",
        -10.927321722123724
      ],
      [
        "▁lock",
        -10.927445904964417
      ],
      [
        "▁article",
        -10.927633837972976
      ],
      [
        "▁visitor",
        -10.927664673905149
      ],
      [
        "▁scream",
        -10.927750917788623
      ],
      [
        "▁odd",
        -10.928229168918536
      ],
      [
        "▁somehow",
        -10.92828978305614
      ],
      [
        "▁garage",
        -10.928666690443183
      ],
      [
        "▁sweetie",
        -10.929264335082328
      ],
      [
        "totally",
        -10.929500927967812
      ],
      [
        "▁material",
        -10.93004708301117
      ],
      [
        "▁colour",
        -10.930777722571024
      ],
      [
        "▁fashion",
        -10.930935578919232
      ],
      [
        "▁create",
        -10.931031381736572
      ],
      [
        "ferring",
        -10.933159198016838
      ],
      [
        "five",
        -10.933847765449158
      ],
      [
        "▁highe",
        -10.933898310100227
      ],
      [
        "▁debut",
        -10.934037960583805
      ],
      [
        "▁waited",
        -10.935141329086644
      ],
      [
        "▁tough",
        -10.935793172297185
      ],
      [
        "▁confirm",
        -10.93591643251707
      ],
      [
        "▁heads",
        -10.936777133076788
      ],
      [
        "▁activit",
        -10.938642391959023
      ],
      [
        "thank",
        -10.939421367497356
      ],
      [
        "▁advice",
        -10.940181593592271
      ],
      [
        "▁hung",
        -10.94026993633856
      ],
      [
        "▁jumping",
        -10.941428499191186
      ],
      [
        "▁owl",
        -10.941679063250422
      ],
      [
        "▁horrible",
        -10.941988736487556
      ],
      [
        "annie",
        -10.942005093785266
      ],
      [
        "▁student",
        -10.94274446543573
      ],
      [
        "signed",
        -10.943044784847428
      ],
      [
        "▁cave",
        -10.94330512497458
      ],
      [
        "▁sausage",
        -10.943894996853494
      ],
      [
        "▁thrown",
        -10.944761200348587
      ],
      [
        "▁drawn",
        -10.945364331976606
      ],
      [
        "▁justice",
        -10.945689394658944
      ],
      [
        "faster",
        -10.946029441268458
      ],
      [
        "whenever",
        -10.946257893403343
      ],
      [
        "▁peas",
        -10.946518324965847
      ],
      [
        "▁knees",
        -10.946892604874485
      ],
      [
        "▁related",
        -10.947065814517016
      ],
      [
        "▁media",
        -10.94717893367525
      ],
      [
        "▁toilet",
        -10.947435936275628
      ],
      [
        "▁treasure",
        -10.94833941092929
      ],
      [
        "▁cash",
        -10.949045206335834
      ],
      [
        "▁image",
        -10.94906201704627
      ],
      [
        "▁observe",
        -10.949305489332072
      ],
      [
        "▁shooting",
        -10.94937140931361
      ],
      [
        "▁grandfather",
        -10.94968518249886
      ],
      [
        "▁drama",
        -10.949822294025232
      ],
      [
        "▁struggle",
        -10.950945171463658
      ],
      [
        "▁territor",
        -10.95098478966028
      ],
      [
        "▁ships",
        -10.95104569487043
      ],
      [
        "▁loose",
        -10.951108770534336
      ],
      [
        "▁boxes",
        -10.951458771181343
      ],
      [
        "▁foreign",
        -10.953925901687937
      ],
      [
        "will",
        -10.95414475838615
      ],
      [
        "▁volume",
        -10.954317602395156
      ],
      [
        "sib",
        -10.95490967243184
      ],
      [
        "▁sword",
        -10.955223712432575
      ],
      [
        "▁feelings",
        -10.955657696020488
      ],
      [
        "▁soviet",
        -10.955761736549722
      ],
      [
        "▁conduct",
        -10.955796719716655
      ],
      [
        "▁chemical",
        -10.956387166245076
      ],
      [
        "▁schools",
        -10.95693060178642
      ],
      [
        "▁bead",
        -10.957032931738851
      ],
      [
        "peter",
        -10.957296393479863
      ],
      [
        "▁recover",
        -10.95831404610475
      ],
      [
        "▁palace",
        -10.95847004105519
      ],
      [
        "▁susan",
        -10.958643345075163
      ],
      [
        "▁brick",
        -10.958832680222049
      ],
      [
        "▁detective",
        -10.958915358307433
      ],
      [
        "▁bunch",
        -10.959220838295128
      ],
      [
        "▁plus",
        -10.959594797088316
      ],
      [
        "▁harm",
        -10.95968558255278
      ],
      [
        "▁campaign",
        -10.960152436931402
      ],
      [
        "▁percent",
        -10.96083856537971
      ],
      [
        "▁nana",
        -10.96097379360246
      ],
      [
        "holds",
        -10.96253685821921
      ],
      [
        "▁mix",
        -10.96278166557999
      ],
      [
        "▁mile",
        -10.962893891604406
      ],
      [
        "▁flash",
        -10.962902763119164
      ],
      [
        "▁bush",
        -10.963090828447612
      ],
      [
        "▁caterpillar",
        -10.96330704937908
      ],
      [
        "▁copy",
        -10.963377641906414
      ],
      [
        "▁hmm",
        -10.963482157654209
      ],
      [
        "▁drove",
        -10.963540276064393
      ],
      [
        "▁excitement",
        -10.963943259063717
      ],
      [
        "▁pages",
        -10.964111472885296
      ],
      [
        "▁hearing",
        -10.964227461745892
      ],
      [
        "▁nation",
        -10.964326367037302
      ],
      [
        "▁active",
        -10.964473845768916
      ],
      [
        "▁pooh",
        -10.965418944628286
      ],
      [
        "▁hammer",
        -10.965542686237626
      ],
      [
        "▁unfortunate",
        -10.9657725908866
      ],
      [
        "▁competition",
        -10.966473591783792
      ],
      [
        "▁jerry",
        -10.967055745557726
      ],
      [
        "▁carrot",
        -10.96711431104498
      ],
      [
        "bury",
        -10.967453763713689
      ],
      [
        "▁roar",
        -10.968061794570673
      ],
      [
        "▁min",
        -10.968066896224784
      ],
      [
        "▁mexic",
        -10.96852001563613
      ],
      [
        "▁sheet",
        -10.968730135068352
      ],
      [
        "▁darkness",
        -10.969046984274238
      ],
      [
        "▁keys",
        -10.969108645842285
      ],
      [
        "▁aside",
        -10.969599163711624
      ],
      [
        "▁turtle",
        -10.970033309768812
      ],
      [
        "▁congress",
        -10.97046018350868
      ],
      [
        "▁temperature",
        -10.970491088689736
      ],
      [
        "▁stock",
        -10.97080390434969
      ],
      [
        "▁motor",
        -10.97086197232146
      ],
      [
        "▁shower",
        -10.970893097377717
      ],
      [
        "▁neighbor",
        -10.971478489212462
      ],
      [
        "▁theory",
        -10.971737686377375
      ],
      [
        "▁cutting",
        -10.97222838078966
      ],
      [
        "▁yard",
        -10.972963489892692
      ],
      [
        "▁delight",
        -10.974299836308646
      ],
      [
        "▁method",
        -10.975243121693264
      ],
      [
        "ere",
        -10.975254487410227
      ],
      [
        "▁bits",
        -10.975753723617888
      ],
      [
        "▁alice",
        -10.976669367898374
      ],
      [
        "▁russia",
        -10.977108068459728
      ],
      [
        "▁jacket",
        -10.977130304738154
      ],
      [
        "▁dunno",
        -10.97746932512934
      ],
      [
        "▁tommy",
        -10.978061495027838
      ],
      [
        "▁canadian",
        -10.978385244532143
      ],
      [
        "▁bend",
        -10.97840347801472
      ],
      [
        "▁eventual",
        -10.97849164873944
      ],
      [
        "▁proceed",
        -10.979635910347362
      ],
      [
        "▁hop",
        -10.979817478243277
      ],
      [
        "worn",
        -10.980700989411565
      ],
      [
        "col",
        -10.98177368645697
      ],
      [
        "▁killing",
        -10.982700117133078
      ],
      [
        "pushed",
        -10.982766474654326
      ],
      [
        "▁presence",
        -10.983221809586674
      ],
      [
        "▁review",
        -10.98353308623886
      ],
      [
        "water",
        -10.98398450297094
      ],
      [
        "▁worker",
        -10.98487487280212
      ],
      [
        "▁kinds",
        -10.985040847792654
      ],
      [
        "▁faint",
        -10.986556605906646
      ],
      [
        "▁toes",
        -10.987091753509846
      ],
      [
        "▁icecream",
        -10.987638098933113
      ],
      [
        "▁paying",
        -10.987832142086145
      ],
      [
        "led",
        -10.988197914211025
      ],
      [
        "▁roger",
        -10.988442079549952
      ],
      [
        "▁knowing",
        -10.989382959225985
      ],
      [
        "▁faces",
        -10.989573834489327
      ],
      [
        "▁pa",
        -10.989621057111677
      ],
      [
        "breaking",
        -10.989878109212894
      ],
      [
        "▁pilot",
        -10.99022482166566
      ],
      [
        "com",
        -10.990694412929464
      ],
      [
        "¶",
        -10.990872831587248
      ],
      [
        "▁interview",
        -10.991391553283997
      ],
      [
        "▁chart",
        -10.991904080800944
      ],
      [
        "▁fond",
        -10.992069015486036
      ],
      [
        "▁familiar",
        -10.992192290331182
      ],
      [
        "▁fought",
        -10.992230563951416
      ],
      [
        "▁arthur",
        -10.993592051322484
      ],
      [
        "▁admit",
        -10.994089809461196
      ],
      [
        "▁baseball",
        -10.994259128130262
      ],
      [
        "▁arrange",
        -10.994580654972664
      ],
      [
        "▁burning",
        -10.994936133955594
      ],
      [
        "voc",
        -10.9949808463228
      ],
      [
        "▁mayor",
        -10.995734675315523
      ],
      [
        "▁wore",
        -10.996523595326964
      ],
      [
        "―",
        -10.996739862550612
      ],
      [
        "▁priest",
        -10.996782356161322
      ],
      [
        "▁chain",
        -10.996922216016856
      ],
      [
        "▁reckon",
        -10.996952317690877
      ],
      [
        "▁molly",
        -10.997137676269
      ],
      [
        "▁wings",
        -10.99720401135217
      ],
      [
        "▁code",
        -10.997242521392288
      ],
      [
        "▁hunt",
        -10.99727940055703
      ],
      [
        "▁tour",
        -10.997353110067037
      ],
      [
        "▁pipe",
        -10.997901865119196
      ],
      [
        "▁statistic",
        -10.997921836271844
      ],
      [
        "fri",
        -10.999288895113388
      ],
      [
        "▁doggy",
        -10.999618441641466
      ],
      [
        "▁doors",
        -10.999928729269024
      ],
      [
        "▁bitch",
        -11.000880069626495
      ],
      [
        "▁remind",
        -11.001036137957
      ],
      [
        "▁touched",
        -11.002045004841577
      ],
      [
        "▁boston",
        -11.0030852151385
      ],
      [
        "▁pale",
        -11.003288586963286
      ],
      [
        "▁shadow",
        -11.0036587033423
      ],
      [
        "▁relative",
        -11.00367825664731
      ],
      [
        "▁sue",
        -11.003714158345192
      ],
      [
        "▁pile",
        -11.00478047638568
      ],
      [
        "boy",
        -11.005091672678416
      ],
      [
        "▁statement",
        -11.005532176213556
      ],
      [
        "▁rice",
        -11.005910692056132
      ],
      [
        "▁chase",
        -11.005987808426369
      ],
      [
        "▁grey",
        -11.007961887506836
      ],
      [
        "▁butterfly",
        -11.008888346990906
      ],
      [
        "▁labour",
        -11.009012918689509
      ],
      [
        "▁sweetheart",
        -11.009249080085612
      ],
      [
        "▁leaf",
        -11.009507178121908
      ],
      [
        "normally",
        -11.00969819277246
      ],
      [
        "racing",
        -11.009896901237443
      ],
      [
        "▁tax",
        -11.010581960855925
      ],
      [
        "▁steve",
        -11.010657609047891
      ],
      [
        "▁height",
        -11.011837674982988
      ],
      [
        "▁apartment",
        -11.011963912527786
      ],
      [
        "▁contract",
        -11.012355943365751
      ],
      [
        "▁quack",
        -11.013005639327533
      ],
      [
        "▁adventure",
        -11.013017674323844
      ],
      [
        "▁extend",
        -11.01322703191957
      ],
      [
        "▁protest",
        -11.013256785354336
      ],
      [
        "▁blame",
        -11.013561600694246
      ],
      [
        "▁comment",
        -11.013721021939473
      ],
      [
        "▁puppy",
        -11.013910505531827
      ],
      [
        "▁nest",
        -11.01395420350284
      ],
      [
        "▁useful",
        -11.01502337281197
      ],
      [
        "▁handsome",
        -11.01583854622812
      ],
      [
        "hockey",
        -11.01588460240006
      ],
      [
        "loud",
        -11.016542376997783
      ],
      [
        "▁physical",
        -11.016641965983077
      ],
      [
        "▁representative",
        -11.017221685349789
      ],
      [
        "involuntar",
        -11.01788369567402
      ],
      [
        "▁turkey",
        -11.018659155935946
      ],
      [
        "▁learning",
        -11.018679433753936
      ],
      [
        "▁cats",
        -11.01915304293851
      ],
      [
        "▁guide",
        -11.019336481997753
      ],
      [
        "▁backward",
        -11.019987972343074
      ],
      [
        "▁crack",
        -11.02000026970834
      ],
      [
        "▁partner",
        -11.02050155916182
      ],
      [
        "▁characters",
        -11.020814272090597
      ],
      [
        "▁democratic",
        -11.022334433908654
      ],
      [
        "▁brian",
        -11.022655622309406
      ],
      [
        "▁alarm",
        -11.022820716127022
      ],
      [
        "▁types",
        -11.022866988599496
      ],
      [
        "turns",
        -11.022965077039956
      ],
      [
        "described",
        -11.02320341883772
      ],
      [
        "▁legal",
        -11.023685459858084
      ],
      [
        "▁wha",
        -11.023796980790667
      ],
      [
        "▁soap",
        -11.024084932737678
      ],
      [
        "▁mail",
        -11.024566017134532
      ],
      [
        "locked",
        -11.024953807162134
      ],
      [
        "ix",
        -11.025526782700062
      ],
      [
        "▁giraffe",
        -11.027425311596977
      ],
      [
        "may",
        -11.027979472164803
      ],
      [
        "▁mamma",
        -11.028100985479757
      ],
      [
        "▁eighteen",
        -11.028628061025993
      ],
      [
        "▁senior",
        -11.028971749061062
      ],
      [
        "▁byebye",
        -11.029501667514657
      ],
      [
        "▁pulling",
        -11.029582866320911
      ],
      [
        "▁fifth",
        -11.029634759875083
      ],
      [
        "▁chest",
        -11.029853890627194
      ],
      [
        "▁buried",
        -11.03003935033744
      ],
      [
        "▁daniel",
        -11.031774845346767
      ],
      [
        "▁seek",
        -11.032017307332408
      ],
      [
        "▁appreciate",
        -11.032353177832665
      ],
      [
        "▁conference",
        -11.032684803062397
      ],
      [
        "▁lack",
        -11.032901283982206
      ],
      [
        "two",
        -11.033047270350496
      ],
      [
        "▁rank",
        -11.034259375992043
      ],
      [
        "▁boats",
        -11.035891686257528
      ],
      [
        "▁feels",
        -11.036426251333502
      ],
      [
        "▁bricks",
        -11.037612192817774
      ],
      [
        "▁tuesday",
        -11.037658885843449
      ],
      [
        "▁mixed",
        -11.038058506843404
      ],
      [
        "▁client",
        -11.038805030066236
      ],
      [
        "▁bone",
        -11.039219002423046
      ],
      [
        "angeles",
        -11.039962118559242
      ],
      [
        "▁folks",
        -11.040528787167938
      ],
      [
        "▁sport",
        -11.0406260107101
      ],
      [
        "▁hidden",
        -11.040783780502686
      ],
      [
        "end",
        -11.041000946856627
      ],
      [
        "▁courage",
        -11.041979602190644
      ],
      [
        "▁interrupt",
        -11.042101456441548
      ],
      [
        "▁mud",
        -11.042135220542942
      ],
      [
        "▁weak",
        -11.043002494029336
      ],
      [
        "▁structure",
        -11.043326901891827
      ],
      [
        "▁policy",
        -11.04389650037077
      ],
      [
        "▁pointed",
        -11.04444197242051
      ],
      [
        "ized",
        -11.044497118256675
      ],
      [
        "▁candy",
        -11.04465923383598
      ],
      [
        "glo",
        -11.04659411129236
      ],
      [
        "▁shame",
        -11.046947701110655
      ],
      [
        "▁screw",
        -11.046974863761934
      ],
      [
        "▁matthew",
        -11.0475177941871
      ],
      [
        "▁obtain",
        -11.04839455646771
      ],
      [
        "whisper",
        -11.049755410572509
      ],
      [
        "▁severe",
        -11.050831705597783
      ],
      [
        "▁dada",
        -11.05130698282467
      ],
      [
        "▁merry",
        -11.051664548833928
      ],
      [
        "▁scary",
        -11.051736412296004
      ],
      [
        "▁sticker",
        -11.052136370886046
      ],
      [
        "▁spare",
        -11.05247844754669
      ],
      [
        "slept",
        -11.054646828682529
      ],
      [
        "▁elizabeth",
        -11.054850502600054
      ],
      [
        "▁rear",
        -11.055235016159353
      ],
      [
        "▁trouser",
        -11.055303396411844
      ],
      [
        "▁belt",
        -11.055819808043756
      ],
      [
        "▁repeat",
        -11.056319114717756
      ],
      [
        "▁industr",
        -11.05683022209563
      ],
      [
        "rules",
        -11.057215361550364
      ],
      [
        "▁robin",
        -11.057386201619956
      ],
      [
        "▁target",
        -11.05738829481653
      ],
      [
        "▁anti",
        -11.058039961261668
      ],
      [
        "▁scale",
        -11.058898531427902
      ],
      [
        "▁whee",
        -11.05943672087039
      ],
      [
        "▁exercise",
        -11.059471493620412
      ],
      [
        "▁scout",
        -11.06020194208338
      ],
      [
        "▁loves",
        -11.060373355602389
      ],
      [
        "▁rod",
        -11.06098724224838
      ],
      [
        "▁yell",
        -11.062246357106208
      ],
      [
        "▁traffic",
        -11.06245087898888
      ],
      [
        "▁pats",
        -11.062631019413146
      ],
      [
        "▁responsibl",
        -11.062688502548085
      ],
      [
        "ja",
        -11.062959175037076
      ],
      [
        "▁musical",
        -11.063213433214305
      ],
      [
        "▁nap",
        -11.063357180206896
      ],
      [
        "▁climate",
        -11.064449682172386
      ],
      [
        "▁flow",
        -11.064805432669909
      ],
      [
        "right",
        -11.066006949653294
      ],
      [
        "▁matters",
        -11.066241088079806
      ],
      [
        "▁prayer",
        -11.066585016373356
      ],
      [
        "▁nina",
        -11.068563912151593
      ],
      [
        "▁pitcher",
        -11.068722553142898
      ],
      [
        "▁federal",
        -11.069040214669933
      ],
      [
        "▁exciting",
        -11.069350872018637
      ],
      [
        "▁restaurant",
        -11.069696857154057
      ],
      [
        "▁sang",
        -11.069922463793397
      ],
      [
        "guilty",
        -11.070471751158376
      ],
      [
        "▁festival",
        -11.070498002400182
      ],
      [
        "staying",
        -11.071446167163831
      ],
      [
        "▁potato",
        -11.071903144706967
      ],
      [
        "▁sum",
        -11.072498100488014
      ],
      [
        "▁print",
        -11.073409668646526
      ],
      [
        "▁sixteen",
        -11.073607623011544
      ],
      [
        "▁ar",
        -11.073680063082374
      ],
      [
        "▁queer",
        -11.07396199849767
      ],
      [
        "▁lorry",
        -11.074915602576072
      ],
      [
        "▁route",
        -11.075627995642444
      ],
      [
        "▁clap",
        -11.076539536501375
      ],
      [
        "▁beans",
        -11.07713573822846
      ],
      [
        "leaves",
        -11.077249764763437
      ],
      [
        "▁inquir",
        -11.078031417293053
      ],
      [
        "▁progress",
        -11.078410171025382
      ],
      [
        "▁latin",
        -11.078811431991088
      ],
      [
        "▁religion",
        -11.078947300709345
      ],
      [
        "▁unusual",
        -11.07944242393068
      ],
      [
        "▁jo",
        -11.079513229249091
      ],
      [
        "▁jessi",
        -11.080003595516368
      ],
      [
        "▁quit",
        -11.081486651256988
      ],
      [
        "▁dude",
        -11.081498510958962
      ],
      [
        "▁yumm",
        -11.081777397533358
      ],
      [
        "mouth",
        -11.083003634690137
      ],
      [
        "▁keeps",
        -11.08306271225632
      ],
      [
        "▁ruth",
        -11.083570145068531
      ],
      [
        "▁economic",
        -11.0841703272131
      ],
      [
        "▁wooden",
        -11.08443354497767
      ],
      [
        "▁catholic",
        -11.085415850813355
      ],
      [
        "scream",
        -11.0855334808662
      ],
      [
        "▁postman",
        -11.08677963104944
      ],
      [
        "war",
        -11.0869830151003
      ],
      [
        "▁eve",
        -11.087475905685793
      ],
      [
        "▁branch",
        -11.087860478756552
      ],
      [
        "▁jones",
        -11.08808941476502
      ],
      [
        "▁smooth",
        -11.088501078976607
      ],
      [
        "▁jenny",
        -11.088636915118332
      ],
      [
        "▁depend",
        -11.08864723180627
      ],
      [
        "▁dig",
        -11.088827111495954
      ],
      [
        "▁maria",
        -11.089296882126291
      ],
      [
        "ke",
        -11.089377849654804
      ],
      [
        "▁matche",
        -11.089874758028255
      ],
      [
        "soft",
        -11.090654865480774
      ],
      [
        "down",
        -11.091989680612928
      ],
      [
        "▁junior",
        -11.093515896492404
      ],
      [
        "▁unknown",
        -11.093856512648175
      ],
      [
        "{",
        -11.094177176688778
      ],
      [
        "▁rolling",
        -11.094216054852254
      ],
      [
        "▁penguin",
        -11.094688280913068
      ],
      [
        "▁den",
        -11.09496026539848
      ],
      [
        "ugly",
        -11.095235815850614
      ],
      [
        "▁oven",
        -11.09564184395117
      ],
      [
        "▁established",
        -11.096259689320425
      ],
      [
        "▁circumstance",
        -11.096922680784315
      ],
      [
        "▁cough",
        -11.097693281092898
      ],
      [
        "▁lo",
        -11.09778229885617
      ],
      [
        "▁stepped",
        -11.097902859280005
      ],
      [
        "▁lies",
        -11.098814377081924
      ],
      [
        "▁exchange",
        -11.098912283027476
      ],
      [
        "mad",
        -11.09898392684032
      ],
      [
        "til",
        -11.099481491736157
      ],
      [
        "▁hut",
        -11.100128176901306
      ],
      [
        "▁focus",
        -11.100156073112377
      ],
      [
        "▁wednesday",
        -11.100680392804335
      ],
      [
        "▁rachel",
        -11.100935328938451
      ],
      [
        "▁yards",
        -11.10201986536666
      ],
      [
        "▁producer",
        -11.102342383153168
      ],
      [
        "ordinary",
        -11.10241429804243
      ],
      [
        "▁beth",
        -11.102429891539147
      ],
      [
        "▁wagon",
        -11.102851912622038
      ],
      [
        "▁horn",
        -11.103058045988636
      ],
      [
        "▁describe",
        -11.103765997774834
      ],
      [
        "place",
        -11.1040239259501
      ],
      [
        "▁grab",
        -11.104467884175452
      ],
      [
        "▁spite",
        -11.105657266464297
      ],
      [
        "▁companie",
        -11.105776343902503
      ],
      [
        "▁couch",
        -11.10588126825255
      ],
      [
        "▁shelter",
        -11.106506092770063
      ],
      [
        "▁coal",
        -11.106678613520636
      ],
      [
        "▁balls",
        -11.106899760397058
      ],
      [
        "▁thursday",
        -11.107193377677987
      ],
      [
        "▁treatment",
        -11.108768528294984
      ],
      [
        "▁dash",
        -11.109015697732882
      ],
      [
        "▁religious",
        -11.109642895896313
      ],
      [
        "que",
        -11.110074421206637
      ],
      [
        "▁warning",
        -11.11037085927428
      ],
      [
        "▁picnic",
        -11.110897567815153
      ],
      [
        "▁purse",
        -11.111182870676274
      ],
      [
        "▁eric",
        -11.111701966571465
      ],
      [
        "playing",
        -11.11207788906242
      ],
      [
        "▁woke",
        -11.112384387773613
      ],
      [
        "▁drops",
        -11.112451786995278
      ],
      [
        "▁delicious",
        -11.113093766678814
      ],
      [
        "▁suck",
        -11.11364010056144
      ],
      [
        "▁wise",
        -11.115162875967163
      ],
      [
        "▁ghost",
        -11.115285873424735
      ],
      [
        "▁priscill",
        -11.115293804339442
      ],
      [
        "▁photograph",
        -11.11563347032468
      ],
      [
        "▁teaching",
        -11.115798668619128
      ],
      [
        "▁temple",
        -11.116087452292025
      ],
      [
        "cut",
        -11.116284251779216
      ],
      [
        "▁survive",
        -11.11662555641288
      ],
      [
        "▁mat",
        -11.118236332470026
      ],
      [
        "▁delay",
        -11.118315901425422
      ],
      [
        "▁trunk",
        -11.1184246635897
      ],
      [
        "▁chips",
        -11.119496240428088
      ],
      [
        "leans",
        -11.119540811309554
      ],
      [
        "▁goal",
        -11.11973395401496
      ],
      [
        "▁collection",
        -11.121272237957236
      ],
      [
        "▁challenge",
        -11.121481057200976
      ],
      [
        "▁fireman",
        -11.122863888325622
      ],
      [
        "most",
        -11.123044904266228
      ],
      [
        "▁alien",
        -11.123541569947571
      ],
      [
        "▁passage",
        -11.124344650602872
      ],
      [
        "▁effects",
        -11.12472570440509
      ],
      [
        "▁fourteen",
        -11.125437352474156
      ],
      [
        "▁stones",
        -11.125738789507489
      ],
      [
        "perhaps",
        -11.127032747193276
      ],
      [
        "▁desperate",
        -11.128101632252829
      ],
      [
        "▁jimmie",
        -11.128237235856131
      ],
      [
        "▁railway",
        -11.128422669953627
      ],
      [
        "▁albert",
        -11.128904329130007
      ],
      [
        "▁brand",
        -11.129201002661253
      ],
      [
        "▁notes",
        -11.129537149303378
      ],
      [
        "▁picking",
        -11.12965875925232
      ],
      [
        "▁mac",
        -11.13122834036245
      ],
      [
        "scientists",
        -11.131781050624916
      ],
      [
        "▁bitter",
        -11.13282250428367
      ],
      [
        "▁discuss",
        -11.13344240391074
      ],
      [
        "▁steady",
        -11.133783367659133
      ],
      [
        "▁data",
        -11.13425097826931
      ],
      [
        "▁talks",
        -11.13492177217679
      ],
      [
        "▁cheer",
        -11.135053031758405
      ],
      [
        "▁dreams",
        -11.135082924179056
      ],
      [
        "▁pony",
        -11.135485591079616
      ],
      [
        "▁split",
        -11.135883699737503
      ],
      [
        "▁satisfie",
        -11.13611217998385
      ],
      [
        "▁fur",
        -11.13702196315041
      ],
      [
        "▁tear",
        -11.137165220570257
      ],
      [
        "▁invited",
        -11.137211844712915
      ],
      [
        "treated",
        -11.137601783217804
      ],
      [
        "▁recorder",
        -11.1377918149711
      ],
      [
        "▁plannin",
        -11.13857310863103
      ],
      [
        "▁kim",
        -11.13872281940945
      ],
      [
        "▁peanut",
        -11.139345436225886
      ],
      [
        "▁buddy",
        -11.139393705517032
      ],
      [
        "▁bomb",
        -11.139568746359169
      ],
      [
        "▁bodies",
        -11.140225854211415
      ],
      [
        "▁specific",
        -11.140576333329816
      ],
      [
        "▁lamb",
        -11.140719787987692
      ],
      [
        "▁pro",
        -11.140892950054356
      ],
      [
        "▁consist",
        -11.141429546027702
      ],
      [
        "▁criminal",
        -11.14203682210993
      ],
      [
        "▁basketball",
        -11.142352027618024
      ],
      [
        "▁jar",
        -11.142795238422348
      ],
      [
        "long",
        -11.143090099668148
      ],
      [
        "▁straw",
        -11.143233661493332
      ],
      [
        "get",
        -11.143517500674108
      ],
      [
        "▁supply",
        -11.143643789829053
      ],
      [
        "divided",
        -11.14367535301147
      ],
      [
        "▁swear",
        -11.144161586620434
      ],
      [
        "▁changing",
        -11.144162767610732
      ],
      [
        "▁earnest",
        -11.144432004699675
      ],
      [
        "▁piano",
        -11.144544672493652
      ],
      [
        "eighty",
        -11.144757888117264
      ],
      [
        "▁entrance",
        -11.145186114328007
      ],
      [
        "▁sid",
        -11.14555466002286
      ],
      [
        "▁rent",
        -11.145732380926226
      ],
      [
        "▁lodge",
        -11.146478121919856
      ],
      [
        "▁sofa",
        -11.14653630014068
      ],
      [
        "▁britain",
        -11.146624694113417
      ],
      [
        "▁insist",
        -11.147138101996235
      ],
      [
        "▁polish",
        -11.14749709275348
      ],
      [
        "▁cage",
        -11.14766717559787
      ],
      [
        "▁kate",
        -11.147758571301985
      ],
      [
        "▁stomach",
        -11.147889471479084
      ],
      [
        "basically",
        -11.14837711742036
      ],
      [
        "▁owned",
        -11.148780282543
      ],
      [
        "▁innocent",
        -11.148797532795731
      ],
      [
        "▁kidding",
        -11.14915717967893
      ],
      [
        "fired",
        -11.149496252217606
      ],
      [
        "▁hunter",
        -11.15028760234772
      ],
      [
        "his",
        -11.150585836749194
      ],
      [
        "▁instrument",
        -11.150664235661225
      ],
      [
        "▁fork",
        -11.151067643430112
      ],
      [
        "▁relief",
        -11.15107861188405
      ],
      [
        "▁branche",
        -11.15122121187853
      ],
      [
        "▁location",
        -11.151234062015034
      ],
      [
        "▁losing",
        -11.152126111120031
      ],
      [
        "which",
        -11.152167255569342
      ],
      [
        "▁tidy",
        -11.15313687809074
      ],
      [
        "▁tropical",
        -11.153258760557764
      ],
      [
        "▁awake",
        -11.153923608605057
      ],
      [
        "▁defend",
        -11.15405369218893
      ],
      [
        "▁oliver",
        -11.154314383879631
      ],
      [
        "▁jail",
        -11.154841952167844
      ],
      [
        "▁access",
        -11.155126098163514
      ],
      [
        "▁stern",
        -11.156196297503692
      ],
      [
        "▁kinda",
        -11.157273944080703
      ],
      [
        "plans",
        -11.157479968313776
      ],
      [
        "▁owner",
        -11.157658997895318
      ],
      [
        "▁noble",
        -11.15782954953255
      ],
      [
        "▁bones",
        -11.158111405032518
      ],
      [
        "▁tank",
        -11.158229720799245
      ],
      [
        "▁snap",
        -11.158980115717767
      ],
      [
        "▁madame",
        -11.159556525396624
      ],
      [
        "▁slip",
        -11.159966645148806
      ],
      [
        "▁underneat",
        -11.159968279022474
      ],
      [
        "▁bessi",
        -11.161087001981416
      ],
      [
        "▁assembly",
        -11.162826802039913
      ],
      [
        "▁streets",
        -11.163566266659313
      ],
      [
        "▁pin",
        -11.164141371706927
      ],
      [
        "▁curtain",
        -11.164716673456685
      ],
      [
        "▁elder",
        -11.165685460921049
      ],
      [
        "american",
        -11.165947586349908
      ],
      [
        "▁emergenc",
        -11.166224292164545
      ],
      [
        "▁hasta",
        -11.1663885045016
      ],
      [
        "▁steal",
        -11.16657831770416
      ],
      [
        "▁tomato",
        -11.167562554980268
      ],
      [
        "▁craft",
        -11.167656550294115
      ],
      [
        "▁winning",
        -11.167954219965786
      ],
      [
        "▁fields",
        -11.167955922263529
      ],
      [
        "▁function",
        -11.170549257443582
      ],
      [
        "▁washed",
        -11.170621616193175
      ],
      [
        "▁stroke",
        -11.170752077924888
      ],
      [
        "▁nanc",
        -11.171038051191902
      ],
      [
        "▁splendid",
        -11.171699770701496
      ],
      [
        "▁rode",
        -11.171862465305598
      ],
      [
        "technology",
        -11.172040373923798
      ],
      [
        "▁squeeze",
        -11.172389169992645
      ],
      [
        "▁troops",
        -11.172848421169778
      ],
      [
        "▁lonely",
        -11.173339143008045
      ],
      [
        "▁scratch",
        -11.173422933223216
      ],
      [
        "has",
        -11.173561410361046
      ],
      [
        "▁philip",
        -11.174857485363328
      ],
      [
        "▁poet",
        -11.175047931281302
      ],
      [
        "▁swift",
        -11.175211438022362
      ],
      [
        "▁settlement",
        -11.175460470502916
      ],
      [
        "▁badly",
        -11.176003421436086
      ],
      [
        "▁switzer",
        -11.17600354099321
      ],
      [
        "▁covi",
        -11.176823037549411
      ],
      [
        "▁experiment",
        -11.176949932690444
      ],
      [
        "lifted",
        -11.17759837050859
      ],
      [
        "▁grandpa",
        -11.17767385709556
      ],
      [
        "▁bless",
        -11.178128145442038
      ],
      [
        "dale",
        -11.17915922073437
      ],
      [
        "ran",
        -11.179631481741012
      ],
      [
        "▁hire",
        -11.179716740786676
      ],
      [
        "▁farther",
        -11.179724637460325
      ],
      [
        "▁ouch",
        -11.179979436084835
      ],
      [
        "▁wire",
        -11.180247322167531
      ],
      [
        "▁chosen",
        -11.180314410947677
      ],
      [
        "▁laws",
        -11.180603842310417
      ],
      [
        "▁adopt",
        -11.18075717051661
      ],
      [
        "only",
        -11.1808882366168
      ],
      [
        "▁drug",
        -11.181330262858308
      ],
      [
        "▁cottage",
        -11.182271525631256
      ],
      [
        "▁hook",
        -11.18245254997406
      ],
      [
        "▁assume",
        -11.182507616619462
      ],
      [
        "play",
        -11.182648694212924
      ],
      [
        "▁granddad",
        -11.18364227027988
      ],
      [
        "▁daily",
        -11.184178083171307
      ],
      [
        "▁pity",
        -11.185137240462923
      ],
      [
        "▁pure",
        -11.185219041123885
      ],
      [
        "▁holes",
        -11.188628221439052
      ],
      [
        "▁platform",
        -11.189594828569824
      ],
      [
        "▁pole",
        -11.190070588686805
      ],
      [
        "▁bat",
        -11.190133579039
      ],
      [
        "▁balance",
        -11.190504608701612
      ],
      [
        "▁develop",
        -11.19062574026406
      ],
      [
        "▁thorough",
        -11.190964058737215
      ],
      [
        "aun",
        -11.191123946857871
      ],
      [
        "▁fate",
        -11.191348682066764
      ],
      [
        "▁policeman",
        -11.191772710528362
      ],
      [
        "continue",
        -11.191952906927382
      ],
      [
        "▁tunnel",
        -11.19255546348644
      ],
      [
        "mel",
        -11.192583399622226
      ],
      [
        "appointed",
        -11.193143589091736
      ],
      [
        "▁sandy",
        -11.193614801109623
      ],
      [
        "▁auntie",
        -11.193704044438814
      ],
      [
        "▁peep",
        -11.194066038729003
      ],
      [
        "▁traditional",
        -11.194762050614326
      ],
      [
        "▁truly",
        -11.194794905859386
      ],
      [
        "▁ahhah",
        -11.19494390055918
      ],
      [
        "▁dann",
        -11.195328820082462
      ],
      [
        "▁diamond",
        -11.195777070058051
      ],
      [
        "▁trains",
        -11.19643251970342
      ],
      [
        "▁clay",
        -11.196813374983112
      ],
      [
        "▁duke",
        -11.197033422520876
      ],
      [
        "▁gar",
        -11.197342100402905
      ],
      [
        "▁nah",
        -11.197456368779662
      ],
      [
        "▁upside",
        -11.198109229273271
      ],
      [
        "▁cathy",
        -11.1982377563849
      ],
      [
        "▁mmm",
        -11.19863576643343
      ],
      [
        "▁expensive",
        -11.198938352118418
      ],
      [
        "▁prefer",
        -11.199139344620733
      ],
      [
        "▁fred",
        -11.199200142752964
      ],
      [
        "father",
        -11.199339463107648
      ],
      [
        "▁instruction",
        -11.199719129005553
      ],
      [
        "▁champion",
        -11.19982965744662
      ],
      [
        "▁hoping",
        -11.200439842454514
      ],
      [
        "▁pee",
        -11.200736147834125
      ],
      [
        "▁dorothy",
        -11.200828331611678
      ],
      [
        "waves",
        -11.201607508319997
      ],
      [
        "▁edna",
        -11.20249538706279
      ],
      [
        "▁lick",
        -11.20251205842929
      ],
      [
        "after",
        -11.202718325943849
      ],
      [
        "▁hunting",
        -11.202843998467426
      ],
      [
        "▁climbing",
        -11.203535668796135
      ],
      [
        "▁programme",
        -11.203598605273209
      ],
      [
        "▁comed",
        -11.203711071925875
      ],
      [
        "refer",
        -11.203827291808574
      ],
      [
        "▁bears",
        -11.204251008955758
      ],
      [
        "▁arts",
        -11.204287330025863
      ],
      [
        "▁drunk",
        -11.204525350608073
      ],
      [
        "▁yuck",
        -11.204565044095988
      ],
      [
        "▁attach",
        -11.204851994005914
      ],
      [
        "▁possession",
[...]
