{
  "version": "1.0",
  "truncation": null,
  "padding": null,
  "added_tokens": [
    {
      "id": 0,
      "content": "<pad>",
      "single_word": false,
      "lstrip": false,
      "rstrip": false,
      "normalized": false,
      "special": true
    },
    {
      "id": 1,
      "content": "<s>",
      "single_word": false,
      "lstrip": false,
      "rstrip": false,
      "normalized": false,
      "special": true
    },
    {
      "id": 2,
      "content": "</s>",
      "single_word": false,
      "lstrip": false,
      "rstrip": false,
      "normalized": false,
      "special": true
    }
  ],
  "normalizer": {
    "type": "NFKC"
  },
  "pre_tokenizer": {
    "type": "ByteLevel",
    "add_prefix_space": true,
    "trim_offsets": true,
    "use_regex": true
  },
  "post_processor": {
    "type": "ByteLevel",
    "add_prefix_space": true,
    "trim_offsets": true,
    "use_regex": true
  },
  "decoder": {
    "type": "ByteLevel",
    "add_prefix_space": true,
    "trim_offsets": true,
    "use_regex": true
  },
  "model": {
    "type": "BPE",
    "dropout": null,
    "unk_token": null,
    "continuing_subword_prefix": null,
    "end_of_word_suffix": null,
    "fuse_unk": false,
    "byte_fallback": false,
    "vocab": {
      "<pad>": 0,
      "<s>": 1,
      "</s>": 2,
      "!": 3,
      "\"": 4,
      "#": 5,
      "$": 6,
      "%": 7,
      "&": 8,
      "'": 9,
      "(": 10,
      ")": 11,
      "*": 12,
      "+": 13,
      ",": 14,
      "-": 15,
      ".": 16,
      "/": 17,
      "0": 18,
      "1": 19,
      "2": 20,
      "3": 21,
      "4": 22,
      "5": 23,
      "6": 24,
      "7": 25,
      "8": 26,
      "9": 27,
      ":": 28,
      ";": 29,
      "<": 30,
      "=": 31,
      ">": 32,
      "?": 33,
      "@": 34,
      "A": 35,
      "B": 36,
      "C": 37,
      "D": 38,
      "E": 39,
      "F": 40,
      "G": 41,
      "H": 42,
      "I": 43,
      "J": 44,
      "K": 45,
      "L": 46,
      "M": 47,
      "N": 48,
      "O": 49,
      "P": 50,
      "Q": 51,
      "R": 52,
      "S": 53,
      "T": 54,
      "U": 55,
      "V": 56,
      "W": 57,
      "X": 58,
      "Y": 59,
      "Z": 60,
      "[": 61,
      "\\": 62,
      "]": 63,
      "^": 64,
      "`": 65,
      "a": 66,
      "b": 67,
      "c": 68,
      "d": 69,
      "e": 70,
      "f": 71,
      "g": 72,
      "h": 73,
      "i": 74,
      "j": 75,
      "k": 76,
      "l": 77,
      "m": 78,
      "n": 79,
      "o": 80,
      "p": 81,
      "q": 82,
      "r": 83,
      "s": 84,
      "t": 85,
      "u": 86,
      "v": 87,
      "w": 88,
      "x": 89,
      "y": 90,
      "z": 91,
      "~": 92,
      "¡": 93,
      "¢": 94,
      "£": 95,
      "¤": 96,
      "¥": 97,
      "§": 98,
      "¨": 99,
      "©": 100,
      "ª": 101,
      "¬": 102,
      "®": 103,
      "¯": 104,
      "°": 105,
      "±": 106,
      "³": 107,
      "¸": 108,
      "º": 109,
      "¼": 110,
      "¿": 111,
      "Â": 112,
      "Ã": 113,
      "Å": 114,
      "Ì": 115,
      "Î": 116,
      "Ï": 117,
      "Ð": 118,
      "×": 119,
      "â": 120,
      "ï": 121,
      "Ċ": 122,
      "Ġ": 123,
      "Ģ": 124,
      "ģ": 125,
      "Ĥ": 126,
      "ĥ": 127,
      "Ħ": 128,
      "ħ": 129,
      "Ĩ": 130,
      "Ī": 131,
      "ī": 132,
      "Ĭ": 133,
      "į": 134,
      "Ĳ": 135,
      "ĳ": 136,
      "Ĵ": 137,
      "ĵ": 138,
      "Ķ": 139,
      "ĸ": 140,
      "Ĺ": 141,
      "ĺ": 142,
      "Ļ": 143,
      "ļ": 144,
      "Ľ": 145,
      "ŀ": 146,
      "ł": 147,
      "Ń": 148,
      "Ġt": 149,
      "Ġa": 150,
      "he": 151,
      "Ġthe": 152,
      "in": 153,
      "Ġs": 154,
      "re": 155,
      "Ġo": 156,
      "Ġw": 157,
      "Ġc": 158,
      "nd": 159,
      "Ġb": 160,
      "is": 161,
      "Ġp": 162,
      "ing": 163,
      "er": 164,
      "an": 165,
      "Ġf": 166,
      "it": 167,
      "Ġand": 168,
      "ro": 169,
      "le": 170,
      "Ġin": 171,
      "Ġis": 172,
      "Ġof": 173,
      "Ġon": 174,
      "on": 175,
      "ĠI": 176,
      "Ġse": 177,
      "or": 178,
      "ac": 179,
      "ma": 180,
      "Ġsee": 181,
      "ar": 182,
      "ge": 183,
      "at": 184,
      "Ġthere": 185,
      "ic": 186,
      "Ġcan": 187,
      "es": 188,
      "Ġh": 189,
      "Ġi": 190,
      "al": 191,
      "Ġm": 192,
      "Ġwe": 193,
      "en": 194,
      "Ġth": 195,
      "ĠIn": 196,
      "Ġg": 197,
      "Ġd": 198,
      "om": 199,
      "rou": 200,
      "ack": 201,
      "Ġl": 202,
      "mage": 203,
      "Ġimage": 204,
      "Ġare": 205,
      "round": 206,
      "ol": 207,
      "ou": 208,
      "Ġst": 209,
      "ers": 210,
      "Ġthis": 211,
      "il": 212,
      "id": 213,
      "Ġto": 214,
      "ed": 215,
      "Ġback": 216,
      "Ġwit": 217,
      "Ġwith": 218,
      "ground": 219,
      "as": 220,
      "ot": 221,
      "ig": 222,
      "Ġbackground": 223,
      "ow": 224,
      "Ġwh": 225,
      "ir": 226,
      "and": 227,
      "ts": 228,
      "erson": 229,
      "Ġperson": 230,
      "st": 231,
      "Ġpl": 232,
      "igh": 233,
      "tu": 234,
      "ĠT": 235,
      "ding": 236,
      "Ġr": 237,
      "all": 238,
      "ve": 239,
      "ide": 240,
      "ion": 241,
      "ay": 242,
      "ome": 243,
      "Ġat": 244,
      "ture": 245,
      "oo": 246,
      "ur": 247,
      "op": 248,
      "Ġn": 249,
      "et": 250,
      "Ġtre": 251,
      "ew": 252,
      "Ġpic": 253,
      "ite": 254,
      "am": 255,
      "Ġbu": 256,
      "Ġpicture": 257,
      "Ġsome": 258,
      "ad": 259,
      "Ġan": 260,
      "ight": 261,
      "Ġbl": 262,
      "Ġro": 263,
      "Ġbe": 264,
      "Ġcol": 265,
      "ct": 266,
      "ab": 267,
      "Ġhe": 268,
      "ll": 269,
      "ent": 270,
      "Ġe": 271,
      "Ġre": 272,
      "Ġfl": 273,
      "ain": 274,
      "Ġsk": 275,
      "Ġle": 276,
      "nt": 277,
      "ass": 278,
      "Ġsh": 279,
      "Ġwhite": 280,
      "ard": 281,
      "Ġpe": 282,
      "Ġfor": 283,
      "les": 284,
      "Ġfro": 285,
      "Ġch": 286,
      "ap": 287,
      "se": 288,
      "Ġtrees": 289,
      "Ġman": 290,
      "Ġstand": 291,
      "Ġsky": 292,
      "ĠThe": 293,
      "Ġma": 294,
      "Ġv": 295,
      "Ġcolor": 296,
      "Ġpeop": 297,
      "Ġpeople": 298,
      "Ġbo": 299,
      "Ġcl": 300,
      "ke": 301,
      "ting": 302,
      "ind": 303,
      "Ġwall": 304,
      "Ġside": 305,
      "ft": 306,
      "Ġy": 307,
      "ut": 308,
      "Ġstanding": 309,
      "Ġit": 310,
      "un": 311,
      "Ġtab": 312,
      "ĠA": 313,
      "Ġbuil": 314,
      "um": 315,
      "Ġbuilding": 316,
      "Ġpo": 317,
      "Ġfew": 318,
      "Ġtable": 319,
      "her": 320,
      "ch": 321,
      "Ġhol": 322,
      "ott": 323,
      "king": 324,
      "ver": 325,
      "ĠO": 326,
      "ĠOn": 327,
      "Ġ-": 328,
      "ec": 329,
      "ation": 330,
      "ore": 331,
      "Ġgr": 332,
      "ĠThere": 333,
      "str": 334,
      "Ġte": 335,
      "Ġbott": 336,
      "Ġu": 337,
      "ood": 338,
      "Ġsit": 339,
      "res": 340,
      "ter": 341,
      "Ġwom": 342,
      "Ġob": 343,
      "Ġtr": 344,
      "Ġwat": 345,
      "ls": 346,
      "Ġholding": 347,
      "air": 348,
      "oor": 349,
      "Ġright": 350,
      "Ġcar": 351,
      "Ġsitting": 352,
      "Ġyou": 353,
      "Ġsp": 354,
      "Ġve": 355,
      "Ġtop": 356,
      "ks": 357,
      "ich": 358,
      "ist": 359,
      "Ġcon": 360,
      "Ġplay": 361,
      "Ġleft": 362,
      "Ġwhich": 363,
      "ue": 364,
      "Ġblack": 365,
      "ld": 366,
      "Ġobj": 367,
      "Ġwear": 368,
      "og": 369,
      "ĠTh": 370,
      "Ġwater": 371,
      "Ġwoman": 372,
      "Ġplan": 373,
      "Ġar": 374,
      "ĠThis": 375,
      "ĠAt": 376,
      "Ġhand": 377,
      "Ġwearing": 378,
      "Ġli": 379,
      "age": 380,
      "ul": 381,
      "Ġgl": 382,
      "Ġroad": 383,
      "ctor": 384,
      "Ġfront": 385,
      "Ġ:": 386,
      "Ġfrom": 387,
      "im": 388,
      "ce": 389,
      "us": 390,
      "Ġgrass": 391,
      "Ġbottom": 392,
      "Ġloo": 393,
      "ere": 394,
      "ag": 395,
      "ate": 396,
      "Ġby": 397,
      "Ġco": 398,
      "Ġtw": 399,
      "ri": 400,
      "Ġmo": 401,
      "ace": 402,
      "av": 403,
      "Ġbr": 404,
      "oc": 405,
      "Ġgre": 406,
      "Ġwind": 407,
      "ical": 408,
      "Ġtwo": 409,
      "uring": 410,
      "Ġglass": 411,
      "Ġvi": 412,
      "Ġas": 413,
      "Ġj": 414,
      "ustr": 415,
      "if": 416,
      "Ġchair": 417,
      "ity": 418,
      "ill": 419,
      "Ġflow": 420,
      "Ġph": 421,
      "Ġthat": 422,
      "Ġher": 423,
      "Ġhis": 424,
      "hind": 425,
      "xt": 426,
      "ther": 427,
      "Ġduring": 428,
      "ra": 429,
      "Ġpar": 430,
      "ects": 431,
      "ds": 432,
      "ly": 433,
      "lso": 434,
      "our": 435,
      "Ġbuildings": 436,
      "Ġboard": 437,
      "Ġblue": 438,
      "Ġk": 439,
      "Ġill": 440,
      "Ġobjects": 441,
      "Ġground": 442,
      "ated": 443,
      "Ġview": 444,
      "Ġplants": 445,
      "th": 446,
      "ect": 447,
      "ĠB": 448,
      "ount": 449,
      "Ġup": 450,
      "ign": 451,
      "Ġillustr": 452,
      "ach": 453,
      "'s": 454,
      "Ġover": 455,
      "Ġor": 456,
      "Ġillustration": 457,
      "Ġwindow": 458,
      "ine": 459,
      "ry": 460,
      "Ġwood": 461,
      "ip": 462,
      "Ġwal": 463,
      "Ġalso": 464,
      "Ġart": 465,
      "red": 466,
      "Ġone": 467,
      "iling": 468,
      "ress": 469,
      "Ġcent": 470,
      "Ġred": 471,
      "Ġtree": 472,
      "Ġsun": 473,
      "el": 474,
      "hic": 475,
      "tain": 476,
      "Ġsc": 477,
      "Ġhou": 478,
      "Ġother": 479,
      "Ġplaying": 480,
      "Ġphot": 481,
      "Ġpersons": 482,
      "wn": 483,
      "dle": 484,
      "one": 485,
      "Ġmid": 486,
      "Ġgir": 487,
      "gh": 488,
      "Ġtext": 489,
      "Ġgreen": 490,
      "Ġne": 491,
      "Ġshe": 492,
      "ame": 493,
      "ile": 494,
      "Ġout": 495,
      "ak": 496,
      "Ġthem": 497,
      "Ġcom": 498,
      "Ġcenter": 499,
      "ights": 500,
      "Ġmiddle": 501,
      "Ġlike": 502,
      "Ġvehic": 503,
      "te": 504,
      "Ġfloor": 505,
      "Ġclou": 506,
      "est": 507,
      "ple": 508,
      "ort": 509,
      "bo": 510,
      "Ġwor": 511,
      "oot": 512,
      "Ġwooden": 513,
      "Ġfore": 514,
      "ĠW": 515,
      "up": 516,
      "ng": 517,
      "Ġlights": 518,
      "ast": 519,
      "uit": 520,
      "Ġdes": 521,
      "ĠWe": 522,
      "itt": 523,
      "ĠH": 524,
      "Ġcity": 525,
      "to": 526,
      "roup": 527,
      "Ġgroup": 528,
      "ball": 529,
      "Ġdress": 530,
      "Ġsur": 531,
      "ner": 532,
      "Ġfi": 533,
      "Ġmus": 534,
      "Ġvector": 535,
      "now": 536,
      "Ġpro": 537,
      "Ġmany": 538,
      "ies": 539,
      "Ġsm": 540,
      "ong": 541,
      "ave": 542,
      "ms": 543,
      "hes": 544,
      "Ġfr": 545,
      "Ġfoot": 546,
      "Ġgirl": 547,
      "ick": 548,
      "Ġpat": 549,
      "ice": 550,
      "Ġyoung": 551,
      "Ġlight": 552,
      "qu": 553,
      "ess": 554,
      "iv": 555,
      "ant": 556,
      "Ġphoto": 557,
      "ck": 558,
      "Ġshow": 559,
      "ning": 560,
      "Ġroom": 561,
      "Ġwas": 562,
      "Ġstre": 563,
      "Ġday": 564,
      "Ġhouse": 565,
      "Ġflowers": 566,
      "Ġal": 567,
      "irt": 568,
      "Ġhere": 569,
      "Ġye": 570,
      "ep": 571,
      "Ġfood": 572,
      "Ġwalking": 573,
      "ountain": 574,
      "Ġwho": 575,
      "ake": 576,
      "Ġbus": 577,
      "Ġtheir": 578,
      "eside": 579,
      "ial": 580,
      "Ġbehind": 581,
      "Ġsnow": 582,
      "Ġdoor": 583,
      "Ġpoles": 584,
      "Ġwhe": 585,
      "Ġcontain": 586,
      "Ġchairs": 587,
      "ĠHere": 588,
      "hed": 589,
      "ff": 590,
      "Ġsurf": 591,
      "Ġso": 592,
      "Ġdog": 593,
      "Ġclouds": 594,
      "act": 595,
      "side": 596,
      "aut": 597,
      "Ġstage": 598,
      "Ġce": 599,
      "Ġbeach": 600,
      "Ġobject": 601,
      "rough": 602,
      "ive": 603,
      "umb": 604,
      "Ġactor": 605,
      "ish": 606,
      "ink": 607,
      "Ġge": 608,
      "Ġmountain": 609,
      "Ġcou": 610,
      "aves": 611,
      "Ġartist": 612,
      "Ġplac": 613,
      "tern": 614,
      "other": 615,
      "Ġboo": 616,
      "Ġme": 617,
      "Ġex": 618,
      "Ġfen": 619,
      "Ġbeaut": 620,
      "Ġpain": 621,
      "Ġmusical": 622,
      "Ġflag": 623,
      "Ġatt": 624,
      "way": 625,
      "lect": 626,
      "ble": 627,
      "pl": 628,
      "nder": 629,
      "ph": 630,
      "ses": 631,
      "Ġold": 632,
      "Ġlooking": 633,
      "Ġsma": 634,
      "Ġoff": 635,
      "ail": 636,
      "..": 637,
      "Ġfe": 638,
      "Ġpap": 639,
      "ying": 640,
      "Ġisol": 641,
      "Ġsign": 642,
      "Ġinstr": 643,
      "Ġfootball": 644,
      "Ġisolated": 645,
      "de": 646,
      "Ġhands": 647,
      "Ġag": 648,
      "ose": 649,
      "ehind": 650,
      "Ġplayer": 651,
      "pt": 652,
      "ima": 653,
      "ving": 654,
      "mer": 655,
      "ss": 656,
      "ild": 657,
      "Ġmay": 658,
      "Ġinstrum": 659,
      "Ġbro": 660,
      "Ġplaced": 661,
      "board": 662,
      "Ġnight": 663,
      "ĠBehind": 664,
      "Ġpre": 665,
      "Ġbas": 666,
      "Ġyour": 667,
      "ust": 668,
      "Ġab": 669,
      "Ġboat": 670,
      "Ġvehicles": 671,
      "for": 672,
      "Ġall": 673,
      "fter": 674,
      "Ġforeground": 675,
      "Ġbeautif": 676,
      "Ġafter": 677,
      "Ġsmiling": 678,
      "Ġlooks": 679,
      "oth": 680,
      "Ġball": 681,
      "ock": 682,
      "ree": 683,
      "Ġthrough": 684,
      "Ġper": 685,
      "Ġbeautiful": 686,
      "Ġnew": 687,
      "Ġtak": 688,
      "ents": 689,
      "Ġbir": 690,
      "Ġpark": 691,
      "ment": 692,
      "Ġagain": 693,
      "Ġcat": 694,
      "Ġboy": 695,
      "Ġde": 696,
      "Ġdesign": 697,
      "Ġpole": 698,
      "Ġpres": 699,
      "Ġstreet": 700,
      "uts": 701,
      "ark": 702,
      "Ġev": 703,
      "Ġsurface": 704,
      "Ġteam": 705,
      "Ġlo": 706,
      "Ġtow": 707,
      "Ġair": 708,
      "Ġwindows": 709,
      "Ġcor": 710,
      "Ġanima": 711,
      "old": 712,
      "Ġwr": 713,
      "row": 714,
      "Ġhome": 715,
      "Ġleaves": 716,
      "Ġcam": 717,
      "Ġsty": 718,
      "Ġfil": 719,
      "Ġban": 720,
      "Ġcup": 721,
      "ans": 722,
      "ars": 723,
      "Ġblur": 724,
      "br": 725,
      "ĠAnd": 726,
      "ket": 727,
      "Ġbox": 728,
      "ating": 729,
      "own": 730,
      "Ġnear": 731,
      "Ġpost": 732,
      "Ġport": 733,
      "Ġinto": 734,
      "Ġagainst": 735,
      "Ġplate": 736,
      "ange": 737,
      "Ġhor": 738,
      "Ġsmall": 739,
      "ian": 740,
      "Ġmy": 741,
      "llow": 742,
      "Ġflower": 743,
      "Ġinstrument": 744,
      "Ġke": 745,
      "Ġinside": 746,
      "ud": 747,
      "art": 748,
      "Ġanother": 749,
      "ings": 750,
      "Ġbag": 751,
      "Ġhas": 752,
      "Ġbed": 753,
      "Ġrun": 754,
      "Ġyellow": 755,
      "Ġgo": 756,
      "Ġhim": 757,
      "Ġtaken": 758,
      "ub": 759,
      "Ġri": 760,
      "Ġen": 761,
      "uc": 762,
      "Ġcur": 763,
      "ime": 764,
      "Ġpart": 765,
      "Ġmod": 766,
      "ards": 767,
      "ous": 768,
      "Ġmet": 769,
      "Ġsw": 770,
      "Ġpresent": 771,
      "aving": 772,
      "Ġdark": 773,
      "Ġvis": 774,
      "app": 775,
      "Ġbut": 776,
      "eld": 777,
      "Ġclose": 778,
      "are": 779,
      "Ġhave": 780,
      "yc": 781,
      "door": 782,
      "Ġfence": 783,
      "rap": 784,
      "Ġchild": 785,
      "Ġboards": 786,
      "Ġdec": 787,
      "Ġbeside": 788,
      "Ġwin": 789,
      "Ġbi": 790,
      "ash": 791,
      "os": 792,
      "ful": 793,
      "Ġthese": 794,
      "Ġpattern": 795,
      "Ġthey": 796,
      "iness": 797,
      "Ġdra": 798,
      "Ġlap": 799,
      "Ġcre": 800,
      "Ġfilm": 801,
      "led": 802,
      "Ġmic": 803,
      "Ġsea": 804,
      "Ġouts": 805,
      "Ġguit": 806,
      "idge": 807,
      "Ġaround": 808,
      "Ġap": 809,
      "int": 810,
      "room": 811,
      "Ġbusiness": 812,
      "sh": 813,
      "itten": 814,
      "Ġshirt": 815,
      "Ġbow": 816,
      "Ġhead": 817,
      "Ġstyle": 818,
      "Ġcap": 819,
      "Ġsl": 820,
      "Ġcount": 821,
      "Ġmar": 822,
      "dy": 823,
      "Ġop": 824,
      "rait": 825,
      "Ġus": 826,
      "Ġoutside": 827,
      "Ġlitt": 828,
      "ates": 829,
      "Ġlittle": 830,
      "ure": 831,
      "Ġmen": 832,
      "Ġportrait": 833,
      "Ġmat": 834,
      "Ġguitar": 835,
      "Ġvehicle": 836,
      "Ġunder": 837,
      "Ġnumb": 838,
      "Ġcars": 839,
      "Ġite": 840,
      "Ġtrain": 841,
      "Ġad": 842,
      "out": 843,
      "rist": 844,
      "Ġcut": 845,
      "Ġfield": 846,
      "ang": 847,
      "ition": 848,
      "Ġsil": 849,
      "Ġset": 850,
      "amp": 851,
      "Ġgame": 852,
      "Ġsa": 853,
      "Ġpol": 854,
      "Ġbrown": 855,
      "day": 856,
      "cer": 857,
      "Ġbottle": 858,
      "Ġglasses": 859,
      "iff": 860,
      "Ġtime": 861,
      "Ġriver": 862,
      "set": 863,
      "ser": 864,
      "Ġcamer": 865,
      "hou": 866,
      "Ġalong": 867,
      "Ġfam": 868,
      "Ġcorner": 869,
      "Ġpainting": 870,
      "ull": 871,
      "Ġrock": 872,
      "Ġlook": 873,
      "Ġbridge": 874,
      "ists": 875,
      "Ġcele": 876,
      "Ġpill": 877,
      "Ġchrist": 878,
      "Ġcelebr": 879,
      "Ġdis": 880,
      "Ġplant": 881,
      "iz": 882,
      "Ġcouple": 883,
      "Ġwed": 884,
      "Ġwomen": 885,
      "Ġfir": 886,
      "mb": 887,
      "Ġac": 888,
      "Ġland": 889,
      "Ġdown": 890,
      "Ġcomp": 891,
      "ric": 892,
      "Ġscre": 893,
      "Ġwritten": 894,
      "Ġroo": 895,
      "oon": 896,
      "Ġdr": 897,
      "Ġhel": 898,
      "Ġsunset": 899,
      "ves": 900,
      "ath": 901,
      "Ġtour": 902,
      "Ġun": 903,
      "Ġnot": 904,
      "Ġthree": 905,
      "ance": 906,
      "Ġcamera": 907,
      "Ġbook": 908,
      "less": 909,
      "ary": 910,
      "ping": 911,
      "Ġpaper": 912,
      "top": 913,
      "ached": 914,
      "end": 915,
      "ape": 916,
      "ily": 917,
      "ie": 918,
      "Ġfirst": 919,
      "Ġmetal": 920,
      "Ġscreen": 921,
      "Ġdo": 922,
      "Ġmountains": 923,
      "Ġben": 924,
      "thing": 925,
      "Ġperfor": 926,
      "pe": 927,
      "ction": 928,
      "Ġ#": 929,
      "Ġra": 930,
      "arden": 931,
      "Ġhapp": 932,
      "Ġgarden": 933,
      "ches": 934,
      "Ġattached": 935,
      "arge": 936,
      "Ġpink": 937,
      "mas": 938,
      "sc": 939,
      "aff": 940,
      "ored": 941,
      "ible": 942,
      "Ġwedding": 943,
      "Ġworld": 944,
      "Ġcr": 945,
      "Ġgold": 946,
      "Ġlove": 947,
      "Ġrid": 948,
      "Ġcolour": 949,
      "ograp": 950,
      "ug": 951,
      "Ġsand": 952,
      "Ġroof": 953,
      "ones": 954,
      "Ġsum": 955,
      "Ġdiff": 956,
      "Ġmade": 957,
      "Ġspec": 958,
      "Ġlaptop": 959,
      "ny": 960,
      "Ġcurtain": 961,
      "Ġforest": 962,
      "Ġmon": 963,
      "Ġbottles": 964,
      "ted": 965,
      "Ġnumber": 966,
      "Ġfire": 967,
      "Ġcountry": 968,
      "ery": 969,
      "Ġopen": 970,
      "Ġhorse": 971,
      "Ġhigh": 972,
      "ase": 973,
      "Ġpr": 974,
      "ady": 975,
      "Ġcloth": 976,
      "au": 977,
      "Ġdiffere": 978,
      "vered": 979,
      "Ġchristmas": 980,
      "Ġdecor": 981,
      "Ġhaving": 982,
      "Ġdri": 983,
      "Ġstat": 984,
      "Ġche": 985,
      "ise": 986,
      "olog": 987,
      "rop": 988,
      "...": 989,
      "Ġposter": 990,
      "Ġframe": 991,
      "Ġcons": 992,
      "Ġhair": 993,
      "Ġhow": 994,
      "Ġhappy": 995,
      "ren": 996,
      "Ġlarge": 997,
      "Ġloc": 998,
      "Ġchar": 999,
      "Ġshot": 1000,
      "Ġfamily": 1001,
      "Ġno": 1002,
      "ron": 1003,
      "ather": 1004,
      "Ġbab": 1005,
      "ets": 1006,
      "ally": 1007,
      "Ġmot": 1008,
      "Ġsomething": 1009,
      "Ġdifferent": 1010,
      "Ġits": 1011,
      "ross": 1012,
      "Ġcovered": 1013,
      "Ġmap": 1014,
      "ashion": 1015,
      "Ġfashion": 1016,
      "Ġref": 1017,
      "Ġmake": 1018,
      "Ġ1": 1019,
      "ire": 1020,
      "Ġhouses": 1021,
      "fore": 1022,
      "Ġwhere": 1023,
      "iday": 1024,
      "Ġsilhou": 1025,
      "Ġsilhouet": 1026,
      "Ġste": 1027,
      "Ġanimal": 1028,
      "acket": 1029,
      "Ġaer": 1030,
      "phone": 1031,
      "Ġobser": 1032,
      "Ġbaby": 1033,
      "Ġitems": 1034,
      "Ġbowl": 1035,
      "Ġwinter": 1036,
      "Ġkit": 1037,
      "Ġtables": 1038,
      "Ġbig": 1039,
      "able": 1040,
      "ycle": 1041,
      "Ġlog": 1042,
      "orts": 1043,
      "Ġsummer": 1044,
      "Ġic": 1045,
      "ological": 1046,
      "Ġwere": 1047,
      "Ġmatch": 1048,
      "Ġbooks": 1049,
      "cing": 1050,
      "Ġqu": 1051,
      "ould": 1052,
      "Ġpath": 1053,
      "Ġoutdoor": 1054,
      "Ġatte": 1055,
      "Ġwhile": 1056,
      "Ġriding": 1057,
      "Ġpop": 1058,
      "ival": 1059,
      "ĠTo": 1060,
      "Ġfish": 1061,
      "che": 1062,
      "Ġear": 1063,
      "Ġhang": 1064,
      "bile": 1065,
      "land": 1066,
      "Ġabout": 1067,
      "Ġ--": 1068,
      "mp": 1069,
      "Ġcle": 1070,
      "ins": 1071,
      "Ġvisible": 1072,
      "Ġcolored": 1073,
      "Ġcolorful": 1074,
      "arm": 1075,
      "Ġfri": 1076,
      "Ġbiological": 1077,
      "Ġseam": 1078,
      "Ġstud": 1079,
      "Ġshop": 1080,
      "Ġspe": 1081,
      "Ġbic": 1082,
      "bove": 1083,
      "Ġfest": 1084,
      "Ġobserve": 1085,
      "Ġblurred": 1086,
      "Ġkid": 1087,
      "Ġele": 1088,
      "Ġseamless": 1089,
      "Ġthings": 1090,
      "Ġwill": 1091,
      "ĠBeside": 1092,
      "Ġmore": 1093,
      "aking": 1094,
      "Ġicon": 1095,
      "mi": 1096,
      "Ġclick": 1097,
      "Ġface": 1098,
      "Ġseen": 1099,
      "Ġjust": 1100,
      "ty": 1101,
      "Ġbefore": 1102,
      "Ġfun": 1103,
      "ĠBack": 1104,
      "Ġattend": 1105,
      "Ġship": 1106,
      "ills": 1107,
      "Ġphotograp": 1108,
      "Ġmodel": 1109,
      "Ġcute": 1110,
      "chen": 1111,
      "Ġkitchen": 1112,
      "Ġaerial": 1113,
      "othes": 1114,
      "Ġbanner": 1115,
      "ond": 1116,
      "Ġclothes": 1117,
      "Ġorange": 1118,
      "Ġour": 1119,
      "Ġbasket": 1120,
      "Ġarea": 1121,
      "Ġrailing": 1122,
      "Ġbran": 1123,
      "Ġget": 1124,
      "Ġ3": 1125,
      "Ġsho": 1126,
      "ract": 1127,
      "Ġtowards": 1128,
      "Ġpapers": 1129,
      "Ġpremi": 1130,
      "Ġflying": 1131,
      "iss": 1132,
      "Ġeven": 1133,
      "cks": 1134,
      "Ġlake": 1135,
      "we": 1136,
      "Ġrest": 1137,
      "Ġabove": 1138,
      "Ġbird": 1139,
      "Ġclicked": 1140,
      "ory": 1141,
      "Ġevent": 1142,
      "Ġrain": 1143,
      "ious": 1144,
      "ames": 1145,
      "Ġhat": 1146,
      "Ġty": 1147,
      "Ġever": 1148,
      "Ġwhat": 1149,
      "toon": 1150,
      "Ġconsists": 1151,
      "Ġtoy": 1152,
      "Ġcartoon": 1153,
      "Ġstatue": 1154,
      "Ġcloudy": 1155,
      "Ġpremiere": 1156,
      "ior": 1157,
      "ium": 1158,
      "lection": 1159,
      "Ġfriend": 1160,
      "Ġchildren": 1161,
      "Ġfestival": 1162,
      "Ġcard": 1163,
      "Ġmor": 1164,
      "ines": 1165,
      "Ġwalls": 1166,
      "Ġattract": 1167,
      "Ġrunning": 1168,
      "ues": 1169,
      "Ġpi": 1170,
      "Ġbar": 1171,
      "Ġstr": 1172,
      "Ġrocks": 1173,
      "Ġcake": 1174,
      "Ġlong": 1175,
      "Ġholiday": 1176,
      "man": 1177,
      "Ġmorning": 1178,
      "Ġkept": 1179,
      "Ġbench": 1180,
      "ital": 1181,
      "Ġstair": 1182,
      "ots": 1183,
      "Ġlet": 1184,
      "az": 1185,
      "Ġwalk": 1186,
      "Ġclass": 1187,
      "Ġway": 1188,
      "Ġbre": 1189,
      "Ġceiling": 1190,
      "shirt": 1191,
      "fe": 1192,
      "Ġsoc": 1193,
      "ern": 1194,
      "Ġsy": 1195,
      "Ġsilhouette": 1196,
      "ming": 1197,
      "low": 1198,
      "Ġsports": 1199,
      "acter": 1200,
      "Ġmicro": 1201,
      "Ġsing": 1202,
      "Ġjacket": 1203,
      "ching": 1204,
      "Ġfall": 1205,
      "Ġparked": 1206,
      "Ġsuit": 1207,
      "Ġcharacter": 1208,
      "Ġwork": 1209,
      "Ġem": 1210,
      "Ġent": 1211,
      "Ġau": 1212,
      "ĠS": 1213,
      "ĠBackground": 1214,
      "Ġfeat": 1215,
      "tion": 1216,
      "Ġtown": 1217,
      "Ġpass": 1218,
      "Ġind": 1219,
      "Ġwhen": 1220,
      "Ġline": 1221,
      "ires": 1222,
      "Ġdraw": 1223,
      "Ġwore": 1224,
      "Ġey": 1225,
      "Ġfin": 1226,
      "ane": 1227,
      "Ġfull": 1228,
      "que": 1229,
      "ĠIt": 1230,
      "ens": 1231,
      "ring": 1232,
      "Ġtur": 1233,
      "lf": 1234,
      "ee": 1235,
      "Ġser": 1236,
      "Ġlamp": 1237,
      "Ġelect": 1238,
      "per": 1239,
      "Ġbet": 1240,
      "stract": 1241,
      "Ġabstract": 1242,
      "Ġaw": 1243,
      "mon": 1244,
      "Ġlogo": 1245,
      "Ġrec": 1246,
      "Ġheart": 1247,
      "Ġboats": 1248,
      "ved": 1249,
      "Ġsof": 1250,
      "mn": 1251,
      "Ġspecies": 1252,
      "Ġyear": 1253,
      "ables": 1254,
      "uck": 1255,
      "Ġfruit": 1256,
      "Ġam": 1257,
      "ative": 1258,
      "Ġtal": 1259,
      "line": 1260,
      "Ġrel": 1261,
      "Ġstones": 1262,
      "Ġaut": 1263,
      "Ġed": 1264,
      "ool": 1265,
      "Ġkn": 1266,
      "Ġliving": 1267,
      "Ġmodern": 1268,
      "Ġpolit": 1269,
      "ows": 1270,
      "Ġphone": 1271,
      "tumn": 1272,
      "Ġautumn": 1273,
      "Ġsunny": 1274,
      "Ġshows": 1275,
      "intage": 1276,
      "Ġvintage": 1277,
      "Ġres": 1278,
      "Ġhanging": 1279,
      "Ġcrow": 1280,
      "Ġho": 1281,
      "Ġtourist": 1282,
      "get": 1283,
      "ician": 1284,
      "als": 1285,
      "Ġhelm": 1286,
      "irc": 1287,
      "Ġmost": 1288,
      "Ġwee": 1289,
      "ĠThese": 1290,
      "Ġstar": 1291,
      "Ġhot": 1292,
      "gan": 1293,
      "Ġshoes": 1294,
      "Ġarch": 1295,
      "Ġbicycle": 1296,
      "Ġlady": 1297,
      "Ġcirc": 1298,
      "Ġwires": 1299,
      "ror": 1300,
      "Ġsofa": 1301,
      "Ġsec": 1302,
      "icks": 1303,
      "Ġhills": 1304,
      "Ġtraff": 1305,
      "mar": 1306,
      "Ġtraffic": 1307,
      "ading": 1308,
      "Ġcoast": 1309,
      "ade": 1310,
      "Ġfac": 1311,
      "scape": 1312,
      "Ġseems": 1313,
      "Ġtrack": 1314,
      "Ġ2": 1315,
      "ling": 1316,
      "Ġclear": 1317,
      "ound": 1318,
      "rell": 1319,
      "Ġice": 1320,
      "umbrell": 1321,
      "ush": 1322,
      "ational": 1323,
      "Ġconcer": 1324,
      "Ġplace": 1325,
      "Ġumbrell": 1326,
      "Ġmir": 1327,
      "Ġmobile": 1328,
      "ĠHe": 1329,
      "Ġglo": 1330,
      "play": 1331,
      "Ġdin": 1332,
      "Ġstock": 1333,
      "iting": 1334,
      "augh": 1335,
      "Ġsup": 1336,
      "Ġdisplay": 1337,
      "lic": 1338,
      "der": 1339,
      "Ġif": 1340,
      "Ġcupboard": 1341,
      "Ġmarket": 1342,
      "Ġfencing": 1343,
      "Ġevery": 1344,
      "Ġtrad": 1345,
      "Ġdoors": 1346,
      "Ġtex": 1347,
      "Ġphotograph": 1348,
      "itional": 1349,
      "Ġeach": 1350,
      "Ġmi": 1351,
      "ides": 1352,
      "Ġstone": 1353,
      "Ġmoving": 1354,
      "Ġgu": 1355,
      "Ġconcert": 1356,
      "Ġlying": 1357,
      "Ġmirror": 1358,
      "Ġorgan": 1359,
      "ual": 1360,
      "att": 1361,
      "Ġleg": 1362,
      "Ġbase": 1363,
      "Ġflags": 1364,
      "Ġscul": 1365,
      "Ġsoccer": 1366,
      "Ġmed": 1367,
      "Ġcream": 1368,
      "Ġmicrophone": 1369,
      "cl": 1370,
      "Ġgrey": 1371,
      "Ġattraction": 1372,
      "Ġbright": 1373,
      "Ġcand": 1374,
      "ump": 1375,
      "Ġframes": 1376,
      "Ġlandscape": 1377,
      "Ġbath": 1378,
      "Ġindoor": 1379,
      "Ġpen": 1380,
      "Ġcont": 1381,
      "Ġz": 1382,
      "Ġsqu": 1383,
      "Ġpolitician": 1384,
      "Ġvill": 1385,
      "Ġplat": 1386,
      "Ġtower": 1387,
      "io": 1388,
      "Ġspace": 1389,
      "Ġclock": 1390,
      "Ġpur": 1391,
      "ors": 1392,
      "Ġplates": 1393,
      "sp": 1394,
      "Ġinter": 1395,
      "Ġsle": 1396,
      "Ġnext": 1397,
      "Ġsculp": 1398,
      "ber": 1399,
      "Ġthan": 1400,
      "Ġspring": 1401,
      "Ġveget": 1402,
      "Ġfind": 1403,
      "Ġnat": 1404,
      "Ġparty": 1405,
      "be": 1406,
      "Ġbeen": 1407,
      "Ġtv": 1408,
      "ween": 1409,
      "Ġseas": 1410,
      "ough": 1411,
      "Ġspect": 1412,
      "form": 1413,
      "Ġcoff": 1414,
      "Ġtrun": 1415,
      "Ġsculpture": 1416,
      "port": 1417,
      "kes": 1418,
      "orm": 1419,
      "Ġfour": 1420,
      "Ġtraditional": 1421,
      "Ġdet": 1422,
      "Ġcross": 1423,
      "ale": 1424,
      "Ġtake": 1425,
      "Ġusing": 1426,
      "Ġarri": 1427,
      "ural": 1428,
      "Ġstick": 1429,
      "Ġcolors": 1430,
      "Ġcoffee": 1431,
      "Ġboxes": 1432,
      "Ġbetween": 1433,
      "Ġslow": 1434,
      "ient": 1435,
      "adow": 1436,
      "Ġcover": 1437,
      "Ġpillars": 1438,
      "Ġswim": 1439,
      "Ġanimals": 1440,
      "Ġbeing": 1441,
      "ped": 1442,
      "Ġstep": 1443,
      "Ġkids": 1444,
      "Ġkey": 1445,
      "aur": 1446,
      "Ġwa": 1447,
      "Ġoffice": 1448,
      "Ġperforms": 1449,
      "Ġwould": 1450,
      "ular": 1451,
      "Ġstruc": 1452,
      "Ġeng": 1453,
      "Ġisland": 1454,
      "Ġpiec": 1455,
      "Ġround": 1456,
      "Ġshowing": 1457,
      "Ġwine": 1458,
      "Ġspoon": 1459,
      "Ġworking": 1460,
      "Ġpos": 1461,
      "Ġpan": 1462,
      "Ġdrawn": 1463,
      "pet": 1464,
      "Ġany": 1465,
      "ater": 1466,
      "Ġtalking": 1467,
      "gether": 1468,
      "ne": 1469,
      "raft": 1470,
      "Ġtogether": 1471,
      "Ġbirth": 1472,
      "Ġmother": 1473,
      "Ġletter": 1474,
      "Ġdig": 1475,
      "Ġstairs": 1476,
      "Ġtexture": 1477,
      "Ġstructure": 1478,
      "Ġrail": 1479,
      "Ġide": 1480,
      "Ġje": 1481,
      "Ġdry": 1482,
      "Ġoutdoors": 1483,
      "Ġcrowd": 1484,
      "Ġlot": 1485,
      "resh": 1486,
      "jo": 1487,
      "Ġwalks": 1488,
      "Ġindustr": 1489,
      "Ġboth": 1490,
      "Ġtrans": 1491,
      "Ġbirds": 1492,
      "Ġgiv": 1493,
      "case": 1494,
      "Ġdol": 1495,
      "Ġpot": 1496,
      "Ġmil": 1497,
      "Ġhelmet": 1498,
      "Ġmach": 1499,
      "ats": 1500,
      "ions": 1501,
      "Ġoce": 1502,
      "ons": 1503,
      "Ġfree": 1504,
      "Ġcost": 1505,
      "Ġ&": 1506,
      "Ġlife": 1507,
      "Ġhad": 1508,
      "Ġspectac": 1509,
      "Ġcarpet": 1510,
      "Ġmotor": 1511,
      "Ġblurry": 1512,
      "ence": 1513,
      "Ġplatform": 1514,
      "nis": 1515,
      "Ġsymb": 1516,
      "bb": 1517,
      "Ġsymbol": 1518,
      "Ġrack": 1519,
      "Ġdep": 1520,
      "Ġenjo": 1521,
      "ations": 1522,
      "key": 1523,
      "Ġbedroom": 1524,
      "Ġvillage": 1525,
      "ook": 1526,
      "Ġpictures": 1527,
      "Ġvery": 1528,
      "Ġmusic": 1529,
      "Ġocean": 1530,
      "Ġpainted": 1531,
      "Ġath": 1532,
      "Ġathle": 1533,
      "Ġweek": 1534,
      "Ġpool": 1535,
      "Ġmin": 1536,
      "uction": 1537,
      "ley": 1538,
      "ied": 1539,
      "Ġend": 1540,
      "Ġsim": 1541,
      "ife": 1542,
      "ier": 1543,
      "Ġbags": 1544,
      "Ġgood": 1545,
      "ners": 1546,
      "Ġtoo": 1547,
      "Ġmou": 1548,
      "ipe": 1549,
      "Ġfresh": 1550,
      "Ġmu": 1551,
      "Ġdist": 1552,
      "Ġeating": 1553,
      "Ġrem": 1554,
      "Ġacc": 1555,
      "Ġhill": 1556,
      "Ġtaking": 1557,
      "rying": 1558,
      "Ġfarm": 1559,
      "Ġdesk": 1560,
      "Ġfema": 1561,
      "af": 1562,
      "Ġfemale": 1563,
      "Ġbride": 1564,
      "Ġmotion": 1565,
      "Ġint": 1566,
      "Ġsecond": 1567,
      "Ġgray": 1568,
      "Ġfriends": 1569,
      "Ġbirthday": 1570,
      "Ġsu": 1571,
      "Ġrestaur": 1572,
      "Ġtele": 1573,
      "Ġlast": 1574,
      "Ġstore": 1575,
      "Ġgolden": 1576,
      "Ġswe": 1577,
      "Ġdrawing": 1578,
      "Ġbranch": 1579,
      "Ġplayers": 1580,
      "ral": 1581,
      "Ġten": 1582,
      "Ġname": 1583,
      "Ġshape": 1584,
      "ries": 1585,
      "Ġacross": 1586,
      "Ġproj": 1587,
      "Ġmain": 1588,
      "mark": 1589,
      "Ġprod": 1590,
      "Ġwild": 1591,
      "Ġdan": 1592,
      "chool": 1593,
      "Ġitem": 1594,
      "Ġlow": 1595,
      "Ġbaseball": 1596,
      "ican": 1597,
      "alf": 1598,
      "Ġcould": 1599,
      "Ġneed": 1600,
      "ired": 1601,
      "Ġfol": 1602,
      "Ġempt": 1603,
      "Ġcomput": 1604,
      "Ġhist": 1605,
      "Ġdigital": 1606,
      "eting": 1607,
      "vel": 1608,
      "Ġcostum": 1609,
      "Ġhum": 1610,
      "Ġpast": 1611,
      "Ġevening": 1612,
      "Ġempty": 1613,
      "Ġcurtains": 1614,
      "Ġgrow": 1615,
      "Ġtennis": 1616,
      "Ġchur": 1617,
      "Ġposters": 1618,
      "Ġwant": 1619,
      "Ġknow": 1620,
      "ited": 1621,
      "Ġumbrella": 1622,
      "cept": 1623,
      "ered": 1624,
      "merican": 1625,
      "bs": 1626,
      "Ġschool": 1627,
      "Ġamerican": 1628,
      "Ġlead": 1629,
      "Ġballoon": 1630,
      "ĠAlso": 1631,
      "Ġown": 1632,
      "Ġmight": 1633,
      "Ġelectric": 1634,
      "Ġearly": 1635,
      "ĠAs": 1636,
      "nam": 1637,
      "Ġpair": 1638,
      "ult": 1639,
      "Ġla": 1640,
      "Ġexp": 1641,
      "Ġvide": 1642,
      "Ġbrick": 1643,
      "wor": 1644,
      "ants": 1645,
      "ision": 1646,
      "Ġfishing": 1647,
      "Ġseason": 1648,
      "Ġjeans": 1649,
      "eping": 1650,
      "Ġsou": 1651,
      "Ġairc": 1652,
      "Ġpal": 1653,
      "Ġbest": 1654,
      "Ġattends": 1655,
      "Ġchurch": 1656,
      "Ġreflection": 1657,
      "Ġeleph": 1658,
      "Ġrailway": 1659,
      "ven": 1660,
      "Ġcomputer": 1661,
      "Ġtrave": 1662,
      "Ġadd": 1663,
      "Ġinv": 1664,
      "Ġathlete": 1665,
      "Ġused": 1666,
      "Ġnational": 1667,
      "Ġcour": 1668,
      "Ġleaf": 1669,
      "Ġapp": 1670,
      "Ġeas": 1671,
      "Ġ4": 1672,
      "Ġstation": 1673,
      "Ġsale": 1674,
      "Ġhar": 1675,
      "Ġcouch": 1676,
      "Ġrestaurant": 1677,
      "Ġrep": 1678,
      "Ġrods": 1679,
      "Ġpret": 1680,
      "Ġvideo": 1681,
      "ns": 1682,
      "Ġstands": 1683,
      "Ġgirls": 1684,
      "Ġdrin": 1685,
      "astic": 1686,
      "ned": 1687,
      "here": 1688,
      "Ġclassic": 1689,
      "ib": 1690,
      "ched": 1691,
      "Ġstreets": 1692,
      "let": 1693,
      "Ġfruits": 1694,
      "Ġpurple": 1695,
      "Ġhalf": 1696,
      "Ġwheel": 1697,
      "iction": 1698,
      "Ġext": 1699,
      "Ġmoon": 1700,
      "Ġbur": 1701,
      "Ġflat": 1702,
      "od": 1703,
      "Ġbasketball": 1704,
      "Ġbear": 1705,
      "Ġtruck": 1706,
      "Ġdi": 1707,
      "Ġscen": 1708,
      "Ġswimming": 1709,
      "vers": 1710,
      "Ġarchite": 1711,
      "ogg": 1712,
      "Ġiron": 1713,
      "Ġaircraft": 1714,
      "00": 1715,
      "Ġnow": 1716,
      "Ġbec": 1717,
      "Ġgreat": 1718,
      "Ġbranches": 1719,
      "Ġamong": 1720,
      "Ġperform": 1721,
      "Ġgi": 1722,
      "Ġret": 1723,
      "ublic": 1724,
      "Ġtatt": 1725,
      "Ġairpl": 1726,
      "Ġinterior": 1727,
      "ator": 1728,
      "Ġshould": 1729,
      "Ġvegetables": 1730,
      "Ġshel": 1731,
      "Ġwaves": 1732,
      "Ġwatermark": 1733,
      "Ġnet": 1734,
      "Ġtattoo": 1735,
      "Ġsold": 1736,
      "Ġpretty": 1737,
      "Ġflor": 1738,
      "ax": 1739,
      "Ġlay": 1740,
      "Ġform": 1741,
      "Ġrunway": 1742,
      "rise": 1743,
      "mat": 1744,
      "Ġwatching": 1745,
      "Ġdogs": 1746,
      "lling": 1747,
      "Ġbutter": 1748,
      "light": 1749,
      "Ġput": 1750,
      "Ġtent": 1751,
      "Ġsurround": 1752,
      "Ġindustry": 1753,
      "Ġcarrying": 1754,
      "Ġonly": 1755,
      "Ġautom": 1756,
      "Ġgoal": 1757,
      "Ġjo": 1758,
      "Ġfans": 1759,
      "ky": 1760,
      "Ġhorses": 1761,
      "anged": 1762,
      "Ġsn": 1763,
      "ĠF": 1764,
      "Ġhu": 1765,
      "Ġcomm": 1766,
      "Ġreal": 1767,
      "Ġca": 1768,
      "Ġmaking": 1769,
      "Ġspectacles": 1770,
      "arding": 1771,
      "iles": 1772,
      "Ġstri": 1773,
      "Ġwatch": 1774,
      "lected": 1775,
      "Ġgar": 1776,
      "Ġstra": 1777,
      "Ġbel": 1778,
      "Ġlocation": 1779,
      "Ġconstr": 1780,
      "eck": 1781,
      "Ġeyes": 1782,
      "itary": 1783,
      "Ġbathroom": 1784,
      "gr": 1785,
      "Ġcircle": 1786,
      "Ġpri": 1787,
      "Ġcomple": 1788,
      "Ġtyp": 1789,
      "Ġsmo": 1790,
      "Ġfloral": 1791,
      "Ġthink": 1792,
      "Ġcab": 1793,
      "ank": 1794,
      "Ġaway": 1795,
      "Ġpolice": 1796,
      "Ġsticks": 1797,
      "Ġhard": 1798,
      "its": 1799,
      "Ġbike": 1800,
      "Ġmachine": 1801,
      "Ġgoing": 1802,
      "Ġstudents": 1803,
      "Ġdire": 1804,
      "Ġcoat": 1805,
      "Ġhuman": 1806,
      "Ġsub": 1807,
      "Ġdresses": 1808,
      "Ġdining": 1809,
      "Ġlines": 1810,
      "Ġmag": 1811,
      "bor": 1812,
      "Ġcelebrates": 1813,
      "Ġshore": 1814,
      "Ġgrap": 1815,
      "Ġuse": 1816,
      "Ġfur": 1817,
      "Ġimp": 1818,
      "ivers": 1819,
      "els": 1820,
      "Ġwell": 1821,
      "Ġdriving": 1822,
      "Ġtype": 1823,
      "Ġconf": 1824,
      "ert": 1825,
      "Ġbal": 1826,
      "Ġinstruments": 1827,
      "Ġshed": 1828,
      "Ġbusinessman": 1829,
      "Ġprot": 1830,
      "Ġtray": 1831,
      "Ġhall": 1832,
      "Ġspeak": 1833,
      "akes": 1834,
      "Ġprint": 1835,
      "Ġprep": 1836,
      "Ġdetail": 1837,
      "Ġbor": 1838,
      "Ġsunrise": 1839,
      "Ġsat": 1840,
      "Ġimages": 1841,
      "ident": 1842,
      "Ġcere": 1843,
      "Ġtoys": 1844,
      "aper": 1845,
      "Ġexam": 1846,
      "Ġreg": 1847,
      "Ġgot": 1848,
      "fl": 1849,
      "lish": 1850,
      "Ġvar": 1851,
      "gl": 1852,
      "Ġsinging": 1853,
      "avy": 1854,
      "Ġshort": 1855,
      "Ġbanners": 1856,
      "aring": 1857,
      "ments": 1858,
      "ined": 1859,
      "Ġstate": 1860,
      "Ġshopping": 1861,
      "Ġlab": 1862,
      "Ġbou": 1863,
      "Ġneck": 1864,
      "Ġlive": 1865,
      "Ġpillar": 1866,
      "Ġtrop": 1867,
      "Ġairplane": 1868,
      "Ġsmile": 1869,
      "Ġtraining": 1870,
      "Ġbuilt": 1871,
      "Ġstill": 1872,
      "Ġmale": 1873,
      "ycles": 1874,
      "Ġbat": 1875,
      "ices": 1876,
      "Ġmilitary": 1877,
      "Ġsmar": 1878,
      "Ġsilver": 1879,
      "Ġplastic": 1880,
      "Ġtelev": 1881,
      "Ġphotos": 1882,
      "Ġceremon": 1883,
      "Ġsmart": 1884,
      "itor": 1885,
      "house": 1886,
      "Ġpod": 1887,
      "ips": 1888,
      "ster": 1889,
      "Ġbody": 1890,
      "ĠShe": 1891,
      "Ġclos": 1892,
      "Ġinsp": 1893,
      "Ġprof": 1894,
      "Ġpup": 1895,
      "con": 1896,
      "Ġwash": 1897,
      "Ġarm": 1898,
      "Ġtem": 1899,
      "Ġeye": 1900,
      "Ġtropical": 1901,
      "ering": 1902,
      "Ġshap": 1903,
      "Ġcal": 1904,
      "Ġincl": 1905,
      "ising": 1906,
      "Ġready": 1907,
      "ures": 1908,
      "Ġapart": 1909,
      "inal": 1910,
      "Ġsides": 1911,
      "gle": 1912,
      "Ġnumbers": 1913,
      "Ġappe": 1914,
      "ared": 1915,
      "ront": 1916,
      "Ġshelf": 1917,
      "Ġbreak": 1918,
      "Ġcollection": 1919,
      "Ġnor": 1920,
      "Ġorganis": 1921,
      "Ġstart": 1922,
      "Ġski": 1923,
      "fall": 1924,
      "Ġdoing": 1925,
      "Ġlapse": 1926,
      "glass": 1927,
      "Ġmemb": 1928,
      "Ġsal": 1929,
      "Ġconstruction": 1930,
      "Ġpodium": 1931,
      "Ġdrink": 1932,
      "Ġpond": 1933,
      "Ġfootp": 1934,
      "nday": 1935,
      "Ġtelevision": 1936,
      "Ġtrail": 1937,
      "Ġfilming": 1938,
      "Ġarr": 1939,
      "Ġcro": 1940,
      "rance": 1941,
      "ique": 1942,
      "Ġstorm": 1943,
      "Ġrow": 1944,
      "Ġhistor": 1945,
      "Ġdaugh": 1946,
      "gg": 1947,
      "iny": 1948,
      "Ġdev": 1949,
      "Ġvase": 1950,
      "Ġceremony": 1951,
      "izz": 1952,
      "Ġfar": 1953,
      "Ġsuper": 1954,
      "Ġdrum": 1955,
      "Ġlegs": 1956,
      "alk": 1957,
      "Ġstars": 1958,
      "Ġsite": 1959,
      "Ġstro": 1960,
      "Ġsquare": 1961,
      "Ġcoll": 1962,
      "Ġet": 1963,
      "Ġfan": 1964,
      "Ġvisit": 1965,
      "co": 1966,
      "obile": 1967,
      "Ġsteps": 1968,
      "Ġfunny": 1969,
      "Ġter": 1970,
      "Ġaward": 1971,
      "Ġentrance": 1972,
      "me": 1973,
      "Ġwaving": 1974,
      "Ġhelp": 1975,
      "Ġarchitec": 1976,
      "Ġtou": 1977,
      "Ġthing": 1978,
      "Ġlist": 1979,
      "Ġdoll": 1980,
      "Ġpow": 1981,
      "Ġfound": 1982,
      "Ġflo": 1983,
      "Ġcamp": 1984,
      "ces": 1985,
      "py": 1986,
      "Ġsimple": 1987,
      "owing": 1988,
      "Ġ19": 1989,
      "Ġblo": 1990,
      "Ġwarm": 1991,
      "Ġcast": 1992,
      "estern": 1993,
      "Ġbowls": 1994,
      "Ġpaint": 1995,
      "icket": 1996,
      "omet": 1997,
      "ste": 1998,
      "Ġgen": 1999,
      "Ġkeyboard": 2000,
      "Ġfinal": 2001,
      "Ġjum": 2002,
      "Ġcontaining": 2003,
      "ional": 2004,
      "Ġexample": 2005,
      "Ġage": 2006,
      "Ġsket": 2007,
      "Ġorig": 2008,
      "Ġskyline": 2009,
      "Ġtie": 2010,
      "iled": 2011,
      "cess": 2012,
      "Ġmakes": 2013,
      "Ġnatural": 2014,
      "Ġwestern": 2015,
      "Ġhotel": 2016,
      "Ġtro": 2017,
      "Ġhoarding": 2018,
      "ger": 2019,
      "Ġtourists": 2020,
      "Ġgrowing": 2021,
      "Ġautomobile": 2022,
      "Ġfootpath": 2023,
      "Ġsits": 2024,
      "Ġsoft": 2025,
      "Ġreading": 2026,
      "Ġthose": 2027,
      "Ġperf": 2028,
      "Ġheld": 2029,
      "entu": 2030,
      "Ġlad": 2031,
      "Ġmov": 2032,
      "Ġtakes": 2033,
      "nament": 2034,
      "Ġoffic": 2035,
      "ope": 2036,
      "Ġann": 2037,
      "ont": 2038,
      "Ġtiss": 2039,
      "Ġdecorative": 2040,
      "Ġcandles": 2041,
      "Ġdecorated": 2042,
      "ĠTop": 2043,
      "Ġdrinking": 2044,
      "Ġsess": 2045,
      "Ġequ": 2046,
      "Ġsay": 2047,
      "Ġlate": 2048,
      "Ġmix": 2049,
      "Ġgroom": 2050,
      "quet": 2051,
      "ote": 2052,
      "Ġskate": 2053,
      "Ġpiece": 2054,
      "Ġsession": 2055,
      "ities": 2056,
      "Ġring": 2057,
      "Ġdancing": 2058,
      "Ġant": 2059,
      "Ġsen": 2060,
      "Ġfeaturing": 2061,
      "Ġru": 2062,
      "ither": 2063,
      "Ġfollow": 2064,
      "vi": 2065,
      "oney": 2066,
      "Ġsleeping": 2067,
      "Ġballoons": 2068,
      "ĠThey": 2069,
      "Ġawards": 2070,
      "Ġmeadow": 2071,
      "ters": 2072,
      "Ġboys": 2073,
      "Ġcentu": 2074,
      "Ġegg": 2075,
      "tle": 2076,
      "Ġpack": 2077,
      "Ġcelebrity": 2078,
      "Ġjumping": 2079,
      "Ġstop": 2080,
      "Ġdaughter": 2081,
      "Ġelephant": 2082,
      "drop": 2083,
      "Ġeither": 2084,
      "Ġleather": 2085,
      "kets": 2086,
      "by": 2087,
      "Ġbouquet": 2088,
      "front": 2089,
      "ship": 2090,
      "Ġcentre": 2091,
      "Ġrope": 2092,
      "place": 2093,
      "adium": 2094,
      "Ġwaiting": 2095,
      "olf": 2096,
      "Ġoverl": 2097,
      "ef": 2098,
      "Ġcas": 2099,
      "Ġkind": 2100,
      "Ġcups": 2101,
      "Ġstadium": 2102,
      "Ġtoday": 2103,
      "Ġdrop": 2104,
      "Ġband": 2105,
      "self": 2106,
      "phones": 2107,
      "ized": 2108,
      "ways": 2109,
      "Ġcust": 2110,
      "Ġknife": 2111,
      "Ġsol": 2112,
      "Ġanc": 2113,
      "Ġhuge": 2114,
      "Ġtrunk": 2115,
      "col": 2116,
      "ĠL": 2117,
      "Ġconcept": 2118,
      "Ġbeauty": 2119,
      "ys": 2120,
      "Ġclip": 2121,
      "Ġdish": 2122,
      "Ġsame": 2123,
      "Ġbenches": 2124,
      "Ġdressed": 2125,
      "fly": 2126,
      "uct": 2127,
      "Ġfather": 2128,
      "ience": 2129,
      "Ġpump": 2130,
      "Ġcables": 2131,
      "Ġcustom": 2132,
      "Ġpizz": 2133,
      "Ġpalm": 2134,
      "ected": 2135,
      "Ġcall": 2136,
      "Ġchamp": 2137,
      "Ġpillows": 2138,
      "Ġrelig": 2139,
      "Ġcentury": 2140,
      "len": 2141,
      "Ġtoile": 2142,
      "Ġidea": 2143,
      "ove": 2144,
      "Ġfountain": 2145,
      "Ġtap": 2146,
      "Ġpose": 2147,
      "nic": 2148,
      "Ġtrou": 2149,
      "Ġopening": 2150,
      "Ġlooked": 2151,
      "Ġsheep": 2152,
      "Ġdesigned": 2153,
      "Ġclim": 2154,
      "Ġancient": 2155,
      "ometric": 2156,
      "Ġgiving": 2157,
      "Ġperfect": 2158,
      "Ġfav": 2159,
      "Ġsink": 2160,
      "Ġcook": 2161,
      "Ġshadow": 2162,
      "Ġwaterfall": 2163,
      "Ġfig": 2164,
      "Ġinse": 2165,
      "Ġmovie": 2166,
      "Ġlocal": 2167,
      "Ġgate": 2168,
      "Ġwire": 2169,
      "Ġmembers": 2170,
      "Ġgetting": 2171,
      "oring": 2172,
      "head": 2173,
      "lls": 2174,
      "Ġstraw": 2175,
      "Ġcelebrate": 2176,
      "ause": 2177,
      "Ġfork": 2178,
      "Ġfilled": 2179,
      "iger": 2180,
      "arch": 2181,
      "Ġpublic": 2182,
      "tes": 2183,
      "Ġbackdrop": 2184,
      "Ġbun": 2185,
      "Ġgloves": 2186,
      "unch": 2187,
      "Ġpictured": 2188,
      "Ġskating": 2189,
      "Ġbicycles": 2190,
      "Ġthrow": 2191,
      "Ġcostume": 2192,
      "Ġgiraff": 2193,
      "Ġproper": 2194,
      "Ġsketch": 2195,
      "Ġdou": 2196,
      "Ġbelow": 2197,
      "Ġscene": 2198,
      "Ġseries": 2199,
      "Ġmuch": 2200,
      "Ġval": 2201,
      "Ġfiction": 2202,
      "Ġcool": 2203,
      "Ġact": 2204,
      "Ġmas": 2205,
      "glasses": 2206,
      "Ġgogg": 2207,
      "Ġcart": 2208,
      "Ġtoilet": 2209,
      "ux": 2210,
      "uff": 2211,
      "ining": 2212,
      "Ġdel": 2213,
      "Ġapartment": 2214,
      "Ġsheet": 2215,
      "Ġnice": 2216,
      "Ġedge": 2217,
      "Ġsurrounded": 2218,
      "Ġpizza": 2219,
      "ooking": 2220,
      "Ġdust": 2221,
      "Ġgift": 2222,
      "Ġrelax": 2223,
      "Ġcricket": 2224,
      "Ġchain": 2225,
      "Ġposes": 2226,
      "Ġflight": 2227,
      "Ġteen": 2228,
      "Ġmom": 2229,
      "Ġmouth": 2230,
      "Ġkeep": 2231,
      "Ġexpl": 2232,
      "Ġchristian": 2233,
      "Ġsteel": 2234,
      "Ġlocated": 2235,
      "Ġaction": 2236,
      "cy": 2237,
      "ging": 2238,
      "Ġpieces": 2239,
      "Ġsmoke": 2240,
      "Ġshelves": 2241,
      "Ġcupboards": 2242,
      "cre": 2243,
      "Ġselected": 2244,
      "Ġgener": 2245,
      "cri": 2246,
      "Ġ$": 2247,
      "Ġhi": 2248,
      "Ġactors": 2249,
      "itch": 2250,
      "Ġoriginal": 2251,
      "ished": 2252,
      "Ġsenior": 2253,
      "Ġtents": 2254,
      "Ġpoin": 2255,
      "Ġprofess": 2256,
      "Ġwithout": 2257,
      "Ġmike": 2258,
      "Ġnature": 2259,
      "Ġgoggles": 2260,
      "Ġbutterfly": 2261,
      "nce": 2262,
      "Ġnever": 2263,
      "Ġbanan": 2264,
      "ird": 2265,
      "Ġtablet": 2266,
      "Ġspecial": 2267,
      "Ġrust": 2268,
      "Ġheavy": 2269,
      "Ġrug": 2270,
      "Ġstall": 2271,
      "Ġsetting": 2272,
      "Ġpuppy": 2273,
      "Ġfoc": 2274,
      "Ġthen": 2275,
      "'re": 2276,
      "ograph": 2277,
      "osp": 2278,
      "Ġrace": 2279,
      "Ġtea": 2280,
      "Ġcompet": 2281,
      "ĠR": 2282,
      "Ġpine": 2283,
      "Ġwebs": 2284,
      "Ġseated": 2285,
      "Ġtrip": 2286,
      "Ġfamous": 2287,
      "oming": 2288,
      "Ġfing": 2289,
      "Ġenjoying": 2290,
      "Ġdried": 2291,
      "ute": 2292,
      "Ġrod": 2293,
      "oned": 2294,
      "ider": 2295,
      "Ġhit": 2296,
      "Ġgreeting": 2297,
      "Ġstudio": 2298,
      "omes": 2299,
      "Ġcow": 2300,
      "Ġshaped": 2301,
      "Ġtook": 2302,
      "iers": 2303,
      "Ġarchitecture": 2304,
      "Ġdesert": 2305,
      "Ġdescri": 2306,
      "ze": 2307,
      "Ġblan": 2308,
      "Ġwide": 2309,
      "Ġtall": 2310,
      "Ġideas": 2311,
      "'m": 2312,
      "Ġunif": 2313,
      "Ġfloating": 2314,
      "Ġribb": 2315,
      "pes": 2316,
      "ateg": 2317,
      "ize": 2318,
      "cated": 2319,
      "Ġtemple": 2320,
      "Ġskateboard": 2321,
      "flow": 2322,
      "Ġearth": 2323,
      "Ġwears": 2324,
      "alth": 2325,
      "urb": 2326,
      "Ġmonitor": 2327,
      "Ġbutt": 2328,
      "Ġseat": 2329,
      "Ġfu": 2330,
      "ker": 2331,
      "Ġcaps": 2332,
      "Ġfalling": 2333,
      "Ġtruncated": 2334,
      "Ġarranged": 2335,
      "hor": 2336,
      "Ġwar": 2337,
      "Ġwebsite": 2338,
      "ia": 2339,
      "ised": 2340,
      "Ġfireplace": 2341,
      "iet": 2342,
      "Ġpad": 2343,
      "Ġcott": 2344,
      "Ġeasy": 2345,
      "ages": 2346,
      "Ġda": 2347,
      "vert": 2348,
      "Ġfeel": 2349,
      "Ġcoming": 2350,
      "Ġstaircase": 2351,
      "Ġfeature": 2352,
      "Ġcrossing": 2353,
      "Ġcreate": 2354,
      "po": 2355,
      "Ġmouse": 2356,
      "Ġcliff": 2357,
      "Ġsingle": 2358,
      "Ġenjoy": 2359,
      "Ġlux": 2360,
      "aks": 2361,
      "Ġgrand": 2362,
      "ĠOne": 2363,
      "Ġproduc": 2364,
      "Ġbit": 2365,
      "Ġgown": 2366,
      "Ġgolf": 2367,
      "Ġdouble": 2368,
      "Ġpots": 2369,
      "Ġcommun": 2370,
      "Ġhistoric": 2371,
      "ipes": 2372,
      "Ġmotorc": 2373,
      "Ġbeer": 2374,
      "irts": 2375,
      "Ġstems": 2376,
      "Ġshad": 2377,
      "Ġreally": 2378,
      "Ġleader": 2379,
      "Ġboots": 2380,
      "Ġstamp": 2381,
      "cil": 2382,
      "Ġpower": 2383,
      "iter": 2384,
      "bin": 2385,
      "Ġprov": 2386,
      "work": 2387,
      "Ġclean": 2388,
      "Ġsunglasses": 2389,
      "Ġluxur": 2390,
      "lymp": 2391,
      "Ġolymp": 2392,
      "Ġneigh": 2393,
      "Ġtissue": 2394,
      "Ġpumpk": 2395,
      "Ġrom": 2396,
      "paper": 2397,
      "Ġedited": 2398,
      "Ġrange": 2399,
      "Ġfocus": 2400,
      "Ġdiv": 2401,
      "ocol": 2402,
      "Ġretro": 2403,
      "Ġthough": 2404,
      "Ġintern": 2405,
      "Ġped": 2406,
      "Ġblaz": 2407,
      "ord": 2408,
      "Ġolympic": 2409,
      "Ġstove": 2410,
      "Ġcateg": 2411,
      "Ġperforming": 2412,
      "Ġfis": 2413,
      "ĠRight": 2414,
      "Ġorganisation": 2415,
      "Ġze": 2416,
      "Ġattractive": 2417,
      "Ġalways": 2418,
      "ector": 2419,
      "val": 2420,
      "Ġicons": 2421,
      "Ġauthor": 2422,
      "Ġdre": 2423,
      "Ġthin": 2424,
      "Ġcastle": 2425,
      "Ġproject": 2426,
      "Ġbecause": 2427,
      "Ġchocol": 2428,
      "Ġclimb": 2429,
      "Ġcold": 2430,
      "istic": 2431,
      "cket": 2432,
      "Ġrender": 2433,
      "Ġruns": 2434,
      "Ġreligious": 2435,
      "mato": 2436,
      "Ġwords": 2437,
      "ken": 2438,
      "ronic": 2439,
      "amed": 2440,
      "Ġmult": 2441,
      "Ġes": 2442,
      "Ġcategory": 2443,
      "Ġhear": 2444,
      "Ġtub": 2445,
      "ention": 2446,
      "Ġbank": 2447,
      "Ġracks": 2448,
      "Ġjar": 2449,
      "Ġpipe": 2450,
      "Ġcloud": 2451,
      "Ġsweet": 2452,
      "Ġsatur": 2453,
      "works": 2454,
      "Ġproperty": 2455,
      "Ġplane": 2456,
      "Ġhelic": 2457,
      "Ġhelicop": 2458,
      "ĠLe": 2459,
      "Ġson": 2460,
      "ality": 2461,
      "Ġprojector": 2462,
      "Ġtracks": 2463,
      "Ġdef": 2464,
      "Ġinclu": 2465,
      "Ġmoney": 2466,
      "Ġmonth": 2467,
      "Ġpave": 2468,
      "Ġtomato": 2469,
      "Ġgraphic": 2470,
      "Ġcelebration": 2471,
      "Ġfo": 2472,
      "Ġdisc": 2473,
      "noon": 2474,
      "Ġafternoon": 2475,
      "Ġfurn": 2476,
      "ince": 2477,
      "andel": 2478,
      "Ġsignal": 2479,
      "Ġpriv": 2480,
      "Ġsouth": 2481,
      "ked": 2482,
      "ocks": 2483,
      "bour": 2484,
      "Ġhealth": 2485,
      "Ġoper": 2486,
      "Ġbad": 2487,
      "any": 2488,
      "Ġumbrellas": 2489,
      "Ġrac": 2490,
      "Ġelectronic": 2491,
      "Ġonto": 2492,
      "Ġaud": 2493,
      "Ġass": 2494,
      "Ġlamps": 2495,
      "Ġinsect": 2496,
      "Ġwatercol": 2497,
      "Ġinspired": 2498,
      "Ġnorth": 2499,
      "Ġarrives": 2500,
      "Ġstain": 2501,
      "Ġsaturday": 2502,
      "Ġpavement": 2503,
      "Ġtouch": 2504,
      "Ġcheck": 2505,
      "Ġornament": 2506,
      "Ġbackside": 2507,
      "Ġpet": 2508,
      "aw": 2509,
      "Ġvalley": 2510,
      "Ġav": 2511,
      "Ġstatues": 2512,
      "Ġposing": 2513,
      "Ġdrums": 2514,
      "Ġfavor": 2515,
      "Ġpant": 2516,
      "Ġcontainer": 2517,
      "Ġholds": 2518,
      "Ġanimated": 2519,
      "Ġyears": 2520,
      "Ġpassen": 2521,
      "Ġarms": 2522,
      "Ġpier": 2523,
      "ĠLeft": 2524,
      "Ġpassing": 2525,
      "Ġpull": 2526,
      "mation": 2527,
      "Ġmist": 2528,
      "Ġfog": 2529,
      "Ġmove": 2530,
      "Ġcabin": 2531,
      "Ġcards": 2532,
      "Ġcapital": 2533,
      "Ġpian": 2534,
      "Ġprom": 2535,
      "Ġoil": 2536,
      "walk": 2537,
      "erest": 2538,
      "Ġbread": 2539,
      "antic": 2540,
      "Ġcandle": 2541,
      "veral": 2542,
      "matic": 2543,
      "Ġcomplete": 2544,
      "Ġseveral": 2545,
      "Ġcollage": 2546,
      "Ġlaugh": 2547,
      "Ġmeeting": 2548,
      "hood": 2549,
      "amic": 2550,
      "Ġshoot": 2551,
      "Ġpoint": 2552,
      "apped": 2553,
      "yard": 2554,
      "pos": 2555,
      "ific": 2556,
      "ĠFew": 2557,
      "Ġfriday": 2558,
      "Ġbeard": 2559,
      "Ġwalkway": 2560,
      "hy": 2561,
      "bow": 2562,
      "rees": 2563,
      "otted": 2564,
      "Ġpaintings": 2565,
      "Ġblanket": 2566,
      "Ġgeometric": 2567,
      "Ġfeed": 2568,
      "ost": 2569,
      "ged": 2570,
      "Ġstool": 2571,
      "Ġfly": 2572,
      "Ġwallpaper": 2573,
      "pack": 2574,
      "Ġfields": 2575,
      "tural": 2576,
      "Ġwo": 2577,
      "Ġcond": 2578,
      "Ġsmartphone": 2579,
      "Ġeat": 2580,
      "Ġengine": 2581,
      "Ġvarious": 2582,
      "Ġwre": 2583,
      "Ġmagaz": 2584,
      "Ġread": 2585,
      "Ġbrand": 2586,
      "tur": 2587,
      "Ġkiss": 2588,
      "Ġfireworks": 2589,
      "Ġsailing": 2590,
      "Ġcome": 2591,
      "ucks": 2592,
      "Ġdesigner": 2593,
      "Ġdistance": 2594,
      "Ġperformance": 2595,
      "Ġsunday": 2596,
      "Ġ5": 2597,
      "agon": 2598,
      "sing": 2599,
      "Ġlaying": 2600,
      "Ġterr": 2601,
      "cas": 2602,
      "ness": 2603,
      "Ġfit": 2604,
      "Ġdead": 2605,
      "Ġdeep": 2606,
      "read": 2607,
      "Ġinterest": 2608,
      "iture": 2609,
      "Ġcontains": 2610,
      "Ġplays": 2611,
      "Ġpress": 2612,
      "Ġmess": 2613,
      "Ġstream": 2614,
      "Ġsad": 2615,
      "Ġsail": 2616,
      "Ġfaces": 2617,
      "Ġsurfing": 2618,
      "Ġelements": 2619,
      "Ġcompos": 2620,
      "Ġnoble": 2621,
      "Ġfurniture": 2622,
      "ening": 2623,
      "uce": 2624,
      "nts": 2625,
      "Ġbackpack": 2626,
      "Ġtrend": 2627,
      "Ġvol": 2628,
      "Ġpract": 2629,
      "arent": 2630,
      "Ġpiano": 2631,
      "Ġcutting": 2632,
      "Ġhelicopter": 2633,
      "iding": 2634,
      "Ġhoriz": 2635,
      "Ġsigns": 2636,
      "Ġsaid": 2637,
      "ese": 2638,
      "chair": 2639,
      "Ġscoring": 2640,
      "Ġfootage": 2641,
      "Ġfont": 2642,
      "Ġapple": 2643,
      "Ġrailings": 2644,
      "Ġliqu": 2645,
      "ĠC": 2646,
      "Ġbalcon": 2647,
      "Ġequip": 2648,
      "Ġluxury": 2649,
      "Ġroses": 2650,
      "'ve": 2651,
      "Ġbetter": 2652,
      "arrow": 2653,
      "Ġcomed": 2654,
      "Ġdinner": 2655,
      "Ġpencil": 2656,
      "Ġmini": 2657,
      "umin": 2658,
      "ives": 2659,
      "Ġfab": 2660,
      "Ġride": 2661,
      "Ġmud": 2662,
      "Ġdeer": 2663,
      "crete": 2664,
      "Ġcounter": 2665,
      "estri": 2666,
      "Ġworks": 2667,
      "nel": 2668,
      "arf": 2669,
      "Ġspeaking": 2670,
      "Ġcolle": 2671,
      "Ġcarri": 2672,
      "Ġthird": 2673,
      "Ġmos": 2674,
      "Ġgoes": 2675,
      "ield": 2676,
      "Ġinst": 2677,
      "Ġconcrete": 2678,
      "Ġhour": 2679,
      "Ġgrassland": 2680,
      "Ġballs": 2681,
      "Ġjun": 2682,
      "Ġglobe": 2683,
      "ym": 2684,
      "Ġgrill": 2685,
      "Ġpillow": 2686,
      "Ġspeaker": 2687,
      "Ġdeck": 2688,
      "Ġconn": 2689,
      "mber": 2690,
      "Ġcontin": 2691,
      "Ġoven": 2692,
      "Ġcourt": 2693,
      "Ġbusy": 2694,
      "Ġknown": 2695,
      "Ġlear": 2696,
      "Ġtit": 2697,
      "Ġregion": 2698,
      "ured": 2699,
      "sty": 2700,
      "Ġlaptops": 2701,
      "Ġwatercolor": 2702,
      "Ġships": 2703,
      "Ġchocolate": 2704,
      "Ġfootballer": 2705,
      "Ġvers": 2706,
      "Ġparking": 2707,
      "Ġcoach": 2708,
      "ced": 2709,
      "Ġadvert": 2710,
      "Ġsyste": 2711,
      "Ġprivate": 2712,
      "yal": 2713,
      "ps": 2714,
      "Ġfavorite": 2715,
      "Ġest": 2716,
      "Ġflowing": 2717,
      "Ġbroken": 2718,
      "Ġlawn": 2719,
      "Ġspl": 2720,
      "Ġaband": 2721,
      "terior": 2722,
      "Ġgun": 2723,
      "Ġchick": 2724,
      "Ġtravel": 2725,
      "Ġdream": 2726,
      "Ġju": 2727,
      "Ġliquid": 2728,
      "Ġromantic": 2729,
      "Ġgive": 2730,
      "Ġsnowy": 2731,
      "Ġtied": 2732,
      "Ġclipping": 2733,
      "Ġmust": 2734,
      "Ġangle": 2735,
      "Ġdance": 2736,
      "Ġeff": 2737,
      "dd": 2738,
      "oured": 2739,
      "ward": 2740,
      "Ġexh": 2741,
      "Ġabandoned": 2742,
      "ises": 2743,
      "ockey": 2744,
      "Ġviews": 2745,
      "Ġexterior": 2746,
      "Ġcardboard": 2747,
      "Ġmagazine": 2748,
      "Ġweather": 2749,
      "Ġstun": 2750,
      "Ġquar": 2751,
      "Ġfight": 2752,
      "Ġdesigns": 2753,
      "Ġnail": 2754,
      "Ġcountryside": 2755,
      "Ġkitten": 2756,
      "Ġwoods": 2757,
      "Ġeggs": 2758,
      "Ġmuse": 2759,
      "Ġhomes": 2760,
      "Ġdevice": 2761,
      "Ġprin": 2762,
      "Ġbrush": 2763,
      "Ġmeat": 2764,
      "Ġfair": 2765,
      "rent": 2766,
      "Ġroads": 2767,
      "Ġshoe": 2768,
      "Ġlabel": 2769,
      "Ġhearts": 2770,
      "gram": 2771,
      "Ġwave": 2772,
      "Ġpopular": 2773,
      "Ġprogram": 2774,
      "Ġtiles": 2775,
      "otive": 2776,
      "sel": 2777,
      "Ġcomic": 2778,
      "Ġbeg": 2779,
      "Ġgraz": 2780,
      "Ġhelmets": 2781,
      "Ġhold": 2782,
      "Ġsoldiers": 2783,
      "Ġguy": 2784,
      "Ġahead": 2785,
      "Ġsoil": 2786,
      "Ġtransp": 2787,
      "allen": 2788,
      "Ġprinted": 2789,
      "Ġincluding": 2790,
      "Ġsupport": 2791,
      "Ġclosed": 2792,
      "mit": 2793,
      "Ġairport": 2794,
      "Ġtrying": 2795,
      "ĠSky": 2796,
      "Ġwriting": 2797,
      "Ġblowing": 2798,
      "Ġmuseum": 2799,
      "Ġmask": 2800,
      "Ġtim": 2801,
      "Ġleading": 2802,
      "Ġribbon": 2803,
      "ographical": 2804,
      "Ġmiss": 2805,
      "Ġtank": 2806,
      "Ġtextured": 2807,
      "ram": 2808,
      "Ġsinger": 2809,
      "Ġspoons": 2810,
      "Ġroyal": 2811,
      "Ġstylish": 2812,
      "Ġgall": 2813,
      "Ġneighbor": 2814,
      "Ġdon": 2815,
      "Ġsculptures": 2816,
      "Ġspr": 2817,
      "Ġcats": 2818,
      "ares": 2819,
      "Ġfeet": 2820,
      "Ġcare": 2821,
      "Ġgets": 2822,
      "Ġtry": 2823,
      "mal": 2824,
      "mpor": 2825,
      "Ġrocky": 2826,
      "Ġhip": 2827,
      "Ġden": 2828,
      "Ġshower": 2829,
      "ument": 2830,
      "Ġsunlight": 2831,
      "Ġtiny": 2832,
      "Ġwife": 2833,
      "Ġblues": 2834,
      "trees": 2835,
      "Ġfeatures": 2836,
      "esh": 2837,
      "Ġretur": 2838,
      "Ġgenus": 2839,
      "Ġharbour": 2840,
      "Ġblazer": 2841,
      "erc": 2842,
      "Ġdone": 2843,
      "Ġjump": 2844,
      "Ġskull": 2845,
      "Ġformer": 2846,
      "Ġpour": 2847,
      "Ġdid": 2848,
      "Ġskirt": 2849,
      "Ġwheat": 2850,
      "Ġbreakf": 2851,
      "Ġmonkey": 2852,
      "Ġfollowing": 2853,
      "Ġcompany": 2854,
      "Ġcomma": 2855,
      "Ġfast": 2856,
      "ailed": 2857,
      "Ġcurrent": 2858,
      "mporary": 2859,
      "Ġsport": 2860,
      "Ġpartic": 2861,
      "Ġpage": 2862,
      "Ġspeed": 2863,
      "Ġlone": 2864,
      "Ġvisual": 2865,
      "water": 2866,
      "Ġcafe": 2867,
      "Ġweb": 2868,
      "Ġcru": 2869,
      "Ġcheer": 2870,
      "Ġbreakfast": 2871,
      "Ġrear": 2872,
      "Ġeth": 2873,
      "Ġshr": 2874,
      "Ġmotorcycle": 2875,
      "Ġdiam": 2876,
      "Ġbelt": 2877,
      "there": 2878,
      "Ġsilhouettes": 2879,
      "Ġwel": 2880,
      "Ġupper": 2881,
      "Ġcows": 2882,
      "urban": 2883,
      "ution": 2884,
      "Ġturn": 2885,
      "Ġhy": 2886,
      "Ġresting": 2887,
      "Ġcame": 2888,
      "Ġpipes": 2889,
      "iti": 2890,
      "Ġmetall": 2891,
      "Ġgrad": 2892,
      "Ġple": 2893,
      "Ġbay": 2894,
      "Ġexerc": 2895,
      "Ġgiant": 2896,
      "Ġskin": 2897,
      "Ġbull": 2898,
      "scrap": 2899,
      "Ġshoulder": 2900,
      "rel": 2901,
      "Ġperio": 2902,
      "Ġrefr": 2903,
      "Ġskyscrap": 2904,
      "Ġfix": 2905,
      "Ġorganiz": 2906,
      "Ġgiraffe": 2907,
      "Ġmetallic": 2908,
      "Ġpor": 2909,
      "Ġfinish": 2910,
      "Ġcostumes": 2911,
      "Ġuniform": 2912,
      "Ġquarter": 2913,
      "Ġethnic": 2914,
      "Ġconte": 2915,
      "Ġemb": 2916,
      "ĠÂ": 2917,
      "Ġindoors": 2918,
      "Ġrefriger": 2919,
      "Ġham": 2920,
      "Ġrainbow": 2921,
      "Ġcommunity": 2922,
      "Ġsize": 2923,
      "Ġdirector": 2924,
      "Ġcock": 2925,
      "ĠBott": 2926,
      "Ġtypical": 2927,
      "hess": 2928,
      "Ġmesh": 2929,
      "Ġracket": 2930,
      "Ġremote": 2931,
      "Ġeld": 2932,
      "Ġted": 2933,
      "Ġmug": 2934,
      "Ġbushes": 2935,
      "Ġsuch": 2936,
      "anes": 2937,
      "Ġstay": 2938,
      "Ġborder": 2939,
      "Ġhosp": 2940,
      "Ġcher": 2941,
      "Ġneighborhood": 2942,
      "Ġhospital": 2943,
      "Ġcub": 2944,
      "Ġcovers": 2945,
      "Ġslee": 2946,
      "Ġswing": 2947,
      "Ġequipment": 2948,
      "Ġfacade": 2949,
      "Ġbring": 2950,
      "rical": 2951,
      "Ġable": 2952,
      "mor": 2953,
      "idential": 2954,
      "Ġpin": 2955,
      "Ġcreated": 2956,
      "ension": 2957,
      "abb": 2958,
      "Ġdoes": 2959,
      "Ġaudience": 2960,
      "kend": 2961,
      "Ġwelc": 2962,
      "Ġappro": 2963,
      "Ġdiamond": 2964,
      "Ġperiod": 2965,
      "Ġinc": 2966,
      "Ġonce": 2967,
      "Ġhockey": 2968,
      "Ġchop": 2969,
      "Ġrelaxing": 2970,
      "Ġvan": 2971,
      "Ġweekend": 2972,
      "Ġwinner": 2973,
      "Ġsurfboard": 2974,
      "Ġspeakers": 2975,
      "Ġteddy": 2976,
      "ided": 2977,
      "Ġexhib": 2978,
      "Ġheads": 2979,
      "Ġfer": 2980,
      "Ġruins": 2981,
      "Ġcop": 2982,
      "Ġstack": 2983,
      "Ġcell": 2984,
      "Ġstret": 2985,
      "Ġfigure": 2986,
      "ensive": 2987,
      "berries": 2988,
      "ĠBottom": 2989,
      "Ġsong": 2990,
      "Ġchange": 2991,
      "Ġsystem": 2992,
      "zing": 2993,
      "Ġnarrow": 2994,
      "Ġpedestri": 2995,
      "ĠP": 2996,
      "gu": 2997,
      "Ġtract": 2998,
      "Ġoutf": 2999,
      "Ġelder": 3000,
      "Ġarrow": 3001,
      "Ġdistric": 3002,
      "ler": 3003,
      "Ġbalcony": 3004,
      "ility": 3005,
      "Ġrecent": 3006,
      "velop": 3007,
      "Ġantique": 3008,
      "Ġsuc": 3009,
      "Ġrepublic": 3010,
      "Ġcra": 3011,
      "Ġinvit": 3012,
      "Ġcomes": 3013,
      "Ġgeographical": 3014,
      "Ġwinning": 3015,
      "Ġgather": 3016,
      "view": 3017,
      "Ġrural": 3018,
      "Ġburning": 3019,
      "Ġcasual": 3020,
      "aning": 3021,
      "Ġhug": 3022,
      "Ġrece": 3023,
      "Ġplanet": 3024,
      "Ġmonarch": 3025,
      "Ġelephants": 3026,
      "arents": 3027,
      "Ġcrown": 3028,
      "Ġdrops": 3029,
      "Ġrugby": 3030,
      "Ġposition": 3031,
      "gest": 3032,
      "erence": 3033,
      "Ġcalled": 3034,
      "Ġdays": 3035,
      "aster": 3036,
      "Ġsandy": 3037,
      "Ġhop": 3038,
      "Ġscarf": 3039,
      "Ġwhy": 3040,
      "Ġprotest": 3041,
      "Ġwest": 3042,
      "Ġgraff": 3043,
      "Ġgraffiti": 3044,
      "urs": 3045,
      "cial": 3046,
      "Ġlit": 3047,
      "Ġfacing": 3048,
      "Ġcontro": 3049,
      "Ġdepiction": 3050,
      "Ġdrive": 3051,
      "Ġnewsp": 3052,
      "Ġdepic": 3053,
      "Ġchandel": 3054,
      "Ġbucket": 3055,
      "Ġspir": 3056,
      "Ġrefrigerator": 3057,
      "Ġropes": 3058,
      "usp": 3059,
      "Ġcyc": 3060,
      "nding": 3061,
      "Ġadm": 3062,
      "Ġword": 3063,
      "Ġwonder": 3064,
      "Ġroll": 3065,
      "Ġgreenery": 3066,
      "Ġchampion": 3067,
      "ĠM": 3068,
      "Ġfact": 3069,
      "ugg": 3070,
      "Ġwet": 3071,
      "Ġhealthy": 3072,
      "ngth": 3073,
      "Ġcanal": 3074,
      "Ġtun": 3075,
      "Ġid": 3076,
      "Ġgym": 3077,
      "Ġhighway": 3078,
      "Ġorganization": 3079,
      "aches": 3080,
      "Ġsure": 3081,
      "Ġsusp": 3082,
      "Ġtransparent": 3083,
      "Ġsection": 3084,
      "Ġtrouser": 3085,
      "Ġdeity": 3086,
      "Ġsmiles": 3087,
      "Ġwaters": 3088,
      "Ġscore": 3089,
      "band": 3090,
      "Ġsauc": 3091,
      "ils": 3092,
      "Ġrendering": 3093,
      "mod": 3094,
      "Ġwhole": 3095,
      "zen": 3096,
      "bbles": 3097,
      "Ġelderly": 3098,
      "Ġstem": 3099,
      "por": 3100,
      "Ġaccess": 3101,
      "Ġcable": 3102,
      "Ġpub": 3103,
      "Ġlion": 3104,
      "Ġversion": 3105,
      "Ġama": 3106,
      "Ġsunflow": 3107,
      "Ġtips": 3108,
      "Ġparade": 3109,
      "Ġsomeone": 3110,
      "ĠSome": 3111,
      "Ġfabric": 3112,
      "ully": 3113,
      "gy": 3114,
      "Ġfile": 3115,
      "Ġsweater": 3116,
      "Ġcoins": 3117,
      "'ll": 3118,
      "Ġdistrict": 3119,
      "Ġel": 3120,
      "Ġshiny": 3121,
      "Ġhole": 3122,
      "Ġlaughing": 3123,
      "Ġstunning": 3124,
      "Ġyard": 3125,
      "Ġrecipe": 3126,
      "Ġrice": 3127,
      "tte": 3128,
      "Ġmonday": 3129,
      "Ġclimbing": 3130,
      "Ġlat": 3131,
      "Ġpointing": 3132,
      "Ġlemon": 3133,
      "aces": 3134,
      "Ġlibr": 3135,
      "Ġgor": 3136,
      "Ġdustbin": 3137,
      "Ġshops": 3138,
      "Ġphotographed": 3139,
      "Ġfinger": 3140,
      "stage": 3141,
      "Ġrepres": 3142,
      "Ġgrain": 3143,
      "Ġdus": 3144,
      "Ġgrazing": 3145,
      "Ġing": 3146,
      "Ġleaving": 3147,
      "Ġcontemporary": 3148,
      "wear": 3149,
      "Ġmixed": 3150,
      "Ġsuccess": 3151,
      "Ġserv": 3152,
      "uded": 3153,
      "ature": 3154,
      "Ġang": 3155,
      "Ġvac": 3156,
      "tail": 3157,
      "Ġbarn": 3158,
      "Ġmass": 3159,
      "thern": 3160,
      "Ġtool": 3161,
      "Ġillumin": 3162,
      "Ġdirt": 3163,
      "Ġgeneral": 3164,
      "bag": 3165,
      "Ġpray": 3166,
      "list": 3167,
      "Ġspot": 3168,
      "aching": 3169,
      "Ġtypes": 3170,
      "na": 3171,
      "Ġcottage": 3172,
      "Ġwings": 3173,
      "Ġladder": 3174,
      "Ġtowers": 3175,
      "Ġbunch": 3176,
      "Ġsays": 3177,
      "ially": 3178,
      "Ġbold": 3179,
      "Ġaccom": 3180,
      "Ġdate": 3181,
      "Ġviewed": 3182,
      "Ġves": 3183,
      "Ġgarment": 3184,
      "Ġstudent": 3185,
      "Ġgues": 3186,
      "Ġcer": 3187,
      "Ġreve": 3188,
      "Ġdusk": 3189,
      "men": 3190,
      "Ġbul": 3191,
      "itted": 3192,
      "Ġstory": 3193,
      "Ġunique": 3194,
      "Ġcrowds": 3195,
      "Ġque": 3196,
      "gers": 3197,
      "ators": 3198,
      "Ġrabb": 3199,
      "Ġalm": 3200,
      "Ġcig": 3201,
      "Ġcommander": 3202,
      "ech": 3203,
      "Ġproduct": 3204,
      "Ġlibrary": 3205,
      "Ġphotographer": 3206,
      "Ġconference": 3207,
      "Ġdock": 3208,
      "Ġrema": 3209,
      "Ġwreath": 3210,
      "nes": 3211,
      "Ġdescrib": 3212,
      "Ġhost": 3213,
      "iety": 3214,
      "ders": 3215,
      "Ġeleg": 3216,
      "Ġhistory": 3217,
      "Ġpatterns": 3218,
      "Ġtractor": 3219,
      "Ġbased": 3220,
      "Ġtheme": 3221,
      "Ġdrinks": 3222,
      "Ġplaces": 3223,
      "Ġfive": 3224,
      "Ġspark": 3225,
      "Ġblock": 3226,
      "Ġcoral": 3227,
      "Ġdramatic": 3228,
      "Ġstor": 3229,
      "Ġ/": 3230,
      "Ġexpress": 3231,
      "Ġbuds": 3232,
      "Ġdoctor": 3233,
      "Ġdirection": 3234,
      "Ġofficial": 3235,
      "Ġpa": 3236,
      "Ġrustic": 3237,
      "Ġsep": 3238,
      "Ġcupc": 3239,
      "Ġcruise": 3240,
      "Ġcolourful": 3241,
      "Ġphotography": 3242,
      "Ġingred": 3243,
      "Ġguests": 3244,
      "Ġstuff": 3245,
      "hered": 3246,
      "Ġmoo": 3247,
      "Ġbananas": 3248,
      "ret": 3249,
      "Ġlovely": 3250,
      "Ġvio": 3251,
      "Ġunivers": 3252,
      "Ġoc": 3253,
      "Ġstraight": 3254,
      "Ġchicken": 3255,
      "Ġneckl": 3256,
      "Ġlighting": 3257,
      "Ġdevelop": 3258,
      "Ġparents": 3259,
      "Ġgro": 3260,
      "Ġopened": 3261,
      "uesday": 3262,
      "Ġtuesday": 3263,
      "Ġblank": 3264,
      "Ġtag": 3265,
      "Ġlif": 3266,
      "Ġcompetition": 3267,
      "Ġpumpkin": 3268,
      "gn": 3269,
      "ients": 3270,
      "Ġeast": 3271,
      "Ġflock": 3272,
      "Ġoverlooking": 3273,
      "Ġchess": 3274,
      "Ġputting": 3275,
      "Ġstained": 3276,
      "nesday": 3277,
      "Ġwednesday": 3278,
      "aming": 3279,
      "Ġcapture": 3280,
      "Ġ~": 3281,
      "terial": 3282,
      "plate": 3283,
      "Ġripe": 3284,
      "Ġbasin": 3285,
      "ased": 3286,
      "Ġgiven": 3287,
      "Ġsidewalk": 3288,
      "Ġdest": 3289,
      "Ġeag": 3290,
      "ister": 3291,
      "Ġhood": 3292,
      "Ġstrong": 3293,
      "Ġhus": 3294,
      "med": 3295,
      "Ġshorts": 3296,
      "Ġthurs": 3297,
      "Ġgallery": 3298,
      "Ġmaterial": 3299,
      "Ġlunch": 3300,
      "Ġlevel": 3301,
      "Ġthursday": 3302,
      "Ġbod": 3303,
      "Ġavail": 3304,
      "rone": 3305,
      "Ġrot": 3306,
      "Ġpig": 3307,
      "Ġfrozen": 3308,
      "Ġcontainers": 3309,
      "vern": 3310,
      "Ġsymbols": 3311,
      "Ġreef": 3312,
      "Ġbloss": 3313,
      "Ġfictional": 3314,
      "ict": 3315,
      "bra": 3316,
      "Ġbin": 3317,
      "Ġchoo": 3318,
      "Ġcycle": 3319,
      "Ġjet": 3320,
      "Ġworn": 3321,
      "Ġexper": 3322,
      "Ġgives": 3323,
      "Ġfunction": 3324,
      "Ġlock": 3325,
      "orn": 3326,
      "Ġyog": 3327,
      "Ġchef": 3328,
      "Ġdecorations": 3329,
      "Ġtroph": 3330,
      "Ġpanor": 3331,
      "oy": 3332,
      "Ġselling": 3333,
      "Ġmush": 3334,
      "Ġarrive": 3335,
      "Ġprofessional": 3336,
      "Ġgames": 3337,
      "Ġladies": 3338,
      "Ġmushroom": 3339,
      "Ġhairsty": 3340,
      "iving": 3341,
      "Ġsaw": 3342,
      "Ġavailable": 3343,
      "Ġmill": 3344,
      "ays": 3345,
      "Ġlighthouse": 3346,
      "Ġinfor": 3347,
      "Ġyach": 3348,
      "Ġurban": 3349,
      "Ġcreative": 3350,
      "lights": 3351,
      "Ġimport": 3352,
      "Ġpouring": 3353,
      "Ġteenage": 3354,
      "Ġshut": 3355,
      "Ġemer": 3356,
      "Ġbricks": 3357,
      "ague": 3358,
      "icking": 3359,
      "Ġrainy": 3360,
      "Ġenglish": 3361,
      "Ġmilk": 3362,
      "Ġsquir": 3363,
      "Ġlength": 3364,
      "Ġillustrations": 3365,
      "Ġciv": 3366,
      "Ġmoment": 3367,
      "Ġaqu": 3368,
      "Ġtelephone": 3369,
      "Ġanimation": 3370,
      "Ġwent": 3371,
      "Ġgas": 3372,
      "Ġcollege": 3373,
      "Ġconst": 3374,
      "Ġnote": 3375,
      "otes": 3376,
      "Ġfriendly": 3377,
      "Ġappear": 3378,
      "Ġmaster": 3379,
      "Ġgovern": 3380,
      "Ġenter": 3381,
      "Ġnoth": 3382,
      "Ġcomb": 3383,
      "Ġnewspaper": 3384,
      "Ġdriver": 3385,
      "cent": 3386,
      "Ġfre": 3387,
      "zy": 3388,
      "Ġnothing": 3389,
      "Ġwing": 3390,
      "Ġsalad": 3391,
      "time": 3392,
      "Ġlots": 3393,
      "Ġalone": 3394,
      "Ġquality": 3395,
      "Ġgrun": 3396,
      "Ġ6": 3397,
      "inning": 3398,
      "Ġpreparing": 3399,
      "Ġjuice": 3400,
      "Ġol": 3401,
      "Ġblond": 3402,
      "ĠThrough": 3403,
      "Ġbron": 3404,
      "Ġzebra": 3405,
      "Ġplayground": 3406,
      "Ġjew": 3407,
      "ashing": 3408,
      "ieval": 3409,
      "Ġmedieval": 3410,
      "Ġvisitors": 3411,
      "Ġamazing": 3412,
      "Ġhoardings": 3413,
      "Ġcarved": 3414,
      "Ġfeather": 3415,
      "oman": 3416,
      "Ġblackboard": 3417,
      "Ġtomatoes": 3418,
      "Ġinning": 3419,
      "Ġpile": 3420,
      "Ġhanged": 3421,
      "Ġoutfit": 3422,
      "Ġdrone": 3423,
      "Ġhandbag": 3424,
      "Ġcookies": 3425,
      "Ġexc": 3426,
      "Ġfeeding": 3427,
      "Ġtransport": 3428,
      "aded": 3429,
      "Ġappl": 3430,
      "Ġchic": 3431,
      "ection": 3432,
      "Ġnecklace": 3433,
      "Ġengage": 3434,
      "Ġdecoration": 3435,
      "ney": 3436,
      "Ġcivil": 3437,
      "cher": 3438,
      "Ġstriped": 3439,
      "Ġmarri": 3440,
      "Ġnest": 3441,
      "Ġdun": 3442,
      "ĠTow": 3443,
      "Ġthanks": 3444,
      "Ġpale": 3445,
      "Ġetc": 3446,
      "Ġesc": 3447,
      "Ġbatt": 3448,
      "Ġbaskets": 3449,
      "Ġheadphones": 3450,
      "ception": 3451,
      "Ġjars": 3452,
      "Ġskiing": 3453,
      "Ġer": 3454,
      "Ġteac": 3455,
      "Ġwheelchair": 3456,
      "Ġcrop": 3457,
      "Ġlower": 3458,
      "ĠÂ£": 3459,
      "Ġblonde": 3460,
      "Ġtile": 3461,
      "Ġparts": 3462,
      "Ġannual": 3463,
      "Ġbronze": 3464,
      "Ġresidential": 3465,
      "Ġblind": 3466,
      "Ġchalk": 3467,
      "Ġresort": 3468,
      "Ġnur": 3469,
      "Ġbuy": 3470,
      "Ġless": 3471,
      "Ġcooking": 3472,
      "Ġreflected": 3473,
      "Ġreflect": 3474,
      "Ġletters": 3475,
      "Ġgradu": 3476,
      "Ġmedical": 3477,
      "Ġfallen": 3478,
      "Ġfuture": 3479,
      "Ġindustrial": 3480,
      "Ġrepresent": 3481,
      "Ġextra": 3482,
      "lley": 3483,
      "Ġopt": 3484,
      "ably": 3485,
      "Ġchandelier": 3486,
      "Ġ:)": 3487,
      "Ġalmost": 3488,
      "Ġcheese": 3489,
      "Ġspider": 3490,
      "Ġguard": 3491,
      "ĠTowards": 3492,
      "Ġmaj": 3493,
      "Ġcrane": 3494,
      "Ġmicrophones": 3495,
      "Ġbutton": 3496,
      "Ġshown": 3497,
      "Ġpitch": 3498,
      "Ġlistening": 3499,
      "Ġjack": 3500,
      "Ġdetails": 3501,
      "bu": 3502,
      "Ġdom": 3503,
      "Ġsharing": 3504,
      "Ġvict": 3505,
      "ids": 3506,
      "Ġvariety": 3507,
      "Ġcherry": 3508,
      "pers": 3509,
      "Ġsoldier": 3510,
      "Ġgothic": 3511,
      "Ġelegant": 3512,
      "Ġtrolley": 3513,
      "Ġpit": 3514,
      "Ġwheels": 3515,
      "Ġrough": 3516,
      "Ġrev": 3517,
      "flies": 3518,
      "Ġhon": 3519,
      "Ġow": 3520,
      "ges": 3521,
      "Ġways": 3522,
      "cts": 3523,
      "Ġshelter": 3524,
      "Ġtrian": 3525,
      "Ġtrendy": 3526,
      "Ġbuild": 3527,
      "idal": 3528,
      "Ġthought": 3529,
      "Ġforward": 3530,
      "Ġsteam": 3531,
      "Ġ18": 3532,
      "ager": 3533,
      "Ġtraveling": 3534,
      "Ġtech": 3535,
      "Ġherd": 3536,
      "Ġbikes": 3537,
      "Ġvegetable": 3538,
      "Ġdemon": 3539,
      "Ġnovel": 3540,
      "Ġsolar": 3541,
      "Ġgal": 3542,
      "Ġlace": 3543,
      "acts": 3544,
      "Ġhusband": 3545,
      "Ġsug": 3546,
      "Ġpas": 3547,
      "Ġthemed": 3548,
      "Ġalph": 3549,
      "Ġhats": 3550,
      "Ġenvi": 3551,
      "Ġmeal": 3552,
      "Ġgovernment": 3553,
      "Ġrad": 3554,
      "Ġrealistic": 3555,
      "Ġsquirrel": 3556,
      "Ġbodies": 3557,
      "Ġwithin": 3558,
      "Ġclassroom": 3559,
      "alian": 3560,
      "Ġminima": 3561,
      "Ġange": 3562,
      "Ġproducts": 3563,
      "Ġleague": 3564,
      "Ġspeech": 3565,
      "Ġworkers": 3566,
      "otic": 3567,
      "Ġactu": 3568,
      "Ġrip": 3569,
      "Ġbare": 3570,
      "Ġsince": 3571,
      "Ġphotographs": 3572,
      "Ġmachines": 3573,
      "Ġporch": 3574,
      "Ġcarro": 3575,
      "Ġspotted": 3576,
      "Ġund": 3577,
      "Ġpregn": 3578,
      "athered": 3579,
      "Ġpick": 3580,
      "Ġgardens": 3581,
      "Ġlargest": 3582,
      "ina": 3583,
      "Ġresid": 3584,
      "Ġinternational": 3585,
      "Ġyoga": 3586,
      "Ġrising": 3587,
      "Ġcul": 3588,
      "Ġleaning": 3589,
      "Ġsummit": 3590,
      "book": 3591,
      "Ġut": 3592,
      "Ġspend": 3593,
      "ole": 3594,
      "fully": 3595,
      "wo": 3596,
      "Ġgorge": 3597,
      "Ġshirts": 3598,
      "Ġhyd": 3599,
      "Ġlang": 3600,
      "Ġposs": 3601,
      "Ġtrophy": 3602,
      "Ġrooms": 3603,
      "Ġpassengers": 3604,
      "met": 3605,
      "Ġcocktail": 3606,
      "ilies": 3607,
      "Ġlangu": 3608,
      "ike": 3609,
      "Ġbee": 3610,
      "Ġcircular": 3611,
      "Ġrabbit": 3612,
      "Ġclub": 3613,
      "Ġkite": 3614,
      "Ġgenre": 3615,
      "go": 3616,
      "Ġgrassy": 3617,
      "Ġrele": 3618,
      "Ġenviron": 3619,
      "Ġturned": 3620,
      "Ġbanana": 3621,
      "ilar": 3622,
      "Ġcorn": 3623,
      "antern": 3624,
      "Ġgent": 3625,
      "Ġcush": 3626,
      "Ġorder": 3627,
      "Ġbutterflies": 3628,
      "ige": 3629,
      "Ġcondition": 3630,
      "Ġlined": 3631,
      "Ġmode": 3632,
      "Ġcelebrating": 3633,
      "Ġcalm": 3634,
      "Ġviol": 3635,
      "ifts": 3636,
      "Ġinvention": 3637,
      "Ġviolet": 3638,
      "lo": 3639,
      "Ġfrog": 3640,
      "Ġcabinet": 3641,
      "bble": 3642,
      "Ġlantern": 3643,
      "Ġcourse": 3644,
      "Ġking": 3645,
      "rant": 3646,
      "Ġpasses": 3647,
      "Ġcomf": 3648,
      "Ġcoastal": 3649,
      "Ġmac": 3650,
      "Ġshining": 3651,
      "rought": 3652,
      "Ġrides": 3653,
      "Ġbuses": 3654,
      "Ġcameras": 3655,
      "Ġmedia": 3656,
      "Ġmonument": 3657,
      "Ġmarch": 3658,
      "Ġdisplayed": 3659,
      "Ġsaucer": 3660,
      "Ġcigare": 3661,
      "Ġshades": 3662,
      "hol": 3663,
      "Ġkeeping": 3664,
      "Ġzoo": 3665,
      "Ġtul": 3666,
      "ony": 3667,
      "Ġrub": 3668,
      "Ġmoored": 3669,
      "Ġgifts": 3670,
      "Ġdiscus": 3671,
      "Ġartwork": 3672,
      "made": 3673,
      "fri": 3674,
      "Ġelev": 3675,
      "cup": 3676,
      "ript": 3677,
      "Ġsnowfl": 3678,
      "Ġnotes": 3679,
      "Ġapples": 3680,
      "Ġdepicting": 3681,
      "friend": 3682,
      "Ġgrunge": 3683,
      "Ġforce": 3684,
      "Ġzo": 3685,
      "Ġshade": 3686,
      "Ġtowel": 3687,
      "Ġven": 3688,
      "Ġtot": 3689,
      "Ġsunsh": 3690,
      "ilt": 3691,
      "Ġfarmer": 3692,
      "Ġfisher": 3693,
      "fish": 3694,
      "Ġbuttons": 3695,
      "wood": 3696,
      "Ġast": 3697,
      "Ġtimes": 3698,
      "Ġteacher": 3699,
      "Ġsuitcase": 3700,
      "Ġenvironment": 3701,
      "een": 3702,
      "Ġsunshine": 3703,
      "Ġplain": 3704,
      "Ġfishes": 3705,
      "Ġmessage": 3706,
      "ective": 3707,
      "Ġmemor": 3708,
      "Ġinf": 3709,
      "market": 3710,
      "Ġwelcome": 3711,
      "Ġwatches": 3712,
      "aved": 3713,
      "Ġjackets": 3714,
      "Ġworship": 3715,
      "back": 3716,
      "ĠN": 3717,
      "Ġdemonstr": 3718,
      "Ġslices": 3719,
      "Ġharbor": 3720,
      "Ġshapes": 3721,
      "alend": 3722,
      "Ġtemplate": 3723,
      "Ġimportant": 3724,
      "aps": 3725,
      "inets": 3726,
      "Ġlearn": 3727,
      "Ġwrapped": 3728,
      "Ġquick": 3729,
      "Ġcabinets": 3730,
      "Ġeagle": 3731,
      "Ġcentral": 3732,
      "ncy": 3733,
      "Ġdragon": 3734,
      "Ġvacation": 3735,
      "Ġseats": 3736,
      "Ġrob": 3737,
      "eth": 3738,
      "Ġsurp": 3739,
      "Ġcalend": 3740,
      "Ġdisco": 3741,
      "Ġrich": 3742,
      "Ġbackyard": 3743,
      "Ġrent": 3744,
      "Ġpregnant": 3745,
      "Ġlost": 3746,
      "Ġwashing": 3747,
      "Ġthick": 3748,
      "Ġcliffs": 3749,
      "Ġparish": 3750,
      "Ġsciss": 3751,
      "Ġspecs": 3752,
      "Ġdescribes": 3753,
      "Ġscoot": 3754,
      "Ġtunnel": 3755,
      "Ġcommon": 3756,
      "Ġexhibition": 3757,
      "den": 3758,
      "Ġjour": 3759,
      "Ġaccommod": 3760,
      "Ġconstit": 3761,
      "ov": 3762,
      "Ġeverything": 3763,
      "Ġblog": 3764,
      "Ġscreens": 3765,
      "Ġhandsome": 3766,
      "Ġcatching": 3767,
      "Ġstores": 3768,
      "Ġaged": 3769,
      "Ġblocks": 3770,
      "Ġserved": 3771,
      "used": 3772,
      "000": 3773,
      "Ġonline": 3774,
      "Ġestate": 3775,
      "Ġhandle": 3776,
      "ear": 3777,
      "Ġreception": 3778,
      "Ġreflections": 3779,
      "Ġdamage": 3780,
      "Ġfine": 3781,
      "Ġgrapes": 3782,
      "opl": 3783,
      "Ġcampus": 3784,
      "Ġthinking": 3785,
      "Ġsurrounding": 3786,
      "Ġsupermarket": 3787,
      "Ġbelie": 3788,
      "Ġsave": 3789,
      "Ġglam": 3790,
      "Ġfill": 3791,
      "Ġdetailed": 3792,
      "ades": 3793,
      "Ġcathed": 3794,
      "Ġferry": 3795,
      "Ġblossom": 3796,
      "Ġtiger": 3797,
      "Ġhut": 3798,
      "Ġrou": 3799,
      "oween": 3800,
      "Ġtide": 3801,
      "Ġelectrical": 3802,
      "Ġcatch": 3803,
      "Ġhistorical": 3804,
      "Ġbell": 3805,
      "oise": 3806,
      "Ġfle": 3807,
      "Ġpractice": 3808,
      "Ġtodd": 3809,
      "Ġrare": 3810,
      "Ġrings": 3811,
      "Ġmics": 3812,
      "Ġbloom": 3813,
      "Ġclothing": 3814,
      "Ġdolph": 3815,
      "Ġinteresting": 3816,
      "omb": 3817,
      "Ġdevices": 3818,
      "Ġwish": 3819,
      "Ġnamed": 3820,
      "ftop": 3821,
      "Ġzoom": 3822,
      "Ġduck": 3823,
      "Ġvia": 3824,
      "Ġaeropl": 3825,
      "Ġcage": 3826,
      "Ġarchitect": 3827,
      "Ġserious": 3828,
      "Ġcalendar": 3829,
      "the": 3830,
      "Ġguest": 3831,
      "Ġshadows": 3832,
      "Ġpy": 3833,
      "Ġrooftop": 3834,
      "Ġviolin": 3835,
      "igrap": 3836,
      "Ġpersonal": 3837,
      "Ġgarage": 3838,
      "Ġgiraffes": 3839,
      "Ġ20": 3840,
      "Ġcathedral": 3841,
      "Ġago": 3842,
      "Ġtechn": 3843,
      "Ġsleep": 3844,
      "Ġcalligrap": 3845,
      "Ġprofession": 3846,
      "Ġinformation": 3847,
      "Ġresp": 3848,
      "Ġador": 3849,
      "Ġlonely": 3850,
      "Ġ%": 3851,
      "Ġsi": 3852,
      "Ġunderwater": 3853,
      "Ġtournament": 3854,
      "Ġducks": 3855,
      "where": 3856,
      "Ġhalloween": 3857,
      "iversary": 3858,
      "Ġglowing": 3859,
      "Ġanniversary": 3860,
      "Ġchampionship": 3861,
      "Ġhighlight": 3862,
      "Ġstudy": 3863,
      "actu": 3864,
      "Ġdollar": 3865,
      "down": 3866,
      "Ġilluminated": 3867,
      "Ġbasic": 3868,
      "Ġnewly": 3869,
      "Ġ7": 3870,
      "Ġautomotive": 3871,
      "Ġtin": 3872,
      "Ġphys": 3873,
      "Ġdenim": 3874,
      "illed": 3875,
      "aught": 3876,
      "over": 3877,
      "Ġbill": 3878,
      "Ġkissing": 3879,
      "verage": 3880,
      "blem": 3881,
      "Ġflies": 3882,
      "nty": 3883,
      "Ġinner": 3884,
      "ssy": 3885,
      "Ġingredients": 3886,
      "Ġsimilar": 3887,
      "Ġprior": 3888,
      "Ġfixed": 3889,
      "Ġsocial": 3890,
      "ten": 3891,
      "Ġunt": 3892,
      "Ġcopy": 3893,
      "agne": 3894,
      "Ġfactory": 3895,
      "Ġimpress": 3896,
      "Ġparticip": 3897,
      "Ġskyscrapers": 3898,
      "Ġhorizon": 3899,
      "Ġcocon": 3900,
      "Ġchampagne": 3901,
      "Ġqueen": 3902,
      "Ġmakeup": 3903,
      "Ġcomplex": 3904,
      "Ġtail": 3905,
      "Ġangry": 3906,
      "Ġgorgeous": 3907,
      "isting": 3908,
      "Ġbridal": 3909,
      "ases": 3910,
      "Ġbeds": 3911,
      "Ġgrave": 3912,
      "Ġplayed": 3913,
      "Ġ10": 3914,
      "Ġspeaks": 3915,
      "Ġnovelist": 3916,
      "Ġber": 3917,
      "Ġwait": 3918,
      "rod": 3919,
      "Ġperched": 3920,
      "Ġpatio": 3921,
      "Ġplenty": 3922,
      "Ġlugg": 3923,
      "Ġtoward": 3924,
      "Ġcoin": 3925,
      "Ġsurfer": 3926,
      "Ġcities": 3927,
      "Ġfou": 3928,
      "ato": 3929,
      "Ġfalls": 3930,
      "Ġfeatured": 3931,
      "Ġborders": 3932,
      "naments": 3933,
      "Ġinfl": 3934,
      "Ġcomedy": 3935,
      "Ġlater": 3936,
      "Ġexpos": 3937,
      "Ġcoloured": 3938,
      "alent": 3939,
      "Ġbarb": 3940,
      "'d": 3941,
      "Ġlanguage": 3942,
      "Ġshowed": 3943,
      "Ġeveryone": 3944,
      "nov": 3945,
      "Ġash": 3946,
      "Ġgroups": 3947,
      "oun": 3948,
      "Ġboxer": 3949,
      "Ġmer": 3950,
      "Ġturb": 3951,
      "Ġpens": 3952,
      "ands": 3953,
      "Ġbanks": 3954,
      "pies": 3955,
      "Ġpalace": 3956,
      "apping": 3957,
      "Ġtrains": 3958,
      "Ġquest": 3959,
      "oggy": 3960,
      "Ġwon": 3961,
      "80": 3962,
      "Ġbound": 3963,
      "ĠTwo": 3964,
      "Ġactiv": 3965,
      "Ġrays": 3966,
      "Ġpasture": 3967,
      "ooth": 3968,
      "Ġstamps": 3969,
      "aced": 3970,
      "Ġcones": 3971,
      "Ġdais": 3972,
      "Ġinvitation": 3973,
      "Ġsuspension": 3974,
      "Ġornaments": 3975,
      "Ġposts": 3976,
      "bras": 3977,
      "Ġthrowing": 3978,
      "Ġfingers": 3979,
      "Ġbecome": 3980,
      "Ġbubbles": 3981,
      "Ġtemp": 3982,
      "ushing": 3983,
      "Ġaccommodation": 3984,
      "Ġbud": 3985,
      "Ġthread": 3986,
      "Ġfoggy": 3987,
      "Ġba": 3988,
      "Ġeduc": 3989,
      "born": 3990,
      "Ġservice": 3991,
      "ought": 3992,
      "Ġowl": 3993,
      "Ġiss": 3994,
      "50": 3995,
      "Ġcomfort": 3996,
      "Ġzebras": 3997,
      "kers": 3998,
      "Ġcommer": 3999,
      "Ġstickers": 4000,
      "Ġexercise": 4001,
      "Ġstarted": 4002,
      "Ġraised": 4003,
      "Ġshrub": 4004,
      "Ġrise": 4005,
      "Ġmaple": 4006,
      "Ġswitch": 4007,
      "Ġpotato": 4008,
      "Ġsound": 4009,
      "Ġcanv": 4010,
      "estic": 4011,
      "Ġsignals": 4012,
      "Ġprofile": 4013,
      "ories": 4014,
      "Ġslight": 4015,
      "Ġpulling": 4016,
      "Ġluggage": 4017,
      "Ġinj": 4018,
      "Ġcarving": 4019,
      "Ġhorizont": 4020,
      "istr": 4021,
      "Ġsignboard": 4022,
      "Ġcolours": 4023,
      "Ġguide": 4024,
      "Ġsheds": 4025,
      "Ġbroad": 4026,
      "berry": 4027,
      "Ġsteering": 4028,
      "imate": 4029,
      "Ġportion": 4030,
      "Ġcupcakes": 4031,
      "iver": 4032,
      "Ġjoy": 4033,
      "Ġpicnic": 4034,
      "Ġcarriage": 4035,
      "ilding": 4036,
      "ember": 4037,
      "Ġmotorb": 4038,
      "ified": 4039,
      "anger": 4040,
      "Ġalphab": 4041,
      "Ġled": 4042,
      "Ġrecently": 4043,
      "Ġpane": 4044,
      "Ġtack": 4045,
      "itors": 4046,
      "Ġrolling": 4047,
      "Ġthrows": 4048,
      "ode": 4049,
      "Ġvine": 4050,
      "Ġprocess": 4051,
      "udes": 4052,
      "Ġenough": 4053,
      "Ġsauce": 4054,
      "Ġadmin": 4055,
      "Ġmural": 4056,
      "nequ": 4057,
      "Ġoppos": 4058,
      "Ġnails": 4059,
      "Ġcompletely": 4060,
      "Ġseeing": 4061,
      "Ġformal": 4062,
      "Ġbreed": 4063,
      "Ġpassenger": 4064,
      "Ġcalligraphy": 4065,
      "Ġworker": 4066,
      "Ġarmed": 4067,
      "Ġethnicity": 4068,
      "Ġmannequ": 4069,
      "Ġserving": 4070,
      "rings": 4071,
      "Ġcrew": 4072,
      "Ġslice": 4073,
      "ics": 4074,
      "Ġterrace": 4075,
      "Ġvictory": 4076,
      "Ġcigarette": 4077,
      "Ġcanvas": 4078,
      "Ġadvertise": 4079,
      "zz": 4080,
      "mong": 4081,
      "Ġdancer": 4082,
      "Ġyacht": 4083,
      "Ġearrings": 4084,
      "Ġcommercial": 4085,
      "ded": 4086,
      "Ġpeace": 4087,
      "Ġareas": 4088,
      "Ġlaunch": 4089,
      "Ġuses": 4090,
      "Ġadv": 4091,
      "Ġroofs": 4092,
      "Ġholidays": 4093,
      "Ġtoddler": 4094,
      "Ġrepe": 4095,
      "Ġentire": 4096,
      "hip": 4097,
      "Ġnap": 4098,
      "boat": 4099,
      "Ġpatient": 4100,
      "Ġscale": 4101,
      "Ġconnected": 4102,
      "boo": 4103,
      "Ġactually": 4104,
      "Ġshare": 4105,
      "Ġmillion": 4106,
      "Ġpresents": 4107,
      "Ġsticker": 4108,
      "ĠNear": 4109,
      "Ġoak": 4110,
      "Ġonstage": 4111,
      "Ġchim": 4112,
      "Ġcomedian": 4113,
      "esides": 4114,
      "Ġracing": 4115,
      "Ġfort": 4116,
      "Ġstrawberries": 4117,
      "Ġmount": 4118,
      "Ġextr": 4119,
      "Ġhugging": 4120,
      "arters": 4121,
      "Ġpumpkins": 4122,
      "Ġpeoples": 4123,
      "Ġleave": 4124,
      "Ġshared": 4125,
      "Ġoverlay": 4126,
      "Ġsets": 4127,
      "Ġslope": 4128,
      "Ġscooter": 4129,
      "fight": 4130,
      "Ġ...": 4131,
      "Ġbuilder": 4132,
      "Ġeffect": 4133,
      "Ġceramic": 4134,
      "Ġsmooth": 4135,
      "Ġastron": 4136,
      "rous": 4137,
      "Ġturtle": 4138,
      "Ġbrother": 4139,
      "Ġcave": 4140,
      "Ġmall": 4141,
      "rench": 4142,
      "Ġtax": 4143,
      "Ġtools": 4144,
      "Ġtrucks": 4145,
      "Ġmaybe": 4146,
      "Ġcomposition": 4147,
      "tub": 4148,
      "ecting": 4149,
      "Ġfestive": 4150,
      "ĠAmong": 4151,
      "Ġstarting": 4152,
      "Ġleads": 4153,
      "Ġtitle": 4154,
      "itter": 4155,
      "Ġ9": 4156,
      "erse": 4157,
      "ief": 4158,
      "Ġfourth": 4159,
      "Ġprice": 4160,
      "Ġearl": 4161,
      "Ġblooming": 4162,
      "Ġengagement": 4163,
      "Ġdough": 4164,
      "Ġformation": 4165,
      "nate": 4166,
      "ung": 4167,
      "lict": 4168,
      "Ġstroll": 4169,
      "Ġdoc": 4170,
      "Ġchec": 4171,
      "Ġbak": 4172,
      "Ġstalls": 4173,
      "Ġowner": 4174,
      "Ġshield": 4175,
      "Ġshall": 4176,
      "rome": 4177,
      "Ġsmoking": 4178,
      "Ġlift": 4179,
      "Ġmarble": 4180,
      "Ġcovering": 4181,
      "Ġhorizontal": 4182,
      "Ġmans": 4183,
      "mble": 4184,
      "ental": 4185,
      "Ġfridge": 4186,
      "Ġbathtub": 4187,
      "Ġthumb": 4188,
      "Ġcourty": 4189,
      "Ġha": 4190,
      "utes": 4191,
      "Ġnose": 4192,
      "Ġsnowman": 4193,
      "Ġtalk": 4194,
      "Ġdrama": 4195,
      "Ġvs": 4196,
      "anging": 4197,
      "Ġartists": 4198,
      "wall": 4199,
      "Ġreacts": 4200,
      "Ġarrived": 4201,
      "Ġaeroplane": 4202,
      "ened": 4203,
      "Ġpear": 4204,
      "Ġslowly": 4205,
      "Ġcaught": 4206,
      "Ġtrib": 4207,
      "Ġlatest": 4208,
      "Ġcrack": 4209,
      "Ġheading": 4210,
      "Ġsnake": 4211,
      "Ġmajor": 4212,
      "Ġward": 4213,
      "Ġoutline": 4214,
      "Ġfed": 4215,
      "Ġborn": 4216,
      "ell": 4217,
      "Ġtas": 4218,
      "Ġpolitical": 4219,
      "tual": 4220,
      "Ġlettering": 4221,
      "Ġgrainy": 4222,
      "ians": 4223,
      "atory": 4224,
      "building": 4225,
      "Ġadministr": 4226,
      "Ġinsc": 4227,
      "Ġtest": 4228,
      "Ġyet": 4229,
      "Ġtitled": 4230,
      "Ġoften": 4231,
      "Ġgoat": 4232,
      "Ġshaking": 4233,
      "Ġmeet": 4234,
      "Ġcos": 4235,
      "Ġcheerful": 4236,
      "Ġsugar": 4237,
      "Ġgest": 4238,
      "Ġmosque": 4239,
      "Ġmushrooms": 4240,
      "aim": 4241,
      "Ġcolum": 4242,
      "Ġchat": 4243,
      "Ġhiking": 4244,
      "Ġelement": 4245,
      "Ġincludes": 4246,
      "Ġactress": 4247,
      "Ġsepar": 4248,
      "Ġadded": 4249,
      "Ġretail": 4250,
      "Ġsnowflakes": 4251,
      "Ġseeds": 4252,
      "Ġmeas": 4253,
      "ually": 4254,
      "boy": 4255,
      "Ġhanger": 4256,
      "Ġcourtyard": 4257,
      "cep": 4258,
      "acters": 4259,
      "Ġcharacters": 4260,
      "Ġhoney": 4261,
      "Ġdome": 4262,
      "Ġformat": 4263,
      "lest": 4264,
      "Ġreturn": 4265,
      "Ġmates": 4266,
      "Ġmarried": 4267,
      "Ġknee": 4268,
      "Ġorganic": 4269,
      "Ġuniversity": 4270,
      "Ġvert": 4271,
      "ued": 4272,
      "Ġrhy": 4273,
      "Ġoct": 4274,
      "Ġgreet": 4275,
      "Ġtouchdown": 4276,
      "Ġatm": 4277,
      "Ġrenov": 4278,
      "Ġpanoramic": 4279,
      "Ġtreat": 4280,
      "Ġinternet": 4281,
      "Ġalongside": 4282,
      "Ġwarning": 4283,
      "Ġstripes": 4284,
      "Ġdeal": 4285,
      "Ġolive": 4286,
      "Ġdesser": 4287,
      "Ġneeds": 4288,
      "ees": 4289,
      "Ġhig": 4290,
      "Ġsocks": 4291,
      "Ġdiag": 4292,
      "Ġaff": 4293,
      "Ġremo": 4294,
      "Ġmagn": 4295,
      "Ġfinished": 4296,
      "ressed": 4297,
      "Ġident": 4298,
      "Ġspac": 4299,
      "thm": 4300,
      "Ġener": 4301,
      "mill": 4302,
      "Ġsne": 4303,
      "Ġglossy": 4304,
      "Ġrhythm": 4305,
      "Ġreas": 4306,
      "Ġprob": 4307,
      "Ġfairy": 4308,
      "Ġearlier": 4309,
      "Ġnorthern": 4310,
      "sers": 4311,
      "Ġtrousers": 4312,
      "Ġornamental": 4313,
      "Ġberries": 4314,
      "Ġentry": 4315,
      "Ġtattoos": 4316,
      "ware": 4317,
      "Ġdirect": 4318,
      "Ġdro": 4319,
      "Ġcattle": 4320,
      "Ġcy": 4321,
      "Ġself": 4322,
      "Ġcountries": 4323,
      "Ġpedestrian": 4324,
      "Ġfeathers": 4325,
      "Ġroots": 4326,
      "Ġnewborn": 4327,
      "sses": 4328,
      "Ġhydrant": 4329,
      "Ġchest": 4330,
      "Ġtissues": 4331,
      "Ġshooting": 4332,
      "Ġcircles": 4333,
      "asian": 4334,
      "chan": 4335,
      "Ġjerse": 4336,
      "Ġothers": 4337,
      "ucasian": 4338,
      "Ġcaucasian": 4339,
      "Ġbrain": 4340,
      "Ġcontrol": 4341,
      "ams": 4342,
      "Ġfounder": 4343,
      "Ġofficers": 4344,
      "vest": 4345,
      "Ġprobably": 4346,
      "Ġfirefight": 4347,
      "Ġinspir": 4348,
      "Ġrese": 4349,
      "Ġcone": 4350,
      "Ġpengu": 4351,
      "Ġinste": 4352,
      "Ġinstead": 4353,
      "Ġcreating": 4354,
      "Ġcontr": 4355,
      "Ġarriving": 4356,
      "Ġthous": 4357,
      "Ġappears": 4358,
      "Ġslightly": 4359,
      "Ġcase": 4360,
      "ording": 4361,
      "ula": 4362,
      "Ġtube": 4363,
      "Ġdecorating": 4364,
      "Ġexpensive": 4365,
      "Ġscores": 4366,
      "Ġprev": 4367,
      "Ġlies": 4368,
      "Ġdescribe": 4369,
      "ination": 4370,
      "eral": 4371,
      "Ġsew": 4372,
      "Ġsaf": 4373,
      "Ġjungle": 4374,
      "Ġsearch": 4375,
      "erst": 4376,
      "Ġturning": 4377,
      "owed": 4378,
      "Ġsuits": 4379,
      "Ġspectacle": 4380,
      "Ġskies": 4381,
      "Ġframed": 4382,
      "Ġbrace": 4383,
      "Ġtooth": 4384,
      "Ġarmy": 4385,
      "Ġmacro": 4386,
      "Ġalphabet": 4387,
      "Ġflood": 4388,
      "Ġlocom": 4389,
      "Ġjob": 4390,
      "Ġopposite": 4391,
      "Ġlip": 4392,
      "Ġmosa": 4393,
      "Ġble": 4394,
      "Ġim": 4395,
      "Ġutens": 4396,
      "idden": 4397,
      "Ġbears": 4398,
      "Ġcarry": 4399,
      "giving": 4400,
      "Ġnavy": 4401,
      "Ġuppercase": 4402,
      "bby": 4403,
      "gress": 4404,
      "Ġsunflower": 4405,
      "Ġappeared": 4406,
      "inary": 4407,
      "Ġraising": 4408,
      "Ġpu": 4409,
      "uly": 4410,
      "arium": 4411,
      "Ġflames": 4412,
      "Ġfacility": 4413,
      "Ġbattle": 4414,
      "reme": 4415,
      "Ġshoulders": 4416,
      "Ġcoconut": 4417,
      "Ġcaptured": 4418,
      "Ġhits": 4419,
      "Ġthr": 4420,
      "Ġdrives": 4421,
      "actus": 4422,
      "ache": 4423,
      "Ġdow": 4424,
      "Ġears": 4425,
      "Ġheadqu": 4426,
      "Ġcactus": 4427,
      "Ġthroughout": 4428,
      "Ġarrange": 4429,
      "stick": 4430,
      "Ġrally": 4431,
      "Ġgraphics": 4432,
      "Ġquiet": 4433,
      "Ġstormy": 4434,
      "Ġthanksgiving": 4435,
      "fts": 4436,
      "Ġbought": 4437,
      "Ġeaster": 4438,
      "Ġmusc": 4439,
      "Ġadministrative": 4440,
      "Ġheadquarters": 4441,
      "Ġep": 4442,
      "Ġvessel": 4443,
      "Ġinscript": 4444,
      "Ġatmosp": 4445,
      "can": 4446,
      "Ġtheater": 4447,
      "Ġseag": 4448,
      "Ġresc": 4449,
      "Ġattack": 4450,
      "Ġteams": 4451,
      "Ġdood": 4452,
      "Ġsecret": 4453,
      "Ġseagull": 4454,
      "Ġcakes": 4455,
      "Ġima": 4456,
      "Ġflowering": 4457,
      "isc": 4458,
      "Ġpoints": 4459,
      "Ġextruded": 4460,
      "Ġtravelling": 4461,
      "Ġcho": 4462,
      "Ġupon": 4463,
      "und": 4464,
      "Ġanch": 4465,
      "Ġ*": 4466,
      "Ġfold": 4467,
      "Ġuk": 4468,
      "Ġjoined": 4469,
      "Ġpedestrians": 4470,
      "Ġstates": 4471,
      "och": 4472,
      "Ġmechan": 4473,
      "Ġfully": 4474,
      "Ġmultip": 4475,
      "Ġbeige": 4476,
      "ĠImage": 4477,
      "Ġoperating": 4478,
      "Ġvisiting": 4479,
      "Ġfox": 4480,
      "Ġorch": 4481,
      "Ġdishes": 4482,
      "Ġink": 4483,
      "Ġroman": 4484,
      "Ġmiles": 4485,
      "ah": 4486,
      "Ġshrubs": 4487,
      "Ġdownt": 4488,
      "Ġreser": 4489,
      "ifying": 4490,
      "Ġsofas": 4491,
      "Ġthousands": 4492,
      "umer": 4493,
      "orms": 4494,
      "eath": 4495,
      "Ġkeys": 4496,
      "Ġpatterned": 4497,
      "Ġpolar": 4498,
      "Ġsneak": 4499,
      "ology": 4500,
      "Ġbiggest": 4501,
      "Ġsour": 4502,
      "Ġinstall": 4503,
      "Ġuntil": 4504,
      "fire": 4505,
      "Ġmodels": 4506,
      "Ġvertical": 4507,
      "oe": 4508,
      "Ġgathered": 4509,
      "Ġdad": 4510,
      "rylic": 4511,
      "Ġacrylic": 4512,
      "Ġpanels": 4513,
      "nds": 4514,
      "Ġguitars": 4515,
      "Ġmember": 4516,
      "Ġwonderful": 4517,
      "Ġpathway": 4518,
      "Ġforks": 4519,
      "Ġconvers": 4520,
      "Ġmoss": 4521,
      "Ġbesides": 4522,
      "Ġlink": 4523,
      "apers": 4524,
      "Ġpants": 4525,
      "Ġkay": 4526,
      "Ġske": 4527,
      "Ġteeth": 4528,
      "Ġlim": 4529,
      "Ġloved": 4530,
      "Ġpanel": 4531,
      "uffy": 4532,
      "use": 4533,
      "Ġdeliver": 4534,
      "Ġdowntown": 4535,
      "Ġrises": 4536,
      "Ġneut": 4537,
      "Ġvilla": 4538,
      "Ġinscription": 4539,
      "Ġfancy": 4540,
      "Ġgrills": 4541,
      "Ġpacked": 4542,
      "Ġimag": 4543,
      "Ġaquarium": 4544,
      "atic": 4545,
      "Ġscient": 4546,
      "ops": 4547,
      "Ġlightning": 4548,
      "Ġrusty": 4549,
      "Ġbuying": 4550,
      "Ġembr": 4551,
      "Ġcombin": 4552,
      "Ġpil": 4553,
      "Ġwanted": 4554,
      "uf": 4555,
      "Ġjug": 4556,
      "Ġhours": 4557,
      "olution": 4558,
      "Ġolder": 4559,
      "Ġprepare": 4560,
      "Ġprepares": 4561,
      "Ġlocomotive": 4562,
      "ism": 4563,
      "ouse": 4564,
      "Ġcloseup": 4565,
      "Ġharvest": 4566,
      "Ġrevival": 4567,
      "Ġmanuf": 4568,
      "li": 4569,
      "Ġoffer": 4570,
      "Ġfighting": 4571,
      "poles": 4572,
      "Ġsurpr": 4573,
      "Ġshar": 4574,
      "Ġquite": 4575,
      "Ġproduction": 4576,
      "Ġmoves": 4577,
      "Ġextreme": 4578,
      "iner": 4579,
      "Ġdunes": 4580,
      "Ġfoli": 4581,
      "Ġmisty": 4582,
      "Ġcollect": 4583,
      "Ġroyalty": 4584,
      "Ġdiagram": 4585,
      "itive": 4586,
      "Ġenc": 4587,
      "Ġpul": 4588,
      "ester": 4589,
      "orous": 4590,
      "Ġisometric": 4591,
      "Ġparach": 4592,
      "Ġsoup": 4593,
      "Ġexpression": 4594,
      "Ġornate": 4595,
      "wind": 4596,
      "Ġjumps": 4597,
      "Ġwrist": 4598,
      "Ġskelet": 4599,
      "nded": 4600,
      "Ġarchitectural": 4601,
      "Ġbarri": 4602,
      "Ġbeneath": 4603,
      "Ġbreaking": 4604,
      "Ġgolfer": 4605,
      "Ġadorable": 4606,
      "Ġfoliage": 4607,
      "Ġunus": 4608,
      "Ġcloset": 4609,
      "eer": 4610,
      "Ġtrue": 4611,
      "ucted": 4612,
      "Ġtyping": 4613,
      "Ġglac": 4614,
      "Ġresult": 4615,
      "Ġhitting": 4616,
      "Ġfa": 4617,
      "Ġrepl": 4618,
      "plants": 4619,
      "Ġmenu": 4620,
      "Ġmovement": 4621,
      "page": 4622,
      "Ġweight": 4623,
      "tic": 4624,
      "Ġtrunks": 4625,
      "Ġadvertisement": 4626,
      "bage": 4627,
      "Ġspray": 4628,
      "izes": 4629,
      "Ġmonitors": 4630,
      "Ġdamaged": 4631,
      "Ġsister": 4632,
      "Ġiconic": 4633,
      "Ġuniforms": 4634,
      "Ġshallow": 4635,
      "ads": 4636,
      "Ġhighlighted": 4637,
      "Ġglitter": 4638,
      "Ġcurly": 4639,
      "Ġnapk": 4640,
      "Ġfamilies": 4641,
      "Ġmounted": 4642,
      "uis": 4643,
      "Ġbrides": 4644,
      "Ġyourself": 4645,
      "Ġstyl": 4646,
      "Ġlogs": 4647,
      "Ġrobot": 4648,
      "sels": 4649,
      "Ġdrawers": 4650,
      "Ġpackets": 4651,
      "Ġscissors": 4652,
      "Ġcowboy": 4653,
      "sticks": 4654,
      "person": 4655,
      "Ġmatching": 4656,
      "wh": 4657,
      "Ġstuck": 4658,
      "Ġhomepage": 4659,
      "Ġintrod": 4660,
      "ĠCh": 4661,
      "Ġminiature": 4662,
      "Ġchoose": 4663,
      "cope": 4664,
      "riter": 4665,
      "Ġflows": 4666,
      "Ġchem": 4667,
      "Ġmemorial": 4668,
      "Ġheat": 4669,
      "Ġpend": 4670,
      "Ġpurch": 4671,
      "Ġhope": 4672,
      "Ġfootwear": 4673,
      "Ġsleeve": 4674,
      "iced": 4675,
      "Ġremind": 4676,
      "ison": 4677,
      "Ġbark": 4678,
      "Ġdesp": 4679,
      "gles": 4680,
      "Ġscr": 4681,
      "Ġterm": 4682,
      "Ġevents": 4683,
      "Ġcranes": 4684,
      "Ġpasted": 4685,
      "woman": 4686,
      "Ġtrim": 4687,
      "Ġkick": 4688,
      "Ġfolk": 4689,
      "Ġmosaic": 4690,
      "Ġemot": 4691,
      "Ġentertain": 4692,
      "Ġdue": 4693,
      "Ġsandw": 4694,
      "ready": 4695,
      "Ġlips": 4696,
      "Ġmusician": 4697,
      "Ġsuccessful": 4698,
      "Ġalready": 4699,
      "Ġlanding": 4700,
      "Ġmassive": 4701,
      "Ġappearance": 4702,
      "Ġatmosphere": 4703,
      "Ġdefin": 4704,
      "Ġhairstyle": 4705,
      "Ġsafe": 4706,
      "ule": 4707,
      "robe": 4708,
      "Ġdeser": 4709,
      "Ġturns": 4710,
      "Ġpicking": 4711,
      "Ġgrounds": 4712,
      "rol": 4713,
      "Ġdrawings": 4714,
      "Ġbeginning": 4715,
      "Ġenergy": 4716,
      "uary": 4717,
      "Ġhimself": 4718,
      "Ġfeeling": 4719,
      "ĠAbove": 4720,
      "Ġstorage": 4721,
      "Ġcombination": 4722,
      "ashes": 4723,
      "Ġartific": 4724,
      "Ġgraph": 4725,
      "Ġfoods": 4726,
      "ricul": 4727,
      "Ġpadd": 4728,
      "20": 4729,
      "Ġcolon": 4730,
      "Ġmedium": 4731,
      "Ġfrench": 4732,
      "Ġpoly": 4733,
      "Ġtrays": 4734,
      "Ġpinned": 4735,
      "Ġattended": 4736,
      "Ġjewel": 4737,
      "Ġdelic": 4738,
      "hest": 4739,
      "ĠTV": 4740,
      "ults": 4741,
      "Ġtexts": 4742,
      "Ġexplore": 4743,
      "icip": 4744,
      "ĠFar": 4745,
      "Ġmotorbike": 4746,
      "Ġutensils": 4747,
      "ccol": 4748,
      "Ġplanets": 4749,
      "Ġslip": 4750,
      "Ġdisplaying": 4751,
      "Ġsunflowers": 4752,
      "Ġartificial": 4753,
      "Ġislands": 4754,
      "quoise": 4755,
      "Ġturquoise": 4756,
      "Ġengr": 4757,
      "Ġbrought": 4758,
      "Ġgalax": 4759,
      "Ġgave": 4760,
      "atell": 4761,
      "Ġsoon": 4762,
      "Ġagricul": 4763,
      "Ġcamel": 4764,
      "iec": 4765,
      "ples": 4766,
      "Ġscenes": 4767,
      "ccoli": 4768,
      "Ġsatell": 4769,
      "Ġblood": 4770,
      "Ġkites": 4771,
      "Ġdip": 4772,
      "ume": 4773,
      "Ġfloors": 4774,
      "Ġtan": 4775,
      "Ġdanger": 4776,
      "Ġsquat": 4777,
      "Ġbald": 4778,
      "Ġaccessories": 4779,
      "Ġrecord": 4780,
      "ential": 4781,
      "selves": 4782,
      "Ġfences": 4783,
      "Ġadding": 4784,
      "Ġspent": 4785,
      "Ġsoap": 4786,
      "ricate": 4787,
      "Ġreflecting": 4788,
      "Ġpresentation": 4789,
      "Ġmart": 4790,
      "ino": 4791,
      "Ġstaring": 4792,
      "Ġofficer": 4793,
      "Ġchains": 4794,
      "Ġtape": 4795,
      "Ġhay": 4796,
      "oph": 4797,
      "ended": 4798,
      "Ġbeverage": 4799,
      "forest": 4800,
      "Ġglove": 4801,
      "cast": 4802,
      "Ġintricate": 4803,
      "Ġcrosses": 4804,
      "Ġembro": 4805,
      "Ġpyram": 4806,
      "Ġparro": 4807,
      "Ġtheat": 4808,
      "Ġalley": 4809,
      "Ġpresident": 4810,
      "Ġlabels": 4811,
      "Ġskyscraper": 4812,
      "Ġmind": 4813,
      "Ġchan": 4814,
      "eper": 4815,
      "Ġroute": 4816,
      "Ġneutral": 4817,
      "Ġnews": 4818,
      "ushes": 4819,
      "Ġshell": 4820,
      "Ġsnail": 4821,
      "Ġprincess": 4822,
      "60": 4823,
      "shot": 4824,
      "Ġcoastline": 4825,
      "Ġdonkey": 4826,
      "Ġunit": 4827,
      "Ġdots": 4828,
      "Ġtaxi": 4829,
      "Ġlives": 4830,
      "shirts": 4831,
      "Ġpersonality": 4832,
      "Ġtrash": 4833,
      "Ġstylized": 4834,
      "Ġrubber": 4835,
      "Ġbars": 4836,
      "Ġbroccoli": 4837,
      "Ġket": 4838,
      "Ġissue": 4839,
      "aid": 4840,
      "Ġdu": 4841,
      "Ġstump": 4842,
      "Ġpocket": 4843,
      "Ġfinally": 4844,
      "pan": 4845,
      "ploy": 4846,
      "Ġbusinesswoman": 4847,
      "yed": 4848,
      "icing": 4849,
      "Ġran": 4850,
      "Ġsparkling": 4851,
      "em": 4852,
      "Ġpay": 4853,
      "Ġsplash": 4854,
      "Ġselection": 4855,
      "Ġunusual": 4856,
      "ek": 4857,
      "Ġflooring": 4858,
      "Ġamb": 4859,
      "Ġdolls": 4860,
      "Ġaside": 4861,
      "Ġhidden": 4862,
      "Ġphones": 4863,
      "Ġprovince": 4864,
      "Ġputs": 4865,
      "ckets": 4866,
      "Ġmanager": 4867,
      "Ġdefe": 4868,
      "Ġcustomers": 4869,
      "Ġpresented": 4870,
      "Ġposed": 4871,
      "Ġleop": 4872,
      "osaur": 4873,
      "Ġsteep": 4874,
      "Ġoranges": 4875,
      "aled": 4876,
      "ever": 4877,
      "Ġangel": 4878,
      "Ġtram": 4879,
      "imes": 4880,
      "Ġattention": 4881,
      "Ġwalked": 4882,
      "Ġexplain": 4883,
      "Ġloving": 4884,
      "cers": 4885,
      "Ġgril": 4886,
      "Ġwaist": 4887,
      "Ġlogos": 4888,
      "Ġdinosaur": 4889,
      "Ġdivision": 4890,
      "unt": 4891,
      "atul": 4892,
      "asted": 4893,
      "Ġemploy": 4894,
      "Ġwardrobe": 4895,
      "Ġdespite": 4896,
      "lers": 4897,
      "Ġadj": 4898,
      "Ġhamm": 4899,
      "Ġgentle": 4900,
      "Ġstrap": 4901,
      "Ġstaff": 4902,
      "Ġspirit": 4903,
      "wards": 4904,
      "Ġcongr": 4905,
      "Ġridge": 4906,
      "ti": 4907,
      "Ġgirlfriend": 4908,
      "Ġcandy": 4909,
      "Ġdancers": 4910,
      "Ġsolid": 4911,
      "Ġcraft": 4912,
      "Ġhung": 4913,
      "Ġadven": 4914,
      "Ġmonoch": 4915,
      "Ġmun": 4916,
      "Ġsitu": 4917,
      "Ġmansion": 4918,
      "Ġtired": 4919,
      "Ġpromot": 4920,
      "of": 4921,
      "Ġconcep": 4922,
      "Ġhaired": 4923,
      "Ġrows": 4924,
      "Ġsatellite": 4925,
      "Ġlane": 4926,
      "asing": 4927,
      "Ġpep": 4928,
      "Ġpraying": 4929,
      "road": 4930,
      "Ġmaro": 4931,
      "Ġmens": 4932,
      "hop": 4933,
      "Ġdiamonds": 4934,
      "alist": 4935,
      "Ġmel": 4936,
      "Ġplus": 4937,
      "Ġcushions": 4938,
      "Ġais": 4939,
      "Ġorganism": 4940,
      "lands": 4941,
      "ĠÌ": 4942,
      "Ġstriking": 4943,
      "Ġhandmade": 4944,
      "iller": 4945,
      "aged": 4946,
      "Ġcarrots": 4947,
      "Ġalb": 4948,
      "aign": 4949,
      "sw": 4950,
      "sky": 4951,
      "ashed": 4952,
      "Ġspread": 4953,
      "Ġbarric": 4954,
      "Ġinters": 4955,
      "Ġbelong": 4956,
      "Ġoccas": 4957,
      "Ġpacket": 4958,
      "rib": 4959,
      "Ġcampaign": 4960,
      "lets": 4961,
      "Ġlush": 4962,
      "Ġlotus": 4963,
      "Ġmaroon": 4964,
      "Ġpure": 4965,
      "Ġskinny": 4966,
      "Ġdomestic": 4967,
      "aily": 4968,
      "Ġheav": 4969,
      "igs": 4970,
      "Ġ16": 4971,
      "Ġemblem": 4972,
      "Ġcontest": 4973,
      "Ġreport": 4974,
      "Ġwatering": 4975,
      "ama": 4976,
      "ĠInside": 4977,
      "Ġrainforest": 4978,
      "Ġsnack": 4979,
      "Ġreality": 4980,
      "Ġresidents": 4981,
      "Ġleopard": 4982,
      "Ġ\"": 4983,
      "Ġopens": 4984,
      "Ġlisted": 4985,
      "Ġpulled": 4986,
      "acing": 4987,
      "Ġdem": 4988,
      "Ġdaily": 4989,
      "ims": 4990,
      "Ġmarina": 4991,
      "Ġx": 4992,
      "aging": 4993,
      "Ġcityscape": 4994,
      "Ġcrab": 4995,
      "Ġhd": 4996,
      "Ġchanging": 4997,
      "Ġinsects": 4998,
      "Ġcrazy": 4999,
      "posed": 5000,
      "Ġmasc": 5001,
      "Ġtwist": 5002,
      "Ġfell": 5003,
      "cases": 5004,
      "Ġdessert": 5005,
      "times": 5006,
      "Ġrap": 5007,
      "Ġsometimes": 5008,
      "utional": 5009,
      "uddle": 5010,
      "Ġfrost": 5011,
      "Ġwro": 5012,
      "Ġplans": 5013,
      "Ġalco": 5014,
      "Ġpers": 5015,
      "Ġluck": 5016,
      "Ġdivers": 5017,
      "rowave": 5018,
      "Ġincred": 5019,
      "mel": 5020,
      "oci": 5021,
      "Ġassoci": 5022,
      "ically": 5023,
      "Ġhed": 5024,
      "Ġforming": 5025,
      "Ġcarries": 5026,
      "Ġbenef": 5027,
      "Ġdestro": 5028,
      "Ġpendant": 5029,
      "Ġmax": 5030,
      "zzle": 5031,
      "Ġmultiple": 5032,
      "rown": 5033,
      "Ġhuts": 5034,
      "Ġhairstyles": 5035,
      "ris": 5036,
      "Ġhomeless": 5037,
      "Ġboxing": 5038,
      "Ġconstitutional": 5039,
      "Ġadult": 5040,
      "lishing": 5041,
      "Ġbri": 5042,
      "Ġpetals": 5043,
      "Ġins": 5044,
      "esome": 5045,
      "Ġnuts": 5046,
      "Ġpoet": 5047,
      "Ġholder": 5048,
      "Ġtries": 5049,
      "Ġawesome": 5050,
      "Ġesp": 5051,
      "Ġreveal": 5052,
      "Ġsouthern": 5053,
      "ivid": 5054,
      "Ġsnowfall": 5055,
      "Ġindivid": 5056,
      "Ġhike": 5057,
      "ites": 5058,
      "Ġbeans": 5059,
      "Ġjersey": 5060,
      "Ġabs": 5061,
      "Ġminimal": 5062,
      "Ġtulips": 5063,
      "Ġgalaxy": 5064,
      "Ġtire": 5065,
      "Ġchap": 5066,
      "azz": 5067,
      "Ġlanterns": 5068,
      "Ġmaterials": 5069,
      "semble": 5070,
      "Ġqual": 5071,
      "Ġtight": 5072,
      "Ġtong": 5073,
      "Ġpeak": 5074,
      "Ġmarine": 5075,
      "Ġhunt": 5076,
      "Ġbrief": 5077,
      "Ġslop": 5078,
      "Ġinterview": 5079,
      "Ġbedrooms": 5080,
      "Ġmultic": 5081,
      "Ġlau": 5082,
      "Ġdarkness": 5083,
      "Ġfavour": 5084,
      "Ġpotatoes": 5085,
      "eds": 5086,
      "Ġnative": 5087,
      "Ġpige": 5088,
      "esty": 5089,
      "Ġpencils": 5090,
      "Ġ8": 5091,
      "Ġaustr": 5092,
      "Ġstarry": 5093,
      "Ġcleaning": 5094,
      "Ġbecame": 5095,
      "Ġcongratul": 5096,
      "Ġlaund": 5097,
      "Ġdandel": 5098,
      "Ġsilhouetted": 5099,
      "Ġhund": 5100,
      "Ġfel": 5101,
      "Ġfisherman": 5102,
      "Ġbookshe": 5103,
      "Ġwhis": 5104,
      "lly": 5105,
      "Ġprogress": 5106,
      "Ġdreams": 5107,
      "Ġramp": 5108,
      "Ġlens": 5109,
      "Ġmonths": 5110,
      "Ġheaded": 5111,
      "Ġunderground": 5112,
      "Ġfluffy": 5113,
      "Ġloose": 5114,
      "Ġdolphins": 5115,
      "Ġlar": 5116,
      "Ġshells": 5117,
      "Ġaltern": 5118,
      "Ġrepair": 5119,
      "Ġliz": 5120,
      "Ġwriter": 5121,
      "Ġfigures": 5122,
      "Ġescal": 5123,
      "ĠBoth": 5124,
      "piec": 5125,
      "ety": 5126,
      "Ġapartments": 5127,
      "Ġdevelopment": 5128,
      "Ġadventure": 5129,
      "sters": 5130,
      "Ġatop": 5131,
      "Ġherself": 5132,
      "Ġmicrowave": 5133,
      "Ġstandard": 5134,
      "Ġitalian": 5135,
      "Ġwatermel": 5136,
      "Ġbam": 5137,
      "Ġcanop": 5138,
      "Ġtransform": 5139,
      "Ġrestaurants": 5140,
      "Ġbankn": 5141,
      "Ġbulb": 5142,
      "Ġbrings": 5143,
      "Ġadds": 5144,
      "Ġlaid": 5145,
      "Ġones": 5146,
      "Ġfried": 5147,
      "lt": 5148,
      "ived": 5149,
      "Ġaisle": 5150,
      "Ġrole": 5151,
      "Ġmirrors": 5152,
      "Ġskeleton": 5153,
      "Ġsight": 5154,
      "Ġdressing": 5155,
      "Ġraw": 5156,
      "Ġremains": 5157,
      "Ġmedal": 5158,
      "Ġstroke": 5159,
      "atable": 5160,
      "Ġtouching": 5161,
      "ien": 5162,
      "Ġbats": 5163,
      "Ġcroc": 5164,
      "Ġrotating": 5165,
      "Ġgreenhouse": 5166,
      "Ġfinan": 5167,
      "Ġsliding": 5168,
      "Ġdiscover": 5169,
      "ude": 5170,
      "Ġsnowboard": 5171,
      "Ġcany": 5172,
      "Ġportraits": 5173,
      "Ġsafety": 5174,
      "asting": 5175,
      "Ġsmaller": 5176,
      "Ġfarmers": 5177,
      "Ġstrawberry": 5178,
      "Ġjewelry": 5179,
      "Ġec": 5180,
      "Ġcarn": 5181,
      "Ġproducer": 5182,
      "Ġsent": 5183,
      "orial": 5184,
      "Ġhur": 5185,
      "Ġoverhead": 5186,
      "Ġmonochrome": 5187,
      "Ġaustralian": 5188,
      "Ġairplanes": 5189,
      "Ġribbons": 5190,
      "Ġbamboo": 5191,
      "Ġposted": 5192,
      "Ġwashroom": 5193,
      "Ġgrown": 5194,
      "Ġpoured": 5195,
      "Ġhighest": 5196,
      "Ġcolonial": 5197,
      "ense": 5198,
      "Ġenjoyed": 5199,
      "Ġnav": 5200,
      "Ġchimney": 5201,
      "Ġlave": 5202,
      "Ġalbum": 5203,
      "Ġtell": 5204,
      "Ġsaus": 5205,
      "Ġstatement": 5206,
      "Ġcycling": 5207,
      "Ġalt": 5208,
      "Ġlavender": 5209,
      "Ġgaz": 5210,
      "Ġsword": 5211,
      "Ġnotice": 5212,
      "Ġbracelet": 5213,
      "bee": 5214,
      "roud": 5215,
      "Ġnames": 5216,
      "Ġchecking": 5217,
      "Ġstools": 5218,
      "Ġfirefighters": 5219,
      "Ġproud": 5220,
      "urity": 5221,
      "Ġgrasses": 5222,
      "Ġscience": 5223,
      "Ġneon": 5224,
      "Ġentering": 5225,
      "Ġchallen": 5226,
      "Ġscreening": 5227,
      "nuts": 5228,
      "Ġmannequin": 5229,
      "Ġpotted": 5230,
      "Ġvalent": 5231,
      "Ġstainless": 5232,
      "Ġcountertop": 5233,
      "Ġestab": 5234,
      "bal": 5235,
      "Ġ12": 5236,
      "Ġvolcan": 5237,
      "Ġreleased": 5238,
      "Ġbridges": 5239,
      "Ġsecurity": 5240,
      "Ġcrocod": 5241,
      "ament": 5242,
      "Ġheadset": 5243,
      "Ġshoppers": 5244,
      "Ġthemselves": 5245,
      "Ġalcohol": 5246,
      "Ġpushing": 5247,
      "Ġbees": 5248,
      "Ġsneakers": 5249,
      "ales": 5250,
      "uted": 5251,
      "Ġtee": 5252,
      "Ġworth": 5253,
      "Ġsoul": 5254,
      "Ġlaundry": 5255,
      "Ġfat": 5256,
      "ply": 5257,
      "Ġrequ": 5258,
      "Ġwindy": 5259,
      "Ġexit": 5260,
      "Ġdollars": 5261,
      "Ġreligion": 5262,
      "Ġstretching": 5263,
      "Ġasp": 5264,
      "Ġtalks": 5265,
      "Ġtaps": 5266,
      "ka": 5267,
      "Ġgoods": 5268,
      "Ġcurren": 5269,
      "Ġminimalist": 5270,
      "Ġcolumns": 5271,
      "Ġchemical": 5272,
      "Ġwolf": 5273,
      "Ġbuff": 5274,
      "Ġcotton": 5275,
      "Ġcontinent": 5276,
      "Ġjam": 5277,
      "Ġinspiration": 5278,
      "mpt": 5279,
      "Ġbudget": 5280,
      "Ġspan": 5281,
      "Ġharves": 5282,
      "reds": 5283,
      "Ġ50": 5284,
      "Ġmartial": 5285,
      "Ġconver": 5286,
      "Ġsheets": 5287,
      "Ġlaun": 5288,
      "Ġsalon": 5289,
      "Ġsewing": 5290,
      "Ġsandals": 5291,
      "Ġsalt": 5292,
      "Ġnurse": 5293,
      "Ġtotally": 5294,
      "umber": 5295,
      "Ġgoats": 5296,
      "Ġslide": 5297,
      "Ġfarmhouse": 5298,
      "Ġlifting": 5299,
      "Ġitself": 5300,
      "acture": 5301,
      "anna": 5302,
      "atures": 5303,
      "imp": 5304,
      "Ġtriangle": 5305,
      "Ġhundreds": 5306,
      "Ġflav": 5307,
      "Ġnearby": 5308,
      "Ġvessels": 5309,
      "Ġemerge": 5310,
      "uro": 5311,
      "Ġaf": 5312,
      "itage": 5313,
      "Ġwhale": 5314,
      "Ġmulti": 5315,
      "Ġblossoms": 5316,
      "Ġcoats": 5317,
      "Ġheritage": 5318,
      "ĠChrist": 5319,
      "Ġsway": 5320,
      "Ġeve": 5321,
      "Ġoldest": 5322,
      "Ġradio": 5323,
      "Ġfinancial": 5324,
      "Ġlived": 5325,
      "Ġflame": 5326,
      "Ġplank": 5327,
      "Ġsix": 5328,
      "Ġnut": 5329,
      "Ġyester": 5330,
      "Ġ17": 5331,
      "Ġgraduation": 5332,
      "ople": 5333,
      "yond": 5334,
      "acy": 5335,
      "ushed": 5336,
      "Ġfiles": 5337,
      "Ġera": 5338,
      "Ġbeat": 5339,
      "Ġreaching": 5340,
      "Ġairl": 5341,
      "Ġinflatable": 5342,
      "Ġalp": 5343,
      "Ġcorr": 5344,
      "Ġstyles": 5345,
      "Ġpoll": 5346,
      "Ġchips": 5347,
      "ibly": 5348,
      "Ġtemper": 5349,
      "Ġsell": 5350,
      "Ġsubway": 5351,
      "Ġdim": 5352,
      "anda": 5353,
      "Ġtags": 5354,
      "Ġunve": 5355,
      "Ġlarger": 5356,
      "Ġcanopy": 5357,
      "hem": 5358,
      "iant": 5359,
      "ala": 5360,
      "Ġbeyond": 5361,
      "Ġconflict": 5362,
      "Ġinvitations": 5363,
      "Ġdocument": 5364,
      "Ġrather": 5365,
      "Ġvases": 5366,
      "ĠAll": 5367,
      "Ġ14": 5368,
      "Ġseash": 5369,
      "Ġartic": 5370,
      "Ġpowder": 5371,
      "Ġquestion": 5372,
      "Ġseashore": 5373,
      "Ġtires": 5374,
      "Ġcrossed": 5375,
      "Ġboundary": 5376,
      "Ġbon": 5377,
      "Ġdiscussing": 5378,
      "Ġyesterday": 5379,
      "reen": 5380,
      "Ġrelation": 5381,
      "Ġsick": 5382,
      "anding": 5383,
      "Ġvir": 5384,
      "Ġglow": 5385,
      "Ġspectators": 5386,
      "Ġdeb": 5387,
      "Ġmood": 5388,
      "Ġboot": 5389,
      "Ġmulticol": 5390,
      "30": 5391,
      "Ġselect": 5392,
      "Ġlily": 5393,
      "Ġheels": 5394,
      "Ġmeans": 5395,
      "Ġrefere": 5396,
      "Ġpuppies": 5397,
      "Ġcyclist": 5398,
      "porate": 5399,
      "neath": 5400,
      "Ġsnap": 5401,
      "Ġphysical": 5402,
      "Ġeuro": 5403,
      "Ġunderneath": 5404,
      "Ġtrailer": 5405,
      "Ġlizard": 5406,
      "Ġfitted": 5407,
      "keeper": 5408,
      "usive": 5409,
      "Ġquotes": 5410,
      "Ġeducational": 5411,
      "Ġfederal": 5412,
      "Ġinte": 5413,
      "Ġsubj": 5414,
      "Ġtut": 5415,
      "plant": 5416,
      "Ġquote": 5417,
      "iously": 5418,
      "Ġhoodie": 5419,
      "Ġger": 5420,
      "Ġcharge": 5421,
      "marks": 5422,
      "Ġpanning": 5423,
      "Ġremember": 5424,
      "Ġdeath": 5425,
      "Ġweap": 5426,
      "Ġtowels": 5427,
      "Ġknitted": 5428,
      "Ġexcited": 5429,
      "Ġcarrot": 5430,
      "illing": 5431,
      "Ġcounty": 5432,
      "Ġcree": 5433,
      "itude": 5434,
      "Ġrect": 5435,
      "Ġscenic": 5436,
      "Ġastronaut": 5437,
      "Ġansw": 5438,
      "Ġcargo": 5439,
      "Ġmoved": 5440,
      "Ġbush": 5441,
      "Ġexperience": 5442,
      "Ġaboard": 5443,
      "Ġhoo": 5444,
      "Ġchance": 5445,
      "Ġtops": 5446,
      "Ġtrails": 5447,
      "Ġblinds": 5448,
      "Ġbackstage": 5449,
      "Ġswan": 5450,
      "Ġrocket": 5451,
      "behind": 5452,
      "alled": 5453,
      "Ġcompleted": 5454,
      "Ġkinds": 5455,
      "Ġflush": 5456,
      "Ġexotic": 5457,
      "orting": 5458,
      "apple": 5459,
      "Ġadvertising": 5460,
      "Ġprints": 5461,
      "Ġcustomer": 5462,
      "Ġrectang": 5463,
      "Ġjourney": 5464,
      "Ġsizes": 5465,
      "bott": 5466,
      "asts": 5467,
      "Ġmanufacture": 5468,
      "Ġsurprised": 5469,
      "Ġagricultural": 5470,
      "Ġtheatre": 5471,
      "Ġmunicip": 5472,
      "Ġsear": 5473,
      "Ġoccup": 5474,
      "Ġgates": 5475,
      "ola": 5476,
      "Ġupd": 5477,
      "Ġhelping": 5478,
      "Ġknives": 5479,
      "Ġrolls": 5480,
      "Ġadap": 5481,
      "pill": 5482,
      "Ġgran": 5483,
      "Ġspinning": 5484,
      "Ġscreenshot": 5485,
      "Ġcarried": 5486,
      "Ġjourn": 5487,
      "Ġchart": 5488,
      "Ġwants": 5489,
      "maid": 5490,
      "box": 5491,
      "Ġhangs": 5492,
      "Ġspiral": 5493,
      "Ġdise": 5494,
      "Ġperformer": 5495,
      "Ġaccording": 5496,
      "buildings": 5497,
      "Ġrecyc": 5498,
      "Ġinvest": 5499,
      "grass": 5500,
      "estyle": 5501,
      "Ġ15": 5502,
      "Ġbaro": 5503,
      "Ġchoice": 5504,
      "Ġoffers": 5505,
      "Ġfavourite": 5506,
      "Ġess": 5507,
      "Ġcanoe": 5508,
      "scap": 5509,
      "clos": 5510,
      "Ġprotected": 5511,
      "Ġsharp": 5512,
      "attered": 5513,
      "Ġvolley": 5514,
      "Ġbelieve": 5515,
      "Ġconversation": 5516,
      "ae": 5517,
      "inger": 5518,
      "ĠAround": 5519,
      "Ġwinding": 5520,
      "Ġparrot": 5521,
      "Ġovers": 5522,
      "Ġexting": 5523,
      "Ġult": 5524,
      "Ġcubes": 5525,
      "Ġdirty": 5526,
      "Ġbaroque": 5527,
      "Ġvenue": 5528,
      "Ġrh": 5529,
      "Ġanything": 5530,
      "Ġfilling": 5531,
      "Ġparachute": 5532,
      "Ġmeets": 5533,
      "Ġconsist": 5534,
      "Ġrecipes": 5535,
      "Ġreach": 5536,
      "Ġcelebrations": 5537,
      "Ġcrying": 5538,
      "ica": 5539,
      "ulous": 5540,
      "Ġorganisms": 5541,
      "Ġcanyon": 5542,
      "Ġowned": 5543,
      "Ġdiy": 5544,
      "Ġarrows": 5545,
      "Ġcontrast": 5546,
      "Ġaddition": 5547,
      "Ġpuzzle": 5548,
      "ĠChristmas": 5549,
      "rin": 5550,
      "apper": 5551,
      "Ġsuburb": 5552,
      "Ġmenswear": 5553,
      "Ġillustrated": 5554,
      "Ġreason": 5555,
      "Ġcreek": 5556,
      "Ġclocks": 5557,
      "Ġlonger": 5558,
      "Ġburger": 5559,
      "Ġpug": 5560,
      "Ġfift": 5561,
      "Ġtechnology": 5562,
      "cut": 5563,
      "Ġcit": 5564,
      "Ġseal": 5565,
      "Ġarches": 5566,
      "Ġbabies": 5567,
      "Ġapproaching": 5568,
      "Ġchopsticks": 5569,
      "Ġthriller": 5570,
      "Ġtutorial": 5571,
      "cloth": 5572,
      "Ġshoots": 5573,
      "uent": 5574,
      "Ġliter": 5575,
      "Ġorigin": 5576,
      "ication": 5577,
      "Ġleafy": 5578,
      "Ġprepared": 5579,
      "Ġmission": 5580,
      "ĠU": 5581,
      "Ġwaterfront": 5582,
      "Ġattending": 5583,
      "Ġguns": 5584,
      "mers": 5585,
      "Ġprovide": 5586,
      "Ġtotal": 5587,
      "Ġhiding": 5588,
      "Ġstood": 5589,
      "Ġrelief": 5590,
      "iest": 5591,
      "Ġgh": 5592,
      "Ġlandscap": 5593,
      "Ġpicturesque": 5594,
      "Ġbulld": 5595,
      "Ġvibr": 5596,
      "Ġquilt": 5597,
      "Ġwinds": 5598,
      "Ġpracticing": 5599,
      "Ġwatermelon": 5600,
      "Ġtort": 5601,
      "Ġenjoys": 5602,
      "Ġconceptual": 5603,
      "Ġscary": 5604,
      "Ġaddress": 5605,
      "Ġamongst": 5606,
      "mates": 5607,
      "Ġcloser": 5608,
      "Ġfant": 5609,
      "Ġglamorous": 5610,
      "icated": 5611,
      "Ġstarts": 5612,
      "Ġplatter": 5613,
      "Ġstacked": 5614,
      "Ġwindmill": 5615,
      "Ġjogg": 5616,
      "Ġdecorate": 5617,
      "Ġfishermen": 5618,
      "Ġcraw": 5619,
      "coming": 5620,
      "Ġmissing": 5621,
      "Ġsandwich": 5622,
      "hole": 5623,
      "Ġcurved": 5624,
      "Ġarrival": 5625,
      "Ġlearning": 5626,
      "Ġcushion": 5627,
      "Ġscored": 5628,
      "Ġclassical": 5629,
      "Ġgad": 5630,
      "Ġbeak": 5631,
      "Ġdut": 5632,
      "Ġapron": 5633,
      "Ġcurrently": 5634,
      "Ġtransportation": 5635,
      "Ġarrangement": 5636,
      "liament": 5637,
      "Ġshark": 5638,
      "Ġamuse": 5639,
      "Ġmotorcycles": 5640,
      "Ġmine": 5641,
      "Ġfries": 5642,
      "ission": 5643,
      "Ġelse": 5644,
      "Ġstuffed": 5645,
      "Ġexposure": 5646,
      "lled": 5647,
      "Ġparliament": 5648,
      "Ġfrag": 5649,
      "Ġseaside": 5650,
      "Ġcertain": 5651,
      "tember": 5652,
      "Ġpossible": 5653,
      "Ġloaded": 5654,
      "Ġseptember": 5655,
      "Ġjud": 5656,
      "Ġawa": 5657,
      "Ġdiscuss": 5658,
      "eled": 5659,
      "Ġseating": 5660,
      "Ġclaim": 5661,
      "Ġkettle": 5662,
      "Ġespec": 5663,
      "vent": 5664,
      "Ġcreep": 5665,
      "point": 5666,
      "Ġnotebook": 5667,
      "ogn": 5668,
      "aws": 5669,
      "Ġamusement": 5670,
      "Ġespecially": 5671,
      "Ġcry": 5672,
      "Ġlin": 5673,
      "Ġouter": 5674,
      "ho": 5675,
      "Ġsin": 5676,
      "Ġiv": 5677,
      "Ġheight": 5678,
      "Ġmean": 5679,
      "Ġanyone": 5680,
      "Ġbearded": 5681,
      "Ġbegins": 5682,
      "Ġtriangles": 5683,
      "Ġoutl": 5684,
      "Ġedition": 5685,
      "Ġstretch": 5686,
      "hand": 5687,
      "Ġmob": 5688,
      "Ġgear": 5689,
      "ĠFront": 5690,
      "inese": 5691,
      "Ġmagic": 5692,
      "Ġinstalled": 5693,
      "Ġtaste": 5694,
      "Ġshutter": 5695,
      "eway": 5696,
      "Ġpersp": 5697,
      "Ġincredible": 5698,
      "Ġauction": 5699,
      "cul": 5700,
      "illa": 5701,
      "Ġscrap": 5702,
      "Ġwashed": 5703,
      "Ġstudying": 5704,
      "Ġchannel": 5705,
      "Ġvibrant": 5706,
      "Ġthumbs": 5707,
      "Ġvolleyball": 5708,
      "Ġimpro": 5709,
      "ober": 5710,
      "Ġwrap": 5711,
      "Ġthank": 5712,
      "Ġteenager": 5713,
      "Ġchapel": 5714,
      "Ġrivers": 5715,
      "Ġlobby": 5716,
      "Ġstopped": 5717,
      "Ġtongue": 5718,
      "70": 5719,
      "Ġlam": 5720,
      "stone": 5721,
      "Ġrestored": 5722,
      "Ġauto": 5723,
      "Ġoctober": 5724,
      "Ġwaits": 5725,
      "Ġsweat": 5726,
      "Ġwaterfalls": 5727,
      "Ġswaying": 5728,
      "load": 5729,
      "food": 5730,
      "Ġpanorama": 5731,
      "Ġplanting": 5732,
      "Ġpressing": 5733,
      "Ġchopping": 5734,
      "Ġcine": 5735,
      "Ġginger": 5736,
      "Ġkeeps": 5737,
      "Ġbadge": 5738,
      "Ġrehe": 5739,
      "Ġcamping": 5740,
      "Ġbrightly": 5741,
      "Ġannoun": 5742,
      "Ġtackle": 5743,
      ".,": 5744,
      "Ġmonaster": 5745,
      "Ġprogramme": 5746,
      "Ġshutters": 5747,
      "Ġculture": 5748,
      "Ġemergency": 5749,
      "ishes": 5750,
      "Ġproduce": 5751,
      "Ġnetwork": 5752,
      "Ġcomposer": 5753,
      "Ġlowercase": 5754,
      "Ġgently": 5755,
      "Ġcurrency": 5756,
      "Ġbeaches": 5757,
      "Ġreind": 5758,
      "Ġdesce": 5759,
      "Ġenclos": 5760,
      "Ġcrowded": 5761,
      "Ġmile": 5762,
      "Ġeats": 5763,
      "Ġsurv": 5764,
      "Ġwallet": 5765,
      "Ġhiker": 5766,
      "Ġsupporters": 5767,
      "Ġhonor": 5768,
      "Ġturbines": 5769,
      "Ġreindeer": 5770,
      "Ġmatter": 5771,
      "Ġeastern": 5772,
      "Ġdaughters": 5773,
      "Ġbegin": 5774,
      "Ġspices": 5775,
      "ĠG": 5776,
      "igr": 5777,
      "Ġtwigs": 5778,
      "rels": 5779,
      "Ġveter": 5780,
      "Ġdisab": 5781,
      "Ġnove": 5782,
      "Ġclearly": 5783,
      "Ġbaked": 5784,
      "alt": 5785,
      "Ġask": 5786,
      "ĠMan": 5787,
      "Ġgrab": 5788,
      "Ġonions": 5789,
      "Ġaccent": 5790,
      "Ġdestination": 5791,
      "Ġdeserted": 5792,
      "Ġeditor": 5793,
      "Ġresidence": 5794,
      "Ġbroadcas": 5795,
      "Ġsized": 5796,
      "Ġclown": 5797,
      "ocking": 5798,
      "Ġcellphone": 5799,
      "Ġrules": 5800,
      "Ġperfectly": 5801,
      "ĠBe": 5802,
      "Ġpastel": 5803,
      "ĠD": 5804,
      "omy": 5805,
      "Ġmusicians": 5806,
      "Ġdelicate": 5807,
      "alo": 5808,
      "Ġstyled": 5809,
      "Ġpound": 5810,
      "lind": 5811,
      "icy": 5812,
      "Ġthre": 5813,
      "Ġsailboat": 5814,
      "Ġrevealed": 5815,
      "field": 5816,
      "Ġbudd": 5817,
      "Ġcris": 5818,
      "Ġchoosing": 5819,
      "Ġperspective": 5820,
      "Ġbust": 5821,
      "Ġrend": 5822,
      "Ġfashionable": 5823,
      "Ġcrashing": 5824,
      "Ġlayer": 5825,
      "Ġpitcher": 5826,
      "Ġbills": 5827,
      "turing": 5828,
      "Ġgrid": 5829,
      "Ġshores": 5830,
      "Ġrowing": 5831,
      "Ġseparate": 5832,
      "piece": 5833,
      "know": 5834,
      "Ġdepart": 5835,
      "Ġagency": 5836,
      "Ġswans": 5837,
      "Ġplanted": 5838,
      "Ġregular": 5839,
      "Ġcrocodile": 5840,
      "Ġsaying": 5841,
      "pole": 5842,
      "Ġpyramid": 5843,
      "Ġcycles": 5844,
      "Ġshines": 5845,
      "Ġadults": 5846,
      "Ġchanged": 5847,
      "Ġscrat": 5848,
      "tering": 5849,
      "Ġlooping": 5850,
      "Ġcompass": 5851,
      "Ġcharming": 5852,
      "Ġintersection": 5853,
      "Ġsubject": 5854,
      "Ġpun": 5855,
      "Ġarts": 5856,
      "Ġnurser": 5857,
      "Ġprec": 5858,
      "Ġcans": 5859,
      "ecraft": 5860,
      "Ġmarking": 5861,
      "Ġpulls": 5862,
      "Ġspo": 5863,
      "Ġunknow": 5864,
      "Ġremove": 5865,
      "Ġslopes": 5866,
      "Ġcoloring": 5867,
      "uting": 5868,
      "Ġloun": 5869,
      "Ġchickens": 5870,
      "epend": 5871,
      "Ġreads": 5872,
      "Ġpalette": 5873,
      "Ġdrople": 5874,
      "Ġpeac": 5875,
      "Ġvolunt": 5876,
      "Ġcylind": 5877,
      "Ġassociation": 5878,
      "Ġpeaks": 5879,
      "Ġnets": 5880,
      "Ġplacing": 5881,
      "Ġexcl": 5882,
      "Ġmagical": 5883,
      "Ġhipster": 5884,
      "Ġapproach": 5885,
      "eling": 5886,
      "shield": 5887,
      "Ġsock": 5888,
      "Ġplanes": 5889,
      "Ġbrow": 5890,
      "Ġboyfriend": 5891,
      "Ġindepend": 5892,
      "Ġunknown": 5893,
      "10": 5894,
      "Ġtallest": 5895,
      "Ġdolly": 5896,
      "ĠBefore": 5897,
      "Ġherbs": 5898,
      "Ġwindshield": 5899,
      "Ġgrocer": 5900,
      "Ġspacecraft": 5901,
      "Ġhammock": 5902,
      "Ġexposed": 5903,
      "Ġintroduc": 5904,
      "Ġalpine": 5905,
      "bur": 5906,
      "Ġnood": 5907,
      "Ġconstructed": 5908,
      "Ġoccasion": 5909,
      "Ġtradition": 5910,
      "ald": 5911,
      "Ġlid": 5912,
      "usion": 5913,
      "Ġconsumer": 5914,
      "Ġcalcul": 5915,
      "Ġchatting": 5916,
      "Ġtwin": 5917,
      "uits": 5918,
      "Ġreserv": 5919,
      "Ġscenery": 5920,
      "Ġjoin": 5921,
      "Ġcooked": 5922,
      "Ġbarrier": 5923,
      "Ġairliner": 5924,
      "Ġnursery": 5925,
      "agonal": 5926,
      "Ġsource": 5927,
      "lished": 5928,
      "Ġps": 5929,
      "Ġdemol": 5930,
      "Ġhillside": 5931,
      "Ġgathering": 5932,
      "Ġlayers": 5933,
      "mary": 5934,
      "Ġknit": 5935,
      "Ġpaired": 5936,
      "boards": 5937,
      "Ġhelps": 5938,
      "Ġreceived": 5939,
      "Ġhero": 5940,
      "Ġdense": 5941,
      "Ġmonastery": 5942,
      "Ġwrite": 5943,
      "Ġdisapp": 5944,
      "Ġdifference": 5945,
      "Ġcupcake": 5946,
      "Ġbuddh": 5947,
      "Ġtold": 5948,
      "Ġwildflow": 5949,
      "Ġzoomed": 5950,
      "osion": 5951,
      "Ġdolphin": 5952,
      "sts": 5953,
      "Ġcuc": 5954,
      "Ġpets": 5955,
      "uments": 5956,
      "Ġbeams": 5957,
      "Ġclut": 5958,
      "Ġlipstick": 5959,
      "Ġpoppies": 5960,
      "Ġshoreline": 5961,
      "Ġspending": 5962,
      "Ġaug": 5963,
      "ulation": 5964,
      "Ġdisplays": 5965,
      "papers": 5966,
      "Ġvend": 5967,
      "Ġairline": 5968,
      "Ġ1950": 5969,
      "Ġindividual": 5970,
      "Ġnovember": 5971,
      "Ġstroller": 5972,
      "Ġcred": 5973,
      "Ġbeads": 5974,
      "Ġlaw": 5975,
      "Ġtor": 5976,
      "inated": 5977,
      "Ġweigh": 5978,
      "Ġconvert": 5979,
      "Ġhandles": 5980,
      "though": 5981,
      "Ġalthough": 5982,
      "Ġcorporate": 5983,
      "Ġvegetation": 5984,
      "Ġsuite": 5985,
      "Ġfollowed": 5986,
      "Ġrescue": 5987,
      "Ġglacier": 5988,
      "lings": 5989,
      "Ġdam": 5990,
      "Ġwrong": 5991,
      "Ġfelt": 5992,
      "Ġcamels": 5993,
      "Ġrepeat": 5994,
      "Ġpatch": 5995,
      "Ġjeep": 5996,
      "Ġtip": 5997,
      "Ġsav": 5998,
      "rect": 5999,
      "abit": 6000,
      "Ġpoppy": 6001,
      "ivity": 6002,
      "ography": 6003,
      "Ġjune": 6004,
      "Ġalternative": 6005,
      "Ġcrime": 6006,
      "Ġeasily": 6007,
      "Ġrose": 6008,
      "Ġflash": 6009,
      "Ġslim": 6010,
      "Ġminutes": 6011,
      "Ġfreshly": 6012,
      "Ġwavy": 6013,
      "Ġinstruction": 6014,
      "Ġmasks": 6015,
      "Ġpineapple": 6016,
      "Ġunderst": 6017,
      "Ġpenguins": 6018,
      "Ġsituated": 6019,
      "Ġexclusive": 6020,
      "Ġpony": 6021,
      "Ġquickly": 6022,
      "few": 6023,
      "Ġstructures": 6024,
      "Ġremaining": 6025,
      "Ġded": 6026,
      "Ġsliced": 6027,
      "Ġware": 6028,
      "Ġresolution": 6029,
      "real": 6030,
      "Ġsticking": 6031,
      "itely": 6032,
      "Ġamount": 6033,
      "Ġneeded": 6034,
      "Ġhosted": 6035,
      "Ġrooster": 6036,
      "Ġdocked": 6037,
      "Ġcultural": 6038,
      "Ġdemonstration": 6039,
      "Ġremoved": 6040,
      "Ġcarnival": 6041,
      "Ġcalf": 6042,
      "igned": 6043,
      "Ġbump": 6044,
      "tuary": 6045,
      "Ġjuly": 6046,
      "Ġincluded": 6047,
      "Ġservices": 6048,
      "Ġactive": 6049,
      "Ġsleeves": 6050,
      "Ġbol": 6051,
      "Ġholy": 6052,
      "Ġgoalkeeper": 6053,
      "Ġrepresenting": 6054,
      "gs": 6055,
      "quets": 6056,
      "Ġsplit": 6057,
      "Ġdecided": 6058,
      "Ġdandelion": 6059,
      "Ġsomewhere": 6060,
      "Ġbouquets": 6061,
      "Ġseagulls": 6062,
      "Ġkayak": 6063,
      "Ġteap": 6064,
      "Ġbarrel": 6065,
      "Ġturkey": 6066,
      "Ġroller": 6067,
      "Ġterminal": 6068,
      "Ġrand": 6069,
      "Ġconverted": 6070,
      "Ġcobble": 6071,
      "Ġcelebrities": 6072,
      "Ġcostumer": 6073,
      "Ġcollar": 6074,
      "Ġnapkin": 6075,
      "Ġexact": 6076,
      "asp": 6077,
      "Ġstring": 6078,
      "Ġhomemade": 6079,
      "Ġsuff": 6080,
      "Ġcracked": 6081,
      "iring": 6082,
      "Ġrider": 6083,
      "Ġopera": 6084,
      "Ġconstituent": 6085,
      "Ġlounge": 6086,
      "Ġbatter": 6087,
      "Ġdoodle": 6088,
      "Ġsens": 6089,
      "Ġmascot": 6090,
      "Ġhedge": 6091,
      "Ġfifth": 6092,
      "oid": 6093,
      "Ġamid": 6094,
      "Ġolives": 6095,
      "Ġinch": 6096,
      "Ġspots": 6097,
      "Ġmuddy": 6098,
      "Ġbot": 6099,
      "Ġliber": 6100,
      "Ġmedit": 6101,
      "nished": 6102,
      "Ġsense": 6103,
      "Ġpeacock": 6104,
      "mic": 6105,
      "Ġwool": 6106,
      "Ġclicking": 6107,
      "Ġwhether": 6108,
      "Ġdiving": 6109,
      "Ġswinging": 6110,
      "Ġtribal": 6111,
      "Ġrandom": 6112,
      "Ġgone": 6113,
      "Ġbegan": 6114,
      "body": 6115,
      "Ġprepar": 6116,
      "etti": 6117,
      "elow": 6118,
      "orted": 6119,
      "Ġfinding": 6120,
      "Ġzone": 6121,
      "Ġconfetti": 6122,
      "Ġconditions": 6123,
      "Ġsche": 6124,
      "Ġtypew": 6125,
      "Ġdangerous": 6126,
      "emor": 6127,
      "Ġchinese": 6128,
      "Ġensemble": 6129,
      "Ġbanknotes": 6130,
      "Ġbreaks": 6131,
      "Ġworked": 6132,
      "Ġminute": 6133,
      "Ġrelaxed": 6134,
      "iar": 6135,
      "nut": 6136,
      "Ġax": 6137,
      "ership": 6138,
      "Ġhousing": 6139,
      "Ġguys": 6140,
      "Ġmeters": 6141,
      "aunt": 6142,
      "Ġstepped": 6143,
      "Ġtravels": 6144,
      "Ġdroplets": 6145,
      "pher": 6146,
      "Ġties": 6147,
      "Ġpages": 6148,
      "Ġmarks": 6149,
      "Ġcommemor": 6150,
      "Ġgesture": 6151,
      "cur": 6152,
      "Ġmarsh": 6153,
      "Ġdair": 6154,
      "Ġank": 6155,
      "Ġko": 6156,
      "Ġhorror": 6157,
      "Ġknees": 6158,
      "ĠPe": 6159,
      "Ġbree": 6160,
      "Ġincre": 6161,
      "ouds": 6162,
      "Ġpostc": 6163,
      "Ġdelivery": 6164,
      "iate": 6165,
      "Ġspaces": 6166,
      "Ġvisited": 6167,
      "Ġdesktop": 6168,
      "Ġsoftware": 6169,
      "Ġextinguis": 6170,
      "Ġshepher": 6171,
      "Ġalarm": 6172,
      "Ġbarbec": 6173,
      "Ġtypewriter": 6174,
      "rd": 6175,
      "Ġpartially": 6176,
      "Ġapply": 6177,
      "Ġarticle": 6178,
      "off": 6179,
      "Ġpills": 6180,
      "Ġskier": 6181,
      "Ġtabby": 6182,
      "Ġaugust": 6183,
      "Ġbubble": 6184,
      "Ġgarland": 6185,
      "Ġdairy": 6186,
      "ests": 6187,
      "Ġphil": 6188,
      "Ġpurse": 6189,
      "Ġformed": 6190,
      "Ġprayer": 6191,
      "Ġflooded": 6192,
      "Ġdestroyed": 6193,
      "lit": 6194,
      "tles": 6195,
      "Ġdecember": 6196,
      "Ġexercises": 6197,
      "Ġdepth": 6198,
      "Ġtried": 6199,
      "Ġscrew": 6200,
      "Ġ30": 6201,
      "Ġrounded": 6202,
      "Ġrendered": 6203,
      "Ġbisc": 6204,
      "Ġcapturing": 6205,
      "Ġsilk": 6206,
      "Ġ1920": 6207,
      "Ġescalator": 6208,
      "ĠPeople": 6209,
      "wr": 6210,
      "Ġtins": 6211,
      "anced": 6212,
      "ador": 6213,
      "Ġdepictions": 6214,
      "Ġextinguisher": 6215,
      "Ġserve": 6216,
      "Ġdash": 6217,
      "Ġcouples": 6218,
      "Ġapr": 6219,
      "Ġfashioned": 6220,
      "Ġromance": 6221,
      "Ġshots": 6222,
      "Ġattempt": 6223,
      "Ġretri": 6224,
      "Ġclosing": 6225,
      "Ġidentity": 6226,
      "Ġcollecting": 6227,
      "Ġgranite": 6228,
      "Ġphr": 6229,
      "Ġindic": 6230,
      "Ġspectacular": 6231,
      "Ġperformed": 6232,
      "bed": 6233,
      "Ġpuddle": 6234,
      "Ġweathered": 6235,
      "Ġroadside": 6236,
      "Ġlabor": 6237,
      "Ġreferee": 6238,
      "Ġmum": 6239,
      "Ġpicked": 6240,
      "Ġuniverse": 6241,
      "Ġcrash": 6242,
      "turist": 6243,
      "Ġleast": 6244,
      "Ġpolish": 6245,
      "Ġbowling": 6246,
      "Ġeveryday": 6247,
      "Ġdepar": 6248,
      "Ġelevated": 6249,
      "Ġdefinitely": 6250,
      "Ġspin": 6251,
      "Ġlocks": 6252,
      "Ġjelly": 6253,
      "Ġfuturist": 6254,
      "Ġapril": 6255,
      "inct": 6256,
      "Ġrat": 6257,
      "Ġbreath": 6258,
      "Ġkittens": 6259,
      "oir": 6260,
      "Ġtarge": 6261,
      "Ġdating": 6262,
      "Ġblouse": 6263,
      "ocked": 6264,
      "Ġhammer": 6265,
      "Ġcomfortable": 6266,
      "Ġsearching": 6267,
      "Ġcoo": 6268,
      "Ġlandmark": 6269,
      "Ġstarfish": 6270,
      "Ġtroops": 6271,
      "Ġquestions": 6272,
      "Ġgreetings": 6273,
      "ulated": 6274,
      "Ġbotan": 6275,
      "Ġtopped": 6276,
      "Ġreservoir": 6277,
      "Ġdelivers": 6278,
      "Ġelevation": 6279,
      "ĠE": 6280,
      "Ġpref": 6281,
      "Ġhelped": 6282,
      "Ġsketches": 6283,
      "Ġanten": 6284,
      "Ġgrilles": 6285,
      "Ġdisabled": 6286,
      "40": 6287,
      "Ġhaz": 6288,
      "Ġblankets": 6289,
      "Ġcombine": 6290,
      "Ġanchor": 6291,
      "Ġbarbecue": 6292,
      "Ġtoast": 6293,
      "Ġclay": 6294,
      "Ġclient": 6295,
      "Ġasph": 6296,
      "Ġrelationship": 6297,
      "ords": 6298,
      "Ġplanks": 6299,
      "Ġboardwalk": 6300,
      "Ġdownload": 6301,
      "Ġpasta": 6302,
      "Ġreminds": 6303,
      "Ġcaut": 6304,
      "Ġhen": 6305,
      "oscope": 6306,
      "ĠPerson": 6307,
      "Ġcontrols": 6308,
      "Ġrept": 6309,
      "Ġsurg": 6310,
      "Ġcheap": 6311,
      "Ġglobal": 6312,
      "Ġdistant": 6313,
      "Ġinstallation": 6314,
      "ĠUnder": 6315,
      "alle": 6316,
      "Ġpoor": 6317,
      "Ġjan": 6318,
      "Ġsigned": 6319,
      "Ġinvol": 6320,
      "Ġdriveway": 6321,
      "Ġdy": 6322,
      "Ġcelebrated": 6323,
      "Ġburst": 6324,
      "Ġprotesters": 6325,
      "Ġbuckets": 6326,
      "agers": 6327,
      "Ġcement": 6328,
      "Ġbirch": 6329,
      "Ġhallway": 6330,
      "Ġ1960": 6331,
      "Ġphilos": 6332,
      "Ġtorn": 6333,
      "Ġpanda": 6334,
      "Ġdaytime": 6335,
      "Ġbooth": 6336,
      "Ġconste": 6337,
      "Ġbra": 6338,
      "Ġmeaning": 6339,
      "Ġteammates": 6340,
      "Ġ11": 6341,
      "Ġbigger": 6342,
      "Ġfolded": 6343,
      "Ġconstell": 6344,
      "Ġcuts": 6345,
      "ĠBelow": 6346,
      "Ġusually": 6347,
      "Ġpositive": 6348,
      "Ġdirectly": 6349,
      "Ġbookshelf": 6350,
      "ray": 6351,
      "agged": 6352,
      "Ġcontour": 6353,
      "Ġgrows": 6354,
      "Ġtripod": 6355,
      "Ġasphalt": 6356,
      "cel": 6357,
      "Ġloft": 6358,
      "Ġadop": 6359,
      "Ġmonkeys": 6360,
      "Ġpenguin": 6361,
      "Ġdiverse": 6362,
      "Ġgerman": 6363,
      "Ġwand": 6364,
      "Ġplanning": 6365,
      "Ġoffering": 6366,
      "Ġcycl": 6367,
      "abor": 6368,
      "Ġbiker": 6369,
      "Ġdeter": 6370,
      "Ġcommut": 6371,
      "Ġbalance": 6372,
      "Ġyachts": 6373,
      "Ġmunicipal": 6374,
      "Ġcredit": 6375,
      "Ġsile": 6376,
      "vet": 6377,
      "ini": 6378,
      "Ġcreation": 6379,
      "Ġjanuary": 6380,
      "Ġ<": 6381,
      "Ġsled": 6382,
      "Ġori": 6383,
      "Ġskates": 6384,
      "ĠAn": 6385,
      "Ġhandwr": 6386,
      "Ġscared": 6387,
      "Ġpepper": 6388,
      "Ġnoodles": 6389,
      "Ġcherries": 6390,
      "Ġmarriage": 6391,
      "Ġbarricades": 6392,
      "Ġphilosop": 6393,
      "Ġcens": 6394,
      "Ġpresidential": 6395,
      "Ġstrip": 6396,
      "Ġsuburban": 6397,
      "Ġrenovated": 6398,
      "windows": 6399,
      "Ġankle": 6400,
      "Ġmyster": 6401,
      "Ġfitting": 6402,
      "Ġpressure": 6403,
      "Ġsprink": 6404,
      "Ġcrafts": 6405,
      "Ġ60": 6406,
      "ilst": 6407,
      "Ġwhilst": 6408,
      "Ġblown": 6409,
      "rif": 6410,
      "Ġpartner": 6411,
      "Ġelectricity": 6412,
      "Ġcensus": 6413,
      "Ġcompetes": 6414,
      "Ġsails": 6415,
      "Ġdirections": 6416,
      "Ġingredient": 6417,
      "life": 6418,
      "Ġdie": 6419,
      "idered": 6420,
      "Ġseem": 6421,
      "Ġcottages": 6422,
      "Ġpowerful": 6423,
      "Ġlimited": 6424,
      "Ġembroidered": 6425,
      "min": 6426,
      "esting": 6427,
      "Ġclust": 6428,
      "Ġexec": 6429,
      "Ġdiffic": 6430,
      "Ġleash": 6431,
      "Ġextension": 6432,
      "Ġnearly": 6433,
      "Ġpaddle": 6434,
      "Ġbringing": 6435,
      "bit": 6436,
      "Ġcash": 6437,
      "Ġshou": 6438,
      "Ġbrill": 6439,
      "Ġproblem": 6440,
      "Ġfloats": 6441,
      "my": 6442,
      "ances": 6443,
      "olute": 6444,
      "Ġbund": 6445,
      "Ġrehears": 6446,
      "Ġwitch": 6447,
      "Ġhorns": 6448,
      "Ġowners": 6449,
      "Ġwick": 6450,
      "ilight": 6451,
      "Ġflip": 6452,
      "Ġcozy": 6453,
      "Ġtwilight": 6454,
      "Ġunic": 6455,
      "Ġconfident": 6456,
      "Ġprovides": 6457,
      "Ġimpression": 6458,
      "Ġjogging": 6459,
      "mother": 6460,
      "enade": 6461,
      "Ġpromenade": 6462,
      "Ġreview": 6463,
      "izing": 6464,
      "Ġfurther": 6465,
      "Ġventure": 6466,
      "Ġflats": 6467,
      "Ġtulip": 6468,
      "Ġinjur": 6469,
      "Ġvineyard": 6470,
      "Ġtiled": 6471,
      "Ġtoned": 6472,
      "roof": 6473,
      "Ġir": 6474,
      "inted": 6475,
      "Ġgarbage": 6476,
      "Ġjetty": 6477,
      "Ġchill": 6478,
      "Ġgrandmother": 6479,
      "Ġgoo": 6480,
      "iment": 6481,
      "Ġcharity": 6482,
      "Ġstrugg": 6483,
      "Ġmixing": 6484,
      "Ġlifestyle": 6485,
      "Ġabsolute": 6486,
      "Ġpott": 6487,
      "olding": 6488,
      "Ġcreates": 6489,
      "Ġobserv": 6490,
      "Ġmedic": 6491,
      "gly": 6492,
      "aly": 6493,
      "Ġlav": 6494,
      "Ġfrosty": 6495,
      "Ġlocals": 6496,
      "Ġlinear": 6497,
      "stic": 6498,
      "Ġmaxi": 6499,
      "Ġox": 6500,
      "Ġlie": 6501,
      "ĠBackside": 6502,
      "Ġiceber": 6503,
      "foot": 6504,
      "Ġlime": 6505,
      "Ġbotanical": 6506,
      "Ġsplashing": 6507,
      "Ġfinishing": 6508,
      "Ġmulticolored": 6509,
      "Ġshares": 6510,
      "Ġasked": 6511,
      "Ġrecre": 6512,
      "Ġcomposite": 6513,
      "Ġdisease": 6514,
      "Ġbending": 6515,
      "Ġpee": 6516,
      "Ġplayful": 6517,
      "Ġkicks": 6518,
      "ipel": 6519,
      "Ġ13": 6520,
      "Ġprotect": 6521,
      "Ġpigeons": 6522,
      "Ġseemed": 6523,
      "Ġplantation": 6524,
      "Ġsuppor": 6525,
      "Ġswims": 6526,
      "Ġrectangular": 6527,
      "etah": 6528,
      "Ġcatches": 6529,
      "Ġreturns": 6530,
      "Ġlic": 6531,
      "ĠWoman": 6532,
      "Ġhumans": 6533,
      "Ġparticular": 6534,
      "Ġpilot": 6535,
      "rom": 6536,
      "Ġecl": 6537,
      "Ġmetro": 6538,
      "Ġkne": 6539,
      "Ġsquares": 6540,
      "Ġwrest": 6541,
      "arian": 6542,
      "Ġrush": 6543,
      "Ġlovers": 6544,
      "Ġmeter": 6545,
      "Ġcompound": 6546,
      "Ġcheetah": 6547,
      "Ġpossibly": 6548,
      "Ġformations": 6549,
      "Ġgaze": 6550,
      "Ġpie": 6551,
      "Ġrailroad": 6552,
      "Ġinclude": 6553,
      "Ġbinoc": 6554,
      "Ġcarvings": 6555,
      "Ġestablishing": 6556,
      "Ġmanufacturer": 6557,
      "com": 6558,
      "corn": 6559,
      "Ġfloat": 6560,
      "Ġexploring": 6561,
      "Ġripped": 6562,
      "yer": 6563,
      "Ġbarrels": 6564,
      "Ġstrange": 6565,
      "Ġtouches": 6566,
      "Ġhikers": 6567,
      "fence": 6568,
      "Ġmeasuring": 6569,
      "Ġshepherd": 6570,
      "Ġdraws": 6571,
      "Ġsalmon": 6572,
      "Ġcricketer": 6573,
      "Ġengraved": 6574,
      "ex": 6575,
      "Ġ100": 6576,
      "Ġsuppl": 6577,
      "Ġreceiving": 6578,
      "Ġcrawling": 6579,
      "Ġwarehouse": 6580,
      "uous": 6581,
      "Ġfountains": 6582,
      "Ġbarbed": 6583,
      "gings": 6584,
      "Ġvest": 6585,
      "Ġcouches": 6586,
      "Ġleggings": 6587,
      "Ġsam": 6588,
      "leep": 6589,
      "Ġmint": 6590,
      "olit": 6591,
      "Ġthatched": 6592,
      "Ġdesigners": 6593,
      "Ġswir": 6594,
      "Ġbunny": 6595,
      "model": 6596,
      "beside": 6597,
      "Ġflaming": 6598,
      "Ġmannequins": 6599,
      "Ġdoodles": 6600,
      "Ġchallenge": 6601,
      "car": 6602,
      "Ġtailed": 6603,
      "Ġasleep": 6604,
      "Ġbackpacks": 6605,
      "Ġmagnifying": 6606,
      "Ġimagine": 6607,
      "Ġupcoming": 6608,
      "Ġwhose": 6609,
      "Ġcrest": 6610,
      "Ġunident": 6611,
      "Ġeverywhere": 6612,
      "Ġsupermodel": 6613,
      "Ġneighbour": 6614,
      "pose": 6615,
      "Ġhabit": 6616,
      "Ġlilies": 6617,
      "Ġinjured": 6618,
      "Ġtumb": 6619,
      "Ġanime": 6620,
      "Ġeight": 6621,
      "Ġcirca": 6622,
      "Ġscissor": 6623,
      "Ġphrase": 6624,
      "fr": 6625,
      "itled": 6626,
      "Ġcabbage": 6627,
      "Ġmustache": 6628,
      "Ġinstructions": 6629,
      "Ġtruly": 6630,
      "Ġoverview": 6631,
      "Ġconsider": 6632,
      "Ġexpected": 6633,
      "Ġghost": 6634,
      "Ġdedicated": 6635,
      "Ġdrap": 6636,
      "Ġkicking": 6637,
      "aro": 6638,
      "dress": 6639,
      "Ġtomb": 6640,
      "Ġfau": 6641,
      "Ġroasted": 6642,
      "Ġborough": 6643,
      "using": 6644,
      "hicles": 6645,
      "Ġpopcorn": 6646,
      "Ġbrilliant": 6647,
      "Ġcause": 6648,
      "ana": 6649,
      "Ġseed": 6650,
      "Ġhib": 6651,
      "Ġcoke": 6652,
      "Ġmotif": 6653,
      "Ġprojects": 6654,
      "rints": 6655,
      "Ġtortoise": 6656,
      "Ġbuffalo": 6657,
      "Ġsocket": 6658,
      "Ġonion": 6659,
      "Ġgang": 6660,
      "Ġbackgrounds": 6661,
      "Ġpeas": 6662,
      "Ġpercent": 6663,
      "Ġload": 6664,
      "Ġstrike": 6665,
      "Ġcrops": 6666,
      "Ġimpressive": 6667,
      "ift": 6668,
      "Ġok": 6669,
      "Ġrink": 6670,
      "Ġbalconies": 6671,
      "Ġlemons": 6672,
      "Ġeclip": 6673,
      "Ġtast": 6674,
      "Ġbould": 6675,
      "Ġfake": 6676,
      "Ġchip": 6677,
      "Ġgreets": 6678,
      "Ġrecl": 6679,
      "Ġappeal": 6680,
      "Ġpassed": 6681,
      "Ġathletes": 6682,
      "Ġterraced": 6683,
      "ower": 6684,
      "Ġpatrol": 6685,
      "Ġexcept": 6686,
      "Ġmyself": 6687,
      "Ġ40": 6688,
      "Ġfitness": 6689,
      "Ġlatin": 6690,
      "Ġtemples": 6691,
      "Ġlucky": 6692,
      "Ġlag": 6693,
      "Ġord": 6694,
      "Ġartistic": 6695,
      "Ġlisten": 6696,
      "Ġfabulous": 6697,
      "Ġpoetry": 6698,
      "Ġscheme": 6699,
      "Ġunidentified": 6700,
      "Ġwoodland": 6701,
      "spec": 6702,
      "Ġpir": 6703,
      "Ġanat": 6704,
      "Ġassist": 6705,
      "Ġeatables": 6706,
      "vals": 6707,
      "Ġshine": 6708,
      "Ġbroke": 6709,
      "Ġexhibit": 6710,
      "Ġphilosopher": 6711,
      "Ġmysterious": 6712,
      "Ġpins": 6713,
      "Ġmigr": 6714,
      "Ġna": 6715,
      "Ġseafront": 6716,
      "Ġchalkboard": 6717,
      "Ġactivities": 6718,
      "Ġvalentine": 6719,
      "Ġinstit": 6720,
      "Ġdere": 6721,
      "Ġgrilled": 6722,
      "Ġcookie": 6723,
      "Ġfunded": 6724,
      "Ġderelict": 6725,
      "isses": 6726,
      "Ġwildlife": 6727,
      "Ġmuscles": 6728,
      "ĠÌģ": 6729,
      "Ġtone": 6730,
      "Ġrunner": 6731,
      "Ġlands": 6732,
      "Ġsimply": 6733,
      "Ġcalling": 6734,
      "iscus": 6735,
      "Ġbreeze": 6736,
      "Ġeclipse": 6737,
      "Ġlagoon": 6738,
      "Ġhide": 6739,
      "Ġteles": 6740,
      "Ġneg": 6741,
      "Ġmobiles": 6742,
      "Ġwildflowers": 6743,
      "ikes": 6744,
      "isk": 6745,
      "Ġplaid": 6746,
      "Ġeffort": 6747,
      "Ġambul": 6748,
      "Ġconvertible": 6749,
      "Ġdeterm": 6750,
      "Ġraise": 6751,
      "Ġattemp": 6752,
      "Ġsouven": 6753,
      "Ġcareer": 6754,
      "Ġbulbs": 6755,
      "Ġhibiscus": 6756,
      "Ġsouvenir": 6757,
      "eers": 6758,
      "Ġtalent": 6759,
      "Ġtote": 6760,
      "Ġsixt": 6761,
      "Ġcaution": 6762,
      "table": 6763,
      "Ġpean": 6764,
      "Ġmand": 6765,
      "Ġtri": 6766,
      "Ġyouth": 6767,
      "Ġrelated": 6768,
      "Ġcompete": 6769,
      "Ġfaux": 6770,
      "rec": 6771,
      "Ġproposed": 6772,
      "Ġsatin": 6773,
      "Ġ70": 6774,
      "bl": 6775,
      "Ġcg": 6776,
      "tun": 6777,
      "wning": 6778,
      "Ġcreator": 6779,
      "velope": 6780,
      "Ġcroche": 6781,
      "Ġepis": 6782,
      "dom": 6783,
      "Ġtrick": 6784,
      "Ġveil": 6785,
      "blems": 6786,
      "Ġoppor": 6787,
      "Ġdifficult": 6788,
      "bread": 6789,
      "Ġwake": 6790,
      "Ġbeet": 6791,
      "Ġsiting": 6792,
      "Ġsym": 6793,
      "Ġsweets": 6794,
      "Ġfoam": 6795,
      "Ġrecycled": 6796,
      "Ġhex": 6797,
      "isters": 6798,
      "Ġrunners": 6799,
      "Ġenvelope": 6800,
      "Ġcaptain": 6801,
      "Ġunf": 6802,
      "Ġ1930": 6803,
      "Ġforests": 6804,
      "Ġbusinessperson": 6805,
      "Ġedible": 6806,
      "Ġworkshop": 6807,
      "bound": 6808,
      "Ġpebbles": 6809,
      "Ġholes": 6810,
      "Ġjournalist": 6811,
      "inery": 6812,
      "Ġmaps": 6813,
      "Ġvolcano": 6814,
      "night": 6815,
      "Ġlege": 6816,
      "Ġmeg": 6817,
      "Ġopportun": 6818,
      "Ġther": 6819,
      "Ġhook": 6820,
      "Ġsax": 6821,
      "Ġbenefits": 6822,
      "omed": 6823,
      "Ġcartoons": 6824,
      "Ġsubspec": 6825,
      "Ġballet": 6826,
      "Ġcampfire": 6827,
      "Ġcosmet": 6828,
      "Ġbulldog": 6829,
      "Ġbuddhist": 6830,
      "Ġsubspecies": 6831,
      "Ġlil": 6832,
      "Ġver": 6833,
      "Ġpartial": 6834,
      "Ġmetrop": 6835,
      "Ġdiscovered": 6836,
      "ify": 6837,
      "Ġindian": 6838,
      "Ġmovies": 6839,
      "Ġhangers": 6840,
      "Ġoccupied": 6841,
      "Ġsaxoph": 6842,
      "pit": 6843,
      "omical": 6844,
      "Ġglimp": 6845,
      "Ġchocolates": 6846,
      "Ġrasp": 6847,
      "Ġflut": 6848,
      "Ġcompl": 6849,
      "Ġalg": 6850,
      "aza": 6851,
      "Ġnavig": 6852,
      "Ġwicket": 6853,
      "Ġwagon": 6854,
      "Ġsigning": 6855,
      "Ġallowed": 6856,
      "Ġwins": 6857,
      "Ġarrivals": 6858,
      "Ġathletic": 6859,
      "Ġreact": 6860,
      "Ġforms": 6861,
      "Ġasking": 6862,
      "Ġprimary": 6863,
      "Ġdefend": 6864,
      "Ġcontinues": 6865,
      "Ġultimate": 6866,
      "Ġlaboratory": 6867,
      "Ġlilac": 6868,
      "Ġsack": 6869,
      "Ġthigh": 6870,
      "Ġforces": 6871,
      "Ġregions": 6872,
      "Ġapplian": 6873,
      "Ġdates": 6874,
      "ums": 6875,
      "Ġtablecloth": 6876,
      "forms": 6877,
      "Ġdrug": 6878,
      "Ġprovided": 6879,
      "Ġweighing": 6880,
      "Ġclad": 6881,
      "Ġdramat": 6882,
      "Ġdriven": 6883,
      "Ġprotective": 6884,
      "Ġdoub": 6885,
      "Ġofficials": 6886,
      "Ġexplaining": 6887,
      "Ġadjust": 6888,
      "Ġtrek": 6889,
      "Ġluxurious": 6890,
      "Ġrepeating": 6891,
      "Ġessential": 6892,
      "bins": 6893,
      "anta": 6894,
      "Ġknows": 6895,
      "Ġactivity": 6896,
      "Ġtribute": 6897,
      "Ġaverage": 6898,
      "Ġdent": 6899,
      "Ġclo": 6900,
      "Ġbrushes": 6901,
      "Ġalumin": 6902,
      "Ġembracing": 6903,
      "Ġ80": 6904,
      "Ġduc": 6905,
      "Ġdied": 6906,
      "Ġflashing": 6907,
      "Ġforever": 6908,
      "Ġgoals": 6909,
      "armac": 6910,
      "Ġbelts": 6911,
      "Ġshrine": 6912,
      "Ġturbine": 6913,
      "Ġtreatment": 6914,
      "bottle": 6915,
      "Ġteapot": 6916,
      "Ġdramatist": 6917,
      "Ġcult": 6918,
      "Ġmail": 6919,
      "Ġarmchair": 6920,
      "Ġgentleman": 6921,
      "Ġtelescope": 6922,
      "ai": 6923,
      "ith": 6924,
      "Ġinit": 6925,
      "Ġskis": 6926,
      "Ġmostly": 6927,
      "Ġmats": 6928,
      "Ġrests": 6929,
      "Ġfarms": 6930,
      "Ġdaisies": 6931,
      "Ġreasons": 6932,
      "lent": 6933,
      "Ġcorners": 6934,
      "Ġcomputers": 6935,
      "Ġextend": 6936,
      "window": 6937,
      "Ġengraving": 6938,
      "Ġbroadcasting": 6939,
      "sets": 6940,
      "Ġugly": 6941,
      "Ġcubs": 6942,
      "Ġgravel": 6943,
      "Ġcorrid": 6944,
      "Ġscript": 6945,
      "Ġhappily": 6946,
      "Ġshipping": 6947,
      "net": 6948,
      "Ġengineer": 6949,
      "Ġappliances": 6950,
      "ailing": 6951,
      "ason": 6952,
      "ometer": 6953,
      "Ġwatched": 6954,
      "Ġends": 6955,
      "Ġaccents": 6956,
      "Ġretired": 6957,
      "Ġgestures": 6958,
      "Ġsevent": 6959,
      "Ġrolled": 6960,
      "Ġpaints": 6961,
      "Ġsolo": 6962,
      "Ġchopped": 6963,
      "Ġreceives": 6964,
      "Ġliberty": 6965,
      "Ġbarge": 6966,
      "Ġdrying": 6967,
      "Ġbathrooms": 6968,
      "Ġchandeliers": 6969,
      "Ġinflu": 6970,
      "Ġaltar": 6971,
      "lead": 6972,
      "Ġsheer": 6973,
      "Ġmarker": 6974,
      "Ġequal": 6975,
      "Ġopted": 6976,
      "Ġwicker": 6977,
      "Ġbaking": 6978,
      "Ġpush": 6979,
      "Ġdice": 6980,
      "Ġlon": 6981,
      "Ġbeh": 6982,
      "Ġflour": 6983,
      "Ġcurious": 6984,
      "Ġweeks": 6985,
      "Ġwoven": 6986,
      "Ġmechanic": 6987,
      "Ġindependence": 6988,
      "Ġretriever": 6989,
      "Ġpainter": 6990,
      "Ġprime": 6991,
      "Ġsurprise": 6992,
      "Ġmerry": 6993,
      "Ġhoop": 6994,
      "Ġoriginally": 6995,
      "ndon": 6996,
      "Ġelf": 6997,
      "Ġfebr": 6998,
      "Ġlondon": 6999,
      "Ġdustbins": 7000,
      "Ġcheerlead": 7001,
      "Ġthreads": 7002,
      "Ġepic": 7003,
      "Ġreported": 7004,
      "Ġfebruary": 7005,
      "Ġimpact": 7006,
      "Ġjunction": 7007,
      "Ġchanges": 7008,
      "Ġpostcard": 7009,
      "Ġgrade": 7010,
      "Ġdesks": 7011,
      "Ġdeg": 7012,
      "Ġpreser": 7013,
      "het": 7014,
      "Ġbins": 7015,
      "Ġinches": 7016,
      "kered": 7017,
      "Ġpowered": 7018,
      "Ġexercising": 7019,
      "Ġcultiv": 7020,
      "ob": 7021,
      "Ġsac": 7022,
      "Ġdat": 7023,
      "Ġnumer": 7024,
      "Ġages": 7025,
      "pillar": 7026,
      "Ġcryst": 7027,
      "Ġgy": 7028,
      "ulars": 7029,
      "Ġlayered": 7030,
      "gran": 7031,
      "Ġfoil": 7032,
      "Ġrespond": 7033,
      "Ġtanks": 7034,
      "olitan": 7035,
      "omegran": 7036,
      "Ġclin": 7037,
      "Ġescape": 7038,
      "chie": 7039,
      "Ġheadlights": 7040,
      "Ġchecks": 7041,
      "Ġfacial": 7042,
      "Ġdocuments": 7043,
      "Ġcheckered": 7044,
      "Ġmeasure": 7045,
      "Ġrenovation": 7046,
      "Ġbinoculars": 7047,
      "Ġglimpse": 7048,
      "onies": 7049,
      "Ġnaut": 7050,
      "season": 7051,
      "amples": 7052,
      "Ġhobby": 7053,
      "Ġstaying": 7054,
      "books": 7055,
      "ried": 7056,
      "Ġoverall": 7057,
      "Ġpolka": 7058,
      "flower": 7059,
      "Ġfrying": 7060,
      "uss": 7061,
      "plates": 7062,
      "Ġfocusing": 7063,
      "estrian": 7064,
      "Ġcarrier": 7065,
      "Ġparticles": 7066,
      "brow": 7067,
      "Ġsteth": 7068,
      "Ġplun": 7069,
      "Ġeducation": 7070,
      "Ġreptile": 7071,
      "Ġinitial": 7072,
      "kirts": 7073,
      "isley": 7074,
      "Ġpomegran": 7075,
      "Ġjazz": 7076,
      "Ġsurge": 7077,
      "Ġprop": 7078,
      "Ġoutskirts": 7079,
      "ships": 7080,
      "Ġriders": 7081,
      "Ġequestrian": 7082,
      "Ġpaisley": 7083,
      "Ġsausages": 7084,
      "Ġcapped": 7085,
      "Ġpred": 7086,
      "Ġlisting": 7087,
      "Ġconv": 7088,
      "Ġsculpt": 7089,
      "Ġeyebrow": 7090,
      "Ġlocked": 7091,
      "Ġorchard": 7092,
      "Ġbom": 7093,
      "Ġplug": 7094,
      "Ġcompeting": 7095,
      "Ġpeeking": 7096,
      "Ġbeautifully": 7097,
      "Ġmoments": 7098,
      "Ġ500": 7099,
      "which": 7100,
      "Ġcaf": 7101,
      "Ġscar": 7102,
      "brush": 7103,
      "Ġautumnal": 7104,
      "Ġwarms": 7105,
      "Ġprevious": 7106,
      "Ġrecur": 7107,
      "Ġ1970": 7108,
      "Ġstethoscope": 7109,
      "writer": 7110,
      "maids": 7111,
      "Ġovercast": 7112,
      "Ġgears": 7113,
      "Ġguitarist": 7114,
      "Ġrecogn": 7115,
      "Ġdepartment": 7116,
      "Ġsymmet": 7117,
      "hen": 7118,
      "ogue": 7119,
      "Ġscattered": 7120,
      "Ġcontinue": 7121,
      "Ġfantastic": 7122,
      "ari": 7123,
      "Ġthrown": 7124,
      "Ġdot": 7125,
      "Ġhighly": 7126,
      "clouds": 7127,
      "Ġcaused": 7128,
      "Ġengaged": 7129,
      "Ġreflective": 7130,
      "Ġanchored": 7131,
      "pen": 7132,
      "Ġpc": 7133,
      "storm": 7134,
      "vels": 7135,
      "Ġblueberries": 7136,
      "Ġsurfers": 7137,
      "Ġsilky": 7138,
      "Ġdrag": 7139,
      "Ġdrawer": 7140,
      "Ġnautical": 7141,
      "cking": 7142,
      "orry": 7143,
      "Ġnec": 7144,
      "Ġdesignated": 7145,
      "Ġcorals": 7146,
      "Ġdiet": 7147,
      "Ġgarlic": 7148,
      "Ġrelease": 7149,
      "some": 7150,
      "Ġcombined": 7151,
      "Ġscientist": 7152,
      "Ġfuturistic": 7153,
      "Ġalgae": 7154,
      "Ġmaze": 7155,
      "Ġallow": 7156,
      "Ġnormal": 7157,
      "Ġembell": 7158,
      "aimed": 7159,
      "Ġpreparation": 7160,
      "Ġrecurring": 7161,
      "Ġnights": 7162,
      "Ġchose": 7163,
      "Ġwalled": 7164,
      "Ġfeels": 7165,
      "Ġentitled": 7166,
      "Ġcasc": 7167,
      "Ġconnecting": 7168,
      "Ġheaven": 7169,
      "Ġsequ": 7170,
      "Ġblows": 7171,
      "Ġteamed": 7172,
      "Ġconsisting": 7173,
      "Ġmessages": 7174,
      "Ġpublished": 7175,
      "Ġoutlined": 7176,
      "Ġina": 7177,
      "Ġjagged": 7178,
      "Ġfighter": 7179,
      "Ġpromotional": 7180,
      "Ġforget": 7181,
      "Ġboarding": 7182,
      "Ġteal": 7183,
      "houses": 7184,
      "Ġfixture": 7185,
      "Ġcucumber": 7186,
      "hetic": 7187,
      "Ġcuis": 7188,
      "udd": 7189,
      "Ġdivider": 7190,
      "Ġnapkins": 7191,
      "Ġlaunched": 7192,
      "Ġdentist": 7193,
      "Ġcalculator": 7194,
      "she": 7195,
      "Ġskulls": 7196,
      "Ġaquatic": 7197,
      "Ġemotional": 7198,
      "Ġsoph": 7199,
      "Ġtricks": 7200,
      "Ġviv": 7201,
      "Ġproduced": 7202,
      "Ġracec": 7203,
      "Ġjewell": 7204,
      "Ġreplica": 7205,
      "Ġweapons": 7206,
      "Ġjellyfish": 7207,
      "Ġmunicipalities": 7208,
      "Ġlining": 7209,
      "Ġlikes": 7210,
      "antly": 7211,
      "Ġloves": 7212,
      "Ġcommode": 7213,
      "Ġcarefully": 7214,
      "Ġjewellery": 7215,
      "ently": 7216,
      "Ġcha": 7217,
      "elic": 7218,
      "Ġfract": 7219,
      "Ġens": 7220,
      "Ġdreaming": 7221,
      "Ġsnacks": 7222,
      "opus": 7223,
      "rene": 7224,
      "Ġpassion": 7225,
      "Ġoptions": 7226,
      "90": 7227,
      "Ġwarming": 7228,
      "Ġoctopus": 7229,
      "Ġoversized": 7230,
      "exp": 7231,
      "Ġcancer": 7232,
      "Ġtrump": 7233,
      "Ġhardware": 7234,
      "Ġbakery": 7235,
      "Ġepisode": 7236,
      "hero": 7237,
      "Ġsemi": 7238,
      "Ġbusinessmen": 7239,
      "Ġexplosion": 7240,
      "Ġdoughnuts": 7241,
      "Ġunveiled": 7242,
      "Ġtale": 7243,
      "Ġseasons": 7244,
      "Ġstops": 7245,
      "Ġresearch": 7246,
      "Ġcrisp": 7247,
      "Ġsophistic": 7248,
      "hake": 7249,
      "Ġtough": 7250,
      "Ġbroom": 7251,
      "Ġbecomes": 7252,
      "Ġreceive": 7253,
      "Ġpigs": 7254,
      "Ġselective": 7255,
      "Ġdiver": 7256,
      "Ġsuperhero": 7257,
      "Ġbriefcase": 7258,
      "Ġambulance": 7259,
      "Ġforg": 7260,
      "Ġpairs": 7261,
      "Ġhardwood": 7262,
      "Ġruined": 7263,
      "Ġsaucers": 7264,
      "Ġpolyg": 7265,
      "Ġduchess": 7266,
      "antage": 7267,
      "Ġseafood": 7268,
      "Ġprison": 7269,
      "Ġ90": 7270,
      "Ġranch": 7271,
      "Ġoriental": 7272,
      "Ġlakes": 7273,
      "aph": 7274,
      "hedelic": 7275,
      "ychedelic": 7276,
      "Ġacou": 7277,
      "Ġincor": 7278,
      "Ġdune": 7279,
      "Ġqualifying": 7280,
      "Ġpsychedelic": 7281,
      "Ġner": 7282,
      "Ġviewing": 7283,
      "Ġdove": 7284,
      "ĠSide": 7285,
      "Ġzip": 7286,
      "Ġinteract": 7287,
      "Ġtextures": 7288,
      "Ġideal": 7289,
      "Ġcorridor": 7290,
      "Ġdata": 7291,
      "leg": 7292,
      "Ġharm": 7293,
      "ĠThree": 7294,
      "Ġparag": 7295,
      "Ġprey": 7296,
      "Ġvisitor": 7297,
      "Ġrefresh": 7298,
      "Ġrecording": 7299,
      "Ġpenal": 7300,
      "spoon": 7301,
      "Ġmotorway": 7302,
      "Ġoperation": 7303,
      "Ġdragonfly": 7304,
      "Ġsill": 7305,
      "uses": 7306,
      "Ġlikely": 7307,
      "ept": 7308,
      "Ġcater": 7309,
      "weight": 7310,
      "Ġstepping": 7311,
      "Ġtilt": 7312,
      "Ġostr": 7313,
      "Ġsend": 7314,
      "Ġstories": 7315,
      "PU": 7316,
      "Ġachie": 7317,
      "inating": 7318,
      "Ġsaving": 7319,
      "Ġsisters": 7320,
      "Ġlions": 7321,
      "Ġhell": 7322,
      "Ġhotels": 7323,
      "Ġavoid": 7324,
      "Ġthreat": 7325,
      "Ġsaxophone": 7326,
      "Ġsubst": 7327,
      "Ġconnect": 7328,
      "Ġharvesting": 7329,
      "Ġmetropolitan": 7330,
      "lim": 7331,
      "Ġtextile": 7332,
      "Ġwaste": 7333,
      "Ġcrit": 7334,
      "Ġicy": 7335,
      "Ġstudded": 7336,
      "Ġburnt": 7337,
      "Ġcarton": 7338,
      "Ġdescribed": 7339,
      "Ġstag": 7340,
      "Ġflas": 7341,
      "Ġmonster": 7342,
      "Ġprince": 7343,
      "Ġsteal": 7344,
      "bells": 7345,
      "Ġinstitution": 7346,
      "Ġpou": 7347,
      "Ġdew": 7348,
      "Ġdapper": 7349,
      "ishing": 7350,
      "Ġpollen": 7351,
      "Ġpolished": 7352,
      "Ġdrivers": 7353,
      "Ġamph": 7354,
      "Ġperfume": 7355,
      "Ġsuspended": 7356,
      "Ġanswer": 7357,
      "Ġtarget": 7358,
      "Ġcuisine": 7359,
      "Ġvast": 7360,
      "ession": 7361,
      "Ġshowroom": 7362,
      "Ġclimber": 7363,
      "Ġclimbs": 7364,
      "Ġestuary": 7365,
      "Ġundated": 7366,
      "Ġcyclists": 7367,
      "Ġacoustic": 7368,
      "Ġbones": 7369,
      "lects": 7370,
      "Ġisl": 7371,
      "Ġsto": 7372,
      "Ġsmal": 7373,
      "Ġturtles": 7374,
      "Ġfigur": 7375,
      "Ġmajestic": 7376,
      "ĠÌĪ": 7377,
      "Ġimprove": 7378,
      "Ġinaug": 7379,
      "Ġpenalty": 7380,
      "Ġcert": 7381,
      "Ġweird": 7382,
      "Ġgradient": 7383,
      "Ġcolumn": 7384,
      "Ġbarriers": 7385,
      "Ġtuck": 7386,
      "Ġillustrator": 7387,
      "Ġpreseason": 7388,
      "Ġsummers": 7389,
      "Ġadditional": 7390,
      "Ġprinter": 7391,
      "Ġspruce": 7392,
      "Ġwhiskey": 7393,
      "Ġannounced": 7394,
      "Ġvolunteers": 7395,
      "Ġsmallest": 7396,
      "apan": 7397,
      "Ġmarching": 7398,
      "Ġpolitic": 7399,
      "Ġoutfits": 7400,
      "Ġharvested": 7401,
      "mills": 7402,
      "boarding": 7403,
      "Ġchew": 7404,
      "Ġcandid": 7405,
      "Ġdistinct": 7406,
      "Ġorchid": 7407,
      "Ġivy": 7408,
      "uing": 7409,
      "Ġtart": 7410,
      "ancing": 7411,
      "very": 7412,
      "Ġaccident": 7413,
      "Ġraces": 7414,
      "Ġtimber": 7415,
      "Ġpurchased": 7416,
      "Ġhunting": 7417,
      "Ġbeef": 7418,
      "Ġarab": 7419,
      "Ġsquad": 7420,
      "Ġpearl": 7421,
      "bird": 7422,
      "Ġmicrosc": 7423,
      "ĠCPU": 7424,
      "Ġconditioner": 7425,
      "Ġlegend": 7426,
      "Ġtrumpet": 7427,
      "Ġislamic": 7428,
      "Ġstable": 7429,
      "vey": 7430,
      "Ġreaches": 7431,
      "Ġmang": 7432,
      "Ġpatri": 7433,
      "Ġassigned": 7434,
      "Ġstayed": 7435,
      "Ġcopper": 7436,
      "Ġpoliticians": 7437,
      "icture": 7438,
      "Ġupside": 7439,
      "ques": 7440,
      "Ġgallop": 7441,
      "Ġblossoming": 7442,
      "pop": 7443,
      "Ġpans": 7444,
      "Ġparis": 7445,
      "essed": 7446,
      "Ġgrowth": 7447,
      "Ġsleek": 7448,
      "Ġfluttering": 7449,
      "Ġot": 7450,
      "asure": 7451,
      "Ġnation": 7452,
      "Ġloop": 7453,
      "Ġsurfboards": 7454,
      "Ġinfin": 7455,
      "Ġpurchase": 7456,
      "Ġclash": 7457,
      "Ġpov": 7458,
      "Ġsphere": 7459,
      "Ġneat": 7460,
      "pled": 7461,
      "Ġlighter": 7462,
      "Ġplacards": 7463,
      "Ġmeals": 7464,
      "Ġfear": 7465,
      "Ġstray": 7466,
      "Ġpanc": 7467,
      "Ġdistressed": 7468,
      "hog": 7469,
      "Ġflare": 7470,
      "Ġfilmed": 7471,
      "Ġblazers": 7472,
      "Ġmermaid": 7473,
      "Ġcinema": 7474,
      "Ġgingerbread": 7475,
      "Ġft": 7476,
      "Ġdecker": 7477,
      "Ġhappiness": 7478,
      "ĠMany": 7479,
      "Ġembroid": 7480,
      "Ġshake": 7481,
      "Ġwhiteboard": 7482,
      "Ġparad": 7483,
      "Ġmem": 7484,
      "Ġvalue": 7485,
      "Ġjuicy": 7486,
      "Ġdeveloped": 7487,
      "Ġgymn": 7488,
      "ban": 7489,
      "stair": 7490,
      "Ġ21": 7491,
      "ĠPicture": 7492,
      "Ġspirits": 7493,
      "Ġunicorn": 7494,
      "Ġmandala": 7495,
      "Ġblow": 7496,
      "Ġbored": 7497,
      "Ġdema": 7498,
      "Ġhighlights": 7499,
      "Ġsimpl": 7500,
      "itorium": 7501,
      "Ġreturned": 7502,
      "Ġflavor": 7503,
      "Ġwan": 7504,
      "Ġdumb": 7505,
      "quee": 7506,
      "Ġbelieved": 7507,
      "Ġvirtual": 7508,
      "Ġgrocery": 7509,
      "Ġsavanna": 7510,
      "Ġparadise": 7511,
      "Ġgrape": 7512,
      "uel": 7513,
      "pets": 7514,
      "Ġtubes": 7515,
      "Ġparticipants": 7516,
      "Ġintroduced": 7517,
      "fting": 7518,
      "Ġrim": 7519,
      "Ġvines": 7520,
      "Ġextended": 7521,
      "Ġteenagers": 7522,
      "Ġwinger": 7523,
      "Ġmuscular": 7524,
      "green": 7525,
      "iac": 7526,
      "Ġglaz": 7527,
      "Ġauro": 7528,
      "Ġfurnished": 7529,
      "Ġhandwritten": 7530,
      "Ġur": 7531,
      "Ġcann": 7532,
      "Ġparalle": 7533,
      "Ġbasement": 7534,
      "Ġrugged": 7535,
      "Ġduty": 7536,
      "Ġaurora": 7537,
      "ties": 7538,
      "Ġwhip": 7539,
      "Ġballer": 7540,
      "Ġmedals": 7541,
      "Ġmaintain": 7542,
      "Ġgenerated": 7543,
      "Ġglamour": 7544,
      "Ġembroidery": 7545,
      "Ġnom": 7546,
      "Ġserves": 7547,
      "Ġpalms": 7548,
      "Ġmugs": 7549,
      "Ġphotographers": 7550,
      "Ġdump": 7551,
      "Ġmanner": 7552,
      "Ġcharm": 7553,
      "Ġended": 7554,
      "Ġgazebo": 7555,
      "acting": 7556,
      "Ġwindmills": 7557,
      "Ġjapan": 7558,
      "Ġdropped": 7559,
      "Ġhaunt": 7560,
      "Ġswit": 7561,
      "Ġoutst": 7562,
      "Ġhairdress": 7563,
      "Ġtransit": 7564,
      "Ġvivid": 7565,
      "\".": 7566,
      "Ġsan": 7567,
      "Ġlose": 7568,
      "anded": 7569,
      "Ġlevels": 7570,
      "Ġclimate": 7571,
      "Ġconside": 7572,
      "Ġbandanna": 7573,
      "Ġauditorium": 7574,
      "Ġaccompan": 7575,
      "Ġreveals": 7576,
      "Ġvendor": 7577,
      "Ġcrochet": 7578,
      "Ġconsidered": 7579,
      "haps": 7580,
      "lear": 7581,
      "ained": 7582,
      "Ġfrock": 7583,
      "Ġperhaps": 7584,
      "Ġmessy": 7585,
      "Ġdiplo": 7586,
      "Ġhint": 7587,
      "oted": 7588,
      "oped": 7589,
      "Ġcode": 7590,
      "Ġcircuit": 7591,
      "Ġbullet": 7592,
      "Ġreplace": 7593,
      "Ġfris": 7594,
      "Ġwrapping": 7595,
      "Ġfarmland": 7596,
      "Ġcarou": 7597,
      "Ġexcav": 7598,
      "Ġfortress": 7599,
      "Ġmechanical": 7600,
      "Ġracecar": 7601,
      "Ġcompact": 7602,
      "Ġedges": 7603,
      "Ġskateboards": 7604,
      "Ġrabbits": 7605,
      "Ġstuffs": 7606,
      "Ġbelonging": 7607,
      "Ġtwisted": 7608,
      "Ġâ": 7609,
      "Ġnin": 7610,
      "Ġecon": 7611,
      "Ġtemporary": 7612,
      "Ġvision": 7613,
      "Ġunion": 7614,
      "Ġprair": 7615,
      "Ġchampions": 7616,
      "Ġlesson": 7617,
      "Ġspacious": 7618,
      "Ġsupplies": 7619,
      "Ġparallel": 7620,
      "Ġsings": 7621,
      "isions": 7622,
      "orns": 7623,
      "Ġlou": 7624,
      "ller": 7625,
      "Ġmane": 7626,
      "Ġcropped": 7627,
      "Ġsausage": 7628,
      "Ġbiscuits": 7629,
      "Ġiceberg": 7630,
      "Ġcarousel": 7631,
      "Ġpeach": 7632,
      "Ġemerald": 7633,
      "Ġbarefoot": 7634,
      "Ġtackled": 7635,
      "hill": 7636,
      "rup": 7637,
      "acon": 7638,
      "Ġcandies": 7639,
      "Ġgorilla": 7640,
      "press": 7641,
      "Ġhouseplant": 7642,
      "Ġriot": 7643,
      "Ġplatforms": 7644,
      "Ġlayout": 7645,
      "Ġfootprints": 7646,
      "Ġmixer": 7647,
      "Ġnewspapers": 7648,
      "Ġparticipate": 7649,
      "Ġcommuters": 7650,
      "Ġ+": 7651,
      "Ġgeese": 7652,
      "Ġpools": 7653,
      "Ġbridesmaids": 7654,
      "Ġmegaph": 7655,
      "cture": 7656,
      "Ġtones": 7657,
      "Ġsees": 7658,
      "Ġslides": 7659,
      "Ġreturning": 7660,
      "Ġbonfire": 7661,
      "99": 7662,
      "Ġbasil": 7663,
      "Ġevil": 7664,
      "Ġdepressed": 7665,
      "Ġcasino": 7666,
      "Ġconstellation": 7667,
      "ios": 7668,
      "Ġvo": 7669,
      "Ġcheering": 7670,
      "Ġpassport": 7671,
      "Ġpurpose": 7672,
      "Ġtypography": 7673,
      "Ġseriously": 7674,
      "Ġcluster": 7675,
      "Ġexecut": 7676,
      "Ġlord": 7677,
      "Ġtren": 7678,
      "Ġexch": 7679,
      "Ġstatic": 7680,
      "Ġclearing": 7681,
      "Ġtexting": 7682,
      "Ġcalls": 7683,
      "Ġsported": 7684,
      "Ġpickup": 7685,
      "ĠID": 7686,
      "iddle": 7687,
      "Ġobs": 7688,
      "Ġlos": 7689,
      "Ġmainly": 7690,
      "Ġdonned": 7691,
      "Ġapproaches": 7692,
      "Ġidol": 7693,
      "Ġpiggy": 7694,
      "Ġangeles": 7695,
      "Ġscientists": 7696,
      "Ġtom": 7697,
      "boats": 7698,
      "bridge": 7699,
      "Ġworkout": 7700,
      "Ġsystems": 7701,
      "Ġcockpit": 7702,
      "Ġnewlyw": 7703,
      "Ġadapt": 7704,
      "Ġmr": 7705,
      "Ġdental": 7706,
      "ilities": 7707,
      "Ġbeam": 7708,
      "Ġteaching": 7709,
      "Ġvel": 7710,
      "Ġmuff": 7711,
      "Ġbecoming": 7712,
      "zed": 7713,
      "gets": 7714,
      "oll": 7715,
      "Ġyounger": 7716,
      "Ġquil": 7717,
      "Ġzod": 7718,
      "Ġdelight": 7719,
      "Ġpitches": 7720,
      "Ġzodiac": 7721,
      "icksh": 7722,
      "Ġeasier": 7723,
      "Ġmembership": 7724,
      "Ġgala": 7725,
      "Ġlandscaping": 7726,
      "mission": 7727,
      "Ġgig": 7728,
      "Ġgrew": 7729,
      "Ġseasonal": 7730,
      "Ġstrapless": 7731,
      "Ġabsolutely": 7732,
      "Ġwoo": 7733,
      "Ġpric": 7734,
      "Ġhate": 7735,
      "Ġmoor": 7736,
      "Ġricksh": 7737,
      "urbs": 7738,
      "Ġovernight": 7739,
      "Ġsuburbs": 7740,
      "holic": 7741,
      "Ġfrisbee": 7742,
      "asc": 7743,
      "vere": 7744,
      "ado": 7745,
      "Ġcarts": 7746,
      "Ġmyst": 7747,
      "Ġpartners": 7748,
      "Ġproperties": 7749,
      "Ġsnowflake": 7750,
      "Ġgraveyard": 7751,
      "Ġapplying": 7752,
      "Ġopportunity": 7753,
      "Ġtang": 7754,
      "Ġfal": 7755,
      "stones": 7756,
      "Ġmarked": 7757,
      "Ġsuitcases": 7758,
      "Ġindie": 7759,
      "Ġcontract": 7760,
      "Ġexperien": 7761,
      "Ġbales": 7762,
      "Ġmegaphone": 7763,
      "Ġfern": 7764,
      "Ġchun": 7765,
      "Ġkang": 7766,
      "Ġneb": 7767,
      "Ġswamp": 7768,
      "ographic": 7769,
      "Ġgrille": 7770,
      "Ġshouting": 7771,
      "Ġwrought": 7772,
      "Ġprojected": 7773,
      "Ġtrends": 7774,
      "Ġfreight": 7775,
      "Ġparliamentary": 7776,
      "Ġpolygon": 7777,
      "zer": 7778,
      "ĠV": 7779,
      "Ġster": 7780,
      "Ġshing": 7781,
      "Ġanthem": 7782,
      "Ġtrouble": 7783,
      "Ġgrandp": 7784,
      "Ġactual": 7785,
      "Ġhigher": 7786,
      "Ġtransformed": 7787,
      "Ġkangaro": 7788,
      "Ġshakes": 7789,
      "Ġburn": 7790,
      "Ġcigar": 7791,
      "Ġpearls": 7792,
      "underst": 7793,
      "Ġproblems": 7794,
      "Ġwinners": 7795,
      "Ġinvestig": 7796,
      "Ġreclaimed": 7797,
      "Ġtribe": 7798,
      "Ġmicroscope": 7799,
      "Ġvies": 7800,
      "Ġscales": 7801,
      "Ġregister": 7802,
      "Ġimm": 7803,
      "Ġfaith": 7804,
      "Ġsinks": 7805,
      "Ġkneeling": 7806,
      "Ġnebula": 7807,
      "Ġouting": 7808,
      "ctic": 7809,
      "Ġmango": 7810,
      "Ġvisits": 7811,
      "Ġtracking": 7812,
      "Ġlifts": 7813,
      "Ġpra": 7814,
      "Ġhal": 7815,
      "Ġtread": 7816,
      "aint": 7817,
      "Ġclapping": 7818,
      "Ġnewest": 7819,
      "Ġfirm": 7820,
      "Ġclever": 7821,
      "Ġendless": 7822,
      "Ġneckline": 7823,
      "Ġgraze": 7824,
      "Ġemployees": 7825,
      "Ġupdate": 7826,
      "Ġenclosed": 7827,
      "Ġexactly": 7828,
      "Ġflask": 7829,
      "nous": 7830,
      "Ġsights": 7831,
      "Ġcane": 7832,
      "Ġnect": 7833,
      "Ġsolution": 7834,
      "Ġpedest": 7835,
      "Ġhungry": 7836,
      "Ġballerina": 7837,
      "Ġjapanese": 7838,
      "Ġnectar": 7839,
      "Ġ0": 7840,
      "agues": 7841,
      "Ġmachinery": 7842,
      "Ġcolleagues": 7843,
      "Ġremoving": 7844,
      "Ġresear": 7845,
      "mm": 7846,
      "Ġmur": 7847,
      "adian": 7848,
      "Ġgeneration": 7849,
      "reed": 7850,
      "Ġstir": 7851,
      "namic": 7852,
      "Ġcocktails": 7853,
      "bas": 7854,
      "Ġpav": 7855,
      "Ġcanals": 7856,
      "Ġspons": 7857,
      "Ġcoal": 7858,
      "Ġceilings": 7859,
      "Ġenters": 7860,
      "Ġtransfor": 7861,
      "anked": 7862,
      "Ġpollution": 7863,
      "Ġantenna": 7864,
      "idence": 7865,
      "ented": 7866,
      "Ġsporting": 7867,
      "Ġraining": 7868,
      "Ġsweeping": 7869,
      "Ġpours": 7870,
      "Ġ201": 7871,
      "Ġrescued": 7872,
      "Ġbass": 7873,
      "Ġkisses": 7874,
      "osts": 7875,
      "shore": 7876,
      "Ġpotential": 7877,
      "Ġkeyboards": 7878,
      "Ġemployee": 7879,
      "Ġgadget": 7880,
      "Ġinjury": 7881,
      "grown": 7882,
      "lock": 7883,
      "tered": 7884,
      "Ġaven": 7885,
      "Ġblizz": 7886,
      "rafts": 7887,
      "Ġspecific": 7888,
      "Ġdrip": 7889,
      "Ġbunk": 7890,
      "Ġprecious": 7891,
      "Ġcertific": 7892,
      "Ġblizzard": 7893,
      "ickets": 7894,
      "Ġdazz": 7895,
      "Ġrevers": 7896,
      "Ġconcent": 7897,
      "aker": 7898,
      "Ġcape": 7899,
      "Ġtransitional": 7900,
      "Ġgreatest": 7901,
      "Ġpublishing": 7902,
      "Ġmoose": 7903,
      "Ġbroadcast": 7904,
      "Ġmotorbikes": 7905,
      "Ġproudly": 7906,
      "Ġdimens": 7907,
      "Ġalive": 7908,
      "Ġloading": 7909,
      "Ġquay": 7910,
      "Ġdances": 7911,
      "Ġpads": 7912,
      "Ġbrands": 7913,
      "Ġoval": 7914,
      "onym": 7915,
      "Ġcollected": 7916,
      "Ġpebble": 7917,
      "Ġmanic": 7918,
      "Ġshowcase": 7919,
      "Ġsignage": 7920,
      "Ġhorseback": 7921,
      "Ġcharco": 7922,
      "Ġknot": 7923,
      "Ġpaddy": 7924,
      "Ġdebut": 7925,
      "Ġdoorway": 7926,
      "Ġfoal": 7927,
      "Ġinformal": 7928,
      "Ġbarricade": 7929,
      "Ġsurgery": 7930,
      "onymous": 7931,
      "Ġmakeover": 7932,
      "Ġcourtes": 7933,
      "Ġstraws": 7934,
      "chairs": 7935,
      "Ġtucked": 7936,
      "Ġcharcoal": 7937,
      "Ġcourtesy": 7938,
      "Ġaim": 7939,
      "Ġbob": 7940,
      "Ġspa": 7941,
      "Ġcorrect": 7942,
      "Ġreflects": 7943,
      "Ġalpha": 7944,
      "Ġgadgets": 7945,
      "quit": 7946,
      "Ġarched": 7947,
      "Ġcatholic": 7948,
      "Ġbathing": 7949,
      "Ġdigging": 7950,
      "Ġfreed": 7951,
      "Ġripples": 7952,
      "iches": 7953,
      "esco": 7954,
      "eter": 7955,
      "Ġblush": 7956,
      "Ġspecul": 7957,
      "Ġdropping": 7958,
      "Ġqueue": 7959,
      "Ġtoothbrush": 7960,
      "Ġpirate": 7961,
      "west": 7962,
      "rep": 7963,
      "Ġbid": 7964,
      "Ġbone": 7965,
      "Ġpipel": 7966,
      "Ġdated": 7967,
      "Ġallows": 7968,
      "Ġstrings": 7969,
      "ushi": 7970,
      "ĠFrom": 7971,
      "Ġfocused": 7972,
      "Ġsongs": 7973,
      "Ġbreeds": 7974,
      "Ġdefinition": 7975,
      "gen": 7976,
      "Ġspar": 7977,
      "Ġfring": 7978,
      "Ġsignific": 7979,
      "Ġstruck": 7980,
      "ĠSt": 7981,
      "Ġguess": 7982,
      "club": 7983,
      "Ġspringtime": 7984,
      "Ġangles": 7985,
      "Ġspotlight": 7986,
      "Ġpaid": 7987,
      "Ġlongest": 7988,
      "lap": 7989,
      "ports": 7990,
      "rig": 7991,
      "Ġtights": 7992,
      "tually": 7993,
      "Ġnightclub": 7994,
      "Ġdisk": 7995,
      "Ġlandmarks": 7996,
      "Ġstead": 7997,
      "Ġfirefighter": 7998,
      "Ġcountertops": 7999,
      "Ġsixth": 8000,
      "rus": 8001,
      "Ġsib": 8002,
      "Ġsushi": 8003,
      "Ġworried": 8004,
      "Ġsnowstorm": 8005,
      "Ġmatt": 8006,
      "Ġcommunic": 8007,
      "Ġdoctors": 8008,
      "Ġcylinder": 8009,
      "Ġinvolved": 8010,
      "Ġattempts": 8011,
      "rador": 8012,
      "oline": 8013,
      "Ġraster": 8014,
      "Ġtears": 8015,
      "Ġoffered": 8016,
      "Ġloss": 8017,
      "Ġpresenting": 8018,
      "Ġstretches": 8019,
      "Ġencour": 8020,
      "Ġduke": 8021,
      "Ġnuc": 8022,
      "Ġgreek": 8023,
      "Ġpops": 8024,
      "Ġfestivals": 8025,
      "Ġsample": 8026,
      "Ġwoolen": 8027,
      "Ġpedestal": 8028,
      "Ã©": 8029,
      "Ġpensive": 8030,
      "acent": 8031,
      "Ġunesco": 8032,
      "Ġlabrador": 8033,
      "Ġstopping": 8034,
      "Ġbrushing": 8035,
      "Ġknitting": 8036,
      "curtain": 8037,
      "Ġsanta": 8038,
      "semb": 8039,
      "Ġcarav": 8040,
      "Ġportals": 8041,
      "Ġgardener": 8042,
      "Ġchecked": 8043,
      "Ġbelly": 8044,
      "Ġseals": 8045,
      "omic": 8046,
      "Ġbean": 8047,
      "Ġmanaged": 8048,
      "Ġexamples": 8049,
      "ption": 8050,
      "Ġmarath": 8051,
      "Ġcompan": 8052,
      "Ġeyed": 8053,
      "Ġleafs": 8054,
      "Ġgreeted": 8055,
      "Ġcrystals": 8056,
      "jected": 8057,
      "Ġpag": 8058,
      "Ġfellow": 8059,
      "Ġsettle": 8060,
      "Ġdetached": 8061,
      "Ġtransl": 8062,
      "Ġburned": 8063,
      "Ġcontinued": 8064,
      "Ġsporty": 8065,
      "Ġrepresents": 8066,
      "chers": 8067,
      "Ġmarathon": 8068,
      "Ġcant": 8069,
      "Ġthunderst": 8070,
      "Ġglory": 8071,
      "Ġcurve": 8072,
      "Ġtourism": 8073,
      "screen": 8074,
      "Ġknew": 8075,
      "Ġburns": 8076,
      "Ġbridesmaid": 8077,
      "Ġadjacent": 8078,
      "Ġprogressive": 8079,
      "Ġtux": 8080,
      "rest": 8081,
      "Ġbuck": 8082,
      "Ġbeaded": 8083,
      "Ġlecture": 8084,
      "Ġcurves": 8085,
      "Ġcube": 8086,
      "Ġcongratulated": 8087,
      "Ġtuxed": 8088,
      "father": 8089,
      "Ġboss": 8090,
      "Ġgrizz": 8091,
      "Ġsales": 8092,
      "Ġexpect": 8093,
      "Ġdonuts": 8094,
      "Ġrooftops": 8095,
      "Ġdashboard": 8096,
      "Ġsophisticated": 8097,
      "igan": 8098,
      "vehicles": 8099,
      "Ġoffices": 8100,
      "Ġcounting": 8101,
      "Ġscreaming": 8102,
      "Ġchees": 8103,
      "Ġcharts": 8104,
      "Ġmotherboard": 8105,
      "Ġgrandfather": 8106,
      "Ġstatesman": 8107,
      "Ġpigeon": 8108,
      "burger": 8109,
      "Ġcaterpillar": 8110,
      "ĠJ": 8111,
      "ooks": 8112,
      "etic": 8113,
      "Ġwatermarks": 8114,
      "Ġheavily": 8115,
      "Ġvolcanic": 8116,
      "Ġdynamic": 8117,
      "Ġeyebrows": 8118,
      "Ġsterling": 8119,
      "Ġspeculative": 8120,
      "inate": 8121,
      "Ġsignature": 8122,
      "Ġcatwalk": 8123,
      "Ġdebr": 8124,
      "Ġmarkets": 8125,
      "Ġtrainer": 8126,
      "Ġtartan": 8127,
      "Ġpatriotic": 8128,
      "Ġgrizzly": 8129,
      "Ġdebris": 8130,
      "like": 8131,
      "Ġigu": 8132,
      "Ġstit": 8133,
      "Ġrav": 8134,
      "Ġtwins": 8135,
      "Ġmock": 8136,
      "Ġcenterpiece": 8137,
      "Ġlob": 8138,
      "Ġsyring": 8139,
      "drops": 8140,
      "Ġcobbled": 8141,
      "uge": 8142,
      "Ġpicks": 8143,
      "tender": 8144,
      "Ġraindrops": 8145,
      "Ġpackage": 8146,
      "Ġavoc": 8147,
      "Ġgraduate": 8148,
      "Ġbrothers": 8149,
      "Ġtemperatures": 8150,
      "Ġhairdresser": 8151,
      "Ġchrome": 8152,
      "Ġya": 8153,
      "Ġtrade": 8154,
      "Ġorbit": 8155,
      "Ġfiber": 8156,
      "Ġtyres": 8157,
      "Ġcardigan": 8158,
      "Ġwalkers": 8159,
      "erness": 8160,
      "bell": 8161,
      "Ġwilderness": 8162,
      "Ġenvironmental": 8163,
      "Ġpyl": 8164,
      "Ġlifted": 8165,
      "Ġseventh": 8166,
      "Ġparagl": 8167,
      "Ġwig": 8168,
      "Ġflights": 8169,
      "Ġskip": 8170,
      "Ġbrave": 8171,
      "Ġpreschool": 8172,
      "Ġtyre": 8173,
      "Ġreprod": 8174,
      "Ġmixture": 8175,
      "Ġprivacy": 8176,
      "Ġrhin": 8177,
      "Ġostrich": 8178,
      "Ġrocking": 8179,
      "Ġlighted": 8180,
      "Ġcemet": 8181,
      "Ġslog": 8182,
      "Ġfacebook": 8183,
      "ĠSomething": 8184,
      "Ġchefs": 8185,
      "Ġextremely": 8186,
      "Ġweapon": 8187,
      "Ġmemory": 8188,
      "Ġmattress": 8189,
      "lves": 8190,
      "Ġbite": 8191,
      "Ġmis": 8192,
      "iders": 8193,
      "Ġwillow": 8194,
      "ecker": 8195,
      "Ġcamps": 8196,
      "Ġcasting": 8197,
      "Ġreserve": 8198,
      "itory": 8199,
      "onents": 8200,
      "Ġflute": 8201,
      "Ġchin": 8202,
      "Ġmast": 8203,
      "Ġscan": 8204,
      "Ġbarber": 8205,
      "Ġindige": 8206,
      "Ġattractions": 8207,
      "Ġseashe": 8208,
      "Ġminimalistic": 8209,
      "Ġbattery": 8210,
      "Ġprefer": 8211,
      "ox": 8212,
      "Ġbeech": 8213,
      "Ġhaircut": 8214,
      "Ġrefuge": 8215,
      "Ġcontact": 8216,
      "Ġflex": 8217,
      "Ġbomber": 8218,
      "Ġindigenous": 8219,
      "aust": 8220,
      "sign": 8221,
      "urally": 8222,
      "Ġmark": 8223,
      "Ġappearing": 8224,
      "Ġcheerleaders": 8225,
      "oss": 8226,
      "Ġta": 8227,
      "Ġbout": 8228,
      "Ġparent": 8229,
      "Ġrig": 8230,
      "Ġparas": 8231,
      "Ġknight": 8232,
      "Ġstarring": 8233,
      "Ġsplashes": 8234,
      "Ġferris": 8235,
      "Ġgrains": 8236,
      "Ġapplication": 8237,
      "Ġblooms": 8238,
      "Ġemotions": 8239,
      "Ġpaddles": 8240,
      "mint": 8241,
      "rint": 8242,
      "Ġstyling": 8243,
      "Ġbows": 8244,
      "Ġtorch": 8245,
      "Ġrehearsal": 8246,
      "stairs": 8247,
      "aque": 8248,
      "Ġss": 8249,
      "oration": 8250,
      "tuce": 8251,
      "Ġdemonstrators": 8252,
      "Ġentertainer": 8253,
      "ix": 8254,
      "oms": 8255,
      "Ġrushing": 8256,
      "urt": 8257,
      "Ġsmell": 8258,
      "Ġshowcas": 8259,
      "Ġoverlook": 8260,
      "Ġembrace": 8261,
      "Ġrevealing": 8262,
      "Ġhexagonal": 8263,
      "Ġclinic": 8264,
      "Ġpomegranate": 8265,
      "Ġpeony": 8266,
      "Ġvent": 8267,
      "Ġwalker": 8268,
      "Ġexamining": 8269,
      "Ġangels": 8270,
      "Ġbillboard": 8271,
      "Ġvalentines": 8272,
      "Ġpaw": 8273,
      "erg": 8274,
      "Ġinser": 8275,
      "Ġstom": 8276,
      "Ġmyth": 8277,
      "Ġsteak": 8278,
      "Ġpix": 8279,
      "Ġlays": 8280,
      "Ġpowerpoint": 8281,
      "Ġpaddling": 8282,
      "Ġdefender": 8283,
      "Ġhedgehog": 8284,
      "Ġsyringe": 8285,
      "Ġlets": 8286,
      "Ġflagpole": 8287,
      "Ġlettuce": 8288,
      "Ġeyel": 8289,
      "Ġphotographing": 8290,
      "Ġnaturally": 8291,
      "Ġdaisy": 8292,
      "Ġhabitat": 8293,
      "Ġpancakes": 8294,
      "Ġpagod": 8295,
      "Ġhandshake": 8296,
      "Ġheadband": 8297,
      "Ġunited": 8298,
      "Ġtreadmill": 8299,
      "Ġfist": 8300,
      "Ġtho": 8301,
      "ivered": 8302,
      "Ġgarlands": 8303,
      "Ġdelivered": 8304,
      "Ġfocal": 8305,
      "Ġwreck": 8306,
      "Ġharvester": 8307,
      "Ġmeditating": 8308,
      "Ġtrench": 8309,
      "wise": 8310,
      "ences": 8311,
      "Ġdug": 8312,
      "Ġheard": 8313,
      "Ġovergrown": 8314,
      "Ġprovin": 8315,
      "Ġincident": 8316,
      "Ġowls": 8317,
      "Ġpeaceful": 8318,
      "Ġbenefit": 8319,
      "Ġfreedom": 8320,
      "Ġfasc": 8321,
      "Ġcanadian": 8322,
      "Ġdotted": 8323,
      "Ġsprou": 8324,
      "aked": 8325,
      "Ġstrength": 8326,
      "Ġusual": 8327,
      "Ġmatte": 8328,
      "Ġdrift": 8329,
      "Ġrecover": 8330,
      "Ġcreamy": 8331,
      "ĠAnother": 8332,
      "Ġvegan": 8333,
      "Ġfiery": 8334,
      "Ġjoint": 8335,
      "Ġfollows": 8336,
      "Ġteachers": 8337,
      "Ġcertainly": 8338,
      "Ġpaws": 8339,
      "Ġsticky": 8340,
      "Ġjoke": 8341,
      "Ġlocket": 8342,
      "Ġprocession": 8343,
      "lines": 8344,
      "Ġtug": 8345,
      "Ġhaw": 8346,
      "Ġbells": 8347,
      "Ġtwice": 8348,
      "Ġhappens": 8349,
      "Ġconfused": 8350,
      "Ġremain": 8351,
      "Ġcreepy": 8352,
      "Ġprairie": 8353,
      "Ġfj": 8354,
      "Ġpelic": 8355,
      "Ġtelling": 8356,
      "Ġgond": 8357,
      "Ġacres": 8358,
      "Ġ25": 8359,
      "Ġcontent": 8360,
      "Ġfinds": 8361,
      "Ġwaiter": 8362,
      "Ġapparent": 8363,
      "Ġprotecting": 8364,
      "acturing": 8365,
      "oes": 8366,
      "Ġsquee": 8367,
      "Ġhose": 8368,
      "Ġplaster": 8369,
      "Ġretain": 8370,
      "Ġpeek": 8371,
      "Ġtells": 8372,
      "Ġplayoff": 8373,
      "Ġexisting": 8374,
      "Ġmirro": 8375,
      "Ġelk": 8376,
      "Ġdaff": 8377,
      "eding": 8378,
      "Ġtramp": 8379,
      "Ġfired": 8380,
      "Ġcurry": 8381,
      "Ġstrikes": 8382,
      "Ġshortly": 8383,
      "ĠMiddle": 8384,
      "Ġadvantage": 8385,
      "Ġgalloping": 8386,
      "Ġdaffod": 8387,
      "Ġparks": 8388,
      "Ġscaff": 8389,
      "Ġfaced": 8390,
      "Ġgraduates": 8391,
      "Ġmanufacturing": 8392,
      "Ġtuxedo": 8393,
      "Ġcreat": 8394,
      "Ġclassy": 8395,
      "Ġrecon": 8396,
      "coat": 8397,
      "Ġpumps": 8398,
      "Ġwelcoming": 8399,
      "Ġpreviously": 8400,
      "Ġtarmac": 8401,
      "acks": 8402,
      "Ġcurls": 8403,
      "Ġcray": 8404,
      "Ġaircrafts": 8405,
      "Ġfeeder": 8406,
      "Ġoy": 8407,
      "Ġdar": 8408,
      "Ġforced": 8409,
      "Ġjockey": 8410,
      "ooky": 8411,
      "Ġvolume": 8412,
      "Ġrefreshing": 8413,
      "Ġnuclear": 8414,
      "coon": 8415,
      "Ġpeonies": 8416,
      "ulf": 8417,
      "Ġpremium": 8418,
      "Ġdusty": 8419,
      "Ġwarri": 8420,
      "Ġfreeway": 8421,
      "Ġrepresented": 8422,
      "Ġliterally": 8423,
      "Ġdisappe": 8424,
      "Ġstomach": 8425,
      "amel": 8426,
      "Ġarg": 8427,
      "anted": 8428,
      "Ġeffects": 8429,
      "Ġbless": 8430,
      "Ġhoping": 8431,
      "Ġadmire": 8432,
      "Ġwonderland": 8433,
      "Ġsquatting": 8434,
      "Ġgoose": 8435,
      "Ġscaffolding": 8436,
      "Ġkar": 8437,
      "Ġpreview": 8438,
      "Ġallig": 8439,
      "Ġweddings": 8440,
      "Ġneedles": 8441,
      "Ġdives": 8442,
      "Ġterritory": 8443,
      "Ġdesserts": 8444,
      "wat": 8445,
      "Ġfail": 8446,
      "Ġlimit": 8447,
      "Ġenth": 8448,
      "Ġsailors": 8449,
      "Ġjerseys": 8450,
      "Ġpeppers": 8451,
      "Ġnumerous": 8452,
      "Ġcreativity": 8453,
      "bug": 8454,
      "icam": 8455,
      "Ġrena": 8456,
      "Ġconser": 8457,
      "Ġcruc": 8458,
      "issance": 8459,
      "Ġfacts": 8460,
      "Ġoperated": 8461,
      "Ġsteadicam": 8462,
      "Ġsap": 8463,
      "Ġmice": 8464,
      "Ġmention": 8465,
      "Ġplaza": 8466,
      "Ġchasing": 8467,
      "Ġhouseplants": 8468,
      "Ġladybug": 8469,
      "Ġinfant": 8470,
      "Ġdealership": 8471,
      "Ġrenaissance": 8472,
      "Ġsells": 8473,
      "Ġdocks": 8474,
      "ounce": 8475,
      "Ġplough": 8476,
      "Ġtrium": 8477,
      "Ġpizzas": 8478,
      "Ġutility": 8479,
      "Ġmedicine": 8480,
      "Ġembellished": 8481,
      "Ġdies": 8482,
      "immer": 8483,
      "ately": 8484,
      "Ġremotes": 8485,
      "Ġpromote": 8486,
      "Ġnestled": 8487,
      "Ġprevent": 8488,
      "Ġpaying": 8489,
      "Ġenclosure": 8490,
      "Ġsust": 8491,
      "Ġpaved": 8492,
      "orrow": 8493,
      "Ġmetres": 8494,
      "Ġpetrol": 8495,
      "Ġemerging": 8496,
      "Ġticket": 8497,
      "Ġbacon": 8498,
      "Ġdart": 8499,
      "lectic": 8500,
      "utside": 8501,
      "Ġchee": 8502,
      "Ġsubtle": 8503,
      "Ġprotection": 8504,
      "Ġruff": 8505,
      "Ġsleeved": 8506,
      "Ġtemperature": 8507,
      "Ġpavil": 8508,
      "right": 8509,
      "Ġsten": 8510,
      "assy": 8511,
      "ĠOutside": 8512,
      "Ġarctic": 8513,
      "this": 8514,
      "Ġmatches": 8515,
      "Ġvillages": 8516,
      "Ġhumming": 8517,
      "Ġhelicopters": 8518,
      "Ġexhaust": 8519,
      "Ġblend": 8520,
      "lery": 8521,
      "Ġlaz": 8522,
      "oufl": 8523,
      "une": 8524,
      "unk": 8525,
      "Ġkilled": 8526,
      "Ġslider": 8527,
      "Ġconsole": 8528,
      "Ġinspire": 8529,
      "Ġcruising": 8530,
      "Ġmemories": 8531,
      "Ġpaddock": 8532,
      "Ġexplorer": 8533,
      "Ġbookshelves": 8534,
      "Ġtil": 8535,
      "Ġavi": 8536,
      "Ġemp": 8537,
      "arded": 8538,
      "Ġmad": 8539,
      "Ġspooky": 8540,
      "Ġcamoufl": 8541,
      "Ġsailboats": 8542,
      "Ġrental": 8543,
      "Ġeclectic": 8544,
      "Ġunderstand": 8545,
      "Ġsacred": 8546,
      "asy": 8547,
      "Ġrisk": 8548,
      "Ġkitchens": 8549,
      "Ġresults": 8550,
      "marine": 8551,
      "Ġmothers": 8552,
      "Ġstrolling": 8553,
      "Ġsleeps": 8554,
      "Ġclover": 8555,
      "Ġtender": 8556,
      "Ġcoated": 8557,
      "Ġhomework": 8558,
      "Ġacade": 8559,
      "Ġhatched": 8560,
      "Ġspeeding": 8561,
      "Ġhandbags": 8562,
      "Ġrepairing": 8563,
      "Ġsnowboarder": 8564,
      "Ġlamb": 8565,
      "expected": 8566,
      "Ġcres": 8567,
      "step": 8568,
      "Ġdecision": 8569,
      "Ġcutlery": 8570,
      "Ġfung": 8571,
      "Ġreplaced": 8572,
      "Ġintegr": 8573,
      "Ġsupporting": 8574,
      "Ġmangro": 8575,
      "Ġtrampoline": 8576,
      "Ġfuel": 8577,
      "Ġly": 8578,
      "Ġlun": 8579,
      "Ġelection": 8580,
      "ifier": 8581,
      "Ġcrad": 8582,
      "Ġbreast": 8583,
      "Ġsuitable": 8584,
      "Ġterri": 8585,
      "Ġlearned": 8586,
      "Ġgrove": 8587,
      "Ġmanicure": 8588,
      "Ġsort": 8589,
      "Ġsaved": 8590,
      "Ġhind": 8591,
      "Ġbeating": 8592,
      "Ġboasts": 8593,
      "Ġforeign": 8594,
      "ycl": 8595,
      "Ġdispos": 8596,
      "amas": 8597,
      "Ġbackwards": 8598,
      "Ġfrustr": 8599,
      "Ġstages": 8600,
      "Ġunexpected": 8601,
      "Ġhappen": 8602,
      "Ġhonour": 8603,
      "Ġdemolition": 8604,
      "Ġbug": 8605,
      "Ġboreal": 8606,
      "Ġyards": 8607,
      "Ġswings": 8608,
      "Ġwinters": 8609,
      "Ġdepend": 8610,
      "Ġmoonlight": 8611,
      "Ġgathers": 8612,
      "Ġdoughnut": 8613,
      "Ġnecess": 8614,
      "Ġtriumph": 8615,
      "erk": 8616,
      "Ġsector": 8617,
      "Ġgap": 8618,
      "Ġalien": 8619,
      "Ġgod": 8620,
      "Ġmotiv": 8621,
      "Ġpaths": 8622,
      "Ġsleigh": 8623,
      "Ġshelving": 8624,
      "Ġassorted": 8625,
      "mediate": 8626,
      "Ġbilli": 8627,
      "Ġdraped": 8628,
      "Ġboulders": 8629,
      "Ġpunch": 8630,
      "Ġpoker": 8631,
      "stra": 8632,
      "oord": 8633,
      "Ġgeomet": 8634,
      "Ġdemolished": 8635,
      "Ġcoord": 8636,
      "Ġsending": 8637,
      "Ġtrust": 8638,
      "Ġviewer": 8639,
      "Ġobserving": 8640,
      "Ġconfir": 8641,
      "Ġbands": 8642,
      "Ġdepicts": 8643,
      "Ġoption": 8644,
      "Ġentirely": 8645,
      "Ġbrowsing": 8646,
      "minton": 8647,
      "Ġpics": 8648,
      "Ġattire": 8649,
      "Ġcreatures": 8650,
      "Ġrelative": 8651,
      "Ġ1980": 8652,
      "Ġbadminton": 8653,
      "Ġsuggest": 8654,
      "Ġcoconuts": 8655,
      "Ġpyramids": 8656,
      "Ġvelvet": 8657,
      "orke": 8658,
      "Ġwhales": 8659,
      "Ġgreens": 8660,
      "Ġaccept": 8661,
      "going": 8662,
      "Ġdrove": 8663,
      "Ġtoothp": 8664,
      "Ġawaiting": 8665,
      "Ġkangaroo": 8666,
      "px": 8667,
      "acle": 8668,
      "Ġthri": 8669,
      "Ġillusion": 8670,
      "Ġdisaster": 8671,
      "Ġcharging": 8672,
      "Ġsnorke": 8673,
      "Ġ1940": 8674,
      "Ġconnects": 8675,
      "Ġshrimp": 8676,
      "ules": 8677,
      "orious": 8678,
      "Ġcarp": 8679,
      "Ġunlo": 8680,
      "Ġapprec": 8681,
      "Ġplains": 8682,
      "Ġanatomy": 8683,
      "gular": 8684,
      "rane": 8685,
      "icist": 8686,
      "Ġleap": 8687,
      "Ġpeaches": 8688,
      "Ġassemb": 8689,
      "Ġfunky": 8690,
      "Ġsynt": 8691,
      "Ġpassage": 8692,
      "Ġannounce": 8693,
      "Ġbadges": 8694,
      "Ġcaptures": 8695,
      "Ġphysicist": 8696,
      "Ġelementary": 8697,
      "Ġbomb": 8698,
      "Ġmoth": 8699,
      "Ġgull": 8700,
      "Ġstress": 8701,
      "Ġheel": 8702,
      "Ġkil": 8703,
      "Ġwindowsill": 8704,
      "Ġfriendship": 8705,
      "Ġcooker": 8706,
      "Ġbattles": 8707,
      "Ġmelting": 8708,
      "Ġbonnet": 8709,
      "Ġtasty": 8710,
      "Ġnewlyweds": 8711,
      "Ġcaravan": 8712,
      "ttes": 8713,
      "Ġsed": 8714,
      "Ġsem": 8715,
      "Ġreun": 8716,
      "Ġgrasshop": 8717,
      "Ġhorn": 8718,
      "Ġwarmth": 8719,
      "Ġshocked": 8720,
      "Ġelevator": 8721,
      "Ġjudge": 8722,
      "Ġiguana": 8723,
      "Ġiphone": 8724,
      "Ġtoss": 8725,
      "Ġwhims": 8726,
      "adows": 8727,
      "uth": 8728,
      "Ġtrained": 8729,
      "Ġraises": 8730,
      "Ġtowering": 8731,
      "Ġpointed": 8732,
      "Ġgrandparents": 8733,
      "Ġcrescent": 8734,
      "aul": 8735,
      "stre": 8736,
      "Ġlean": 8737,
      "Ġgem": 8738,
      "Ġcharacteristic": 8739,
      "Ġdigit": 8740,
      "Ġladders": 8741,
      "Ġstacks": 8742,
      "Ġcreepers": 8743,
      "Ġclutch": 8744,
      "Ġsided": 8745,
      "Ġwishes": 8746,
      "Ġdang": 8747,
      "Ġplanned": 8748,
      "Ġbrass": 8749,
      "Ġparties": 8750,
      "Ġresident": 8751,
      "Ġcommission": 8752,
      "Ġgovernmental": 8753,
      "Ġsilence": 8754,
      "Ġplunging": 8755,
      "Ġfits": 8756,
      "otten": 8757,
      "usi": 8758,
      "Ġherb": 8759,
      "Ġkill": 8760,
      "Ġminister": 8761,
      "Ġbalancing": 8762,
      "Ġhugs": 8763,
      "Ġexciting": 8764,
      "Ġstolen": 8765,
      "Ġdripping": 8766,
      "Ġmirrored": 8767,
      "Ġpuck": 8768,
      "Ġbegg": 8769,
      "Ġshimmer": 8770,
      "Ġsme": 8771,
      "Ġcapt": 8772,
      "ucting": 8773,
      "Ġhaunted": 8774,
      "Ġavocado": 8775,
      "Ġcampsite": 8776,
      "Ġgrasshopper": 8777,
      "away": 8778,
      "Ġton": 8779,
      "order": 8780,
      "Ġdial": 8781,
      "Ġanonymous": 8782,
      "Ġchildhood": 8783,
      "pean": 8784,
      "Ġhighlands": 8785,
      "Ġpride": 8786,
      "Ġrefurb": 8787,
      "Ġmikes": 8788,
      "Ġchurches": 8789,
      "Ġcooling": 8790,
      "Ġterrain": 8791,
      "Ġtherm": 8792,
      "Ġenthusi": 8793,
      "Ġfet": 8794,
      "Ġeps": 8795,
      "Ġenh": 8796,
      "Ġjustice": 8797,
      "Ġstorey": 8798,
      "Ġpoliceman": 8799,
      "Ġcomposed": 8800,
      "Ġtraveler": 8801,
      "retched": 8802,
      "Ġapplied": 8803,
      "Ġoutstretched": 8804,
      "Ġthunderstorm": 8805,
      "cip": 8806,
      "gola": 8807,
      "enance": 8808,
      "Ġmaint": 8809,
      "Ġmeadows": 8810,
      "Ġpergola": 8811,
      "Ġpopulation": 8812,
      "Ġshovel": 8813,
      "Ġstaircases": 8814,
      "Ġswimmer": 8815,
      "Ġadorned": 8816,
      "Ġivory": 8817,
      "Ġrickshaw": 8818,
      "Ġmaintenance": 8819,
      "18": 8820,
      "ptu": 8821,
      "Ġheap": 8822,
      "estone": 8823,
      "Ġhappened": 8824,
      "Ġcrumb": 8825,
      "Ġautograph": 8826,
      "Ġinternal": 8827,
      "Ġvoice": 8828,
      "ranean": 8829,
      "Ġeco": 8830,
      "Ġmidfield": 8831,
      "Ġtrainers": 8832,
      "Ġcollaps": 8833,
      "Ġofficially": 8834,
      "Ġsheeps": 8835,
      "Ġdrew": 8836,
      "Ġelabor": 8837,
      "Ġdimensional": 8838,
      "hib": 8839,
      "Ġmold": 8840,
      "Ġll": 8841,
      "irl": 8842,
      "Ġpersonnel": 8843,
      "Ġmanhole": 8844,
      "Ġgrav": 8845,
      "Ġarrest": 8846,
      "Ġdesper": 8847,
      "Ġpupils": 8848,
      "Ġlistens": 8849,
      "Ġencount": 8850,
      "nial": 8851,
      "tiss": 8852,
      "Ġtiar": 8853,
      "ede": 8854,
      "Ġpropos": 8855,
      "Ġmeant": 8856,
      "Ġswords": 8857,
      "Ġgoldfish": 8858,
      "Ġbrew": 8859,
      "Ġexpans": 8860,
      "Ġgowns": 8861,
      "llers": 8862,
      "Ġresist": 8863,
      "Ġcircus": 8864,
      "Ġprincip": 8865,
      "Ġsparkle": 8866,
      "Ġrout": 8867,
      "Ġavenue": 8868,
      "Ġsiblings": 8869,
      "Ġtiara": 8870,
      "Ġaid": 8871,
      "Ġwhit": 8872,
      "Ġvote": 8873,
      "Ġwooded": 8874,
      "Ġfires": 8875,
      "Ġexist": 8876,
      "Ġlosing": 8877,
      "brid": 8878,
      "Ġsupply": 8879,
      "Ġsnook": 8880,
      "Ġsupported": 8881,
      "Ġmissed": 8882,
      "Ġculinary": 8883,
      "thene": 8884,
      "Ġkayaking": 8885,
      "Ġeuropean": 8886,
      "Ġdoubt": 8887,
      "Ġthorough": 8888,
      "Ġarena": 8889,
      "Ġboiled": 8890,
      "Ġfinals": 8891,
      "Ġinviting": 8892,
      "Ġburied": 8893,
      "Ġjumper": 8894,
      "Ġsaddle": 8895,
      "Ġtractors": 8896,
      "Ġcrews": 8897,
      "Ġdinosaurs": 8898,
      "Ġcongratulations": 8899,
      "Ġraspberries": 8900,
      "ussian": 8901,
      "Ġachieve": 8902,
      "Ġcertificate": 8903,
      "Ġcemetery": 8904,
      "Ġseg": 8905,
      "Ġredwood": 8906,
      "Ġcord": 8907,
      "Ġzomb": 8908,
      "Ġremod": 8909,
      "Ġsnakes": 8910,
      "Ġcigarettes": 8911,
      "Ġfractal": 8912,
      "Ġgymnastic": 8913,
      "pass": 8914,
      "Ġlack": 8915,
      "store": 8916,
      "Ġflu": 8917,
      "Ġmant": 8918,
      "Ġmate": 8919,
      "Ġintense": 8920,
      "Ġsurroundings": 8921,
      "Ġfoundation": 8922,
      "Ġradi": 8923,
      "Ġadvice": 8924,
      "Ġparachutes": 8925,
      "Ġaltitude": 8926,
      "bottles": 8927,
      "Ġaddresses": 8928,
      "Ġsurvive": 8929,
      "Ġpagoda": 8930,
      "Ġconserv": 8931,
      "bles": 8932,
      "atives": 8933,
      "Ġrussian": 8934,
      "Ġpockets": 8935,
      "ogram": 8936,
      "Ġassemble": 8937,
      "Ġprohib": 8938,
      "Ġfemin": 8939,
      "Ġhowever": 8940,
      "Ġtasting": 8941,
      "Ġentertainment": 8942,
      "Ġpavilion": 8943,
      "Ġlazy": 8944,
      "Ġtar": 8945,
      "Ġsevere": 8946,
      "Ġshelters": 8947,
      "Ġpedig": 8948,
      "Ġelegance": 8949,
      "Ġsuffering": 8950,
      "Ġpottery": 8951,
      "ollip": 8952,
      "Ġtoe": 8953,
      "Ġblogg": 8954,
      "Ġscro": 8955,
      "rican": 8956,
      "Ġconsum": 8957,
      "Ġuseful": 8958,
      "Ġcollabor": 8959,
      "Ġtapest": 8960,
      "Ġparticipating": 8961,
      "Ġastronomical": 8962,
      "Ġpolythene": 8963,
      "Ġriverside": 8964,
      "Ġpedigreed": 8965,
      "stand": 8966,
      "Ġbend": 8967,
      "Ġtwe": 8968,
      "Ġpenins": 8969,
      "Ġpointer": 8970,
      "Ġhybrid": 8971,
      "Ġdelivering": 8972,
      "Ġdive": 8973,
      "Ġuphol": 8974,
      "Ġslab": 8975,
      "Ġbartender": 8976,
      "Ġanywhere": 8977,
      "Ġeaten": 8978,
      "Ġbracelets": 8979,
      "Ġimmediate": 8980,
      "Ġpilgr": 8981,
      "Ġponytail": 8982,
      "Ġcannon": 8983,
      "Ġgau": 8984,
      "Ġlollip": 8985,
      "Ġupwards": 8986,
      "Ġhous": 8987,
      "Ġgrouping": 8988,
      "rons": 8989,
      "Ġguided": 8990,
      "nels": 8991,
      "Ġdrummer": 8992,
      "ĠLand": 8993,
      "Ġadmiring": 8994,
      "Ġafford": 8995,
      "Ġupholst": 8996,
      "Ġwrench": 8997,
      "sta": 8998,
      "Ġplush": 8999,
      "Ġboho": 9000,
      "Ġgrace": 9001,
      "Ġarc": 9002,
      "Ġkale": 9003,
      "Ġfootbridge": 9004,
      "ugated": 9005,
      "Ġrespect": 9006,
      "Ġsandwiches": 9007,
      "Ġcorrugated": 9008,
      "Ġkoala": 9009,
      "Ġpeninsula": 9010,
      "Ġdw": 9011,
      "Ġportable": 9012,
      "Ġlanded": 9013,
      "Ġhover": 9014,
      "Ġpriest": 9015,
      "Ġwinged": 9016,
      "Ġscrews": 9017,
      "barrow": 9018,
      "Ġinde": 9019,
      "ette": 9020,
      "Ġvul": 9021,
      "Ġmediter": 9022,
      "Ġdetailing": 9023,
      "Ġneedle": 9024,
      "Ġvari": 9025,
      "Ġseparated": 9026,
      "Ġresemb": 9027,
      "Ġordinary": 9028,
      "Ġott": 9029,
      "Ġcollapsed": 9030,
      "Ġmediterranean": 9031,
      "iques": 9032,
      "Ġtying": 9033,
      "heast": 9034,
      "about": 9035,
      "raw": 9036,
      "Ġenorm": 9037,
      "Ġrocked": 9038,
[...]
