{
  "version": "1.0",
  "truncation": null,
  "padding": null,
  "added_tokens": [
    {
      "id": 0,
      "content": "[UNK]",
      "single_word": false,
      "lstrip": false,
      "rstrip": false,
      "normalized": false,
      "special": true
    },
    {
      "id": 1,
      "content": "[CLS]",
      "single_word": false,
      "lstrip": false,
      "rstrip": false,
      "normalized": false,
      "special": true
    },
    {
      "id": 2,
      "content": "[SEP]",
      "single_word": false,
      "lstrip": false,
      "rstrip": false,
      "normalized": false,
      "special": true
    },
    {
      "id": 3,
      "content": "[PAD]",
      "single_word": false,
      "lstrip": false,
      "rstrip": false,
      "normalized": false,
      "special": true
    },
    {
      "id": 4,
      "content": "[MASK]",
      "single_word": false,
      "lstrip": false,
      "rstrip": false,
      "normalized": false,
      "special": true
    }
  ],
  "normalizer": {
    "type": "Sequence",
    "normalizers": [
      {
        "type": "NFD"
      },
      {
        "type": "Lowercase"
      },
      {
        "type": "StripAccents"
      }
    ]
  },
  "pre_tokenizer": {
    "type": "Whitespace"
  },
  "post_processor": {
    "type": "TemplateProcessing",
    "single": [
      {
        "SpecialToken": {
          "id": "[CLS]",
          "type_id": 0
        }
      },
      {
        "Sequence": {
          "id": "A",
          "type_id": 0
        }
      },
      {
        "SpecialToken": {
          "id": "[SEP]",
          "type_id": 0
        }
      }
    ],
    "pair": [
      {
        "SpecialToken": {
          "id": "[CLS]",
          "type_id": 0
        }
      },
      {
        "Sequence": {
          "id": "A",
          "type_id": 0
        }
      },
      {
        "SpecialToken": {
          "id": "[SEP]",
          "type_id": 0
        }
      },
      {
        "Sequence": {
          "id": "B",
          "type_id": 1
        }
      },
      {
        "SpecialToken": {
          "id": "[SEP]",
          "type_id": 1
        }
      }
    ],
    "special_tokens": {
      "[CLS]": {
        "id": "[CLS]",
        "ids": [
          1
        ],
        "tokens": [
          "[CLS]"
        ]
      },
      "[SEP]": {
        "id": "[SEP]",
        "ids": [
          2
        ],
        "tokens": [
          "[SEP]"
        ]
      }
    }
  },
  "decoder": null,
  "model": {
    "type": "WordPiece",
    "unk_token": "[UNK]",
    "continuing_subword_prefix": "##",
    "max_input_chars_per_word": 100,
    "vocab": {
      "[UNK]": 0,
      "[CLS]": 1,
      "[SEP]": 2,
      "[PAD]": 3,
      "[MASK]": 4,
      "!": 5,
      "\"": 6,
      "#": 7,
      "$": 8,
      "%": 9,
      "&": 10,
      "'": 11,
      "(": 12,
      ")": 13,
      "*": 14,
      "+": 15,
      ",": 16,
      "-": 17,
      ".": 18,
      "/": 19,
      "0": 20,
      "1": 21,
      "2": 22,
      "3": 23,
      "4": 24,
      "5": 25,
      "6": 26,
      "7": 27,
      "8": 28,
      "9": 29,
      ":": 30,
      ";": 31,
      "<": 32,
      "=": 33,
      ">": 34,
      "?": 35,
      "@": 36,
      "[": 37,
      "\\": 38,
      "]": 39,
      "^": 40,
      "_": 41,
      "`": 42,
      "a": 43,
      "b": 44,
      "c": 45,
      "d": 46,
      "e": 47,
      "f": 48,
      "g": 49,
      "h": 50,
      "i": 51,
      "j": 52,
      "k": 53,
      "l": 54,
      "m": 55,
      "n": 56,
      "o": 57,
      "p": 58,
      "q": 59,
      "r": 60,
      "s": 61,
      "t": 62,
      "u": 63,
      "v": 64,
      "w": 65,
      "x": 66,
      "y": 67,
      "z": 68,
      "{": 69,
      "|": 70,
      "}": 71,
      "~": 72,
      "": 73,
      "": 74,
      "": 75,
      "": 76,
      "": 77,
      "": 78,
      "": 79,
      "": 80,
      "": 81,
      "": 82,
      "": 83,
      "": 84,
      "": 85,
      "": 86,
      "": 87,
      "": 88,
      "": 89,
      "": 90,
      "": 91,
      "": 92,
      "": 93,
      "": 94,
      "": 95,
      "": 96,
      "": 97,
      "": 98,
      "¡": 99,
      "¢": 100,
      "£": 101,
      "¤": 102,
      "¥": 103,
      "¦": 104,
      "§": 105,
      "©": 106,
      "«": 107,
      "¬": 108,
      "­": 109,
      "®": 110,
      "°": 111,
      "±": 112,
      "¶": 113,
      "·": 114,
      "»": 115,
      "¿": 116,
      "×": 117,
      "ß": 118,
      "æ": 119,
      "ð": 120,
      "÷": 121,
      "ø": 122,
      "þ": 123,
      "đ": 124,
      "ħ": 125,
      "ı": 126,
      "ł": 127,
      "ŋ": 128,
      "œ": 129,
      "ƅ": 130,
      "ǁ": 131,
      "ȝ": 132,
      "ɐ": 133,
      "ɑ": 134,
      "ɒ": 135,
      "ɔ": 136,
      "ɕ": 137,
      "ɖ": 138,
      "ɗ": 139,
      "ə": 140,
      "ɛ": 141,
      "ɜ": 142,
      "ɡ": 143,
      "ɣ": 144,
      "ɦ": 145,
      "ɨ": 146,
      "ɪ": 147,
      "ɫ": 148,
      "ɮ": 149,
      "ɯ": 150,
      "ɲ": 151,
      "ɳ": 152,
      "ɶ": 153,
      "ɸ": 154,
      "ɹ": 155,
      "ɺ": 156,
      "ɾ": 157,
      "ʁ": 158,
      "ʃ": 159,
      "ʊ": 160,
      "ʋ": 161,
      "ʌ": 162,
      "ʎ": 163,
      "ʏ": 164,
      "ʒ": 165,
      "ʔ": 166,
      "ʕ": 167,
      "ʘ": 168,
      "ʙ": 169,
      "ʝ": 170,
      "ʹ": 171,
      "ʻ": 172,
      "ʼ": 173,
      "ʽ": 174,
      "ʾ": 175,
      "ʿ": 176,
      "ˀ": 177,
      "ˆ": 178,
      "ˈ": 179,
      "ˌ": 180,
      "ː": 181,
      "˥": 182,
      "˨": 183,
      "˩": 184,
      "״": 185,
      "،": 186,
      "؟": 187,
      "ـ": 188,
      "١": 189,
      "٢": 190,
      "٤": 191,
      "٥": 192,
      "٦": 193,
      "٧": 194,
      "٨": 195,
      "٩": 196,
      "।": 197,
      "॥": 198,
      "०": 199,
      "१": 200,
      "२": 201,
      "३": 202,
      "४": 203,
      "५": 204,
      "६": 205,
      "७": 206,
      "८": 207,
      "९": 208,
      "་": 209,
      "།": 210,
      "᚛": 211,
      "᚜": 212,
      "០": 213,
      "១": 214,
      "២": 215,
      "៣": 216,
      "៤": 217,
      "៥": 218,
      "៦": 219,
      "៧": 220,
      "៨": 221,
      "៩": 222,
      "​": 223,
      "‌": 224,
      "‍": 225,
      "‎": 226,
      "‏": 227,
      "‐": 228,
      "–": 229,
      "—": 230,
      "―": 231,
      "‘": 232,
      "’": 233,
      "‚": 234,
      "“": 235,
      "”": 236,
      "„": 237,
      "†": 238,
      "‡": 239,
      "•": 240,
      "‬": 241,
      "‭": 242,
      "‰": 243,
      "′": 244,
      "※": 245,
      "‿": 246,
      "⁂": 247,
      "⁄": 248,
      "⁎": 249,
      "⁠": 250,
      "⁣": 251,
      "₤": 252,
      "₩": 253,
      "€": 254,
      "₵": 255,
      "₹": 256,
      "₿": 257,
      "←": 258,
      "↑": 259,
      "→": 260,
      "↗": 261,
      "↫": 262,
      "∂": 263,
      "∆": 264,
      "∇": 265,
      "∈": 266,
      "−": 267,
      "∗": 268,
      "∙": 269,
      "√": 270,
      "∝": 271,
      "∞": 272,
      "∴": 273,
      "≈": 274,
      "≒": 275,
      "≡": 276,
      "≤": 277,
      "≥": 278,
      "⊙": 279,
      "⋅": 280,
      "⌈": 281,
      "⌉": 282,
      "⌊": 283,
      "⌋": 284,
      "─": 285,
      "▔": 286,
      "◉": 287,
      "◊": 288,
      "○": 289,
      "●": 290,
      "★": 291,
      "☆": 292,
      "☣": 293,
      "☯": 294,
      "☺": 295,
      "♑": 296,
      "♠": 297,
      "♣": 298,
      "♥": 299,
      "♦": 300,
      "♪": 301,
      "♫": 302,
      "♭": 303,
      "♮": 304,
      "♯": 305,
      "✅": 306,
      "✚": 307,
      "❌": 308,
      "❦": 309,
      "⟨": 310,
      "⟩": 311,
      "⬄": 312,
      "⬱": 313,
      "ⱡ": 314,
      "、": 315,
      "。": 316,
      "〉": 317,
      "《": 318,
      "》": 319,
      "『": 320,
      "』": 321,
      "・": 322,
      "ー": 323,
      "꞉": 324,
      "ꞌ": 325,
      "￼": 326,
      "�": 327,
      "🆖": 328,
      "🏰": 329,
      "🏴": 330,
      "👽": 331,
      "😊": 332,
      "󠁢": 333,
      "󠁧": 334,
      "󠁬": 335,
      "󠁳": 336,
      "󠁷": 337,
      "󠁿": 338,
      "􏿾": 339,
      "##e": 340,
      "##r": 341,
      "##i": 342,
      "##v": 343,
      "##a": 344,
      "##t": 345,
      "##n": 346,
      "##o": 347,
      "##g": 348,
      "##d": 349,
      "##s": 350,
      "##y": 351,
      "##l": 352,
      "##c": 353,
      "##m": 354,
      "##b": 355,
      "##k": 356,
      "##h": 357,
      "##j": 358,
      "##u": 359,
      "##p": 360,
      "##f": 361,
      "##8": 362,
      "##2": 363,
      "##0": 364,
      "##9": 365,
      "##1": 366,
      "##6": 367,
      "##x": 368,
      "##q": 369,
      "##_": 370,
      "##z": 371,
      "##7": 372,
      "##w": 373,
      "##5": 374,
      "##3": 375,
      "##4": 376,
      "##ı": 377,
      "##đ": 378,
      "##�": 379,
      "##*": 380,
      "##.": 381,
      "##)": 382,
      "##”": 383,
      "##(": 384,
      "##\"": 385,
      "##ð": 386,
      "##þ": 387,
      "##æ": 388,
      "##ɪ": 389,
      "##ø": 390,
      "##+": 391,
      "##:": 392,
      "##-": 393,
      "##,": 394,
      "##;": 395,
      "##÷": 396,
      "##ə": 397,
      "##ß": 398,
      "##[": 399,
      "##/": 400,
      "##=": 401,
      "###": 402,
      "##?": 403,
      "##$": 404,
      "##⌉": 405,
      "##œ": 406,
      "##]": 407,
      "##ʼ": 408,
      "##ł": 409,
      "##'": 410,
      "##“": 411,
      "##ʻ": 412,
      "##٩": 413,
      "##٤": 414,
      "##٧": 415,
      "##٨": 416,
      "##‎": 417,
      "##}": 418,
      "##–": 419,
      "##ʾ": 420,
      "##ɛ": 421,
      "##ː": 422,
      "##¢": 423,
      "##": 424,
      "##!": 425,
      "##`": 426,
      "##ʁ": 427,
      "##⌋": 428,
      "##‬": 429,
      "##«": 430,
      "##×": 431,
      "##’": 432,
      "##ˈ": 433,
      "##ŋ": 434,
      "##©": 435,
      "##ɾ": 436,
      "##ɣ": 437,
      "##®": 438,
      "##": 439,
      "##٢": 440,
      "##٥": 441,
      "##‘": 442,
      "##—": 443,
      "##": 444,
      "##": 445,
      "##@": 446,
      "##¶": 447,
      "##⌈": 448,
      "##―": 449,
      "##・": 450,
      "##¿": 451,
      "##¤": 452,
      "##∆": 453,
      "##٦": 454,
      "##ɳ": 455,
      "##♪": 456,
      "##∙": 457,
      "##ʿ": 458,
      "##→": 459,
      "##ʊ": 460,
      "##|": 461,
      "##​": 462,
      "##£": 463,
      "##{": 464,
      "##%": 465,
      "##⁠": 466,
      "##¡": 467,
      "##١": 468,
      "##": 469,
      "##ɜ": 470,
      "##ɨ": 471,
      "##ʃ": 472,
      "##⁎": 473,
      "##&": 474,
      "##^": 475,
      "##√": 476,
      "##\\": 477,
      "##ɐ": 478,
      "##״": 479,
      "##±": 480,
      "##ɡ": 481,
      "##☆": 482,
      "##♫": 483,
      "##ʒ": 484,
      "##†": 485,
      "##३": 486,
      "##ɲ": 487,
      "##✚": 488,
      "##ɫ": 489,
      "##ʋ": 490,
      "##~": 491,
      "##·": 492,
      "##ɑ": 493,
      "##१": 494,
      "##¬": 495,
      "##♭": 496,
      "##∞": 497,
      "##": 498,
      "##◊": 499,
      "##🏴": 500,
      "##󠁧": 501,
      "##󠁢": 502,
      "##󠁷": 503,
      "##󠁬": 504,
      "##󠁳": 505,
      "##󠁿": 506,
      "##ʔ": 507,
      "##¦": 508,
      "##∈": 509,
      "##☺": 510,
      "##↑": 511,
      "##、": 512,
      "##": 513,
      "##‚": 514,
      "##∇": 515,
      "##°": 516,
      "##ʹ": 517,
      "##‡": 518,
      "##ˌ": 519,
      "##ʝ": 520,
      "##−": 521,
      "##": 522,
      "##ɔ": 523,
      "##▔": 524,
      "##ʌ": 525,
      "##∂": 526,
      "##•": 527,
      "##១": 528,
      "##២": 529,
      "##៣": 530,
      "##៤": 531,
      "##៥": 532,
      "##៦": 533,
      "##៧": 534,
      "##៨": 535,
      "##៩": 536,
      "##०": 537,
      "##­": 538,
      "##": 539,
      "##☯": 540,
      "##": 541,
      "##ɒ": 542,
      "##": 543,
      "##ɸ": 544,
      "##ɯ": 545,
      "##§": 546,
      "##ȝ": 547,
      "##€": 548,
      "##￼": 549,
      "##ˀ": 550,
      "##>": 551,
      "##": 552,
      "##≥": 553,
      "##⟩": 554,
      "##˩": 555,
      "##": 556,
      "##": 557,
      "##་": 558,
      "##།": 559,
      "##": 560,
      "##₤": 561,
      "##ɖ": 562,
      "##ʎ": 563,
      "##¥": 564,
      "##ⱡ": 565,
      "##४": 566,
      "##↗": 567,
      "##《": 568,
      "##》": 569,
      "##ɹ": 570,
      "##ʘ": 571,
      "##ʏ": 572,
      "##ˆ": 573,
      "##ɮ": 574,
      "##‿": 575,
      "##": 576,
      "##५": 577,
      "##ʽ": 578,
      "##": 579,
      "##′": 580,
      "##": 581,
      "##⌊": 582,
      "##२": 583,
      "##ɗ": 584,
      "##": 585,
      "##ʕ": 586,
      "##": 587,
      "##₿": 588,
      "##⬱": 589,
      "##»": 590,
      "##ɕ": 591,
      "##ɺ": 592,
      "##≤": 593,
      "##": 594,
      "##": 595,
      "##": 596,
      "##ꞌ": 597,
      "th": 598,
      "the": 599,
      "##er": 600,
      "##ou": 601,
      "##in": 602,
      "##at": 603,
      "##ot": 604,
      "##nd": 605,
      "##re": 606,
      "you": 607,
      "##on": 608,
      "##ing": 609,
      "##hi": 610,
      "##an": 611,
      "mot": 612,
      "to": 613,
      "##ed": 614,
      "##es": 615,
      "##en": 616,
      "##ll": 617,
      "##or": 618,
      "and": 619,
      "in": 620,
      "chi": 621,
      "##ar": 622,
      "##is": 623,
      "##as": 624,
      "of": 625,
      "##it": 626,
      "it": 627,
      "##om": 628,
      "wh": 629,
      "##ow": 630,
      "that": 631,
      "##et": 632,
      "he": 633,
      "on": 634,
      "##ay": 635,
      "##le": 636,
      "ha": 637,
      "##ut": 638,
      "be": 639,
      "##gh": 640,
      "is": 641,
      "##ve": 642,
      "##ea": 643,
      "##id": 644,
      "##ic": 645,
      "we": 646,
      "##st": 647,
      "##ld": 648,
      "##ch": 649,
      "sh": 650,
      "##oo": 651,
      "##se": 652,
      "was": 653,
      "do": 654,
      "st": 655,
      "##al": 656,
      "for": 657,
      "##ere": 658,
      "##ght": 659,
      "what": 660,
      "re": 661,
      "##im": 662,
      "##ir": 663,
      "##ke": 664,
      "##ly": 665,
      "##ent": 666,
      "##ion": 667,
      "##am": 668,
      "##ac": 669,
      "an": 670,
      "##ur": 671,
      "##ith": 672,
      "##ver": 673,
      "##ad": 674,
      "no": 675,
      "me": 676,
      "go": 677,
      "##ight": 678,
      "with": 679,
      "se": 680,
      "as": 681,
      "this": 682,
      "##ome": 683,
      "##ter": 684,
      "at": 685,
      "not": 686,
      "li": 687,
      "##th": 688,
      "they": 689,
      "there": 690,
      "are": 691,
      "##all": 692,
      "fr": 693,
      "so": 694,
      "have": 695,
      "she": 696,
      "##ill": 697,
      "##ould": 698,
      "##ro": 699,
      "but": 700,
      "##ce": 701,
      "kn": 702,
      "can": 703,
      "his": 704,
      "one": 705,
      "ne": 706,
      "don": 707,
      "##ook": 708,
      "##ust": 709,
      "ch": 710,
      "##ant": 711,
      "##ie": 712,
      "##ct": 713,
      "her": 714,
      "oh": 715,
      "all": 716,
      "your": 717,
      "##ain": 718,
      "##un": 719,
      "know": 720,
      "##il": 721,
      "up": 722,
      "##..": 723,
      "##eah": 724,
      "##au": 725,
      "yeah": 726,
      "my": 727,
      "mo": 728,
      "inv": 729,
      "...": 730,
      "##op": 731,
      "##um": 732,
      "##her": 733,
      "sa": 734,
      "had": 735,
      "al": 736,
      "tr": 737,
      "##ge": 738,
      "##pp": 739,
      "##us": 740,
      "like": 741,
      "de": 742,
      "##ab": 743,
      "get": 744,
      "##and": 745,
      "##ack": 746,
      "pl": 747,
      "look": 748,
      "out": 749,
      "ab": 750,
      "did": 751,
      "or": 752,
      "##est": 753,
      "##out": 754,
      "fat": 755,
      "##ood": 756,
      "##ers": 757,
      "##ck": 758,
      "su": 759,
      "##ard": 760,
      "see": 761,
      "him": 762,
      "##ol": 763,
      "##ink": 764,
      "##ig": 765,
      "##ake": 766,
      "from": 767,
      "##art": 768,
      "##ap": 769,
      "by": 770,
      "here": 771,
      "ex": 772,
      "whi": 773,
      "sp": 774,
      "##ul": 775,
      "if": 776,
      "##ation": 777,
      "now": 778,
      "just": 779,
      "##ri": 780,
      "well": 781,
      "bo": 782,
      "some": 783,
      "com": 784,
      "##ess": 785,
      "who": 786,
      "were": 787,
      "##ound": 788,
      "right": 789,
      "##el": 790,
      "rea": 791,
      "then": 792,
      "wor": 793,
      "##ind": 794,
      "##ame": 795,
      "them": 796,
      "got": 797,
      "br": 798,
      "##ell": 799,
      "when": 800,
      "##itt": 801,
      "##ong": 802,
      "##ist": 803,
      "##ak": 804,
      "think": 805,
      "##na": 806,
      "about": 807,
      "##own": 808,
      "##os": 809,
      "##ast": 810,
      "ll": 811,
      "##one": 812,
      "yes": 813,
      "want": 814,
      "con": 815,
      "man": 816,
      "##res": 817,
      "##ry": 818,
      "would": 819,
      "gr": 820,
      "##our": 821,
      "un": 822,
      "said": 823,
      "##ive": 824,
      "cl": 825,
      "tw": 826,
      "will": 827,
      "where": 828,
      "##ate": 829,
      "ro": 830,
      "how": 831,
      "##if": 832,
      "any": 833,
      "].": 834,
      "good": 835,
      "ar": 836,
      "tim": 837,
      "##ber": 838,
      "##ep": 839,
      "say": 840,
      "xx": 841,
      "ok": 842,
      "xxx": 843,
      "come": 844,
      "lo": 845,
      "##ish": 846,
      "put": 847,
      "##em": 848,
      "##ough": 849,
      "pro": 850,
      "us": 851,
      "en": 852,
      "am": 853,
      "##ick": 854,
      "ve": 855,
      "##dy": 856,
      "##ine": 857,
      "##ag": 858,
      "##ery": 859,
      "##ice": 860,
      "##ore": 861,
      "##ven": 862,
      "okay": 863,
      "##ort": 864,
      "ag": 865,
      ".\"": 866,
      "##ies": 867,
      "down": 868,
      "##are": 869,
      "##ittle": 870,
      "little": 871,
      "af": 872,
      "19": 873,
      "let": 874,
      "bl": 875,
      "co": 876,
      "back": 877,
      "going": 878,
      "##ous": 879,
      "##ear": 880,
      "##ause": 881,
      "off": 882,
      "int": 883,
      "##ide": 884,
      "##hing": 885,
      "time": 886,
      "could": 887,
      "has": 888,
      "##way": 889,
      "been": 890,
      "more": 891,
      "qu": 892,
      "20": 893,
      "than": 894,
      "very": 895,
      "over": 896,
      "two": 897,
      "bec": 898,
      "which": 899,
      "ad": 900,
      "er": 901,
      "pe": 902,
      "##ther": 903,
      "too": 904,
      "car": 905,
      "ever": 906,
      "their": 907,
      "fe": 908,
      "mar": 909,
      "##lly": 910,
      "##lf": 911,
      "##ect": 912,
      "play": 913,
      "##ity": 914,
      "##oun": 915,
      "##ure": 916,
      "##ire": 917,
      "##ra": 918,
      "##ace": 919,
      "po": 920,
      "##ty": 921,
      "le": 922,
      "##ree": 923,
      "##ose": 924,
      "thing": 925,
      "pr": 926,
      "exp": 927,
      "uh": 928,
      "##ally": 929,
      "sc": 930,
      "##alk": 931,
      "why": 932,
      "does": 933,
      ",\"": 934,
      "##nder": 935,
      "other": 936,
      "##ft": 937,
      "gre": 938,
      "##urn": 939,
      "##orn": 940,
      "fl": 941,
      "##ue": 942,
      "##age": 943,
      "som": 944,
      "##ment": 945,
      "##ang": 946,
      "##my": 947,
      "##ian": 948,
      "again": 949,
      "after": 950,
      "into": 951,
      "##ud": 952,
      "fir": 953,
      "way": 954,
      "##ia": 955,
      "somet": 956,
      "gon": 957,
      "peop": 958,
      "take": 959,
      "make": 960,
      "people": 961,
      "jo": 962,
      "gonna": 963,
      "because": 964,
      "tell": 965,
      "bet": 966,
      "##other": 967,
      "##ass": 968,
      "##ff": 969,
      "work": 970,
      "##ase": 971,
      "day": 972,
      "wat": 973,
      "first": 974,
      "##ade": 975,
      "##uck": 976,
      "##iv": 977,
      "##ble": 978,
      "may": 979,
      "call": 980,
      "every": 981,
      "##ought": 982,
      "part": 983,
      "##iss": 984,
      "lau": 985,
      "##ite": 986,
      "mu": 987,
      "hand": 988,
      "these": 989,
      "##ance": 990,
      "pre": 991,
      "mean": 992,
      ".=": 993,
      "only": 994,
      "ho": 995,
      "thr": 996,
      "new": 997,
      "need": 998,
      "our": 999,
      "##te": 1000,
      "child": 1001,
      "hu": 1002,
      "gu": 1003,
      "tea": 1004,
      "mr": 1005,
      "##pt": 1006,
      "should": 1007,
      "cr": 1008,
      "##ise": 1009,
      "##ys": 1010,
      "##qu": 1011,
      "lea": 1012,
      "##ath": 1013,
      "big": 1014,
      "laugh": 1015,
      "##ach": 1016,
      "dad": 1017,
      "##ied": 1018,
      "##self": 1019,
      "really": 1020,
      "##ary": 1021,
      "##ting": 1022,
      "##av": 1023,
      "sm": 1024,
      "##wn": 1025,
      "bu": 1026,
      "##per": 1027,
      "didn": 1028,
      "##fore": 1029,
      "fo": 1030,
      "something": 1031,
      "##ord": 1032,
      "##ated": 1033,
      "mom": 1034,
      "comp": 1035,
      "##ip": 1036,
      "##ving": 1037,
      "##co": 1038,
      "happ": 1039,
      "year": 1040,
      "##les": 1041,
      "hel": 1042,
      "--": 1043,
      "ac": 1044,
      "much": 1045,
      "coun": 1046,
      "##air": 1047,
      "dis": 1048,
      "##ouse": 1049,
      "per": 1050,
      "##ool": 1051,
      "gir": 1052,
      "##able": 1053,
      "##ress": 1054,
      "im": 1055,
      "##so": 1056,
      "##ved": 1057,
      "made": 1058,
      "long": 1059,
      "##ence": 1060,
      "##ren": 1061,
      "rem": 1062,
      "##iz": 1063,
      "sw": 1064,
      "act": 1065,
      "before": 1066,
      "talk": 1067,
      "##thing": 1068,
      "##act": 1069,
      "##bo": 1070,
      "bab": 1071,
      "wan": 1072,
      "old": 1073,
      "##--": 1074,
      "##tain": 1075,
      "under": 1076,
      "wr": 1077,
      "##ub": 1078,
      "girl": 1079,
      "away": 1080,
      "turn": 1081,
      "el": 1082,
      "##day": 1083,
      "ple": 1084,
      "three": 1085,
      "dr": 1086,
      "##ts": 1087,
      "##ory": 1088,
      "##fe": 1089,
      "thank": 1090,
      "wanna": 1091,
      "never": 1092,
      "app": 1093,
      "##ps": 1094,
      "add": 1095,
      "um": 1096,
      "ke": 1097,
      "those": 1098,
      "mum": 1099,
      "par": 1100,
      "##ci": 1101,
      "went": 1102,
      "great": 1103,
      "hi": 1104,
      "##ions": 1105,
      "##ict": 1106,
      "ah": 1107,
      "doing": 1108,
      "even": 1109,
      "##red": 1110,
      "also": 1111,
      "house": 1112,
      "##man": 1113,
      "rep": 1114,
      "##iend": 1115,
      "give": 1116,
      "home": 1117,
      "?\"": 1118,
      "##oth": 1119,
      "##ward": 1120,
      "min": 1121,
      "##ves": 1122,
      "head": 1123,
      "another": 1124,
      "ask": 1125,
      "sch": 1126,
      "em": 1127,
      "wa": 1128,
      "mother": 1129,
      "ser": 1130,
      "thought": 1131,
      "res": 1132,
      "book": 1133,
      "many": 1134,
      "sl": 1135,
      "##ix": 1136,
      "##fer": 1137,
      "mak": 1138,
      "##ful": 1139,
      "ind": 1140,
      "eat": 1141,
      "must": 1142,
      "things": 1143,
      "came": 1144,
      "##ens": 1145,
      "##be": 1146,
      "still": 1147,
      "bro": 1148,
      "str": 1149,
      "##og": 1150,
      "friend": 1151,
      "find": 1152,
      "start": 1153,
      "##cl": 1154,
      "gl": 1155,
      "through": 1156,
      "help": 1157,
      "boy": 1158,
      "##ons": 1159,
      "te": 1160,
      "cont": 1161,
      "comm": 1162,
      "bit": 1163,
      "inter": 1164,
      "##ors": 1165,
      "bre": 1166,
      "##ious": 1167,
      "last": 1168,
      "op": 1169,
      "try": 1170,
      "##ans": 1171,
      "ear": 1172,
      "201": 1173,
      "show": 1174,
      "mat": 1175,
      "##ail": 1176,
      "sing": 1177,
      "isn": 1178,
      "won": 1179,
      "##ened": 1180,
      "##ling": 1181,
      ".]": 1182,
      "night": 1183,
      "##ave": 1184,
      "bel": 1185,
      "sis": 1186,
      "miss": 1187,
      "done": 1188,
      "found": 1189,
      "love": 1190,
      "##land": 1191,
      "mm": 1192,
      "##ock": 1193,
      "##ily": 1194,
      "baby": 1195,
      "##ms": 1196,
      "huh": 1197,
      "might": 1198,
      "##ah": 1199,
      "col": 1200,
      "nor": 1201,
      "##get": 1202,
      "##amp": 1203,
      "called": 1204,
      "lot": 1205,
      "sure": 1206,
      "tak": 1207,
      "##gg": 1208,
      "most": 1209,
      "its": 1210,
      "care": 1211,
      "##der": 1212,
      "##ne": 1213,
      "##ph": 1214,
      "please": 1215,
      ".”": 1216,
      "mon": 1217,
      "hey": 1218,
      "cat": 1219,
      "##ign": 1220,
      "four": 1221,
      "##ank": 1222,
      "laughs": 1223,
      "##ually": 1224,
      "la": 1225,
      "name": 1226,
      "##xt": 1227,
      "##iver": 1228,
      "dif": 1229,
      "##ead": 1230,
      "##up": 1231,
      "##unn": 1232,
      "school": 1233,
      "##hm": 1234,
      "wait": 1235,
      "fin": 1236,
      "better": 1237,
      "##ember": 1238,
      "##ull": 1239,
      "##ates": 1240,
      "looks": 1241,
      "##body": 1242,
      "vo": 1243,
      "erm": 1244,
      "room": 1245,
      "end": 1246,
      "att": 1247,
      "keep": 1248,
      "ey": 1249,
      "water": 1250,
      "around": 1251,
      "##anc": 1252,
      "ma": 1253,
      "cour": 1254,
      "##ma": 1255,
      "stop": 1256,
      "##ange": 1257,
      "des": 1258,
      "##med": 1259,
      "##ss": 1260,
      "poin": 1261,
      "##ww": 1262,
      "while": 1263,
      "own": 1264,
      "kind": 1265,
      "nice": 1266,
      "being": 1267,
      "war": 1268,
      "shall": 1269,
      "##een": 1270,
      "ele": 1271,
      "##oney": 1272,
      "hold": 1273,
      "place": 1274,
      ",”": 1275,
      "feel": 1276,
      "##ee": 1277,
      "watch": 1278,
      "sit": 1279,
      "pres": 1280,
      "life": 1281,
      "mummy": 1282,
      "##led": 1283,
      "far": 1284,
      "such": 1285,
      "years": 1286,
      "mhm": 1287,
      "father": 1288,
      "##ush": 1289,
      "##ew": 1290,
      "doesn": 1291,
      "eng": 1292,
      "read": 1293,
      "next": 1294,
      "anything": 1295,
      "##ark": 1296,
      "##ady": 1297,
      "imp": 1298,
      "##ited": 1299,
      "beg": 1300,
      "##ical": 1301,
      "pol": 1302,
      "##ope": 1303,
      "##ried": 1304,
      "cap": 1305,
      "##ways": 1306,
      "supp": 1307,
      "200": 1308,
      "##side": 1309,
      "used": 1310,
      "##mo": 1311,
      "char": 1312,
      "##ings": 1313,
      "same": 1314,
      "cle": 1315,
      "world": 1316,
      "##als": 1317,
      "!\"": 1318,
      "##outh": 1319,
      "set": 1320,
      "ph": 1321,
      "else": 1322,
      "shi": 1323,
      "##ds": 1324,
      "pat": 1325,
      "##oss": 1326,
      "wee": 1327,
      "##ute": 1328,
      "ball": 1329,
      "sor": 1330,
      "##inn": 1331,
      "high": 1332,
      "spe": 1333,
      "nothing": 1334,
      "always": 1335,
      "##ild": 1336,
      "##ott": 1337,
      "##ations": 1338,
      "lat": 1339,
      "##eric": 1340,
      "red": 1341,
      "##eal": 1342,
      "saw": 1343,
      "wom": 1344,
      "men": 1345,
      "box": 1346,
      "##mer": 1347,
      "##ince": 1348,
      "told": 1349,
      "bus": 1350,
      "##eak": 1351,
      "daddy": 1352,
      "tom": 1353,
      "left": 1354,
      "pick": 1355,
      "count": 1356,
      "hard": 1357,
      "cre": 1358,
      "use": 1359,
      "five": 1360,
      "unt": 1361,
      "##uc": 1362,
      "rec": 1363,
      "##ition": 1364,
      "americ": 1365,
      "fam": 1366,
      "##ather": 1367,
      "sn": 1368,
      "##ich": 1369,
      "open": 1370,
      "differ": 1371,
      "door": 1372,
      "gone": 1373,
      "sur": 1374,
      "bir": 1375,
      "cause": 1376,
      "##ta": 1377,
      "born": 1378,
      "list": 1379,
      "ob": 1380,
      "##ung": 1381,
      "acc": 1382,
      "remember": 1383,
      "che": 1384,
      "walk": 1385,
      "##ng": 1386,
      "num": 1387,
      "ret": 1388,
      "##leep": 1389,
      "pers": 1390,
      "goes": 1391,
      "sorry": 1392,
      "hm": 1393,
      "id": 1394,
      "##ib": 1395,
      "ed": 1396,
      "young": 1397,
      "sy": 1398,
      "though": 1399,
      "bed": 1400,
      "##ever": 1401,
      "says": 1402,
      "reg": 1403,
      "##ents": 1404,
      "looking": 1405,
      "##raw": 1406,
      "##ows": 1407,
      "fire": 1408,
      "hell": 1409,
      "##cc": 1410,
      "##ton": 1411,
      "hur": 1412,
      "##ins": 1413,
      "money": 1414,
      "mus": 1415,
      "coming": 1416,
      "maybe": 1417,
      "mil": 1418,
      "took": 1419,
      "##ult": 1420,
      "morn": 1421,
      "##ump": 1422,
      "##ness": 1423,
      "stand": 1424,
      "dist": 1425,
      "enough": 1426,
      "sk": 1427,
      "##ug": 1428,
      "hear": 1429,
      "##io": 1430,
      "air": 1431,
      "near": 1432,
      "##aught": 1433,
      "gen": 1434,
      "ter": 1435,
      "##00": 1436,
      "##cond": 1437,
      "god": 1438,
      "sound": 1439,
      "sec": 1440,
      "once": 1441,
      "six": 1442,
      "##az": 1443,
      "light": 1444,
      "wo": 1445,
      "until": 1446,
      "morning": 1447,
      "bar": 1448,
      "second": 1449,
      "dog": 1450,
      "face": 1451,
      "##ered": 1452,
      "stay": 1453,
      "eyes": 1454,
      "##ished": 1455,
      "cons": 1456,
      "best": 1457,
      "real": 1458,
      "both": 1459,
      "tre": 1460,
      "side": 1461,
      "chr": 1462,
      "##oup": 1463,
      "ev": 1464,
      "round": 1465,
      "quite": 1466,
      "course": 1467,
      "##ction": 1468,
      "pass": 1469,
      "wind": 1470,
      "##mber": 1471,
      "##ial": 1472,
      "##une": 1473,
      "lar": 1474,
      "##ters": 1475,
      "##pr": 1476,
      "##ash": 1477,
      "rel": 1478,
      "belie": 1479,
      "##ru": 1480,
      "black": 1481,
      "today": 1482,
      "dear": 1483,
      "kill": 1484,
      "hands": 1485,
      "##right": 1486,
      "##ower": 1487,
      "grand": 1488,
      "bad": 1489,
      "city": 1490,
      "##ks": 1491,
      "##ased": 1492,
      "yet": 1493,
      "\".": 1494,
      "pict": 1495,
      "fall": 1496,
      "leave": 1497,
      "##ted": 1498,
      "##orm": 1499,
      "dep": 1500,
      "##fta": 1501,
      "different": 1502,
      "pie": 1503,
      "inst": 1504,
      "soon": 1505,
      "few": 1506,
      "asked": 1507,
      "small": 1508,
      "hafta": 1509,
      "known": 1510,
      "sho": 1511,
      "seen": 1512,
      "mrs": 1513,
      "##ann": 1514,
      "##ctor": 1515,
      "##ross": 1516,
      "jack": 1517,
      "train": 1518,
      "##ane": 1519,
      "##ars": 1520,
      "sir": 1521,
      "##ible": 1522,
      "cent": 1523,
      "each": 1524,
      "##row": 1525,
      "getting": 1526,
      "fell": 1527,
      "mind": 1528,
      "mommy": 1529,
      "noise": 1530,
      "##ches": 1531,
      "sleep": 1532,
      "toget": 1533,
      "##lic": 1534,
      "18": 1535,
      "together": 1536,
      "##ier": 1537,
      "makes": 1538,
      "##ile": 1539,
      "##ched": 1540,
      "##llow": 1541,
      "##uh": 1542,
      "##ational": 1543,
      "blue": 1544,
      "202": 1545,
      "foot": 1546,
      "dri": 1547,
      "##enc": 1548,
      "later": 1549,
      "pap": 1550,
      "##ident": 1551,
      "run": 1552,
      "without": 1553,
      "children": 1554,
      "person": 1555,
      "##uring": 1556,
      "##ger": 1557,
      "ready": 1558,
      "##hn": 1559,
      "##vel": 1560,
      "har": 1561,
      "##ont": 1562,
      "half": 1563,
      "##ets": 1564,
      "haven": 1565,
      "##ina": 1566,
      "pret": 1567,
      "everything": 1568,
      "##gr": 1569,
      "story": 1570,
      "betw": 1571,
      "##sw": 1572,
      "actually": 1573,
      "having": 1574,
      "pop": 1575,
      "between": 1576,
      "##ream": 1577,
      "##vie": 1578,
      "heard": 1579,
      "##ures": 1580,
      "stu": 1581,
      "##ired": 1582,
      "number": 1583,
      "alright": 1584,
      "upon": 1585,
      "##ably": 1586,
      "break": 1587,
      "##aps": 1588,
      "making": 1589,
      "199": 1590,
      "himself": 1591,
      "looked": 1592,
      "dire": 1593,
      "##ating": 1594,
      "sort": 1595,
      "##by": 1596,
      "##cle": 1597,
      "met": 1598,
      "move": 1599,
      "rest": 1600,
      "##ared": 1601,
      "beh": 1602,
      "john": 1603,
      "##aster": 1604,
      "##iet": 1605,
      "top": 1606,
      "happened": 1607,
      "##enn": 1608,
      "talking": 1609,
      "hor": 1610,
      "##ines": 1611,
      "##ason": 1612,
      "mch": 1613,
      "##sp": 1614,
      "brother": 1615,
      "since": 1616,
      "american": 1617,
      "follow": 1618,
      "heart": 1619,
      "##ames": 1620,
      "dec": 1621,
      "##ject": 1622,
      "pretty": 1623,
      "white": 1624,
      "##ular": 1625,
      "flo": 1626,
      "##ale": 1627,
      "wanted": 1628,
      "cut": 1629,
      "##end": 1630,
      "##aut": 1631,
      "##less": 1632,
      "##aw": 1633,
      "sil": 1634,
      "sat": 1635,
      "##ics": 1636,
      "pur": 1637,
      "hello": 1638,
      "green": 1639,
      "united": 1640,
      "wonder": 1641,
      "##ape": 1642,
      "speak": 1643,
      "hour": 1644,
      "##pped": 1645,
      "boys": 1646,
      "##its": 1647,
      "ju": 1648,
      "spo": 1649,
      "##----": 1650,
      "aw": 1651,
      "anim": 1652,
      "ben": 1653,
      "along": 1654,
      "kid": 1655,
      "ste": 1656,
      "##enty": 1657,
      "pet": 1658,
      "cur": 1659,
      "##oy": 1660,
      "bring": 1661,
      "hot": 1662,
      "party": 1663,
      "christ": 1664,
      "table": 1665,
      "ass": 1666,
      "##most": 1667,
      "hum": 1668,
      "##sel": 1669,
      "knew": 1670,
      "cer": 1671,
      "wasn": 1672,
      "answ": 1673,
      "coll": 1674,
      "##osed": 1675,
      "live": 1676,
      "family": 1677,
      "drink": 1678,
      "##cal": 1679,
      "##cial": 1680,
      "north": 1681,
      "chair": 1682,
      "inf": 1683,
      "music": 1684,
      "against": 1685,
      "underst": 1686,
      "thir": 1687,
      "king": 1688,
      "),": 1689,
      "during": 1690,
      "##wh": 1691,
      "ger": 1692,
      "gave": 1693,
      "land": 1694,
      "prob": 1695,
      "days": 1696,
      "exc": 1697,
      "playing": 1698,
      "##ret": 1699,
      "##ants": 1700,
      "##iness": 1701,
      "believe": 1702,
      "nat": 1703,
      "##igh": 1704,
      "##ten": 1705,
      "mag": 1706,
      "town": 1707,
      "##itch": 1708,
      "gener": 1709,
      "song": 1710,
      "mark": 1711,
      "gma": 1712,
      "died": 1713,
      "ann": 1714,
      "##den": 1715,
      "compan": 1716,
      "sim": 1717,
      "build": 1718,
      "return": 1719,
      "trying": 1720,
      "contin": 1721,
      "ge": 1722,
      "##od": 1723,
      "states": 1724,
      "##pl": 1725,
      ").": 1726,
      "squ": 1727,
      "##oh": 1728,
      "sub": 1729,
      "##ual": 1730,
      "##uss": 1731,
      "?”": 1732,
      "almost": 1733,
      "draw": 1734,
      "##ric": 1735,
      "##clud": 1736,
      "##tend": 1737,
      "close": 1738,
      "##let": 1739,
      "dro": 1740,
      "listen": 1741,
      "##ork": 1742,
      "moment": 1743,
      "state": 1744,
      "poor": 1745,
      "son": 1746,
      "##unny": 1747,
      "matter": 1748,
      "\",": 1749,
      "##ball": 1750,
      "med": 1751,
      "swe": 1752,
      "pull": 1753,
      "##ised": 1754,
      "friends": 1755,
      "interest": 1756,
      "girls": 1757,
      "food": 1758,
      "thom": 1759,
      "started": 1760,
      "##cept": 1761,
      "ill": 1762,
      "wouldn": 1763,
      "##ision": 1764,
      "yell": 1765,
      "##ither": 1766,
      "whole": 1767,
      "leg": 1768,
      "quest": 1769,
      "south": 1770,
      "meet": 1771,
      "probably": 1772,
      "##ife": 1773,
      "198": 1774,
      "##wards": 1775,
      "##imes": 1776,
      "eight": 1777,
      "comes": 1778,
      "##vern": 1779,
      "saying": 1780,
      "woman": 1781,
      "game": 1782,
      "##ef": 1783,
      "hair": 1784,
      "ten": 1785,
      "happy": 1786,
      "pain": 1787,
      "sign": 1788,
      "##uth": 1789,
      "picture": 1790,
      "##ully": 1791,
      "poss": 1792,
      "quick": 1793,
      "floor": 1794,
      "bear": 1795,
      "##ready": 1796,
      "color": 1797,
      "del": 1798,
      "already": 1799,
      "fine": 1800,
      "pu": 1801,
      "beaut": 1802,
      "voice": 1803,
      "gi": 1804,
      "aren": 1805,
      "##hip": 1806,
      "pay": 1807,
      "ra": 1808,
      "understand": 1809,
      "##ries": 1810,
      "wrong": 1811,
      "##ime": 1812,
      "##unt": 1813,
      "cry": 1814,
      "cal": 1815,
      "##ces": 1816,
      "mid": 1817,
      "word": 1818,
      "lou": 1819,
      "##ustr": 1820,
      "thomas": 1821,
      "##www": 1822,
      "adv": 1823,
      "conf": 1824,
      "gotta": 1825,
      "nan": 1826,
      "##cess": 1827,
      "##ises": 1828,
      "times": 1829,
      "eas": 1830,
      "hope": 1831,
      "rock": 1832,
      "govern": 1833,
      "resp": 1834,
      "guess": 1835,
      "##oc": 1836,
      "oth": 1837,
      "job": 1838,
      "minute": 1839,
      "sent": 1840,
      "sun": 1841,
      "cup": 1842,
      "paper": 1843,
      "certain": 1844,
      "##tle": 1845,
      "##ues": 1846,
      "##aces": 1847,
      "inc": 1848,
      "##ined": 1849,
      "ber": 1850,
      "##ivers": 1851,
      "bye": 1852,
      "began": 1853,
      "ton": 1854,
      "##aul": 1855,
      "country": 1856,
      "##ient": 1857,
      "##ield": 1858,
      "became": 1859,
      "##sh": 1860,
      "fact": 1861,
      "lady": 1862,
      "includ": 1863,
      "nin": 1864,
      "perf": 1865,
      "sometimes": 1866,
      "##hil": 1867,
      "lost": 1868,
      "offic": 1869,
      "##zz": 1870,
      "prod": 1871,
      "movie": 1872,
      "fore": 1873,
      "##��": 1874,
      "record": 1875,
      "feet": 1876,
      "mad": 1877,
      "order": 1878,
      "idea": 1879,
      "full": 1880,
      "dou": 1881,
      "short": 1882,
      "##br": 1883,
      "##ats": 1884,
      "##ages": 1885,
      "front": 1886,
      "fun": 1887,
      "##rew": 1888,
      "team": 1889,
      "point": 1890,
      "tele": 1891,
      "ref": 1892,
      "behind": 1893,
      "##elt": 1894,
      "##ize": 1895,
      "##ense": 1896,
      "dead": 1897,
      "##ital": 1898,
      "pri": 1899,
      "sum": 1900,
      "death": 1901,
      "197": 1902,
      "##key": 1903,
      "##ots": 1904,
      "cor": 1905,
      "doctor": 1906,
      "fight": 1907,
      "outside": 1908,
      "cook": 1909,
      "form": 1910,
      "##aren": 1911,
      "vis": 1912,
      "law": 1913,
      "present": 1914,
      "sea": 1915,
      "##app": 1916,
      "expl": 1917,
      "##orrow": 1918,
      "##mb": 1919,
      "county": 1920,
      "##cer": 1921,
      "bur": 1922,
      "##olog": 1923,
      "mine": 1924,
      "tou": 1925,
      "seemed": 1926,
      "##sc": 1927,
      "##oon": 1928,
      "##eth": 1929,
      "##ities": 1930,
      "week": 1931,
      "##airs": 1932,
      "fish": 1933,
      "bas": 1934,
      "bat": 1935,
      "means": 1936,
      "ty": 1937,
      "tur": 1938,
      "da": 1939,
      "perh": 1940,
      "perhaps": 1941,
      "stick": 1942,
      "proble": 1943,
      "lear": 1944,
      "##ives": 1945,
      "stuff": 1946,
      "gas": 1947,
      "captain": 1948,
      "national": 1949,
      "month": 1950,
      "##where": 1951,
      "line": 1952,
      "turned": 1953,
      "##itting": 1954,
      "##lish": 1955,
      "road": 1956,
      "brought": 1957,
      "played": 1958,
      "points": 1959,
      "childes": 1960,
      "learn": 1961,
      "##ention": 1962,
      "##ama": 1963,
      "fch": 1964,
      "##son": 1965,
      "main": 1966,
      "star": 1967,
      "##ison": 1968,
      "##unch": 1969,
      "prom": 1970,
      "hist": 1971,
      "art": 1972,
      "doll": 1973,
      "##ped": 1974,
      "couldn": 1975,
      "ir": 1976,
      "teach": 1977,
      "!”": 1978,
      "wants": 1979,
      "lad": 1980,
      "guy": 1981,
      "hat": 1982,
      "##ying": 1983,
      "##utes": 1984,
      "stud": 1985,
      "cover": 1986,
      "phil": 1987,
      "dar": 1988,
      "class": 1989,
      "##ken": 1990,
      "win": 1991,
      "hon": 1992,
      "##ced": 1993,
      "##aus": 1994,
      "wood": 1995,
      "yourself": 1996,
      "piece": 1997,
      "often": 1998,
      "business": 1999,
      "mer": 2000,
      "pub": 2001,
      "able": 2002,
      "late": 2003,
      "however": 2004,
      "##ote": 2005,
      "serv": 2006,
      "fif": 2007,
      "bott": 2008,
      "less": 2009,
      "##iful": 2010,
      "hund": 2011,
      "ones": 2012,
      "##ments": 2013,
      "hundred": 2014,
      "##ided": 2015,
      "##gan": 2016,
      "age": 2017,
      "dress": 2018,
      "##inner": 2019,
      "eff": 2020,
      "fair": 2021,
      "##illy": 2022,
      "bob": 2023,
      "camp": 2024,
      "det": 2025,
      "##ster": 2026,
      "##ured": 2027,
      "##use": 2028,
      "trans": 2029,
      "taking": 2030,
      "##ik": 2031,
      "##ple": 2032,
      "dark": 2033,
      "twenty": 2034,
      "mouth": 2035,
      "yellow": 2036,
      "##ative": 2037,
      "tree": 2038,
      "large": 2039,
      "someone": 2040,
      "wish": 2041,
      "fuck": 2042,
      "taken": 2043,
      "##ese": 2044,
      "rather": 2045,
      "import": 2046,
      "##ond": 2047,
      "early": 2048,
      "##fully": 2049,
      "##amed": 2050,
      "prov": 2051,
      "##cted": 2052,
      "myself": 2053,
      "##ator": 2054,
      "##rib": 2055,
      "page": 2056,
      "true": 2057,
      "happen": 2058,
      "196": 2059,
      "inside": 2060,
      "##ether": 2061,
      "women": 2062,
      "toys": 2063,
      "##ized": 2064,
      "felt": 2065,
      "cir": 2066,
      "jan": 2067,
      "sal": 2068,
      "##ury": 2069,
      "##ey": 2070,
      "##iam": 2071,
      "10": 2072,
      "bag": 2073,
      "prof": 2074,
      "thanks": 2075,
      "power": 2076,
      "##ister": 2077,
      "##ike": 2078,
      "stre": 2079,
      "##ected": 2080,
      "chang": 2081,
      "mill": 2082,
      "horse": 2083,
      "##ides": 2084,
      "##me": 2085,
      "##dle": 2086,
      "repl": 2087,
      "beautiful": 2088,
      "words": 2089,
      "minutes": 2090,
      "##eng": 2091,
      "##ring": 2092,
      "ap": 2093,
      "group": 2094,
      "push": 2095,
      "##ming": 2096,
      "june": 2097,
      "ext": 2098,
      "uhh": 2099,
      "rele": 2100,
      "gets": 2101,
      "##ze": 2102,
      "past": 2103,
      "toy": 2104,
      "cold": 2105,
      "##selves": 2106,
      "##ider": 2107,
      "mess": 2108,
      "funny": 2109,
      "river": 2110,
      "##ii": 2111,
      "case": 2112,
      "##gy": 2113,
      "step": 2114,
      "sand": 2115,
      "##ney": 2116,
      "seven": 2117,
      "german": 2118,
      "hung": 2119,
      "change": 2120,
      "wife": 2121,
      "cos": 2122,
      "##aim": 2123,
      "##ards": 2124,
      "gun": 2125,
      "march": 2126,
      "##ific": 2127,
      "trou": 2128,
      "hurt": 2129,
      "occ": 2130,
      "univers": 2131,
      "sever": 2132,
      "wear": 2133,
      "somebody": 2134,
      "strong": 2135,
      "sister": 2136,
      "cloth": 2137,
      "aff": 2138,
      "##rench": 2139,
      "ago": 2140,
      "others": 2141,
      "clear": 2142,
      "singing": 2143,
      "wall": 2144,
      "milk": 2145,
      "grow": 2146,
      "birth": 2147,
      "either": 2148,
      "def": 2149,
      "arm": 2150,
      "boat": 2151,
      "ice": 2152,
      "company": 2153,
      "given": 2154,
      "ran": 2155,
      "uhhuh": 2156,
      "throw": 2157,
      "enter": 2158,
      "##ipp": 2159,
      "roll": 2160,
      "takes": 2161,
      "##els": 2162,
      "working": 2163,
      "free": 2164,
      "##ove": 2165,
      "corn": 2166,
      "depart": 2167,
      "ur": 2168,
      "prot": 2169,
      "##rap": 2170,
      "jump": 2171,
      "body": 2172,
      "brown": 2173,
      "##gn": 2174,
      "area": 2175,
      "gent": 2176,
      "alone": 2177,
      "runn": 2178,
      "##vers": 2179,
      "several": 2180,
      "fil": 2181,
      "forg": 2182,
      "##anger": 2183,
      "english": 2184,
      "##ept": 2185,
      "ground": 2186,
      "question": 2187,
      "pos": 2188,
      "##ding": 2189,
      "##iously": 2190,
      "least": 2191,
      "phone": 2192,
      "shop": 2193,
      "##tern": 2194,
      "polit": 2195,
      "##ained": 2196,
      "jim": 2197,
      "cried": 2198,
      "ta": 2199,
      "till": 2200,
      "##ances": 2201,
      "important": 2202,
      "fing": 2203,
      "##ists": 2204,
      "french": 2205,
      "blood": 2206,
      "pot": 2207,
      "##idge": 2208,
      "sud": 2209,
      "gold": 2210,
      "##ya": 2211,
      "||": 2212,
      "12": 2213,
      "prin": 2214,
      "ent": 2215,
      "lik": 2216,
      "cam": 2217,
      "buy": 2218,
      "moun": 2219,
      "##ner": 2220,
      "brit": 2221,
      "guys": 2222,
      "quiet": 2223,
      "##bert": 2224,
      "across": 2225,
      "dinner": 2226,
      "adm": 2227,
      "france": 2228,
      "frank": 2229,
      "##iting": 2230,
      "park": 2231,
      "football": 2232,
      "cross": 2233,
      "fav": 2234,
      "dav": 2235,
      "lay": 2236,
      "##akes": 2237,
      "glad": 2238,
      "soft": 2239,
      "deal": 2240,
      "##ution": 2241,
      "fast": 2242,
      "##ium": 2243,
      "##ley": 2244,
      "]?": 2245,
      "wow": 2246,
      "animals": 2247,
      "herself": 2248,
      "##bb": 2249,
      "ow": 2250,
      "post": 2251,
      "ring": 2252,
      "finished": 2253,
      "maj": 2254,
      "west": 2255,
      "hit": 2256,
      "president": 2257,
      "partic": 2258,
      "lang": 2259,
      "island": 2260,
      "##ising": 2261,
      "##ians": 2262,
      "##ience": 2263,
      "disc": 2264,
      "##pe": 2265,
      "##cover": 2266,
      "##ately": 2267,
      "opp": 2268,
      "tem": 2269,
      "frog": 2270,
      "##ones": 2271,
      "everybody": 2272,
      "sudden": 2273,
      "15": 2274,
      "plan": 2275,
      "rece": 2276,
      "chap": 2277,
      "kiss": 2278,
      "##iding": 2279,
      "##ald": 2280,
      "##ged": 2281,
      "jap": 2282,
      "##ety": 2283,
      "##ho": 2284,
      "17": 2285,
      "thinking": 2286,
      "clean": 2287,
      "195": 2288,
      "sitting": 2289,
      "mur": 2290,
      "among": 2291,
      "government": 2292,
      "super": 2293,
      "send": 2294,
      "uncle": 2295,
      "gar": 2296,
      "##room": 2297,
      "vocal": 2298,
      "fig": 2299,
      "sweet": 2300,
      "##ony": 2301,
      "##stem": 2302,
      "egg": 2303,
      "general": 2304,
      "bill": 2305,
      "cond": 2306,
      "history": 2307,
      "div": 2308,
      "cann": 2309,
      "series": 2310,
      "bird": 2311,
      "fly": 2312,
      "rich": 2313,
      "books": 2314,
      "university": 2315,
      "##to": 2316,
      "whe": 2317,
      "est": 2318,
      "##fic": 2319,
      "##chi": 2320,
      "pig": 2321,
      "const": 2322,
      "living": 2323,
      "duck": 2324,
      "##fort": 2325,
      "mic": 2326,
      "vill": 2327,
      "ya": 2328,
      "fur": 2329,
      "running": 2330,
      "surpr": 2331,
      "rom": 2332,
      "laughing": 2333,
      "system": 2334,
      "shout": 2335,
      "##ism": 2336,
      "chance": 2337,
      "shut": 2338,
      "club": 2339,
      "##ued": 2340,
      "tried": 2341,
      "##ering": 2342,
      "catch": 2343,
      "sus": 2344,
      "apr": 2345,
      "puts": 2346,
      "sold": 2347,
      "##bit": 2348,
      "special": 2349,
      "lie": 2350,
      "bath": 2351,
      "je": 2352,
      "japan": 2353,
      "alb": 2354,
      "dam": 2355,
      "##urs": 2356,
      "check": 2357,
      "touch": 2358,
      "low": 2359,
      "2020": 2360,
      "carry": 2361,
      "window": 2362,
      "##umb": 2363,
      "york": 2364,
      "truck": 2365,
      "usually": 2366,
      "gard": 2367,
      "##read": 2368,
      "##eared": 2369,
      "..": 2370,
      "oct": 2371,
      "band": 2372,
      "reason": 2373,
      "nine": 2374,
      "earth": 2375,
      "allow": 2376,
      "peter": 2377,
      "stra": 2378,
      "hang": 2379,
      "killed": 2380,
      "##uary": 2381,
      "letter": 2382,
      "##ara": 2383,
      "pretend": 2384,
      "daught": 2385,
      "geor": 2386,
      "nose": 2387,
      "##oof": 2388,
      "##eed": 2389,
      "anyway": 2390,
      "bow": 2391,
      "profess": 2392,
      "##iter": 2393,
      "##aser": 2394,
      "194": 2395,
      "sam": 2396,
      "sol": 2397,
      "exper": 2398,
      "##ices": 2399,
      "kept": 2400,
      "cow": 2401,
      "report": 2402,
      "street": 2403,
      "write": 2404,
      "##men": 2405,
      "hop": 2406,
      "tomorrow": 2407,
      "##aced": 2408,
      "port": 2409,
      "trouble": 2410,
      "clim": 2411,
      "eur": 2412,
      "choo": 2413,
      "elect": 2414,
      "000": 2415,
      "sounds": 2416,
      "lots": 2417,
      "val": 2418,
      "dem": 2419,
      "##uct": 2420,
      "become": 2421,
      "suppose": 2422,
      "av": 2423,
      "rain": 2424,
      "heav": 2425,
      "whis": 2426,
      "ooh": 2427,
      "##yn": 2428,
      "birthday": 2429,
      "held": 2430,
      "clock": 2431,
      "gra": 2432,
      "##int": 2433,
      "january": 2434,
      "##sy": 2435,
      "darling": 2436,
      "##ilt": 2437,
      "fix": 2438,
      "problem": 2439,
      "##inning": 2440,
      "summer": 2441,
      "press": 2442,
      "exact": 2443,
      "whether": 2444,
      "lived": 2445,
      "rad": 2446,
      "##mp": 2447,
      "attack": 2448,
      "fort": 2449,
      "##rest": 2450,
      "##raid": 2451,
      "whatever": 2452,
      "fre": 2453,
      "chur": 2454,
      "##ls": 2455,
      "##iving": 2456,
      "dat": 2457,
      "kids": 2458,
      "cha": 2459,
      "seems": 2460,
      "cra": 2461,
      "intern": 2462,
      "langu": 2463,
      "member": 2464,
      "afraid": 2465,
      "eating": 2466,
      "##itten": 2467,
      "eh": 2468,
      "forget": 2469,
      "##--------": 2470,
      "appro": 2471,
      "slow": 2472,
      "april": 2473,
      "block": 2474,
      "chick": 2475,
      "field": 2476,
      "bell": 2477,
      "yours": 2478,
      "##aged": 2479,
      "picks": 2480,
      "doub": 2481,
      "##ount": 2482,
      "##teen": 2483,
      "ship": 2484,
      "##vision": 2485,
      "engine": 2486,
      "police": 2487,
      "hours": 2488,
      "##omb": 2489,
      "fill": 2490,
      "die": 2491,
      "dece": 2492,
      "##ping": 2493,
      "##rat": 2494,
      "easy": 2495,
      "ou": 2496,
      "tow": 2497,
      "##ude": 2498,
      "stood": 2499,
      "pa": 2500,
      "mart": 2501,
      "amy": 2502,
      "abs": 2503,
      "commun": 2504,
      "ins": 2505,
      "deep": 2506,
      "##port": 2507,
      "##que": 2508,
      "eye": 2509,
      "bes": 2510,
      "dream": 2511,
      "lovely": 2512,
      "hol": 2513,
      "contro": 2514,
      "##aff": 2515,
      "##ically": 2516,
      "turns": 2517,
      "##ural": 2518,
      "##ousand": 2519,
      "##ived": 2520,
      "16": 2521,
      "noises": 2522,
      "##ene": 2523,
      "aunt": 2524,
      "thousand": 2525,
      "pleas": 2526,
      "oper": 2527,
      "var": 2528,
      "knock": 2529,
      "hill": 2530,
      "aug": 2531,
      "tired": 2532,
      "fraser": 2533,
      "board": 2534,
      "coup": 2535,
      "joe": 2536,
      "luck": 2537,
      "11": 2538,
      "complet": 2539,
      "snow": 2540,
      "ru": 2541,
      "##iff": 2542,
      "##ler": 2543,
      "news": 2544,
      "clothes": 2545,
      "within": 2546,
      "cast": 2547,
      "object": 2548,
      "straight": 2549,
      "##mas": 2550,
      "fit": 2551,
      "##zy": 2552,
      "answer": 2553,
      "secret": 2554,
      "ang": 2555,
      "sou": 2556,
      "putting": 2557,
      "office": 2558,
      "##ility": 2559,
      "british": 2560,
      "##ha": 2561,
      "department": 2562,
      "excl": 2563,
      "sept": 2564,
      "careful": 2565,
      "released": 2566,
      "married": 2567,
      "hall": 2568,
      "master": 2569,
      "seat": 2570,
      "command": 2571,
      "proper": 2572,
      "cool": 2573,
      "appear": 2574,
      "cop": 2575,
      "themselves": 2576,
      "##de": 2577,
      "august": 2578,
      "##osp": 2579,
      "places": 2580,
      "region": 2581,
      "##ana": 2582,
      "hus": 2583,
      "ham": 2584,
      "lives": 2585,
      "##band": 2586,
      "spec": 2587,
      "named": 2588,
      "##ham": 2589,
      "major": 2590,
      "indeed": 2591,
      "burn": 2592,
      "television": 2593,
      "replied": 2594,
      "##ories": 2595,
      "charac": 2596,
      "gentle": 2597,
      "lord": 2598,
      "##ober": 2599,
      "months": 2600,
      "##ager": 2601,
      "##hy": 2602,
      "knows": 2603,
      "##ob": 2604,
      "david": 2605,
      "diffic": 2606,
      "##erv": 2607,
      "##ief": 2608,
      "east": 2609,
      "ut": 2610,
      "october": 2611,
      "succ": 2612,
      "champ": 2613,
      "shoes": 2614,
      "daughter": 2615,
      "cray": 2616,
      "##rent": 2617,
      "garden": 2618,
      "##ection": 2619,
      "di": 2620,
      "wash": 2621,
      "mary": 2622,
      "alth": 2623,
      "a3": 2624,
      "##owers": 2625,
      "september": 2626,
      "##unk": 2627,
      "visit": 2628,
      "although": 2629,
      "mist": 2630,
      "193": 2631,
      "##velop": 2632,
      "possible": 2633,
      "silly": 2634,
      "##aint": 2635,
      "rob": 2636,
      "album": 2637,
      "##ently": 2638,
      "career": 2639,
      "building": 2640,
      "finish": 2641,
      "vict": 2642,
      "quickly": 2643,
      "arms": 2644,
      "##ract": 2645,
      "instead": 2646,
      "cannot": 2647,
      "##ov": 2648,
      "smo": 2649,
      "exactly": 2650,
      "dev": 2651,
      "##igg": 2652,
      "human": 2653,
      "public": 2654,
      "wild": 2655,
      "##gue": 2656,
      "shar": 2657,
      "vi": 2658,
      "waiting": 2659,
      "stri": 2660,
      "ay": 2661,
      "##oud": 2662,
      "station": 2663,
      "safe": 2664,
      "pound": 2665,
      "illustr": 2666,
      "middle": 2667,
      "fear": 2668,
      "third": 2669,
      "excuse": 2670,
      "broken": 2671,
      "nove": 2672,
      "worked": 2673,
      "paul": 2674,
      "shot": 2675,
      "lab": 2676,
      "christmas": 2677,
      "sail": 2678,
      "europe": 2679,
      "13": 2680,
      "danger": 2681,
      "paren": 2682,
      "success": 2683,
      "##ograp": 2684,
      "church": 2685,
      "enj": 2686,
      "hors": 2687,
      "nearly": 2688,
      "passed": 2689,
      "tonight": 2690,
      "sad": 2691,
      "bank": 2692,
      "mountain": 2693,
      "equ": 2694,
      "november": 2695,
      "evening": 2696,
      "drive": 2697,
      "answered": 2698,
      "##aimed": 2699,
      "suff": 2700,
      "common": 2701,
      "glass": 2702,
      "orig": 2703,
      "whisper": 2704,
      "towards": 2705,
      "above": 2706,
      "##iday": 2707,
      "##ardon": 2708,
      "ain": 2709,
      "forward": 2710,
      "everyone": 2711,
      "mis": 2712,
      "arri": 2713,
      "##stairs": 2714,
      "chief": 2715,
      "favor": 2716,
      "ant": 2717,
      "cost": 2718,
      "##rict": 2719,
      "dut": 2720,
      "hosp": 2721,
      "##bru": 2722,
      "##gram": 2723,
      "moved": 2724,
      "december": 2725,
      "whose": 2726,
      "hy": 2727,
      "organ": 2728,
      "test": 2729,
      "heal": 2730,
      "mor": 2731,
      "vie": 2732,
      "orange": 2733,
      "couple": 2734,
      "feeling": 2735,
      "clos": 2736,
      "14": 2737,
      "husband": 2738,
      "sick": 2739,
      "##bruary": 2740,
      "##par": 2741,
      "##uit": 2742,
      "din": 2743,
      "certainly": 2744,
      "february": 2745,
      "tick": 2746,
      "develop": 2747,
      "enjoy": 2748,
      "pardon": 2749,
      "##inal": 2750,
      "longer": 2751,
      "ver": 2752,
      "dest": 2753,
      "esc": 2754,
      "jud": 2755,
      "pea": 2756,
      "caught": 2757,
      "##ature": 2758,
      "july": 2759,
      "hungry": 2760,
      "##ral": 2761,
      "single": 2762,
      "strange": 2763,
      "sings": 2764,
      "##ored": 2765,
      "ange": 2766,
      "tape": 2767,
      "england": 2768,
      "juice": 2769,
      "wel": 2770,
      "view": 2771,
      "produc": 2772,
      "pal": 2773,
      "pen": 2774,
      "ce": 2775,
      "examp": 2776,
      "season": 2777,
      "##lex": 2778,
      "sight": 2779,
      "blow": 2780,
      "returned": 2781,
      "##nday": 2782,
      "##uk": 2783,
      "##ulation": 2784,
      "##aur": 2785,
      "rub": 2786,
      "direct": 2787,
      "mel": 2788,
      "##ior": 2789,
      "tot": 2790,
      "refer": 2791,
      "prev": 2792,
      "trave": 2793,
      "standing": 2794,
      "bang": 2795,
      "miles": 2796,
      "except": 2797,
      "trees": 2798,
      "service": 2799,
      "##ement": 2800,
      "nobody": 2801,
      "##ional": 2802,
      "discover": 2803,
      "helen": 2804,
      "card": 2805,
      "reach": 2806,
      "##lin": 2807,
      "##rible": 2808,
      "million": 2809,
      "toward": 2810,
      "worry": 2811,
      "circ": 2812,
      "yester": 2813,
      "mich": 2814,
      "perfect": 2815,
      "30": 2816,
      "games": 2817,
      "bright": 2818,
      "yesterday": 2819,
      "yep": 2820,
      "##emy": 2821,
      "former": 2822,
      "track": 2823,
      "tv": 2824,
      "##thern": 2825,
      "support": 2826,
      "needs": 2827,
      "emp": 2828,
      "bull": 2829,
      "seem": 2830,
      "##more": 2831,
      "lead": 2832,
      "tor": 2833,
      "##ndon": 2834,
      "telling": 2835,
      "pack": 2836,
      "led": 2837,
      "##fast": 2838,
      "##amb": 2839,
      "ahead": 2840,
      "honey": 2841,
      "shoot": 2842,
      "suddenly": 2843,
      "holding": 2844,
      "dir": 2845,
      "kitch": 2846,
      "disapp": 2847,
      "crying": 2848,
      "chapter": 2849,
      "invol": 2850,
      "pictures": 2851,
      "##king": 2852,
      "##phone": 2853,
      "anyone": 2854,
      "##cy": 2855,
      "cand": 2856,
      "climb": 2857,
      "##und": 2858,
      "ital": 2859,
      "program": 2860,
      "quar": 2861,
      "aftern": 2862,
      "sugg": 2863,
      "kitchen": 2864,
      "jer": 2865,
      "childes_": 2866,
      "vol": 2867,
      "using": 2868,
      "##net": 2869,
      "following": 2870,
      "suggest": 2871,
      "mach": 2872,
      "effect": 2873,
      "save": 2874,
      "##tered": 2875,
      "austr": 2876,
      "rab": 2877,
      "reached": 2878,
      "conn": 2879,
      "changed": 2880,
      "stopped": 2881,
      "broke": 2882,
      "district": 2883,
      "##ality": 2884,
      "colle": 2885,
      "austral": 2886,
      "##come": 2887,
      "space": 2888,
      "##ron": 2889,
      "##used": 2890,
      "caus": 2891,
      "##ston": 2892,
      "mal": 2893,
      "nic": 2894,
      "den": 2895,
      "mass": 2896,
      "lunch": 2897,
      "smil": 2898,
      "silence": 2899,
      "hospital": 2900,
      "concer": 2901,
      "warm": 2902,
      "particular": 2903,
      "london": 2904,
      "\")": 2905,
      "bon": 2906,
      "sen": 2907,
      "ted": 2908,
      "breakfast": 2909,
      "prison": 2910,
      "swim": 2911,
      "russ": 2912,
      "##ford": 2913,
      "meant": 2914,
      "decided": 2915,
      "cake": 2916,
      "##ency": 2917,
      "written": 2918,
      "coff": 2919,
      "par1": 2920,
      "teacher": 2921,
      "heavy": 2922,
      "deb": 2923,
      "sar": 2924,
      "beat": 2925,
      "expect": 2926,
      "afternoon": 2927,
      "ell": 2928,
      "ride": 2929,
      "inform": 2930,
      "desc": 2931,
      "auth": 2932,
      "##ology": 2933,
      "whoo": 2934,
      "opened": 2935,
      "carl": 2936,
      "works": 2937,
      "##ato": 2938,
      "loud": 2939,
      "##ror": 2940,
      "followed": 2941,
      "bottom": 2942,
      "##ai": 2943,
      "mama": 2944,
      "butter": 2945,
      "sigh": 2946,
      "doubt": 2947,
      "pieces": 2948,
      "##isc": 2949,
      "obs": 2950,
      "pupp": 2951,
      "cho": 2952,
      "'.": 2953,
      "van": 2954,
      "george": 2955,
      "player": 2956,
      "##ned": 2957,
      "requ": 2958,
      "trust": 2959,
      "##ky": 2960,
      "fellow": 2961,
      "sell": 2962,
      "built": 2963,
      "rose": 2964,
      "##gest": 2965,
      "sev": 2966,
      "position": 2967,
      "##rop": 2968,
      "##uce": 2969,
      "whom": 2970,
      "neigh": 2971,
      "supposed": 2972,
      "compet": 2973,
      "giving": 2974,
      "indian": 2975,
      "##cil": 2976,
      "happens": 2977,
      "hasn": 2978,
      "weeks": 2979,
      "complete": 2980,
      "chuck": 2981,
      "truth": 2982,
      "base": 2983,
      "fad": 2984,
      "moving": 2985,
      "decl": 2986,
      "added": 2987,
      "stuck": 2988,
      "##con": 2989,
      "ba": 2990,
      "esp": 2991,
      "holds": 2992,
      "##cially": 2993,
      "##iny": 2994,
      "##ences": 2995,
      "thirty": 2996,
      "lock": 2997,
      "jes": 2998,
      "##ceed": 2999,
      "farm": 3000,
      "health": 3001,
      "somewhere": 3002,
      "hole": 3003,
      "##uel": 3004,
      "spir": 3005,
      "anybody": 3006,
      "memb": 3007,
      "imag": 3008,
      "members": 3009,
      "##ician": 3010,
      "language": 3011,
      "bud": 3012,
      "##bles": 3013,
      "fail": 3014,
      "jul": 3015,
      "watching": 3016,
      "dan": 3017,
      "192": 3018,
      "##0s": 3019,
      "bread": 3020,
      "village": 3021,
      "bomb": 3022,
      "25": 3023,
      "worth": 3024,
      "##bor": 3025,
      "breath": 3026,
      "wer": 3027,
      "##idence": 3028,
      "college": 3029,
      "stea": 3030,
      "##gar": 3031,
      "fa": 3032,
      "##ains": 3033,
      "reco": 3034,
      "army": 3035,
      "##enny": 3036,
      ",--": 3037,
      "cas": 3038,
      "##ges": 3039,
      "silver": 3040,
      "exclaimed": 3041,
      "busy": 3042,
      "scream": 3043,
      "cab": 3044,
      "ii": 3045,
      "##ops": 3046,
      "##empt": 3047,
      "betty": 3048,
      "ye": 3049,
      "##ael": 3050,
      "bought": 3051,
      "vir": 3052,
      "pract": 3053,
      "consider": 3054,
      "loc": 3055,
      "moon": 3056,
      "express": 3057,
      "san": 3058,
      "level": 3059,
      "hun": 3060,
      "league": 3061,
      "susp": 3062,
      "##go": 3063,
      "gro": 3064,
      "cars": 3065,
      "difficult": 3066,
      "##arch": 3067,
      "gasps": 3068,
      "kitt": 3069,
      "##era": 3070,
      "self": 3071,
      "lift": 3072,
      "##ination": 3073,
      "leaving": 3074,
      "chicken": 3075,
      "coffee": 3076,
      "starts": 3077,
      "##iger": 3078,
      "ought": 3079,
      "pink": 3080,
      "including": 3081,
      "arr": 3082,
      "figure": 3083,
      "stone": 3084,
      "example": 3085,
      "film": 3086,
      "##ipe": 3087,
      "plays": 3088,
      "tast": 3089,
      "unk": 3090,
      "court": 3091,
      "ep": 3092,
      "legs": 3093,
      "mod": 3094,
      "fle": 3095,
      "author": 3096,
      "2018": 3097,
      "dry": 3098,
      "character": 3099,
      "apple": 3100,
      "##rupt": 3101,
      "international": 3102,
      "design": 3103,
      "sense": 3104,
      "rev": 3105,
      "invest": 3106,
      "##ket": 3107,
      "jour": 3108,
      "hast": 3109,
      "finally": 3110,
      "puzz": 3111,
      "neck": 3112,
      "##die": 3113,
      "cheese": 3114,
      "repres": 3115,
      "tail": 3116,
      "wrote": 3117,
      "flowers": 3118,
      "anymore": 3119,
      "based": 3120,
      "lim": 3121,
      "apart": 3122,
      "wal": 3123,
      "stat": 3124,
      "ord": 3125,
      "##bs": 3126,
      "##resh": 3127,
      "belong": 3128,
      "mc": 3129,
      "tall": 3130,
      "##anny": 3131,
      "##ented": 3132,
      "walking": 3133,
      "agre": 3134,
      "rya": 3135,
      "charl": 3136,
      "term": 3137,
      "weren": 3138,
      "pan": 3139,
      "vide": 3140,
      "sex": 3141,
      "scar": 3142,
      "received": 3143,
      "further": 3144,
      "poo": 3145,
      "##cent": 3146,
      "##ula": 3147,
      "##ining": 3148,
      "current": 3149,
      "william": 3150,
      "educ": 3151,
      "hen": 3152,
      "convers": 3153,
      "sky": 3154,
      "nar": 3155,
      "##ugg": 3156,
      "priv": 3157,
      "##ert": 3158,
      "parents": 3159,
      "##bur": 3160,
      "race": 3161,
      "##ett": 3162,
      "##dom": 3163,
      "none": 3164,
      "##rod": 3165,
      "officer": 3166,
      "bridge": 3167,
      "##ask": 3168,
      "kat": 3169,
      "spot": 3170,
      "force": 3171,
      "century": 3172,
      "shir": 3173,
      "##ground": 3174,
      "continued": 3175,
      "animal": 3176,
      "hurry": 3177,
      "choc": 3178,
      "loi": 3179,
      "finger": 3180,
      "mix": 3181,
      "tit": 3182,
      "accord": 3183,
      "##board": 3184,
      "beginning": 3185,
      "21": 3186,
      "##uation": 3187,
      "##ancy": 3188,
      "america": 3189,
      "canad": 3190,
      "wes": 3191,
      "norm": 3192,
      "teeth": 3193,
      "james": 3194,
      "spoke": 3195,
      "ash": 3196,
      "seeing": 3197,
      "washing": 3198,
      "fifty": 3199,
      "##ille": 3200,
      "roman": 3201,
      "reading": 3202,
      "shit": 3203,
      "wheel": 3204,
      "council": 3205,
      "kick": 3206,
      "espe": 3207,
      "rid": 3208,
      "twel": 3209,
      "cell": 3210,
      "winter": 3211,
      "minister": 3212,
      "##view": 3213,
      "##lo": 3214,
      "comfort": 3215,
      "##acing": 3216,
      "stars": 3217,
      "##mon": 3218,
      "sport": 3219,
      "ca": 3220,
      "mem": 3221,
      "information": 3222,
      "pock": 3223,
      "rap": 3224,
      "prop": 3225,
      "contain": 3226,
      "grass": 3227,
      "announ": 3228,
      "appeared": 3229,
      "control": 3230,
      "##ino": 3231,
      "##ears": 3232,
      "gives": 3233,
      "recogn": 3234,
      "jwww": 3235,
      "defe": 3236,
      "##eap": 3237,
      "##ength": 3238,
      "wide": 3239,
      "##old": 3240,
      "study": 3241,
      "carried": 3242,
      "crow": 3243,
      "remark": 3244,
      "meeting": 3245,
      "attention": 3246,
      "spr": 3247,
      "cream": 3248,
      "event": 3249,
      "wed": 3250,
      "distance": 3251,
      "champions": 3252,
      "sharp": 3253,
      "comput": 3254,
      "population": 3255,
      "##iers": 3256,
      "allowed": 3257,
      "commune": 3258,
      "welcome": 3259,
      ".'": 3260,
      "span": 3261,
      "##ified": 3262,
      "store": 3263,
      "counter": 3264,
      "roy": 3265,
      "robert": 3266,
      "wet": 3267,
      "earl": 3268,
      "created": 3269,
      "crayon": 3270,
      "especially": 3271,
      "##antly": 3272,
      "shouldn": 3273,
      "smell": 3274,
      "corner": 3275,
      "lake": 3276,
      "##dd": 3277,
      "##ashi": 3278,
      "mir": 3279,
      "dropped": 3280,
      "inn": 3281,
      "length": 3282,
      "walked": 3283,
      "interesting": 3284,
      "24": 3285,
      "kitty": 3286,
      "rul": 3287,
      "##agon": 3288,
      "dance": 3289,
      "spend": 3290,
      "kar": 3291,
      "ate": 3292,
      "fut": 3293,
      "popular": 3294,
      "ol": 3295,
      "##itted": 3296,
      "feed": 3297,
      "aud": 3298,
      "aut": 3299,
      "danc": 3300,
      "##nes": 3301,
      "eleph": 3302,
      "accept": 3303,
      "continues": 3304,
      "boo": 3305,
      "bal": 3306,
      "##olute": 3307,
      "lose": 3308,
      "drop": 3309,
      "##ume": 3310,
      "los": 3311,
      "leaves": 3312,
      "fucking": 3313,
      "likes": 3314,
      "trad": 3315,
      "##ole": 3316,
      "guard": 3317,
      "michael": 3318,
      "teddy": 3319,
      "entire": 3320,
      "joy": 3321,
      "queen": 3322,
      "ros": 3323,
      "activ": 3324,
      "delight": 3325,
      "type": 3326,
      "trip": 3327,
      "tech": 3328,
      "##eech": 3329,
      "##gie": 3330,
      "letters": 3331,
      "cy": 3332,
      "cong": 3333,
      "##ummy": 3334,
      "key": 3335,
      "bottle": 3336,
      "necess": 3337,
      "wonderful": 3338,
      "wol": 3339,
      "##work": 3340,
      "2017": 3341,
      "treat": 3342,
      "##bers": 3343,
      "vers": 3344,
      "urs": 3345,
      "ban": 3346,
      "hide": 3347,
      "##ax": 3348,
      "afric": 3349,
      "speed": 3350,
      "rising": 3351,
      "conv": 3352,
      "nina": 3353,
      "hous": 3354,
      "du": 3355,
      "attempt": 3356,
      "rat": 3357,
      "mac": 3358,
      "broad": 3359,
      "##wor": 3360,
      "basket": 3361,
      "crazy": 3362,
      "incre": 3363,
      "charge": 3364,
      "pil": 3365,
      "slowly": 3366,
      "##por": 3367,
      "writing": 3368,
      "local": 3369,
      "##lished": 3370,
      "net": 3371,
      "##za": 3372,
      "dogg": 3373,
      "grandma": 3374,
      "murder": 3375,
      "2021": 3376,
      "illustration": 3377,
      "anx": 3378,
      "plant": 3379,
      "tour": 3380,
      "##iced": 3381,
      "award": 3382,
      "hate": 3383,
      "##aves": 3384,
      "##yle": 3385,
      "##mie": 3386,
      "parts": 3387,
      "rail": 3388,
      "##ript": 3389,
      "pause": 3390,
      "civ": 3391,
      "favorite": 3392,
      "phot": 3393,
      "according": 3394,
      "22": 3395,
      "cries": 3396,
      "path": 3397,
      "due": 3398,
      "loo": 3399,
      "spring": 3400,
      "glo": 3401,
      "##ec": 3402,
      "shows": 3403,
      "whoa": 3404,
      "speaking": 3405,
      "plate": 3406,
      "##riage": 3407,
      "##itive": 3408,
      "fer": 3409,
      "##olate": 3410,
      "capital": 3411,
      "perio": 3412,
      "smile": 3413,
      "forest": 3414,
      "repe": 3415,
      "battle": 3416,
      "video": 3417,
      "grew": 3418,
      "interested": 3419,
      "peace": 3420,
      "##ization": 3421,
      "spl": 3422,
      "dig": 3423,
      "match": 3424,
      "unless": 3425,
      "capt": 3426,
      "clever": 3427,
      "lion": 3428,
      "serious": 3429,
      "##acy": 3430,
      "##ades": 3431,
      "turning": 3432,
      "terrible": 3433,
      "dom": 3434,
      "uhoh": 3435,
      "mention": 3436,
      "central": 3437,
      "scared": 3438,
      "##ashed": 3439,
      "fresh": 3440,
      "showed": 3441,
      "##ode": 3442,
      "prep": 3443,
      "absolute": 3444,
      "'?": 3445,
      "##roy": 3446,
      "2022": 3447,
      "##oe": 3448,
      "horses": 3449,
      "##icks": 3450,
      "twelve": 3451,
      "##bye": 3452,
      "itself": 3453,
      "tony": 3454,
      "square": 3455,
      "sle": 3456,
      "##itions": 3457,
      "##ning": 3458,
      "##he": 3459,
      "##astic": 3460,
      "lying": 3461,
      "fingers": 3462,
      "paid": 3463,
      "problems": 3464,
      "surprise": 3465,
      "names": 3466,
      "##ault": 3467,
      "machine": 3468,
      "famous": 3469,
      "lin": 3470,
      "liked": 3471,
      "##ires": 3472,
      "fem": 3473,
      "future": 3474,
      "forgot": 3475,
      "monkey": 3476,
      "eggs": 3477,
      "soci": 3478,
      "questions": 3479,
      "laughed": 3480,
      "subject": 3481,
      "shr": 3482,
      "##isf": 3483,
      "calif": 3484,
      "radio": 3485,
      "anne": 3486,
      "viol": 3487,
      "##ura": 3488,
      "##iel": 3489,
      "cath": 3490,
      "alive": 3491,
      "slight": 3492,
      "##ida": 3493,
      "polic": 3494,
      "micro": 3495,
      "californ": 3496,
      "fool": 3497,
      "##rian": 3498,
      "bigger": 3499,
      "luc": 3500,
      "social": 3501,
      "conversation": 3502,
      "##com": 3503,
      "##medi": 3504,
      "suit": 3505,
      "mam": 3506,
      "23": 3507,
      "non": 3508,
      "ears": 3509,
      "##bed": 3510,
      "approach": 3511,
      "infl": 3512,
      "gall": 3513,
      "aye": 3514,
      "dirty": 3515,
      "phys": 3516,
      "##apes": 3517,
      "ener": 3518,
      "bert": 3519,
      "camera": 3520,
      "cough": 3521,
      "et": 3522,
      "birds": 3523,
      "100": 3524,
      "cous": 3525,
      "needed": 3526,
      "stup": 3527,
      "extra": 3528,
      "politician": 3529,
      "sheep": 3530,
      "moder": 3531,
      "dinos": 3532,
      "drawing": 3533,
      "respect": 3534,
      "circle": 3535,
      "##����": 3536,
      "closed": 3537,
      "bi": 3538,
      "fed": 3539,
      "##ilar": 3540,
      "##ius": 3541,
      "california": 3542,
      "rabbit": 3543,
      "alex": 3544,
      "##uts": 3545,
      "##aking": 3546,
      "##ission": 3547,
      "pray": 3548,
      "sant": 3549,
      "shape": 3550,
      "colon": 3551,
      "civil": 3552,
      "dick": 3553,
      "host": 3554,
      "dogs": 3555,
      "##cell": 3556,
      "pocket": 3557,
      "##...": 3558,
      "mun": 3559,
      "##pping": 3560,
      "crack": 3561,
      "techn": 3562,
      "immedi": 3563,
      "share": 3564,
      "asking": 3565,
      "iss": 3566,
      "bound": 3567,
      "##itary": 3568,
      "repub": 3569,
      "germany": 3570,
      "##ater": 3571,
      "therefore": 3572,
      "##uted": 3573,
      "stories": 3574,
      "##cious": 3575,
      "union": 3576,
      "comb": 3577,
      "gather": 3578,
      "straw": 3579,
      "bey": 3580,
      "sleeping": 3581,
      "##lv": 3582,
      "species": 3583,
      "dor": 3584,
      "##iment": 3585,
      "period": 3586,
      "blank": 3587,
      "india": 3588,
      "##xic": 3589,
      "promise": 3590,
      "mouse": 3591,
      "pun": 3592,
      "##fl": 3593,
      "##field": 3594,
      "brush": 3595,
      "hardly": 3596,
      "##ils": 3597,
      "moves": 3598,
      "natural": 3599,
      "cro": 3600,
      "forty": 3601,
      "below": 3602,
      "famil": 3603,
      "direction": 3604,
      "##ids": 3605,
      "faith": 3606,
      "republic": 3607,
      "iron": 3608,
      "##erm": 3609,
      "served": 3610,
      "##line": 3611,
      "ren": 3612,
      "spoon": 3613,
      "chocolate": 3614,
      "shirt": 3615,
      "pee": 3616,
      "satisf": 3617,
      "countries": 3618,
      "director": 3619,
      "rush": 3620,
      "search": 3621,
      "tex": 3622,
      "chat": 3623,
      "amaz": 3624,
      "loved": 3625,
      "##lymp": 3626,
      "##ploy": 3627,
      "lu": 3628,
      "##reat": 3629,
      "separ": 3630,
      "row": 3631,
      "possib": 3632,
      "western": 3633,
      "##light": 3634,
      "advent": 3635,
      "olymp": 3636,
      "##inated": 3637,
      "medic": 3638,
      "stupid": 3639,
      "beck": 3640,
      "join": 3641,
      "spread": 3642,
      "##ressed": 3643,
      "##str": 3644,
      "purp": 3645,
      "mov": 3646,
      "easter": 3647,
      "##wood": 3648,
      "spent": 3649,
      "stage": 3650,
      "process": 3651,
      "action": 3652,
      "center": 3653,
      "investig": 3654,
      "asso": 3655,
      "flat": 3656,
      "max": 3657,
      "ris": 3658,
      "##che": 3659,
      "likely": 3660,
      "##icip": 3661,
      "iv": 3662,
      "picked": 3663,
      "ox": 3664,
      "cult": 3665,
      "tal": 3666,
      "##ipped": 3667,
      "occas": 3668,
      "asleep": 3669,
      "oops": 3670,
      "harry": 3671,
      "##isted": 3672,
      "buck": 3673,
      "associ": 3674,
      "final": 3675,
      "remain": 3676,
      "2010": 3677,
      "kay": 3678,
      "##hood": 3679,
      "obv": 3680,
      "childes_na": 3681,
      "naught": 3682,
      "thus": 3683,
      "neg": 3684,
      "covered": 3685,
      "dollars": 3686,
      "wake": 3687,
      "arg": 3688,
      "pill": 3689,
      "lower": 3690,
      "##ift": 3691,
      "older": 3692,
      "japanese": 3693,
      "kingdom": 3694,
      "2011": 3695,
      "similar": 3696,
      "##hie": 3697,
      "accom": 3698,
      "sunday": 3699,
      "ways": 3700,
      "##ival": 3701,
      "2019": 3702,
      "##ustom": 3703,
      "richard": 3704,
      "situation": 3705,
      "corre": 3706,
      "scient": 3707,
      "elephant": 3708,
      "tries": 3709,
      "##olution": 3710,
      "load": 3711,
      "sarah": 3712,
      "##ird": 3713,
      "coast": 3714,
      "pounds": 3715,
      "gab": 3716,
      "smart": 3717,
      "exam": 3718,
      "meat": 3719,
      "beyond": 3720,
      "leader": 3721,
      "calling": 3722,
      "coat": 3723,
      "##cul": 3724,
      "##cks": 3725,
      "##ville": 3726,
      "honest": 3727,
      "total": 3728,
      "cens": 3729,
      "wound": 3730,
      "worse": 3731,
      "directed": 3732,
      "tax": 3733,
      "##well": 3734,
      "##rit": 3735,
      "satur": 3736,
      "include": 3737,
      "##illa": 3738,
      "entered": 3739,
      "nurs": 3740,
      "caused": 3741,
      "driving": 3742,
      "grad": 3743,
      "aft": 3744,
      "adam": 3745,
      "##izes": 3746,
      "defin": 3747,
      "lee": 3748,
      "##atic": 3749,
      "##cher": 3750,
      "(\"": 3751,
      "##ka": 3752,
      "upstairs": 3753,
      "project": 3754,
      "spirit": 3755,
      "beach": 3756,
      "##aud": 3757,
      "helped": 3758,
      "becom": 3759,
      "acad": 3760,
      "talked": 3761,
      "role": 3762,
      "fol": 3763,
      "fright": 3764,
      "ray": 3765,
      "learned": 3766,
      "energy": 3767,
      "computer": 3768,
      "nick": 3769,
      "accident": 3770,
      "##inary": 3771,
      "crit": 3772,
      "colors": 3773,
      "hero": 3774,
      "##wise": 3775,
      "bite": 3776,
      "##uction": 3777,
      "meas": 3778,
      "##wich": 3779,
      "movies": 3780,
      "bay": 3781,
      "obser": 3782,
      "puzzle": 3783,
      "191": 3784,
      "account": 3785,
      "##la": 3786,
      "nature": 3787,
      "protect": 3788,
      "missing": 3789,
      "lines": 3790,
      "pit": 3791,
      "hom": 3792,
      "fox": 3793,
      "que": 3794,
      "dolly": 3795,
      "rough": 3796,
      "##how": 3797,
      "##uff": 3798,
      "##we": 3799,
      "##ushing": 3800,
      "jose": 3801,
      "drew": 3802,
      "enemy": 3803,
      "##ument": 3804,
      "##ingly": 3805,
      "note": 3806,
      "goodness": 3807,
      "##ests": 3808,
      "##don": 3809,
      "whispered": 3810,
      "##ites": 3811,
      "jesus": 3812,
      "##val": 3813,
      "interrupt": 3814,
      "utter": 3815,
      "##aven": 3816,
      "begins": 3817,
      "market": 3818,
      "enc": 3819,
      "oppos": 3820,
      "temper": 3821,
      "chee": 3822,
      "gaz": 3823,
      "joined": 3824,
      "discuss": 3825,
      "##lyn": 3826,
      "##anor": 3827,
      "##uten": 3828,
      "##cip": 3829,
      "various": 3830,
      "##conom": 3831,
      "##ously": 3832,
      "numbers": 3833,
      "26": 3834,
      "##ica": 3835,
      "##gen": 3836,
      "driver": 3837,
      "personal": 3838,
      "naughty": 3839,
      "aust": 3840,
      "dra": 3841,
      "saturday": 3842,
      "gate": 3843,
      "represent": 3844,
      "hiding": 3845,
      "##iar": 3846,
      "respons": 3847,
      "storm": 3848,
      "simple": 3849,
      "hotel": 3850,
      "tiny": 3851,
      "##set": 3852,
      "bran": 3853,
      "largest": 3854,
      "declared": 3855,
      "pin": 3856,
      "goin": 3857,
      "moo": 3858,
      "amb": 3859,
      "dressed": 3860,
      "starting": 3861,
      "christian": 3862,
      "]!": 3863,
      "tri": 3864,
      "purple": 3865,
      "australia": 3866,
      "absolutely": 3867,
      "houses": 3868,
      "bless": 3869,
      "spanish": 3870,
      "##ita": 3871,
      "##atures": 3872,
      "professor": 3873,
      "##ging": 3874,
      "##epend": 3875,
      "tiger": 3876,
      "flying": 3877,
      "relations": 3878,
      "##isy": 3879,
      "typ": 3880,
      "##bour": 3881,
      "depend": 3882,
      "explain": 3883,
      "econom": 3884,
      "falling": 3885,
      "##order": 3886,
      "angry": 3887,
      "relig": 3888,
      "size": 3889,
      "forth": 3890,
      "education": 3891,
      "tar": 3892,
      "stren": 3893,
      "perform": 3894,
      "background": 3895,
      "pointing": 3896,
      "political": 3897,
      "discovered": 3898,
      "independ": 3899,
      "##zer": 3900,
      "bush": 3901,
      "##abel": 3902,
      "crowd": 3903,
      "census": 3904,
      "sens": 3905,
      "introd": 3906,
      "effort": 3907,
      "cart": 3908,
      "royal": 3909,
      "province": 3910,
      "besides": 3911,
      "actor": 3912,
      "produced": 3913,
      "##eral": 3914,
      "##ees": 3915,
      "resear": 3916,
      "27": 3917,
      "##inct": 3918,
      "lucky": 3919,
      "attend": 3920,
      "ladies": 3921,
      "modern": 3922,
      "ves": 3923,
      "yo": 3924,
      "holiday": 3925,
      "remo": 3926,
      "destroy": 3927,
      "##ply": 3928,
      "franc": 3929,
      "steps": 3930,
      "employ": 3931,
      "jew": 3932,
      "arrived": 3933,
      "28": 3934,
      "eager": 3935,
      "cheer": 3936,
      "##oin": 3937,
      "motor": 3938,
      "professional": 3939,
      "##----------------": 3940,
      "fighting": 3941,
      "##idered": 3942,
      "happening": 3943,
      "henry": 3944,
      "dim": 3945,
      "tight": 3946,
      "wand": 3947,
      "quarter": 3948,
      "brief": 3949,
      "carol": 3950,
      "##otten": 3951,
      "grab": 3952,
      "prince": 3953,
      "needta": 3954,
      "meaning": 3955,
      "surprised": 3956,
      "marg": 3957,
      "und": 3958,
      "hadn": 3959,
      "manage": 3960,
      "meal": 3961,
      "##anced": 3962,
      "pic": 3963,
      "##time": 3964,
      "monster": 3965,
      "reaches": 3966,
      "result": 3967,
      "pleasure": 3968,
      "paint": 3969,
      "military": 3970,
      "##va": 3971,
      "indust": 3972,
      "louis": 3973,
      "nav": 3974,
      "pitch": 3975,
      "society": 3976,
      "blocks": 3977,
      "stock": 3978,
      "windows": 3979,
      "missed": 3980,
      "##arent": 3981,
      "charlie": 3982,
      "regard": 3983,
      "29": 3984,
      "tower": 3985,
      "chem": 3986,
      "threw": 3987,
      "jane": 3988,
      "parl": 3989,
      "oce": 3990,
      "inj": 3991,
      "shore": 3992,
      "heaven": 3993,
      "steven": 3994,
      "honor": 3995,
      "dish": 3996,
      "flag": 3997,
      "##zen": 3998,
      "##itude": 3999,
      "ble": 4000,
      "mater": 4001,
      "##ero": 4002,
      "taste": 4003,
      "insp": 4004,
      "weather": 4005,
      "##gth": 4006,
      "ross": 4007,
      "neither": 4008,
      "deg": 4009,
      "raised": 4010,
      "##hic": 4011,
      "roz": 4012,
      "thinks": 4013,
      "private": 4014,
      "escape": 4015,
      "proud": 4016,
      "desp": 4017,
      "wearing": 4018,
      "strength": 4019,
      "craw": 4020,
      "##reme": 4021,
      "snake": 4022,
      "regular": 4023,
      "sugar": 4024,
      "2016": 4025,
      "cousin": 4026,
      "##iest": 4027,
      "flower": 4028,
      "shoe": 4029,
      "plann": 4030,
      "handle": 4031,
      "announced": 4032,
      "##enth": 4033,
      "immediately": 4034,
      "##sey": 4035,
      "pir": 4036,
      "##iant": 4037,
      "##ially": 4038,
      "filled": 4039,
      "imagine": 4040,
      "sighs": 4041,
      "opport": 4042,
      "##ensive": 4043,
      "plane": 4044,
      "tone": 4045,
      "whoops": 4046,
      "epis": 4047,
      "agreed": 4048,
      "les": 4049,
      "##antic": 4050,
      "placed": 4051,
      "disp": 4052,
      "beside": 4053,
      "bother": 4054,
      "northern": 4055,
      "imm": 4056,
      "duty": 4057,
      "texas": 4058,
      "amp": 4059,
      "roof": 4060,
      "##rey": 4061,
      "##ening": 4062,
      "hmm": 4063,
      "lights": 4064,
      "considered": 4065,
      "excited": 4066,
      "lem": 4067,
      "mike": 4068,
      "nap": 4069,
      "damn": 4070,
      "completely": 4071,
      "50": 4072,
      "anywhere": 4073,
      "difference": 4074,
      "laid": 4075,
      "##mond": 4076,
      "##lla": 4077,
      "##edy": 4078,
      "scr": 4079,
      "influ": 4080,
      "scott": 4081,
      "begin": 4082,
      "songs": 4083,
      "2014": 4084,
      "watched": 4085,
      "chuckles": 4086,
      "date": 4087,
      "friday": 4088,
      "smoke": 4089,
      "els": 4090,
      "eleanor": 4091,
      "higher": 4092,
      "##ormed": 4093,
      "weak": 4094,
      "demand": 4095,
      "cabin": 4096,
      "original": 4097,
      "fruit": 4098,
      "opportun": 4099,
      "bart": 4100,
      "onto": 4101,
      "##ago": 4102,
      "paris": 4103,
      "soldiers": 4104,
      "scot": 4105,
      "##ship": 4106,
      "gree": 4107,
      "##han": 4108,
      "simply": 4109,
      "thick": 4110,
      "empty": 4111,
      "()": 4112,
      "##ails": 4113,
      "chris": 4114,
      "runs": 4115,
      "amount": 4116,
      "flight": 4117,
      "##cient": 4118,
      "china": 4119,
      "softly": 4120,
      "weap": 4121,
      "governor": 4122,
      "vessel": 4123,
      "jam": 4124,
      "demo": 4125,
      "skin": 4126,
      "soul": 4127,
      "ric": 4128,
      "coach": 4129,
      "mexic": 4130,
      "formed": 4131,
      "env": 4132,
      "##itor": 4133,
      "agree": 4134,
      "pleased": 4135,
      "vall": 4136,
      "arrest": 4137,
      "european": 4138,
      "crew": 4139,
      "fashi": 4140,
      "charles": 4141,
      "wit": 4142,
      "##under": 4143,
      "##ivid": 4144,
      "##ribed": 4145,
      "expected": 4146,
      "##ano": 4147,
      "##oles": 4148,
      "##asons": 4149,
      "double": 4150,
      "determ": 4151,
      "##nam": 4152,
      "sha": 4153,
      "reb": 4154,
      "eve": 4155,
      "##ended": 4156,
      "##istan": 4157,
      "surv": 4158,
      "##kes": 4159,
      "compl": 4160,
      "apparent": 4161,
      "calm": 4162,
      "price": 4163,
      "huge": 4164,
      "##itely": 4165,
      "sett": 4166,
      "deliver": 4167,
      "2015": 4168,
      "##hin": 4169,
      "manner": 4170,
      "cou": 4171,
      "##aped": 4172,
      "centre": 4173,
      "experience": 4174,
      "##shi": 4175,
      "easily": 4176,
      "2012": 4177,
      "lieuten": 4178,
      "##ae": 4179,
      "##ography": 4180,
      "plenty": 4181,
      "hal": 4182,
      "martin": 4183,
      "necessary": 4184,
      "surf": 4185,
      "training": 4186,
      "singer": 4187,
      "electric": 4188,
      "municip": 4189,
      "babies": 4190,
      "purpose": 4191,
      "flor": 4192,
      "##eas": 4193,
      "##ost": 4194,
      "prim": 4195,
      "fashion": 4196,
      "election": 4197,
      "walks": 4198,
      "##kin": 4199,
      "##anda": 4200,
      "##ez": 4201,
      "notice": 4202,
      "fred": 4203,
      "twice": 4204,
      "assist": 4205,
      "bunny": 4206,
      "dust": 4207,
      "castle": 4208,
      "fifteen": 4209,
      "guns": 4210,
      "dangerous": 4211,
      "saved": 4212,
      "##rel": 4213,
      "edge": 4214,
      "nur": 4215,
      "thou": 4216,
      "lid": 4217,
      "sav": 4218,
      "possess": 4219,
      "telephone": 4220,
      "##lect": 4221,
      "scene": 4222,
      "oo": 4223,
      "haha": 4224,
      "##ips": 4225,
      "sandwich": 4226,
      "lor": 4227,
      "mut": 4228,
      "earlier": 4229,
      "hid": 4230,
      "alt": 4231,
      ":=": 4232,
      "community": 4233,
      "##eds": 4234,
      "barb": 4235,
      "ocean": 4236,
      "woods": 4237,
      "stream": 4238,
      "opening": 4239,
      "thro": 4240,
      "##fa": 4241,
      "stro": 4242,
      "jun": 4243,
      "knife": 4244,
      "mission": 4245,
      "##gs": 4246,
      "spell": 4247,
      "research": 4248,
      "lieutenant": 4249,
      "jen": 4250,
      "##ca": 4251,
      "##aper": 4252,
      "horn": 4253,
      "2008": 4254,
      "bowl": 4255,
      "speech": 4256,
      "plain": 4257,
      "ended": 4258,
      "pulled": 4259,
      "swimming": 4260,
      "mostly": 4261,
      "sung": 4262,
      "sac": 4263,
      "brave": 4264,
      "journey": 4265,
      "painting": 4266,
      "russian": 4267,
      "struck": 4268,
      "democ": 4269,
      "chann": 4270,
      "princess": 4271,
      "listening": 4272,
      "bor": 4273,
      "ancient": 4274,
      "##riend": 4275,
      "##name": 4276,
      "button": 4277,
      "impro": 4278,
      "##ki": 4279,
      "founded": 4280,
      "awful": 4281,
      "science": 4282,
      "drug": 4283,
      "pour": 4284,
      "beep": 4285,
      "evident": 4286,
      "youth": 4287,
      "officers": 4288,
      "##elly": 4289,
      "fallen": 4290,
      "##iot": 4291,
      "southern": 4292,
      "##vin": 4293,
      "offer": 4294,
      "origin": 4295,
      "yup": 4296,
      "occup": 4297,
      "trick": 4298,
      "nons": 4299,
      "doc": 4300,
      "puppet": 4301,
      "pad": 4302,
      "2009": 4303,
      "##ators": 4304,
      "italian": 4305,
      "rapid": 4306,
      "2007": 4307,
      "grace": 4308,
      "##ny": 4309,
      "supper": 4310,
      "believed": 4311,
      "stairs": 4312,
      "stret": 4313,
      "julia": 4314,
      "##elle": 4315,
      "crash": 4316,
      "boss": 4317,
      "##ette": 4318,
      "nom": 4319,
      "...?": 4320,
      "##bre": 4321,
      "deck": 4322,
      ",'": 4323,
      "##aker": 4324,
      "golden": 4325,
      "involved": 4326,
      "##ables": 4327,
      "downstairs": 4328,
      "falls": 4329,
      "neighbor": 4330,
      "obviously": 4331,
      "vac": 4332,
      "calls": 4333,
      "grown": 4334,
      "prime": 4335,
      "smith": 4336,
      "tong": 4337,
      "usual": 4338,
      "shad": 4339,
      "##cast": 4340,
      "peas": 4341,
      "##ching": 4342,
      "fourth": 4343,
      "princip": 4344,
      "der": 4345,
      "dinosaur": 4346,
      "tract": 4347,
      "spider": 4348,
      "##asing": 4349,
      "bee": 4350,
      "swing": 4351,
      "gigg": 4352,
      "settle": 4353,
      "histor": 4354,
      "growing": 4355,
      "movement": 4356,
      "2006": 4357,
      "correct": 4358,
      "##erve": 4359,
      "sour": 4360,
      "##pan": 4361,
      "earn": 4362,
      "pleasant": 4363,
      "##mit": 4364,
      "##arm": 4365,
      "2013": 4366,
      "fellows": 4367,
      "mult": 4368,
      "watches": 4369,
      "estab": 4370,
      "liter": 4371,
      "soa": 4372,
      "exist": 4373,
      "grave": 4374,
      "strugg": 4375,
      "keeping": 4376,
      "heads": 4377,
      "knight": 4378,
      "eleven": 4379,
      "bonnet": 4380,
      "inqu": 4381,
      "##tering": 4382,
      "kf": 4383,
      "duh": 4384,
      "##yer": 4385,
      "cott": 4386,
      "wheels": 4387,
      "choice": 4388,
      "lyn": 4389,
      "product": 4390,
      "bark": 4391,
      "piz": 4392,
      "##inese": 4393,
      "han": 4394,
      "exec": 4395,
      "imposs": 4396,
      "##oted": 4397,
      "adult": 4398,
      "canada": 4399,
      "lt": 4400,
      "grou": 4401,
      "gray": 4402,
      "shake": 4403,
      "magaz": 4404,
      "ali": 4405,
      "##worth": 4406,
      "threat": 4407,
      "##ked": 4408,
      "##ern": 4409,
      "plants": 4410,
      "dancing": 4411,
      "##bon": 4412,
      "##uced": 4413,
      "trail": 4414,
      "##ults": 4415,
      "delic": 4416,
      "grant": 4417,
      "tears": 4418,
      "seconds": 4419,
      "rod": 4420,
      "committ": 4421,
      "ident": 4422,
      "airport": 4423,
      "es": 4424,
      "##gress": 4425,
      "otherwise": 4426,
      "terms": 4427,
      "prize": 4428,
      "##urity": 4429,
      "blind": 4430,
      "carefully": 4431,
      "spoken": 4432,
      "lap": 4433,
      "excell": 4434,
      "ram": 4435,
      "ninet": 4436,
      "quietly": 4437,
      "choose": 4438,
      "##ray": 4439,
      "chinese": 4440,
      "##ointed": 4441,
      "medicine": 4442,
      "magic": 4443,
      "bloody": 4444,
      "managed": 4445,
      "##ruction": 4446,
      "##eless": 4447,
      "evidence": 4448,
      "saf": 4449,
      "muse": 4450,
      "whist": 4451,
      "custom": 4452,
      "##ram": 4453,
      "##oop": 4454,
      "##igs": 4455,
      "dise": 4456,
      "liber": 4457,
      "gal": 4458,
      "santa": 4459,
      "emer": 4460,
      "message": 4461,
      "##for": 4462,
      "tap": 4463,
      "mountains": 4464,
      "nurse": 4465,
      "##ration": 4466,
      "purdie": 4467,
      "title": 4468,
      "brain": 4469,
      "##mother": 4470,
      "heat": 4471,
      "##ums": 4472,
      "##enced": 4473,
      "##erson": 4474,
      "bump": 4475,
      "dere": 4476,
      "students": 4477,
      "emb": 4478,
      "bern": 4479,
      "ze": 4480,
      "plat": 4481,
      "lips": 4482,
      "attract": 4483,
      "[?": 4484,
      "rate": 4485,
      "areas": 4486,
      "rule": 4487,
      "italy": 4488,
      "promised": 4489,
      "wolf": 4490,
      "##usion": 4491,
      "--\"": 4492,
      "aged": 4493,
      "uk": 4494,
      "rights": 4495,
      "judge": 4496,
      "impossible": 4497,
      "##eter": 4498,
      "noticed": 4499,
      "##essie": 4500,
      "actress": 4501,
      "cards": 4502,
      "normal": 4503,
      "##berry": 4504,
      "fault": 4505,
      "oil": 4506,
      "pants": 4507,
      "cases": 4508,
      "rank": 4509,
      "bedroom": 4510,
      "clown": 4511,
      "individ": 4512,
      "##round": 4513,
      "a2": 4514,
      "cock": 4515,
      "ere": 4516,
      "address": 4517,
      "mistake": 4518,
      "##head": 4519,
      "occasion": 4520,
      "changes": 4521,
      "shown": 4522,
      "##jo": 4523,
      "brill": 4524,
      "imit": 4525,
      "groups": 4526,
      "trade": 4527,
      "##ledge": 4528,
      "##burg": 4529,
      "arab": 4530,
      "prepared": 4531,
      "cu": 4532,
      "gay": 4533,
      "##da": 4534,
      "commander": 4535,
      "ry": 4536,
      "##ctions": 4537,
      "mail": 4538,
      "worried": 4539,
      "##iana": 4540,
      "##vey": 4541,
      "mont": 4542,
      "style": 4543,
      "tells": 4544,
      "31": 4545,
      "##etic": 4546,
      "screw": 4547,
      "everywhere": 4548,
      "firm": 4549,
      "potato": 4550,
      "boun": 4551,
      "crown": 4552,
      "##ective": 4553,
      "##ores": 4554,
      "weight": 4555,
      "acqu": 4556,
      "published": 4557,
      "possibly": 4558,
      "slide": 4559,
      "eastern": 4560,
      "unl": 4561,
      "##athan": 4562,
      ".,": 4563,
      "carr": 4564,
      "sits": 4565,
      "eld": 4566,
      "taught": 4567,
      "claim": 4568,
      "harm": 4569,
      "yum": 4570,
      "##gl": 4571,
      "##ference": 4572,
      "na": 4573,
      "drag": 4574,
      "appre": 4575,
      "rocks": 4576,
      "##ses": 4577,
      "##ria": 4578,
      "morrow": 4579,
      "##ols": 4580,
      "cookie": 4581,
      "occur": 4582,
      "gy": 4583,
      "##oint": 4584,
      "gentleman": 4585,
      "opportunity": 4586,
      "libr": 4587,
      "constit": 4588,
      "pair": 4589,
      "##ex": 4590,
      "instit": 4591,
      "##onse": 4592,
      "remind": 4593,
      "##lebr": 4594,
      "boots": 4595,
      "##play": 4596,
      "##ini": 4597,
      "nest": 4598,
      "model": 4599,
      "shock": 4600,
      "orders": 4601,
      "batter": 4602,
      "sin": 4603,
      "talks": 4604,
      "shell": 4605,
      "parliam": 4606,
      "##asc": 4607,
      "##iction": 4608,
      "schools": 4609,
      "finding": 4610,
      "cred": 4611,
      "egy": 4612,
      "”.": 4613,
      "marry": 4614,
      "victor": 4615,
      "##father": 4616,
      "manager": 4617,
      "surround": 4618,
      "##ental": 4619,
      "becky": 4620,
      "babbles": 4621,
      "motion": 4622,
      "riding": 4623,
      "##oms": 4624,
      "shakes": 4625,
      "por": 4626,
      "##ases": 4627,
      "uses": 4628,
      "angel": 4629,
      "egypt": 4630,
      "apparently": 4631,
      "sides": 4632,
      "billy": 4633,
      "penn": 4634,
      "bits": 4635,
      "washington": 4636,
      "parliament": 4637,
      "saint": 4638,
      "##reen": 4639,
      "stir": 4640,
      "loss": 4641,
      "newsp": 4642,
      "security": 4643,
      "sov": 4644,
      "shoulder": 4645,
      "##night": 4646,
      "##eme": 4647,
      "monday": 4648,
      "native": 4649,
      "closer": 4650,
      "celebr": 4651,
      "crime": 4652,
      "hay": 4653,
      "ign": 4654,
      "respond": 4655,
      "2005": 4656,
      "##rid": 4657,
      "##pper": 4658,
      "dare": 4659,
      "bobby": 4660,
      "vocalises": 4661,
      "appearance": 4662,
      "forgotten": 4663,
      "continue": 4664,
      "female": 4665,
      "hook": 4666,
      "range": 4667,
      "sylv": 4668,
      "entertain": 4669,
      "balloon": 4670,
      "tie": 4671,
      "gentlemen": 4672,
      "##pa": 4673,
      "flore": 4674,
      "sau": 4675,
      "##house": 4676,
      "committee": 4677,
      "##cend": 4678,
      "dea": 4679,
      "generally": 4680,
      "bin": 4681,
      "a1": 4682,
      "bike": 4683,
      "##ola": 4684,
      "sports": 4685,
      "microphone": 4686,
      "drinking": 4687,
      "brothers": 4688,
      "bisc": 4689,
      "pizza": 4690,
      "jumped": 4691,
      "sword": 4692,
      "mister": 4693,
      "string": 4694,
      "definitely": 4695,
      "mud": 4696,
      "reck": 4697,
      "mummie": 4698,
      "stands": 4699,
      "toast": 4700,
      "opin": 4701,
      "##iled": 4702,
      "plans": 4703,
      "showing": 4704,
      "gor": 4705,
      "##gin": 4706,
      "grun": 4707,
      "admir": 4708,
      "novel": 4709,
      "evil": 4710,
      "##spers": 4711,
      "00": 4712,
      "bare": 4713,
      "##ios": 4714,
      "##eman": 4715,
      "dread": 4716,
      "doors": 4717,
      "version": 4718,
      "mere": 4719,
      "jon": 4720,
      "190": 4721,
      "##ashing": 4722,
      "##lected": 4723,
      "##box": 4724,
      "ordered": 4725,
      "##ify": 4726,
      "mate": 4727,
      "surface": 4728,
      "obl": 4729,
      "tub": 4730,
      "resc": 4731,
      "artist": 4732,
      "proceed": 4733,
      "##istics": 4734,
      "championship": 4735,
      "channel": 4736,
      "intell": 4737,
      "fixed": 4738,
      "kim": 4739,
      "addition": 4740,
      "##off": 4741,
      "events": 4742,
      "##lled": 4743,
      "magn": 4744,
      "##ena": 4745,
      "secretary": 4746,
      "##ker": 4747,
      "math": 4748,
      "##mn": 4749,
      "pier": 4750,
      "travel": 4751,
      "##aked": 4752,
      "goodbye": 4753,
      "suggested": 4754,
      "floren": 4755,
      "towel": 4756,
      "located": 4757,
      "rang": 4758,
      "##tt": 4759,
      "laura": 4760,
      "media": 4761,
      "response": 4762,
      "treas": 4763,
      "africa": 4764,
      "staff": 4765,
      "lara": 4766,
      "cub": 4767,
      "whispers": 4768,
      "bout": 4769,
      "official": 4770,
      "aver": 4771,
      "##ales": 4772,
      "academy": 4773,
      "throat": 4774,
      "##what": 4775,
      "##__": 4776,
      "2004": 4777,
      "ninety": 4778,
      "freed": 4779,
      "smaller": 4780,
      "2001": 4781,
      "barn": 4782,
      "valley": 4783,
      "kinds": 4784,
      "gabr": 4785,
      "particularly": 4786,
      "remained": 4787,
      "condition": 4788,
      "practice": 4789,
      "anxious": 4790,
      "##nic": 4791,
      "brand": 4792,
      "greatest": 4793,
      "farmer": 4794,
      "opposite": 4795,
      "zoo": 4796,
      "archi": 4797,
      "brook": 4798,
      "carrying": 4799,
      "##inson": 4800,
      "beauty": 4801,
      "shopping": 4802,
      "##ively": 4803,
      "wise": 4804,
      "helping": 4805,
      "##ique": 4806,
      "spain": 4807,
      "services": 4808,
      "nursery": 4809,
      "....": 4810,
      "##berg": 4811,
      "lod": 4812,
      "surely": 4813,
      "development": 4814,
      "shouted": 4815,
      "kore": 4816,
      "victim": 4817,
      "rh": 4818,
      "rings": 4819,
      "vocalizes": 4820,
      "pow": 4821,
      "pool": 4822,
      "sid": 4823,
      "butt": 4824,
      "collect": 4825,
      "sib": 4826,
      "tradition": 4827,
      "##oured": 4828,
      "islands": 4829,
      "##hips": 4830,
      "##sta": 4831,
      "formula": 4832,
      "##inist": 4833,
      "suc": 4834,
      "florence": 4835,
      "rout": 4836,
      "goo": 4837,
      "joseph": 4838,
      "loves": 4839,
      "braz": 4840,
      "jimmy": 4841,
      "faces": 4842,
      "##iety": 4843,
      "knee": 4844,
      "opens": 4845,
      "##do": 4846,
      "shouts": 4847,
      "nope": 4848,
      "sylvia": 4849,
      "wil": 4850,
      "greater": 4851,
      "foreign": 4852,
      "sake": 4853,
      "perfectly": 4854,
      "benef": 4855,
      "tra": 4856,
      "avail": 4857,
      "nineteen": 4858,
      "stayed": 4859,
      "jeff": 4860,
      "safety": 4861,
      "##atives": 4862,
      "##cely": 4863,
      "teams": 4864,
      "wrest": 4865,
      "indic": 4866,
      "directly": 4867,
      "##itation": 4868,
      "upset": 4869,
      "leading": 4870,
      "ourselves": 4871,
      "##reg": 4872,
      "contract": 4873,
      "keeps": 4874,
      "sixty": 4875,
      "extreme": 4876,
      "succeed": 4877,
      "fund": 4878,
      "hes": 4879,
      "##ba": 4880,
      "throws": 4881,
      "episode": 4882,
      "museum": 4883,
      "##cus": 4884,
      "##ji": 4885,
      "psy": 4886,
      "brilliant": 4887,
      "distrib": 4888,
      "martine": 4889,
      "uhuh": 4890,
      "mort": 4891,
      "forever": 4892,
      "tractor": 4893,
      "##ota": 4894,
      "afterwards": 4895,
      "contact": 4896,
      "easier": 4897,
      "memory": 4898,
      "##izing": 4899,
      "##dies": 4900,
      "coo": 4901,
      "nods": 4902,
      "tongue": 4903,
      "##ari": 4904,
      "pra": 4905,
      "retired": 4906,
      "division": 4907,
      "picking": 4908,
      "successful": 4909,
      "colonel": 4910,
      "voc": 4911,
      "younger": 4912,
      "chic": 4913,
      "marriage": 4914,
      "40": 4915,
      "acting": 4916,
      "2000": 4917,
      "gho": 4918,
      "pulls": 4919,
      "rules": 4920,
      "olympics": 4921,
      "records": 4922,
      "penny": 4923,
      "rib": 4924,
      "empire": 4925,
      "shel": 4926,
      "smiled": 4927,
      "##jam": 4928,
      "cher": 4929,
      "fairy": 4930,
      "ghost": 4931,
      "ath": 4932,
      "##aine": 4933,
      "patient": 4934,
      "##achel": 4935,
      "si": 4936,
      "##hile": 4937,
      "tid": 4938,
      "##gu": 4939,
      "studio": 4940,
      "honour": 4941,
      "eth": 4942,
      "maggie": 4943,
      "cit": 4944,
      "related": 4945,
      "##oid": 4946,
      "asse": 4947,
      "cris": 4948,
      "hills": 4949,
      "##ads": 4950,
      "papa": 4951,
      "##iron": 4952,
      "conc": 4953,
      "toil": 4954,
      "##ression": 4955,
      "recover": 4956,
      "lawyer": 4957,
      "excellent": 4958,
      "rome": 4959,
      "fairly": 4960,
      "grandmother": 4961,
      "##aries": 4962,
      "rust": 4963,
      "##cho": 4964,
      "somewhat": 4965,
      "##lands": 4966,
      "##chester": 4967,
      "decision": 4968,
      "yard": 4969,
      "##fly": 4970,
      "studied": 4971,
      "##ris": 4972,
      "189": 4973,
      "papers": 4974,
      "##nds": 4975,
      "ideas": 4976,
      "players": 4977,
      "purs": 4978,
      "forced": 4979,
      "writer": 4980,
      "##lend": 4981,
      "fac": 4982,
      "furn": 4983,
      "holy": 4984,
      "percent": 4985,
      "swit": 4986,
      "francis": 4987,
      "penc": 4988,
      "andy": 4989,
      "activity": 4990,
      "##att": 4991,
      "confir": 4992,
      "vent": 4993,
      "weird": 4994,
      "magnet": 4995,
      "giant": 4996,
      "##ulty": 4997,
      "tel": 4998,
      "##nie": 4999,
      "lean": 5000,
      "##ays": 5001,
      "knowledge": 5002,
      "doo": 5003,
      "iii": 5004,
      "doin": 5005,
      "disease": 5006,
      "##nal": 5007,
      "willing": 5008,
      "glasses": 5009,
      "awards": 5010,
      "ned": 5011,
      "vii": 5012,
      "##olic": 5013,
      "##ga": 5014,
      "prem": 5015,
      "188": 5016,
      "##erp": 5017,
      "bathroom": 5018,
      "included": 5019,
      "walls": 5020,
      "feels": 5021,
      "medical": 5022,
      "##lling": 5023,
      "##ordon": 5024,
      "fancy": 5025,
      "##arily": 5026,
      "elected": 5027,
      "risk": 5028,
      "ly": 5029,
      "aun": 5030,
      "cities": 5031,
      "##hire": 5032,
      "comfortable": 5033,
      "##lt": 5034,
      "##ado": 5035,
      "thoughts": 5036,
      "##ania": 5037,
      "haw": 5038,
      "speaks": 5039,
      "upper": 5040,
      "desk": 5041,
      "wedding": 5042,
      "nerv": 5043,
      "network": 5044,
      "##vert": 5045,
      "arth": 5046,
      "blanket": 5047,
      "zzz": 5048,
      "##ala": 5049,
      "crayons": 5050,
      "##icient": 5051,
      "reply": 5052,
      "dutch": 5053,
      "##ja": 5054,
      "behav": 5055,
      "decide": 5056,
      "virgin": 5057,
      "pages": 5058,
      "ron": 5059,
      "appreci": 5060,
      "refers": 5061,
      "bum": 5062,
      "drops": 5063,
      "shook": 5064,
      "boom": 5065,
      "cru": 5066,
      "democrat": 5067,
      "ven": 5068,
      "##li": 5069,
      "ast": 5070,
      "yay": 5071,
      "##ials": 5072,
      "polly": 5073,
      "ships": 5074,
      "##iation": 5075,
      "horsie": 5076,
      "cancer": 5077,
      "ess": 5078,
      "knowing": 5079,
      "repeated": 5080,
      "library": 5081,
      "crim": 5082,
      "madam": 5083,
      "cute": 5084,
      "silent": 5085,
      "positive": 5086,
      "forces": 5087,
      "##ache": 5088,
      "hanging": 5089,
      "explained": 5090,
      "log": 5091,
      "prove": 5092,
      "bringing": 5093,
      "##eg": 5094,
      "##yy": 5095,
      "hind": 5096,
      "artic": 5097,
      "mentioned": 5098,
      ".’": 5099,
      "##ko": 5100,
      "environ": 5101,
      "waste": 5102,
      "##aded": 5103,
      "##iling": 5104,
      "atl": 5105,
      "defend": 5106,
      "balls": 5107,
      "bomba": 5108,
      "fortune": 5109,
      "sees": 5110,
      "salt": 5111,
      "neat": 5112,
      "poet": 5113,
      "2002": 5114,
      "brazil": 5115,
      "dump": 5116,
      "scrat": 5117,
      "sposta": 5118,
      "properly": 5119,
      "wine": 5120,
      "carp": 5121,
      "thin": 5122,
      "##ander": 5123,
      "interview": 5124,
      "metal": 5125,
      "pak": 5126,
      "thor": 5127,
      "sem": 5128,
      "developed": 5129,
      "irish": 5130,
      "##ients": 5131,
      "##aly": 5132,
      "offered": 5133,
      "demon": 5134,
      "ire": 5135,
      "##ulous": 5136,
      "qual": 5137,
      "male": 5138,
      "magazine": 5139,
      "lind": 5140,
      "mile": 5141,
      "appl": 5142,
      "prefer": 5143,
      "concerned": 5144,
      "peek": 5145,
      "dism": 5146,
      "australian": 5147,
      "jigs": 5148,
      "##urb": 5149,
      "airpl": 5150,
      "cooking": 5151,
      "##anged": 5152,
      "cats": 5153,
      "assemb": 5154,
      "##ns": 5155,
      "##rael": 5156,
      "##iance": 5157,
      "emper": 5158,
      "property": 5159,
      "frightened": 5160,
      "worst": 5161,
      "eaten": 5162,
      "remarked": 5163,
      "trib": 5164,
      "biggest": 5165,
      "settled": 5166,
      "unc": 5167,
      "latter": 5168,
      "tu": 5169,
      "territ": 5170,
      "amazing": 5171,
      "2003": 5172,
      "languages": 5173,
      "burst": 5174,
      "##the": 5175,
      "boats": 5176,
      "chicago": 5177,
      "gosh": 5178,
      "passing": 5179,
      "mas": 5180,
      "anna": 5181,
      "##aken": 5182,
      "agent": 5183,
      "colour": 5184,
      "presently": 5185,
      "disappeared": 5186,
      "##cing": 5187,
      "##arr": 5188,
      "##ems": 5189,
      "blo": 5190,
      "##boy": 5191,
      "slipp": 5192,
      "struct": 5193,
      "jigsaw": 5194,
      "##cise": 5195,
      "shh": 5196,
      "narrow": 5197,
      "section": 5198,
      "##ggy": 5199,
      "tent": 5200,
      "fishing": 5201,
      "throwing": 5202,
      "pressure": 5203,
      "pump": 5204,
      "site": 5205,
      "##inger": 5206,
      "gri": 5207,
      "##mar": 5208,
      "##atory": 5209,
      "prepar": 5210,
      "grandfather": 5211,
      "##bbles": 5212,
      "lis": 5213,
      "tummy": 5214,
      "##ension": 5215,
      "##ification": 5216,
      "afford": 5217,
      "ken": 5218,
      "plastic": 5219,
      "aer": 5220,
      "ahh": 5221,
      "failed": 5222,
      "##itar": 5223,
      "israel": 5224,
      "serve": 5225,
      "drawn": 5226,
      "opinion": 5227,
      "advant": 5228,
      "powerful": 5229,
      "release": 5230,
      "##ecture": 5231,
      "pushed": 5232,
      "rope": 5233,
      "unh": 5234,
      "beth": 5235,
      "dunn": 5236,
      "soldier": 5237,
      "##icked": 5238,
      "aware": 5239,
      "fest": 5240,
      "\"]": 5241,
      "##ingu": 5242,
      "feelings": 5243,
      "scotland": 5244,
      "gordon": 5245,
      "tough": 5246,
      "##mend": 5247,
      "##hab": 5248,
      "keys": 5249,
      "flew": 5250,
      "witness": 5251,
      "thy": 5252,
      "##hold": 5253,
      "##ethe": 5254,
      "available": 5255,
      "bene": 5256,
      "childes_uk": 5257,
      "trop": 5258,
      "skill": 5259,
      "bent": 5260,
      "highest": 5261,
      "fal": 5262,
      "perm": 5263,
      "freedom": 5264,
      "brian": 5265,
      "##rif": 5266,
      "connect": 5267,
      "init": 5268,
      "##gged": 5269,
      "##uits": 5270,
      "communic": 5271,
      "beast": 5272,
      "doggie": 5273,
      "##asty": 5274,
      "seriously": 5275,
      "leaf": 5276,
      "matters": 5277,
      "cloud": 5278,
      "##west": 5279,
      "##fortun": 5280,
      "——": 5281,
      "##chan": 5282,
      "comment": 5283,
      "indians": 5284,
      "hurried": 5285,
      "tip": 5286,
      "##ata": 5287,
      "##uments": 5288,
      "greek": 5289,
      "jenny": 5290,
      "dozen": 5291,
      "ireland": 5292,
      "##form": 5293,
      "##iano": 5294,
      "waited": 5295,
      "somehow": 5296,
      "recording": 5297,
      "cov": 5298,
      "pushes": 5299,
      "copy": 5300,
      "aim": 5301,
      "gang": 5302,
      "odd": 5303,
      "socks": 5304,
      "edward": 5305,
      "knocked": 5306,
      "desper": 5307,
      "kinda": 5308,
      "municipality": 5309,
      "smiling": 5310,
      "coughs": 5311,
      "flash": 5312,
      "previous": 5313,
      "realize": 5314,
      "larger": 5315,
      "vocalize": 5316,
      "arrange": 5317,
      "',": 5318,
      "eliz": 5319,
      "##af": 5320,
      "chest": 5321,
      "chairman": 5322,
      "signed": 5323,
      "association": 5324,
      "traff": 5325,
      "deer": 5326,
      "winn": 5327,
      "##rison": 5328,
      "##action": 5329,
      "soup": 5330,
      "laught": 5331,
      "favour": 5332,
      "##abeth": 5333,
      "##aret": 5334,
      "nation": 5335,
      "##sequ": 5336,
      "##etch": 5337,
      "environment": 5338,
      "##kins": 5339,
      "boxes": 5340,
      "gently": 5341,
      "alice": 5342,
      "clou": 5343,
      "clearly": 5344,
      "dying": 5345,
      "lamb": 5346,
      "terror": 5347,
      "florida": 5348,
      "diam": 5349,
      "rise": 5350,
      "jumping": 5351,
      "reported": 5352,
      "relationship": 5353,
      "yyy": 5354,
      "##acks": 5355,
      "circum": 5356,
      "##opher": 5357,
      "wave": 5358,
      "sher": 5359,
      "totally": 5360,
      "remembered": 5361,
      "fired": 5362,
      "veget": 5363,
      "families": 5364,
      "helps": 5365,
      "steve": 5366,
      "revolution": 5367,
      "giggles": 5368,
      "##ais": 5369,
      "##oops": 5370,
      "##ctors": 5371,
      "planet": 5372,
      "##raft": 5373,
      "drama": 5374,
      "weeke": 5375,
      "laughter": 5376,
      "signal": 5377,
      "fence": 5378,
      "anth": 5379,
      "knees": 5380,
      "administ": 5381,
      "##col": 5382,
      "##eta": 5383,
      "##eals": 5384,
      "susan": 5385,
      "##ware": 5386,
      "exer": 5387,
      "wished": 5388,
      "##oned": 5389,
      "ends": 5390,
      "thee": 5391,
      "protest": 5392,
      "thunder": 5393,
      "stops": 5394,
      "determined": 5395,
      "fully": 5396,
      "sna": 5397,
      "friendly": 5398,
      "throughout": 5399,
      "##ription": 5400,
      "bul": 5401,
      "##mes": 5402,
      "cliff": 5403,
      "##bey": 5404,
      "evidently": 5405,
      "bol": 5406,
      "kang": 5407,
      "tenn": 5408,
      "referring": 5409,
      "material": 5410,
      "saus": 5411,
      "transport": 5412,
      "swed": 5413,
      "cord": 5414,
      "##ners": 5415,
      "progress": 5416,
      "becoming": 5417,
      "faster": 5418,
      "joke": 5419,
      "excit": 5420,
      "wid": 5421,
      "narr": 5422,
      "screen": 5423,
      "cutting": 5424,
      "medal": 5425,
      "jerry": 5426,
      "ellie": 5427,
      "py": 5428,
      "brick": 5429,
      "pulling": 5430,
      "rare": 5431,
      "dip": 5432,
      "vote": 5433,
      "entirely": 5434,
      "##20": 5435,
      "hammer": 5436,
      "pooh": 5437,
      "tooth": 5438,
      "courage": 5439,
      "toes": 5440,
      "##agg": 5441,
      "wings": 5442,
      "horrible": 5443,
      "companion": 5444,
      "ug": 5445,
      "##aign": 5446,
      "##aging": 5447,
      "thrown": 5448,
      "bac": 5449,
      "kenn": 5450,
      "##ckey": 5451,
      "extend": 5452,
      "wondering": 5453,
      "jean": 5454,
      "degree": 5455,
      "mamma": 5456,
      "##eping": 5457,
      "##bled": 5458,
      "sink": 5459,
      "shooting": 5460,
      "garage": 5461,
      "justice": 5462,
      "187": 5463,
      "opt": 5464,
      "independent": 5465,
      "rac": 5466,
      "shame": 5467,
      "grey": 5468,
      "tommy": 5469,
      "advice": 5470,
      "km": 5471,
      "##iles": 5472,
      "carriage": 5473,
      "mexico": 5474,
      "lone": 5475,
      "understood": 5476,
      "##erpill": 5477,
      "stranger": 5478,
      "matt": 5479,
      "african": 5480,
      "review": 5481,
      "voices": 5482,
      "aside": 5483,
      "whenever": 5484,
      "student": 5485,
      "##ilities": 5486,
      "shouting": 5487,
      "##owed": 5488,
      "height": 5489,
      "##othy": 5490,
      "gain": 5491,
      "tend": 5492,
      "nana": 5493,
      "tank": 5494,
      "goal": 5495,
      "americans": 5496,
      "##ealth": 5497,
      "realized": 5498,
      "expression": 5499,
      "tru": 5500,
      "plus": 5501,
      "unfortun": 5502,
      "##kee": 5503,
      "##bra": 5504,
      "labour": 5505,
      "meth": 5506,
      "russia": 5507,
      "average": 5508,
      "stom": 5509,
      "recently": 5510,
      "pointed": 5511,
      "chemical": 5512,
      "##aver": 5513,
      "theory": 5514,
      "text": 5515,
      "darkness": 5516,
      "mirror": 5517,
      "puss": 5518,
      "access": 5519,
      "congress": 5520,
      "##eau": 5521,
      "ela": 5522,
      "staying": 5523,
      "value": 5524,
      "baseball": 5525,
      "caterpill": 5526,
      "dun": 5527,
      "scarcely": 5528,
      "arthur": 5529,
      "currently": 5530,
      "##lor": 5531,
      "buff": 5532,
      "dragon": 5533,
      "gift": 5534,
      "hut": 5535,
      "rand": 5536,
      "##tha": 5537,
      "canadian": 5538,
      "jac": 5539,
      "##any": 5540,
      "hearing": 5541,
      "186": 5542,
      "maid": 5543,
      "campaign": 5544,
      "fold": 5545,
      "types": 5546,
      "burning": 5547,
      "strike": 5548,
      "photograp": 5549,
      "##ibility": 5550,
      "characters": 5551,
      "compos": 5552,
      "boston": 5553,
      "pakistan": 5554,
      "bunch": 5555,
      "shoulders": 5556,
      "patsy": 5557,
      "kir": 5558,
      "##bling": 5559,
      "##isher": 5560,
      "fond": 5561,
      "drum": 5562,
      "\"'": 5563,
      "maria": 5564,
      "fifth": 5565,
      "owl": 5566,
      "sque": 5567,
      "##ox": 5568,
      "pilot": 5569,
      "forgive": 5570,
      "emperor": 5571,
      "##ada": 5572,
      "buzz": 5573,
      "hunting": 5574,
      "innoc": 5575,
      "dunno": 5576,
      "tied": 5577,
      "reasons": 5578,
      "##ishment": 5579,
      "bitch": 5580,
      "paying": 5581,
      "icec": 5582,
      "##ev": 5583,
      "##rant": 5584,
      "lies": 5585,
      "excitement": 5586,
      "bust": 5587,
      "##apt": 5588,
      "subst": 5589,
      "fant": 5590,
      "pale": 5591,
      "##donald": 5592,
      "cash": 5593,
      "pear": 5594,
      "quack": 5595,
      "instant": 5596,
      "sang": 5597,
      "##sters": 5598,
      "breaking": 5599,
      "rolling": 5600,
      "unkn": 5601,
      "##etti": 5602,
      "includes": 5603,
      "##ological": 5604,
      "matth": 5605,
      "1999": 5606,
      "##isions": 5607,
      "chart": 5608,
      "##ential": 5609,
      "molly": 5610,
      "dyn": 5611,
      "pac": 5612,
      "fortun": 5613,
      "fought": 5614,
      "##asp": 5615,
      "##angle": 5616,
      "##quar": 5617,
      "touched": 5618,
      "soviet": 5619,
      "commission": 5620,
      "damage": 5621,
      "sne": 5622,
      "relax": 5623,
      "shark": 5624,
      "coal": 5625,
      "beneath": 5626,
      "##hen": 5627,
      "presence": 5628,
      "rubb": 5629,
      "##lim": 5630,
      "learning": 5631,
      "wipe": 5632,
      "----": 5633,
      "familiar": 5634,
      "stan": 5635,
      "sorts": 5636,
      "icecream": 5637,
      "instru": 5638,
      "cad": 5639,
      "roger": 5640,
      "conserv": 5641,
      "ladder": 5642,
      "butterfly": 5643,
      "adventure": 5644,
      "drove": 5645,
      "brings": 5646,
      "##untary": 5647,
      "confess": 5648,
      "production": 5649,
      "particip": 5650,
      "ruth": 5651,
      "entr": 5652,
      "task": 5653,
      "ald": 5654,
      "wing": 5655,
      "##ona": 5656,
      "rice": 5657,
      "##road": 5658,
      "wore": 5659,
      "##cel": 5660,
      "normally": 5661,
      "loose": 5662,
      "unknown": 5663,
      "slightly": 5664,
      "encour": 5665,
      "##idents": 5666,
      "chall": 5667,
      "kr": 5668,
      "jenn": 5669,
      "killing": 5670,
      "grandd": 5671,
      "##rick": 5672,
      "##wr": 5673,
      "##icy": 5674,
      "##aph": 5675,
      "giraff": 5676,
      "suspic": 5677,
      "code": 5678,
      "crick": 5679,
      "rooms": 5680,
      "sets": 5681,
      "curious": 5682,
      "whispering": 5683,
      "##etheart": 5684,
      "ko": 5685,
      "winning": 5686,
      "owned": 5687,
      "buildings": 5688,
      "sweetheart": 5689,
      "aid": 5690,
      "##otion": 5691,
      "bears": 5692,
      "matthew": 5693,
      "trains": 5694,
      "nervous": 5695,
      "screams": 5696,
      "intellig": 5697,
      "border": 5698,
      "##uing": 5699,
      "splend": 5700,
      "gradu": 5701,
      "bone": 5702,
      "accompan": 5703,
      "ward": 5704,
      "##hib": 5705,
      "figures": 5706,
      "described": 5707,
      "folks": 5708,
      "airplane": 5709,
      "##mark": 5710,
      "bricks": 5711,
      "achie": 5712,
      "quality": 5713,
      "pencil": 5714,
      "pi": 5715,
      "##oring": 5716,
      "mixed": 5717,
      "wav": 5718,
      "request": 5719,
      "hidden": 5720,
      "tin": 5721,
      "woo": 5722,
      "comedy": 5723,
      "tuck": 5724,
      "contr": 5725,
      "1996": 5726,
      "palace": 5727,
      "eventually": 5728,
      "##craft": 5729,
      "mayor": 5730,
      "chop": 5731,
      "standard": 5732,
      "democratic": 5733,
      "alarm": 5734,
      "individual": 5735,
      "elizabeth": 5736,
      "##cha": 5737,
      "##umps": 5738,
      "##ulf": 5739,
      "resist": 5740,
      "##ulations": 5741,
      "glance": 5742,
      "frequ": 5743,
      "operation": 5744,
      "candy": 5745,
      "doggy": 5746,
      "myst": 5747,
      "useful": 5748,
      "statistics": 5749,
      "tues": 5750,
      "serge": 5751,
      "deser": 5752,
      "merry": 5753,
      "domin": 5754,
      "rapidly": 5755,
      "kath": 5756,
      "map": 5757,
      "rif": 5758,
      "forms": 5759,
      "active": 5760,
      "transl": 5761,
      "500": 5762,
      "fran": 5763,
      "scary": 5764,
      "buried": 5765,
      "queer": 5766,
      "gathered": 5767,
      "1998": 5768,
      "enjoyed": 5769,
      "citiz": 5770,
      "tuesday": 5771,
      "pipe": 5772,
      "##esty": 5773,
      "##aws": 5774,
      "exch": 5775,
      "##ucky": 5776,
      "hockey": 5777,
      "1994": 5778,
      "stones": 5779,
      "##uf": 5780,
      "instr": 5781,
      "clouds": 5782,
      "trous": 5783,
      "marsh": 5784,
      "latin": 5785,
      "autom": 5786,
      "soap": 5787,
      "od": 5788,
      "strip": 5789,
      "angeles": 5790,
      "shadow": 5791,
      "woof": 5792,
      "waves": 5793,
      "roar": 5794,
      "observed": 5795,
      "racing": 5796,
      "whee": 5797,
      "newspaper": 5798,
      "toilet": 5799,
      "\".=": 5800,
      "screaming": 5801,
      "handed": 5802,
      "locked": 5803,
      "##urance": 5804,
      "features": 5805,
      "byebye": 5806,
      "theat": 5807,
      "dw": 5808,
      "##lam": 5809,
      "bend": 5810,
      "cups": 5811,
      "nut": 5812,
      "commer": 5813,
      "laws": 5814,
      "credit": 5815,
      "yummy": 5816,
      "corpor": 5817,
      "guil": 5818,
      "policy": 5819,
      "wondered": 5820,
      "anti": 5821,
      "recorded": 5822,
      "1995": 5823,
      "eighty": 5824,
      "proved": 5825,
      "results": 5826,
      "zoe": 5827,
      "trial": 5828,
      "symb": 5829,
      "adop": 5830,
      "fu": 5831,
      "musical": 5832,
      "1992": 5833,
      "pity": 5834,
      "sym": 5835,
      "measure": 5836,
      "dada": 5837,
      "squir": 5838,
      "streets": 5839,
      "scout": 5840,
      "separate": 5841,
      "lit": 5842,
      "jeann": 5843,
      "federal": 5844,
      "##book": 5845,
      "attach": 5846,
      "alph": 5847,
      "##emic": 5848,
      "score": 5849,
      "obtain": 5850,
      "iran": 5851,
      "weekend": 5852,
      "peng": 5853,
      "habit": 5854,
      "##sec": 5855,
      "chew": 5856,
      "annoy": 5857,
      "wre": 5858,
      "spite": 5859,
      "uns": 5860,
      "manchester": 5861,
      "hoo": 5862,
      "jones": 5863,
      "feather": 5864,
      "fields": 5865,
      "originally": 5866,
      "restaur": 5867,
      "##bel": 5868,
      "target": 5869,
      "mi": 5870,
      "equal": 5871,
      "culture": 5872,
      "##ares": 5873,
      "##berries": 5874,
      "faint": 5875,
      "pony": 5876,
      "removed": 5877,
      "##sm": 5878,
      "holes": 5879,
      "caterpillar": 5880,
      "##agh": 5881,
      "established": 5882,
      "pant": 5883,
      "signs": 5884,
      "industry": 5885,
      "sue": 5886,
      "dreams": 5887,
      "traffic": 5888,
      "(;": 5889,
      "partner": 5890,
      "data": 5891,
      "difficulty": 5892,
      "poll": 5893,
      "authority": 5894,
      "reve": 5895,
      "##amber": 5896,
      "influence": 5897,
      "##istic": 5898,
      "unus": 5899,
      "belt": 5900,
      "detective": 5901,
      "destroyed": 5902,
      "handsome": 5903,
      "circumst": 5904,
      "blame": 5905,
      "mainly": 5906,
      "journal": 5907,
      "performance": 5908,
      "mabel": 5909,
      "symp": 5910,
      "oblig": 5911,
      "bones": 5912,
      "mob": 5913,
      "mmm": 5914,
      "jacket": 5915,
      "apolog": 5916,
      "##bury": 5917,
      "##zo": 5918,
      "craft": 5919,
      "scientists": 5920,
      "stomach": 5921,
      "pas": 5922,
      "sole": 5923,
      "robin": 5924,
      "effects": 5925,
      "weapons": 5926,
      "jung": 5927,
      "sisters": 5928,
      "exciting": 5929,
      "receive": 5930,
      "responsible": 5931,
      "reckon": 5932,
      "guilty": 5933,
      "rachel": 5934,
      "yards": 5935,
      "tear": 5936,
      "chase": 5937,
      "kh": 5938,
      "annie": 5939,
      "leaders": 5940,
      "lorry": 5941,
      "##ability": 5942,
      "underne": 5943,
      "prisc": 5944,
      "ax": 5945,
      "slept": 5946,
      "##lie": 5947,
      "chin": 5948,
      "##uses": 5949,
      "listened": 5950,
      "tropical": 5951,
      "underneath": 5952,
      "notes": 5953,
      "##istry": 5954,
      "lack": 5955,
      "wha": 5956,
      "mechan": 5957,
      "elev": 5958,
      "source": 5959,
      "jar": 5960,
      "oven": 5961,
      "spare": 5962,
      "pred": 5963,
      "prisoners": 5964,
      "pengu": 5965,
      "trousers": 5966,
      "wounded": 5967,
      "advantage": 5968,
      "##alo": 5969,
      "engaged": 5970,
      "##engers": 5971,
      "puppy": 5972,
      "##igned": 5973,
      "wooden": 5974,
      "##east": 5975,
      "bund": 5976,
      "lads": 5977,
      "specific": 5978,
      "postman": 5979,
      "##bow": 5980,
      "athlet": 5981,
      "1997": 5982,
      "jas": 5983,
      "wednes": 5984,
      "apples": 5985,
      "bast": 5986,
      "useta": 5987,
      "hyd": 5988,
      "daniel": 5989,
      "thorough": 5990,
      "thurs": 5991,
      "objects": 5992,
      "bid": 5993,
      "raise": 5994,
      "steady": 5995,
      "##ani": 5996,
      "hee": 5997,
      "spill": 5998,
      "turkey": 5999,
      "tickle": 6000,
      "religious": 6001,
      "dot": 6002,
      "os": 6003,
      "##vi": 6004,
      "ee": 6005,
      "##met": 6006,
      "wednesday": 6007,
      "gram": 6008,
      "greatly": 6009,
      "##ucle": 6010,
      "priscilla": 6011,
      "stepped": 6012,
      "sticks": 6013,
      "##olved": 6014,
      "prevent": 6015,
      "thursday": 6016,
      "switch": 6017,
      "chips": 6018,
      "ours": 6019,
      "organization": 6020,
      "##athing": 6021,
      "##uries": 6022,
      "1991": 6023,
      "unf": 6024,
      "##iverse": 6025,
      "experi": 6026,
      "##ule": 6027,
      "greet": 6028,
      "changing": 6029,
      "ugly": 6030,
      "ding": 6031,
      "tro": 6032,
      "##umed": 6033,
      "cave": 6034,
      "multip": 6035,
      "pushing": 6036,
      "blows": 6037,
      "involuntary": 6038,
      "drown": 6039,
      "desire": 6040,
      "decor": 6041,
      "madame": 6042,
      "buddy": 6043,
      "chain": 6044,
      "missus": 6045,
      "companies": 6046,
      "eric": 6047,
      "wire": 6048,
      "finds": 6049,
      "matches": 6050,
      "##ushed": 6051,
      "35": 6052,
      "guest": 6053,
      "marks": 6054,
      "descend": 6055,
      "hearts": 6056,
      "##over": 6057,
      "##umber": 6058,
      "albert": 6059,
      "climate": 6060,
      "competed": 6061,
      "##ste": 6062,
      "holly": 6063,
      "schol": 6064,
      "vic": 6065,
      "shower": 6066,
      "jimmie": 6067,
      "##ban": 6068,
      "oliver": 6069,
      "ordinary": 6070,
      "owner": 6071,
      "dollar": 6072,
      "dude": 6073,
      "www": 6074,
      "##esh": 6075,
      "##chief": 6076,
      "##onoun": 6077,
      "pean": 6078,
      "fireman": 6079,
      "nearer": 6080,
      "2023": 6081,
      "awake": 6082,
      "recorder": 6083,
      "sixteen": 6084,
      "becomes": 6085,
      "chairs": 6086,
      "basketball": 6087,
      "diamond": 6088,
      "nah": 6089,
      "nucle": 6090,
      "##tin": 6091,
      "##ointment": 6092,
      "link": 6093,
      "##fall": 6094,
      "auntie": 6095,
      "smooth": 6096,
      "jail": 6097,
      "##osh": 6098,
      "trunk": 6099,
      "##here": 6100,
      "##hia": 6101,
      "arts": 6102,
      "tender": 6103,
      "guitar": 6104,
      "cale": 6105,
      "1993": 6106,
      "planning": 6107,
      "conference": 6108,
      "candid": 6109,
      "\"?": 6110,
      "kate": 6111,
      "frances": 6112,
      "supply": 6113,
      "godd": 6114,
      "treated": 6115,
      "tab": 6116,
      "poison": 6117,
      "cows": 6118,
      "spark": 6119,
      "satisfied": 6120,
      "clay": 6121,
      "##apping": 6122,
      "severe": 6123,
      "bessie": 6124,
      "##back": 6125,
      "1990": 6126,
      "britain": 6127,
      "##ects": 6128,
      "admit": 6129,
      "rus": 6130,
      "branch": 6131,
      "pure": 6132,
      "invited": 6133,
      "teachers": 6134,
      "temple": 6135,
      "washed": 6136,
      "beans": 6137,
      "##ribe": 6138,
      "issue": 6139,
      "curtain": 6140,
      "sweetie": 6141,
      "victory": 6142,
      "##tles": 6143,
      "##ogether": 6144,
      "relief": 6145,
      "content": 6146,
      "jobs": 6147,
      "thousands": 6148,
      "labor": 6149,
      "bodies": 6150,
      "daily": 6151,
      "couch": 6152,
      "chos": 6153,
      "relative": 6154,
      "truly": 6155,
      "oak": 6156,
      "sons": 6157,
      "losing": 6158,
      "banana": 6159,
      "sore": 6160,
      "bags": 6161,
      "##ties": 6162,
      "##oph": 6163,
      "apartment": 6164,
      "borrow": 6165,
      "cere": 6166,
      "companions": 6167,
      "##umn": 6168,
      "comr": 6169,
      "altogether": 6170,
      "delicious": 6171,
      "fier": 6172,
      "bitter": 6173,
      "32": 6174,
      "quit": 6175,
      "##aming": 6176,
      "asp": 6177,
      "robb": 6178,
      "creature": 6179,
      "required": 6180,
      "giraffe": 6181,
      "nancy": 6182,
      "clap": 6183,
      "emerg": 6184,
      "splendid": 6185,
      "piano": 6186,
      "stern": 6187,
      "##imate": 6188,
      "mighty": 6189,
      "badly": 6190,
      "##odes": 6191,
      "performed": 6192,
      "earnest": 6193,
      "arch": 6194,
      "rushed": 6195,
      "eagerly": 6196,
      "pitcher": 6197,
      "##ias": 6198,
      "focus": 6199,
      "hipp": 6200,
      "##omet": 6201,
      "pole": 6202,
      "hurts": 6203,
      "aston": 6204,
      "tale": 6205,
      "railway": 6206,
      "liqu": 6207,
      "drunk": 6208,
      "eighteen": 6209,
      "ot": 6210,
      "kidding": 6211,
      "elder": 6212,
      "rag": 6213,
      "mustn": 6214,
      "setting": 6215,
      "basically": 6216,
      "climbing": 6217,
      "split": 6218,
      "hadta": 6219,
      "disney": 6220,
      "slipped": 6221,
      "warning": 6222,
      "legal": 6223,
      "witch": 6224,
      "suck": 6225,
      "create": 6226,
      "conditions": 6227,
      "##rr": 6228,
      "##yl": 6229,
      "parent": 6230,
      "jelly": 6231,
      "neighbour": 6232,
      "hasta": 6233,
      "critic": 6234,
      "ped": 6235,
      "minor": 6236,
      "murm": 6237,
      "doctors": 6238,
      "volume": 6239,
      "troops": 6240,
      "divided": 6241,
      "portug": 6242,
      "recognized": 6243,
      "assembly": 6244,
      "shapes": 6245,
      "steal": 6246,
      "noble": 6247,
      "gasp": 6248,
      "systems": 6249,
      "60": 6250,
      "sop": 6251,
      "shift": 6252,
      "branches": 6253,
      "dol": 6254,
      "closely": 6255,
      "##win": 6256,
      "##ouri": 6257,
      "##osph": 6258,
      "waters": 6259,
      "ga": 6260,
      "mole": 6261,
      "##ansas": 6262,
      "cookies": 6263,
      "ringing": 6264,
      "fuss": 6265,
      "stor": 6266,
      "cruel": 6267,
      "studies": 6268,
      "guide": 6269,
      "ouch": 6270,
      "slip": 6271,
      "philipp": 6272,
      "mand": 6273,
      "pile": 6274,
      "##uous": 6275,
      "##urt": 6276,
      "##ception": 6277,
      "senior": 6278,
      "competition": 6279,
      "lonely": 6280,
      "jess": 6281,
      "##bits": 6282,
      "covid": 6283,
      "parties": 6284,
      "squeak": 6285,
      "mah": 6286,
      "##inc": 6287,
      "lifted": 6288,
      "introduced": 6289,
      "##othing": 6290,
      "fri": 6291,
      "explos": 6292,
      "fourteen": 6293,
      "touches": 6294,
      "etc": 6295,
      "chosen": 6296,
      "par2": 6297,
      "sofa": 6298,
      "sandy": 6299,
      "seventy": 6300,
      "switzer": 6301,
      "##hill": 6302,
      "unit": 6303,
      "replaced": 6304,
      "electr": 6305,
      "picnic": 6306,
      "pussy": 6307,
      "granddad": 6308,
      "rhy": 6309,
      "tunn": 6310,
      "forb": 6311,
      "catholic": 6312,
      "mans": 6313,
      "scare": 6314,
      "passage": 6315,
      "##itz": 6316,
      "breathing": 6317,
      "rum": 6318,
      "boot": 6319,
      "selling": 6320,
      "##ua": 6321,
      "##rose": 6322,
      "recom": 6323,
      "teaching": 6324,
      "dorothy": 6325,
      "switzerland": 6326,
      "clar": 6327,
      "rescue": 6328,
      "presents": 6329,
      "technology": 6330,
      "farther": 6331,
      "grandpa": 6332,
      "purse": 6333,
      "blowing": 6334,
      "frogs": 6335,
      "demonstr": 6336,
      "ais": 6337,
      "sally": 6338,
      "tan": 6339,
      "colored": 6340,
      "sniff": 6341,
      "edna": 6342,
      "philos": 6343,
      "swear": 6344,
      "##see": 6345,
      "rug": 6346,
      "##eze": 6347,
      "lisa": 6348,
      "rear": 6349,
      "##ague": 6350,
      "teen": 6351,
      "execut": 6352,
      "disg": 6353,
      "powers": 6354,
      "roles": 6355,
      "planned": 6356,
      "##ila": 6357,
      "policeman": 6358,
      "paus": 6359,
      "archit": 6360,
      "fc": 6361,
      "##usted": 6362,
      "lessons": 6363,
      "hoping": 6364,
      "##bble": 6365,
      "##otes": 6366,
      "workers": 6367,
      "provided": 6368,
      "solid": 6369,
      "designed": 6370,
      "�����": 6371,
      "tomato": 6372,
      "pitched": 6373,
      "kil": 6374,
      "##oons": 6375,
      "##enger": 6376,
      "##stand": 6377,
      "upside": 6378,
      "escaped": 6379,
      "kings": 6380,
      "##itan": 6381,
      "babble": 6382,
      "mickey": 6383,
      "##ami": 6384,
      "foll": 6385,
      "prisoner": 6386,
      "ahhah": 6387,
      "fate": 6388,
      "##aki": 6389,
      "expensive": 6390,
      "scen": 6391,
      "steam": 6392,
      "cathy": 6393,
      "nonsense": 6394,
      "hunt": 6395,
      "##appy": 6396,
      "philip": 6397,
      "appointed": 6398,
      "affairs": 6399,
      "gina": 6400,
      "web": 6401,
      "hoped": 6402,
      "beer": 6403,
      "orch": 6404,
      "display": 6405,
      "passengers": 6406,
      "circumstances": 6407,
      "aah": 6408,
      "##isl": 6409,
      "swift": 6410,
      "185": 6411,
      "transfer": 6412,
      "increased": 6413,
      "danny": 6414,
      "##ador": 6415,
      "spin": 6416,
      "dolls": 6417,
      "suffer": 6418,
      "##aboo": 6419,
      "produce": 6420,
      "refused": 6421,
      "champion": 6422,
      "pattern": 6423,
      "snap": 6424,
      "winds": 6425,
      "statement": 6426,
      "delay": 6427,
      "##ulated": 6428,
      "landed": 6429,
      "williams": 6430,
      "lam": 6431,
      "worn": 6432,
      "georg": 6433,
      "homes": 6434,
      "tiss": 6435,
      "breast": 6436,
      "1988": 6437,
      "festival": 6438,
      "intended": 6439,
      "finan": 6440,
      "mistress": 6441,
      "##orter": 6442,
      "moments": 6443,
      "contrib": 6444,
      "consequ": 6445,
      "lesson": 6446,
      "headed": 6447,
      "emily": 6448,
      "treatment": 6449,
      "physical": 6450,
      "junior": 6451,
      "nik": 6452,
      "##case": 6453,
      ",’": 6454,
      "zea": 6455,
      "briefly": 6456,
      "##emies": 6457,
      "sunsh": 6458,
      "electron": 6459,
      ".)": 6460,
      "distant": 6461,
      "temperature": 6462,
      "ugh": 6463,
      "##nda": 6464,
      "toss": 6465,
      "##rol": 6466,
      "concent": 6467,
      "flow": 6468,
      "sooner": 6469,
      "buttons": 6470,
      "az": 6471,
      "##ij": 6472,
      "islam": 6473,
      "rode": 6474,
      "actual": 6475,
      "andrew": 6476,
      "armed": 6477,
      "skir": 6478,
      "bug": 6479,
      "imper": 6480,
      "hurric": 6481,
      "oxford": 6482,
      "reven": 6483,
      "woke": 6484,
      "ducks": 6485,
      "delighted": 6486,
      "til": 6487,
      "greg": 6488,
      "desert": 6489,
      "1989": 6490,
      "propos": 6491,
      "zealand": 6492,
      "selected": 6493,
      "entrance": 6494,
      "jeannine": 6495,
      "sale": 6496,
      "saving": 6497,
      "##rier": 6498,
      "clark": 6499,
      "accepted": 6500,
      "pillow": 6501,
      "lane": 6502,
      "##urally": 6503,
      "spect": 6504,
      "ambul": 6505,
      "45": 6506,
      "##wa": 6507,
      "goat": 6508,
      "avoid": 6509,
      "harder": 6510,
      "##rees": 6511,
      "crossed": 6512,
      "religion": 6513,
      "##cia": 6514,
      "##iring": 6515,
      "ages": 6516,
      "condu": 6517,
      "improve": 6518,
      "##ati": 6519,
      "sending": 6520,
      "extremely": 6521,
      "vice": 6522,
      "provide": 6523,
      "demanded": 6524,
      "anton": 6525,
      "innocent": 6526,
      "fan": 6527,
      "reads": 6528,
      "##while": 6529,
      "daisy": 6530,
      "divor": 6531,
      "captured": 6532,
      "caroline": 6533,
      "tig": 6534,
      "##erable": 6535,
      "sup": 6536,
      "lan": 6537,
      "priest": 6538,
      "arrested": 6539,
      "ryan": 6540,
      "ky": 6541,
      "##alie": 6542,
      "register": 6543,
      "sentence": 6544,
      "bernard": 6545,
      "##fish": 6546,
      "bron": 6547,
      "holl": 6548,
      "mount": 6549,
      "fel": 6550,
      "gained": 6551,
      "##lines": 6552,
      "##arian": 6553,
      "remains": 6554,
      "secure": 6555,
      "debut": 6556,
      "36": 6557,
      "ford": 6558,
      "plot": 6559,
      "scale": 6560,
      "hug": 6561,
      "eats": 6562,
      "bun": 6563,
      "##tr": 6564,
      "seek": 6565,
      "deput": 6566,
      "turtle": 6567,
      "mood": 6568,
      "##iture": 6569,
      "##eps": 6570,
      "dough": 6571,
      "mig": 6572,
      "bold": 6573,
      "highly": 6574,
      "duke": 6575,
      "increase": 6576,
      "##ture": 6577,
      "##elled": 6578,
      "conqu": 6579,
      "grunts": 6580,
      "hesit": 6581,
      "stol": 6582,
      "proof": 6583,
      "reaching": 6584,
      "jake": 6585,
      "christopher": 6586,
      "burned": 6587,
      "tracks": 6588,
      "myster": 6589,
      "complex": 6590,
      "oldest": 6591,
      "keen": 6592,
      "##bc": 6593,
      "##eding": 6594,
      "inhab": 6595,
      "unif": 6596,
      "enth": 6597,
      "painted": 6598,
      "dawn": 6599,
      "fleet": 6600,
      "weapon": 6601,
      "donald": 6602,
      "##umes": 6603,
      "towns": 6604,
      "congrat": 6605,
      "cents": 6606,
      "complic": 6607,
      "##cod": 6608,
      "incred": 6609,
      "affair": 6610,
      "peekaboo": 6611,
      "chamber": 6612,
      "1984": 6613,
      "robinson": 6614,
      "championships": 6615,
      "sequ": 6616,
      "territory": 6617,
      "seats": 6618,
      "dishes": 6619,
      "ts": 6620,
      "fork": 6621,
      "cheap": 6622,
      "draws": 6623,
      "tam": 6624,
      "walter": 6625,
      "rivers": 6626,
      "##ela": 6627,
      "grate": 6628,
      "tun": 6629,
      "wra": 6630,
      "universe": 6631,
      "lodge": 6632,
      "sunshine": 6633,
      "##lers": 6634,
      "brid": 6635,
      "pregn": 6636,
      "majesty": 6637,
      "sufficient": 6638,
      "pud": 6639,
      "##hs": 6640,
      "##ipper": 6641,
      "syd": 6642,
      "circus": 6643,
      "reveal": 6644,
      "suffered": 6645,
      "climbed": 6646,
      "recognize": 6647,
      "gle": 6648,
      "stole": 6649,
      "##issa": 6650,
      "##otted": 6651,
      "function": 6652,
      "shops": 6653,
      "trucks": 6654,
      "sprang": 6655,
      "gil": 6656,
      "mild": 6657,
      "##geon": 6658,
      "cla": 6659,
      "parish": 6660,
      "rolls": 6661,
      "experiment": 6662,
      "shining": 6663,
      "altern": 6664,
      "headquar": 6665,
      "missouri": 6666,
      "humans": 6667,
      "##friend": 6668,
      "suppl": 6669,
      "##--------------------------------": 6670,
      "occurred": 6671,
      "diss": 6672,
      "flu": 6673,
      "connected": 6674,
      "treasure": 6675,
      "confirmed": 6676,
      "cricket": 6677,
      "emergency": 6678,
      "pand": 6679,
      "fro": 6680,
      "##iece": 6681,
      "lets": 6682,
      "##lfriend": 6683,
      "covers": 6684,
      "signific": 6685,
      "belongs": 6686,
      "awww": 6687,
      "bann": 6688,
      "##can": 6689,
      "##min": 6690,
      "enemies": 6691,
      "belle": 6692,
      "navy": 6693,
      "drugs": 6694,
      "method": 6695,
      "jason": 6696,
      "cells": 6697,
      "adventures": 6698,
      "fanny": 6699,
      "trump": 6700,
      "pride": 6701,
      "cooper": 6702,
      "thrill": 6703,
      "poorly": 6704,
      "hundreds": 6705,
      "constant": 6706,
      "appreciate": 6707,
      "wagon": 6708,
      "##eable": 6709,
      "##acle": 6710,
      "ec": 6711,
      "##otte": 6712,
      "##nah": 6713,
      "protection": 6714,
      "##stein": 6715,
      "##onia": 6716,
      "quant": 6717,
      "advert": 6718,
      "##icted": 6719,
      "unlike": 6720,
      "bish": 6721,
      "gee": 6722,
      "momma": 6723,
      "happiness": 6724,
      "barbara": 6725,
      "dub": 6726,
      "adj": 6727,
      "lege": 6728,
      "##keys": 6729,
      "bubbles": 6730,
      "recent": 6731,
      "1987": 6732,
      "details": 6733,
      "appears": 6734,
      "cage": 6735,
      "advance": 6736,
      "##oul": 6737,
      "investigator": 6738,
      "##eer": 6739,
      "##oll": 6740,
      "fever": 6741,
      "arranged": 6742,
      "ridic": 6743,
      "cass": 6744,
      "##erous": 6745,
      "gotten": 6746,
      "wales": 6747,
      "distributed": 6748,
      "##ridge": 6749,
      "##ien": 6750,
      "##bird": 6751,
      "somers": 6752,
      "virginia": 6753,
      "ak": 6754,
      "##char": 6755,
      "rolled": 6756,
      "dave": 6757,
      "inv1": 6758,
      "girlfriend": 6759,
      "conduct": 6760,
      "sexual": 6761,
      "cig": 6762,
      "jackson": 6763,
      "equip": 6764,
      "loudly": 6765,
      "ale": 6766,
      "brad": 6767,
      "shaking": 6768,
      "hers": 6769,
      "whit": 6770,
      "applic": 6771,
      "wars": 6772,
      "gim": 6773,
      "sara": 6774,
      "sock": 6775,
      "##emat": 6776,
      "glor": 6777,
      "nights": 6778,
      "returns": 6779,
      "splash": 6780,
      "tools": 6781,
      "syn": 6782,
      "piggy": 6783,
      "ambulance": 6784,
      "au": 6785,
      "bot": 6786,
      "gb": 6787,
      "##opter": 6788,
      "lick": 6789,
      "vel": 6790,
      "##peech": 6791,
      "shed": 6792,
      "##kel": 6793,
      "spagh": 6794,
      "glory": 6795,
      "coloring": 6796,
      "folk": 6797,
      "clare": 6798,
      "drinks": 6799,
      "nonspeech": 6800,
      "flip": 6801,
      "##aham": 6802,
      "sounded": 6803,
      "thirteen": 6804,
      "attacked": 6805,
      "wicked": 6806,
      "##edge": 6807,
      "grapes": 6808,
      "1980": 6809,
      "mystery": 6810,
      "aven": 6811,
      "cj": 6812,
      "guests": 6813,
      "sneak": 6814,
      "steel": 6815,
      "##ito": 6816,
      "thirst": 6817,
      "interp": 6818,
      "driven": 6819,
      "confidence": 6820,
      "sergeant": 6821,
      "\"\"": 6822,
      "bree": 6823,
      "nod": 6824,
      "lois": 6825,
      "1986": 6826,
      "sevent": 6827,
      "pirate": 6828,
      "ni": 6829,
      "suspect": 6830,
      "asia": 6831,
      "naturally": 6832,
      "caut": 6833,
      "##ushi": 6834,
      "cottage": 6835,
      "psych": 6836,
      "rude": 6837,
      "plates": 6838,
      "winnie": 6839,
      "abe": 6840,
      "pretending": 6841,
      "pirates": 6842,
      "institute": 6843,
      "facing": 6844,
      "columb": 6845,
      "louise": 6846,
      "smiles": 6847,
      "nations": 6848,
      "jersey": 6849,
      "diana": 6850,
      "stad": 6851,
      "producer": 6852,
      "##ok": 6853,
      "lif": 6854,
      "flood": 6855,
      "seth": 6856,
      "unusual": 6857,
      "hits": 6858,
      "##ateg": 6859,
      "helic": 6860,
      "marked": 6861,
      "hurricane": 6862,
      "bord": 6863,
      "##aurs": 6864,
      "##oot": 6865,
      "lew": 6866,
      "##using": 6867,
      "##rific": 6868,
      "muslim": 6869,
      "answers": 6870,
      "entertainment": 6871,
      "seated": 6872,
      "elim": 6873,
      "regret": 6874,
      "collection": 6875,
      "torn": 6876,
      "anch": 6877,
      "spy": 6878,
      "##ounts": 6879,
      "percy": 6880,
      "belg": 6881,
      "##abet": 6882,
      "polish": 6883,
      "tunnel": 6884,
      "backwards": 6885,
      "pigs": 6886,
      "broadcast": 6887,
      "##hol": 6888,
      "##oma": 6889,
      "unable": 6890,
      "kindly": 6891,
      "blackie": 6892,
      "##bl": 6893,
      "##10": 6894,
      "buying": 6895,
      "##ealous": 6896,
      "principal": 6897,
      "enthus": 6898,
      "dies": 6899,
      "1972": 6900,
      "pope": 6901,
      "##now": 6902,
      "bees": 6903,
      "failure": 6904,
      "evelyn": 6905,
      "gt": 6906,
      "senate": 6907,
      "ellen": 6908,
      "echo": 6909,
      "##ois": 6910,
      "stack": 6911,
      "cler": 6912,
      "precious": 6913,
      "##ancing": 6914,
      "surg": 6915,
      "cheeks": 6916,
      "completed": 6917,
      "despite": 6918,
      "pond": 6919,
      "returning": 6920,
      "conscious": 6921,
      "spaghetti": 6922,
      "##attered": 6923,
      "lately": 6924,
      "causes": 6925,
      "inquired": 6926,
      "ability": 6927,
      "1981": 6928,
      "##opl": 6929,
      "letting": 6930,
      "warri": 6931,
      "occupied": 6932,
      "##bage": 6933,
      "##lley": 6934,
      "incl": 6935,
      "calcul": 6936,
      "strawberry": 6937,
      "management": 6938,
      "liver": 6939,
      "##ulate": 6940,
      "loving": 6941,
      "noisy": 6942,
      "mend": 6943,
      "engines": 6944,
      "pacific": 6945,
      "restaurant": 6946,
      "devil": 6947,
      "mcdonald": 6948,
      "structure": 6949,
      "##hh": 6950,
      "berry": 6951,
      "merch": 6952,
      "succeeded": 6953,
      "pref": 6954,
      "owe": 6955,
      "powder": 6956,
      "trium": 6957,
      "asks": 6958,
      "tempt": 6959,
      "platform": 6960,
      "sydney": 6961,
      "pretends": 6962,
      "atlantic": 6963,
      "wag": 6964,
      "wip": 6965,
      "##mont": 6966,
      "##inky": 6967,
      "internet": 6968,
      "quarters": 6969,
      "##rain": 6970,
      "mos": 6971,
      "leans": 6972,
      "maintain": 6973,
      "##uls": 6974,
      "exped": 6975,
      "issues": 6976,
      "kisses": 6977,
      "##rate": 6978,
      "err": 6979,
      "element": 6980,
      "incident": 6981,
      "oy": 6982,
      "##llie": 6983,
      "instantly": 6984,
      "advanced": 6985,
      "davis": 6986,
      "accompl": 6987,
      "bible": 6988,
      "bruce": 6989,
      "detail": 6990,
      "coco": 6991,
      "##place": 6992,
      "clip": 6993,
      "opera": 6994,
      "leslie": 6995,
      "whistle": 6996,
      "wrestling": 6997,
      "equipment": 6998,
      "ens": 6999,
      "majority": 7000,
      "spirits": 7001,
      "depends": 7002,
      "sympath": 7003,
      "ginger": 7004,
      "##har": 7005,
      "observ": 7006,
      "swall": 7007,
      "file": 7008,
      "crocod": 7009,
      "lic": 7010,
      "sleepy": 7011,
      "diag": 7012,
      "struggle": 7013,
      "fi": 7014,
      "baba": 7015,
      "romantic": 7016,
      "gill": 7017,
      "purch": 7018,
      "chose": 7019,
      "nathan": 7020,
      "##xy": 7021,
      "margaret": 7022,
      "warren": 7023,
      "sixth": 7024,
      "##down": 7025,
      "servant": 7026,
      "belief": 7027,
      "buffalo": 7028,
      "vig": 7029,
      "##orted": 7030,
      "financial": 7031,
      "muff": 7032,
      "require": 7033,
      "interrupts": 7034,
      "korea": 7035,
      "jealous": 7036,
      "meanwhile": 7037,
      "serving": 7038,
      "humming": 7039,
      "balance": 7040,
      "rent": 7041,
      "retire": 7042,
      "##urd": 7043,
      "household": 7044,
      "1985": 7045,
      "stronger": 7046,
      "peak": 7047,
      "##ieur": 7048,
      "whoever": 7049,
      "nicole": 7050,
      "##eld": 7051,
      "lily": 7052,
      "resour": 7053,
      "lands": 7054,
      "audience": 7055,
      "responsibility": 7056,
      "mons": 7057,
      "brig": 7058,
      "discovery": 7059,
      "wis": 7060,
      "##utions": 7061,
      "anyhow": 7062,
      "gods": 7063,
      "vehi": 7064,
      "voy": 7065,
      "grandad": 7066,
      "exercise": 7067,
      "cud": 7068,
      "wealth": 7069,
      "slaves": 7070,
      "considerable": 7071,
      "1979": 7072,
      "peanut": 7073,
      "pup": 7074,
      "alf": 7075,
      "puff": 7076,
      "route": 7077,
      "carpet": 7078,
      "vehicle": 7079,
      "frame": 7080,
      "##phy": 7081,
      "closes": 7082,
      "groan": 7083,
      "biscuit": 7084,
      "mall": 7085,
      "stove": 7086,
      "graeme": 7087,
      "suffering": 7088,
      "knights": 7089,
      "meow": 7090,
      "rubbish": 7091,
      "exchange": 7092,
      "follows": 7093,
      "##omy": 7094,
      "##lessly": 7095,
      "faced": 7096,
      "nodd": 7097,
      "##bell": 7098,
      "wherever": 7099,
      "presented": 7100,
      "raining": 7101,
      "document": 7102,
      "obliged": 7103,
      "1976": 7104,
      "heavily": 7105,
      "morgan": 7106,
      "possession": 7107,
      "ral": 7108,
      "false": 7109,
      "##bi": 7110,
      "sheet": 7111,
      "loy": 7112,
      "stolen": 7113,
      "rot": 7114,
      "revol": 7115,
      "proposed": 7116,
      "stadium": 7117,
      "hood": 7118,
      "actions": 7119,
      "summ": 7120,
      "argent": 7121,
      "aisne": 7122,
      "triumph": 7123,
      "pip": 7124,
      "sess": 7125,
      "##rels": 7126,
      "##aron": 7127,
      "feat": 7128,
      "sales": 7129,
      "lemon": 7130,
      "sew": 7131,
      "conclud": 7132,
      "carbon": 7133,
      "pronoun": 7134,
      "nodded": 7135,
      "tournam": 7136,
      "kevin": 7137,
      "squad": 7138,
      "traditional": 7139,
      "ms": 7140,
      "midnight": 7141,
      "checked": 7142,
      "jungle": 7143,
      "chim": 7144,
      "turk": 7145,
      "disappear": 7146,
      "cind": 7147,
      "##gers": 7148,
      "184": 7149,
      "potatoes": 7150,
      "roads": 7151,
      "embarr": 7152,
      "sausage": 7153,
      "anger": 7154,
      "trap": 7155,
      "##ques": 7156,
      "dum": 7157,
      "peep": 7158,
      "flour": 7159,
      "cav": 7160,
      "frag": 7161,
      "harv": 7162,
      "efforts": 7163,
      "assistant": 7164,
      "300": 7165,
      "spots": 7166,
      "carolina": 7167,
      "gorge": 7168,
      "nuts": 7169,
      "rick": 7170,
      "##30": 7171,
      "begun": 7172,
      "consult": 7173,
      "explan": 7174,
      "affection": 7175,
      "lux": 7176,
      "80": 7177,
      "somethin": 7178,
      "cheers": 7179,
      "previously": 7180,
      "hydro": 7181,
      "embarrass": 7182,
      "cwww": 7183,
      "##omer": 7184,
      "satisfaction": 7185,
      "scientific": 7186,
      "compar": 7187,
      "glanced": 7188,
      "prompt": 7189,
      "reports": 7190,
      "weigh": 7191,
      "##elia": 7192,
      "peggy": 7193,
      "strang": 7194,
      "franklin": 7195,
      "bushes": 7196,
      "construction": 7197,
      "location": 7198,
      "rifle": 7199,
      "abo": 7200,
      "poly": 7201,
      "illness": 7202,
      "estate": 7203,
      "seized": 7204,
      "crab": 7205,
      "limited": 7206,
      "##rence": 7207,
      "contest": 7208,
      "politics": 7209,
      "bullet": 7210,
      "wreck": 7211,
      "client": 7212,
      "##inned": 7213,
      "killer": 7214,
      "speaker": 7215,
      "rubber": 7216,
      "economic": 7217,
      "toe": 7218,
      "sax": 7219,
      "landing": 7220,
      "cupboard": 7221,
      "ashamed": 7222,
      "##lvania": 7223,
      "benefit": 7224,
      "dull": 7225,
      "fits": 7226,
      "##imp": 7227,
      "mais": 7228,
      "johnny": 7229,
      "cleaning": 7230,
      "##writer": 7231,
      "theatre": 7232,
      "umbre": 7233,
      "nominated": 7234,
      "sauce": 7235,
      "##ufact": 7236,
      "beds": 7237,
      "basic": 7238,
      "##vis": 7239,
      "##stone": 7240,
      "rect": 7241,
      "manufact": 7242,
      "clin": 7243,
      "lincol": 7244,
      "lucy": 7245,
      "independence": 7246,
      "complain": 7247,
      "settlement": 7248,
      "'...": 7249,
      "beads": 7250,
      "##icide": 7251,
      "insurance": 7252,
      "responded": 7253,
      "sched": 7254,
      "factory": 7255,
      "camer": 7256,
      "republican": 7257,
      "lincoln": 7258,
      "90": 7259,
      "boyfriend": 7260,
      "classes": 7261,
      "defense": 7262,
      "scratch": 7263,
      "aqu": 7264,
      "uncom": 7265,
      "ticket": 7266,
      "olympic": 7267,
      "jr": 7268,
      "lwww": 7269,
      "tay": 7270,
      "##born": 7271,
      "##inate": 7272,
      ").=": 7273,
      "[.": 7274,
      "nea": 7275,
      "roo": 7276,
      "shy": 7277,
      "withd": 7278,
      "goods": 7279,
      "container": 7280,
      "symbol": 7281,
      "bass": 7282,
      "dey": 7283,
      "recall": 7284,
      "animated": 7285,
      "ridiculous": 7286,
      "],": 7287,
      "##bar": 7288,
      "headquarters": 7289,
      "leo": 7290,
      "##adu": 7291,
      "horror": 7292,
      "1983": 7293,
      "shortly": 7294,
      "mathemat": 7295,
      "fasc": 7296,
      "convin": 7297,
      "citizens": 7298,
      "kent": 7299,
      "reward": 7300,
      "stopping": 7301,
      "passion": 7302,
      "admitted": 7303,
      "##burgh": 7304,
      "nuclear": 7305,
      "kissed": 7306,
      "atm": 7307,
      "inspect": 7308,
      "shelter": 7309,
      "disgust": 7310,
      "anc": 7311,
      "1982": 7312,
      "dirt": 7313,
      "constitu": 7314,
      "aboard": 7315,
      "sorrow": 7316,
      "##iments": 7317,
      "executive": 7318,
      "oop": 7319,
      "launch": 7320,
      "healthy": 7321,
      "⌉.": 7322,
      "ded": 7323,
      "gum": 7324,
      "##11": 7325,
      "image": 7326,
      "provin": 7327,
      "foolish": 7328,
      "75": 7329,
      "tag": 7330,
      "##ologist": 7331,
      "##ipping": 7332,
      "cakes": 7333,
      "##rial": 7334,
      "##lings": 7335,
      "##azz": 7336,
      "##awa": 7337,
      "neighborhood": 7338,
      "tray": 7339,
      "graham": 7340,
      "filler": 7341,
      "##exp": 7342,
      "obey": 7343,
      "simon": 7344,
      "prior": 7345,
      "tidy": 7346,
      "inhabit": 7347,
      "##keep": 7348,
      "benjam": 7349,
      "dur": 7350,
      "ian": 7351,
      "reality": 7352,
      "stroke": 7353,
      "anal": 7354,
      "persons": 7355,
      "memor": 7356,
      "cotton": 7357,
      "permission": 7358,
      "##elp": 7359,
      "----\"": 7360,
      "slave": 7361,
      "distinct": 7362,
      "confused": 7363,
      "kissing": 7364,
      "prepare": 7365,
      "pine": 7366,
      "thoroughly": 7367,
      "tissue": 7368,
      "cree": 7369,
      "fid": 7370,
      "pennsy": 7371,
      "##etts": 7372,
      "##resp": 7373,
      "drift": 7374,
      "safely": 7375,
      "criminal": 7376,
      "ark": 7377,
      "partly": 7378,
      "legisl": 7379,
      "unfortunately": 7380,
      "baker": 7381,
      "granny": 7382,
      "tremb": 7383,
      "expecting": 7384,
      "nord": 7385,
      "##mouth": 7386,
      "soil": 7387,
      "tempor": 7388,
      "contains": 7389,
      "surgery": 7390,
      "benjamin": 7391,
      "dall": 7392,
      "acted": 7393,
      "tribe": 7394,
      "monsieur": 7395,
      "socc": 7396,
      "##bee": 7397,
      "banks": 7398,
      "whines": 7399,
      "budget": 7400,
      "##____": 7401,
      "injured": 7402,
      "##owa": 7403,
      "grav": 7404,
      "##bridge": 7405,
      "attached": 7406,
      "nether": 7407,
      "##ading": 7408,
      "emph": 7409,
      "servants": 7410,
      "stiff": 7411,
      "grf": 7412,
      "costs": 7413,
      "\").": 7414,
      "interrupted": 7415,
      "achieve": 7416,
      "mack": 7417,
      "relie": 7418,
      "rocket": 7419,
      "raymond": 7420,
      "jewish": 7421,
      "soccer": 7422,
      "##py": 7423,
      "##unched": 7424,
      "1977": 7425,
      "##aska": 7426,
      "goose": 7427,
      "dumb": 7428,
      "stew": 7429,
      "compared": 7430,
      "dee": 7431,
      "disappointed": 7432,
      "##inois": 7433,
      "draft": 7434,
      "jay": 7435,
      "michi": 7436,
      "##riet": 7437,
      "article": 7438,
      "approaching": 7439,
      "dinosaurs": 7440,
      "surrounded": 7441,
      "desperate": 7442,
      "...\"": 7443,
      "ka": 7444,
      "frost": 7445,
      "nowhere": 7446,
      "marie": 7447,
      "honestly": 7448,
      "maisie": 7449,
      "exha": 7450,
      "idiot": 7451,
      "illinois": 7452,
      "charlotte": 7453,
      "vain": 7454,
      "joey": 7455,
      "films": 7456,
      "battery": 7457,
      "furniture": 7458,
      "##rom": 7459,
      "alan": 7460,
      "1974": 7461,
      "helicopter": 7462,
      "pennsylvania": 7463,
      "##achus": 7464,
      "##ora": 7465,
      "##ocks": 7466,
      "baa": 7467,
      "##rets": 7468,
      "##alty": 7469,
      "jolly": 7470,
      "distingu": 7471,
      "starring": 7472,
      "defence": 7473,
      "deeply": 7474,
      "[$": 7475,
      "tum": 7476,
      "vast": 7477,
      "1969": 7478,
      "⌋.": 7479,
      "clothing": 7480,
      "leon": 7481,
      "emma": 7482,
      "instance": 7483,
      "viii": 7484,
      "zero": 7485,
      "rejo": 7486,
      "paraly": 7487,
      "cereal": 7488,
      "ralph": 7489,
      "nath": 7490,
      "sciss": 7491,
      "persu": 7492,
      "calais": 7493,
      "supported": 7494,
      "bucket": 7495,
      "“‘": 7496,
      "##asy": 7497,
      "##lection": 7498,
      "seasons": 7499,
      "eddie": 7500,
      "cycl": 7501,
      "70": 7502,
      "karen": 7503,
      "howard": 7504,
      "script": 7505,
      "rud": 7506,
      "whale": 7507,
      "dreadful": 7508,
      "ner": 7509,
      "##bin": 7510,
      "counting": 7511,
      "remove": 7512,
      "biscuits": 7513,
      "pul": 7514,
      "##ishing": 7515,
      "zo": 7516,
      "##estic": 7517,
      "daughters": 7518,
      "violence": 7519,
      "economy": 7520,
      "lemme": 7521,
      "naz": 7522,
      "##you": 7523,
      "##aka": 7524,
      "20th": 7525,
      "electricity": 7526,
      "lamp": 7527,
      "cuts": 7528,
      "amongst": 7529,
      "formula_": 7530,
      "##osphere": 7531,
      "deputy": 7532,
      "bib": 7533,
      "scheme": 7534,
      "##umbled": 7535,
      "pressed": 7536,
      "massachus": 7537,
      "gimme": 7538,
      "ack": 7539,
      "chip": 7540,
      "fee": 7541,
      "addressed": 7542,
      "##ruct": 7543,
      "cryst": 7544,
      "connection": 7545,
      "attempts": 7546,
      "approached": 7547,
      "umbrella": 7548,
      "##ali": 7549,
      "units": 7550,
      "patients": 7551,
      "massachusetts": 7552,
      "meg": 7553,
      "impat": 7554,
      "stuart": 7555,
      "touching": 7556,
      "##iber": 7557,
      "stam": 7558,
      "trained": 7559,
      "marky": 7560,
      "builder": 7561,
      "1968": 7562,
      "billion": 7563,
      "describe": 7564,
      "pist": 7565,
      "compound": 7566,
      "1975": 7567,
      "fab": 7568,
      "##tar": 7569,
      "belly": 7570,
      "arrow": 7571,
      "drill": 7572,
      "commonly": 7573,
      "virt": 7574,
      "vacation": 7575,
      "uniform": 7576,
      "ari": 7577,
      "wishes": 7578,
      "twink": 7579,
      "intend": 7580,
      "understanding": 7581,
      "confident": 7582,
      "description": 7583,
      "stamp": 7584,
      "visited": 7585,
      "austria": 7586,
      "bishop": 7587,
      "thumb": 7588,
      "click": 7589,
      "aha": 7590,
      "fame": 7591,
      "##low": 7592,
      "##icing": 7593,
      "concl": 7594,
      "##gging": 7595,
      "income": 7596,
      "importance": 7597,
      "hunter": 7598,
      "attended": 7599,
      "cherry": 7600,
      "##sa": 7601,
      "##hio": 7602,
      "awa": 7603,
      "##kyo": 7604,
      "orchest": 7605,
      "reign": 7606,
      "wanting": 7607,
      "pepper": 7608,
      "acid": 7609,
      "merc": 7610,
      "##ribly": 7611,
      "alexander": 7612,
      "negative": 7613,
      "##ller": 7614,
      "reaction": 7615,
      "1978": 7616,
      "degrees": 7617,
      "##cles": 7618,
      "earned": 7619,
      "capture": 7620,
      "commercial": 7621,
      "34": 7622,
      "aub": 7623,
      "dart": 7624,
      "##mel": 7625,
      "andre": 7626,
      "##iders": 7627,
      "merely": 7628,
      "anthony": 7629,
      "gates": 7630,
      "disturb": 7631,
      "pete": 7632,
      "discip": 7633,
      "winner": 7634,
      "unne": 7635,
      "##pson": 7636,
      "##works": 7637,
      "constitution": 7638,
      "nich": 7639,
      "lewis": 7640,
      "goals": 7641,
      "grim": 7642,
      "ix": 7643,
      "rit": 7644,
      "1967": 7645,
      "arrival": 7646,
      "hyp": 7647,
      "pam": 7648,
      "illustrations": 7649,
      "austin": 7650,
      "##oman": 7651,
      "geography": 7652,
      "establish": 7653,
      "penguin": 7654,
      "netherlands": 7655,
      "barry": 7656,
      "authorities": 7657,
      "primary": 7658,
      "cin": 7659,
      "sed": 7660,
      "online": 7661,
      "aband": 7662,
      "bra": 7663,
      "seeds": 7664,
      "asian": 7665,
      "intense": 7666,
      "poland": 7667,
      "sailor": 7668,
      "##icycle": 7669,
      "bour": 7670,
      "1970": 7671,
      "francisco": 7672,
      "unnecess": 7673,
      "##ipt": 7674,
      "##uals": 7675,
      "betray": 7676,
      "examples": 7677,
      "savage": 7678,
      "##oke": 7679,
      "##atch": 7680,
      "brooklyn": 7681,
      "dallas": 7682,
      "fires": 7683,
      "##ek": 7684,
      "##arf": 7685,
      "arn": 7686,
      "1973": 7687,
      "utterances": 7688,
      "mobile": 7689,
      "eag": 7690,
      "##cribed": 7691,
      "##inder": 7692,
      "acts": 7693,
      "impression": 7694,
      "variety": 7695,
      "troubles": 7696,
      "zebra": 7697,
      "pregnant": 7698,
      "bah": 7699,
      "mask": 7700,
      "burton": 7701,
      "concern": 7702,
      "rattle": 7703,
      "utterance": 7704,
      "georgia": 7705,
      "gib": 7706,
      "nail": 7707,
      "##pri": 7708,
      "##anas": 7709,
      "grat": 7710,
      "squeeze": 7711,
      "33": 7712,
      "drawer": 7713,
      "tramp": 7714,
      "officially": 7715,
      "##sen": 7716,
      "##chair": 7717,
      "prosp": 7718,
      "salad": 7719,
      "closing": 7720,
      "dora": 7721,
      "sticker": 7722,
      "triangle": 7723,
      "##opes": 7724,
      "creatures": 7725,
      "1971": 7726,
      "separated": 7727,
      "victoria": 7728,
      "linda": 7729,
      "grateful": 7730,
      "fare": 7731,
      "beating": 7732,
      "unw": 7733,
      "inse": 7734,
      "stared": 7735,
      "writ": 7736,
      "engineering": 7737,
      "launched": 7738,
      "johnson": 7739,
      "programme": 7740,
      "webs": 7741,
      "noted": 7742,
      "bond": 7743,
      "pion": 7744,
      "##urg": 7745,
      "abd": 7746,
      ".\"--": 7747,
      "friendship": 7748,
      "delightful": 7749,
      "tales": 7750,
      "inhabitants": 7751,
      "osc": 7752,
      "chances": 7753,
      "##rily": 7754,
      "breathe": 7755,
      "gh": 7756,
      "ki": 7757,
      "ada": 7758,
      "berlin": 7759,
      "mercy": 7760,
      "jonathan": 7761,
      "nearest": 7762,
      "rig": 7763,
      "shaped": 7764,
      "chess": 7765,
      "aircraft": 7766,
      "harbor": 7767,
      "##erved": 7768,
      "grm": 7769,
      "feast": 7770,
      "charming": 7771,
      "bloom": 7772,
      "recommend": 7773,
      "##hist": 7774,
      "items": 7775,
      "scored": 7776,
      "valu": 7777,
      "anxiety": 7778,
      "stretched": 7779,
      "##rated": 7780,
      "generation": 7781,
      "yawn": 7782,
      "bore": 7783,
      "##ava": 7784,
      "dressing": 7785,
      "nathalie": 7786,
      "tokyo": 7787,
      "minds": 7788,
      "##igging": 7789,
      "unhappy": 7790,
      "seventeen": 7791,
      "creek": 7792,
      "michigan": 7793,
      "##oli": 7794,
      "mexican": 7795,
      "blew": 7796,
      "mush": 7797,
      "seed": 7798,
      "##grim": 7799,
      "dining": 7800,
      "jessie": 7801,
      "##ivity": 7802,
      "estim": 7803,
      "attacks": 7804,
      "visitors": 7805,
      "solemn": 7806,
      "viet": 7807,
      "undert": 7808,
      "alongside": 7809,
      "feeding": 7810,
      "##ira": 7811,
      "instructions": 7812,
      "paused": 7813,
      "punch": 7814,
      "gran": 7815,
      "##umbling": 7816,
      "jord": 7817,
      "##wide": 7818,
      "stations": 7819,
      "lip": 7820,
      "1966": 7821,
      "removes": 7822,
      "products": 7823,
      "##verse": 7824,
      "alco": 7825,
      "lob": 7826,
      "dram": 7827,
      "nearby": 7828,
      "affect": 7829,
      "remaining": 7830,
      "sweden": 7831,
      "intelligence": 7832,
      "kelly": 7833,
      "allen": 7834,
      "loads": 7835,
      "och": 7836,
      "bearing": 7837,
      "package": 7838,
      "tournament": 7839,
      "##sell": 7840,
      "illustrated": 7841,
      "banging": 7842,
      "gest": 7843,
      "explor": 7844,
      "hopes": 7845,
      "##aurus": 7846,
      "ancest": 7847,
      "##aa": 7848,
      "##enge": 7849,
      "virus": 7850,
      "##onic": 7851,
      "fuel": 7852,
      "vision": 7853,
      "impress": 7854,
      "nasty": 7855,
      "samp": 7856,
      "##imum": 7857,
      "armen": 7858,
      "adopted": 7859,
      "1w": 7860,
      "ew": 7861,
      "rip": 7862,
      "thief": 7863,
      "represented": 7864,
      "gorgeous": 7865,
      "##lets": 7866,
      "##unning": 7867,
      "patch": 7868,
      "sticking": 7869,
      "barely": 7870,
      "seal": 7871,
      "gene": 7872,
      "albums": 7873,
      "concert": 7874,
      "scholars": 7875,
      "expedition": 7876,
      "##iable": 7877,
      "stead": 7878,
      "myth": 7879,
      "peel": 7880,
      "##certain": 7881,
      "ivy": 7882,
      "iowa": 7883,
      "joint": 7884,
      "prayer": 7885,
      "##uge": 7886,
      "##cca": 7887,
      "gaze": 7888,
      "tennis": 7889,
      "unnecessary": 7890,
      "sire": 7891,
      "tune": 7892,
      "##ye": 7893,
      "##ardie": 7894,
      "steamer": 7895,
      "shared": 7896,
      "canton": 7897,
      "##isha": 7898,
      "thrust": 7899,
      "ski": 7900,
      "growth": 7901,
      "programs": 7902,
      "inches": 7903,
      "##anges": 7904,
      "figured": 7905,
      "##zes": 7906,
      "blaz": 7907,
      "1960": 7908,
      "fantastic": 7909,
      "##jan": 7910,
      "unexp": 7911,
      "##iii": 7912,
      "rustling": 7913,
      "tack": 7914,
      "##dale": 7915,
      "amuse": 7916,
      "peg": 7917,
      "pecul": 7918,
      "gradually": 7919,
      "bastard": 7920,
      "peculiar": 7921,
      "ing": 7922,
      "partners": 7923,
      "squeals": 7924,
      "crocodile": 7925,
      "shan": 7926,
      "guardian": 7927,
      "scottish": 7928,
      "stout": 7929,
      "elements": 7930,
      "charged": 7931,
      "organis": 7932,
      "repeat": 7933,
      "il": 7934,
      "##ophy": 7935,
      "nicely": 7936,
      "imitates": 7937,
      "legend": 7938,
      "panda": 7939,
      "##his": 7940,
      "tool": 7941,
      "##unte": 7942,
      "willn": 7943,
      "chimney": 7944,
      "##iate": 7945,
      "##eration": 7946,
      "bef": 7947,
      "knocking": 7948,
      "sneez": 7949,
      "ult": 7950,
      "arrive": 7951,
      "studying": 7952,
      "occasionally": 7953,
      "mental": 7954,
      "##ders": 7955,
      "##inals": 7956,
      "shin": 7957,
      "brun": 7958,
      "indign": 7959,
      "patrick": 7960,
      "kansas": 7961,
      "lung": 7962,
      "seas": 7963,
      "funeral": 7964,
      "defeated": 7965,
      "unexpected": 7966,
      "(,": 7967,
      "##ams": 7968,
      "lawn": 7969,
      "staring": 7970,
      "1964": 7971,
      "slee": 7972,
      "strawberries": 7973,
      "sympt": 7974,
      "osw": 7975,
      "administration": 7976,
      "jacob": 7977,
      "mast": 7978,
      "mia": 7979,
      "##gment": 7980,
      "##water": 7981,
      "todd": 7982,
      "##apers": 7983,
      "intention": 7984,
      "overl": 7985,
      "disag": 7986,
      "josh": 7987,
      "sank": 7988,
      "bos": 7989,
      "artists": 7990,
      "volunte": 7991,
      "astron": 7992,
      "challenge": 7993,
      "fierce": 7994,
      "pitt": 7995,
      "raw": 7996,
      "##aroo": 7997,
      "##ella": 7998,
      "temp": 7999,
      "literature": 8000,
      "mcc": 8001,
      "donkey": 8002,
      "crap": 8003,
      "dropping": 8004,
      "enjoying": 8005,
      "belonged": 8006,
      "scissors": 8007,
      "haz": 8008,
      "agency": 8009,
      "referred": 8010,
      "groans": 8011,
      "shrie": 8012,
      "liberal": 8013,
      "comrades": 8014,
      "kitten": 8015,
      "ske": 8016,
      "##eness": 8017,
      "edition": 8018,
      "##ody": 8019,
      "##utation": 8020,
      "nee": 8021,
      "editor": 8022,
      "louder": 8023,
      "##pher": 8024,
      "##asped": 8025,
      "##omp": 8026,
      "survive": 8027,
      "##inity": 8028,
      "assured": 8029,
      "bells": 8030,
      "machines": 8031,
      "!'": 8032,
      "##onge": 8033,
      "tops": 8034,
      "whining": 8035,
      "smoking": 8036,
      "activities": 8037,
      "awarded": 8038,
      "bc": 8039,
      "##ran": 8040,
      "##oting": 8041,
      "neil": 8042,
      "useless": 8043,
      "bottles": 8044,
      "margot": 8045,
      "hamb": 8046,
      "spending": 8047,
      "mysterious": 8048,
      "dried": 8049,
      "dial": 8050,
      "gary": 8051,
      "jum": 8052,
      "##itable": 8053,
      "strict": 8054,
      "##jamas": 8055,
      "alphabet": 8056,
      "gw": 8057,
      "tickets": 8058,
      "investigation": 8059,
      "hannah": 8060,
      "proceeded": 8061,
      "korean": 8062,
      "hem": 8063,
      "liz": 8064,
      "scrap": 8065,
      "##keeper": 8066,
      "##inations": 8067,
      "inch": 8068,
      "neph": 8069,
      "##oshi": 8070,
      "crept": 8071,
      "evolution": 8072,
      "##leton": 8073,
      "historical": 8074,
      "explanation": 8075,
      "hir": 8076,
      "##pool": 8077,
      "stool": 8078,
      "##imately": 8079,
      "representatives": 8080,
      ".--": 8081,
      "sought": 8082,
      "##lon": 8083,
      "unp": 8084,
      "swiss": 8085,
      "presidential": 8086,
      "##ropol": 8087,
      "innit": 8088,
      "municipal": 8089,
      "jordan": 8090,
      "##tie": 8091,
      "##ester": 8092,
      "invent": 8093,
      "##onscious": 8094,
      "crossing": 8095,
      "levels": 8096,
      "stretch": 8097,
      "multiple": 8098,
      "len": 8099,
      "tide": 8100,
      "##mate": 8101,
      "murdered": 8102,
      "hong": 8103,
      "flesh": 8104,
      "violent": 8105,
      "forbid": 8106,
      "thirsty": 8107,
      "dougl": 8108,
      "miserable": 8109,
      "cheerful": 8110,
      "aeropl": 8111,
      "denn": 8112,
      "committed": 8113,
      "foundation": 8114,
      "tremend": 8115,
      "larry": 8116,
      "horiz": 8117,
      "ruled": 8118,
      "gif": 8119,
      "numerous": 8120,
      "expressed": 8121,
      "cheeky": 8122,
      "vessels": 8123,
      "wins": 8124,
      "shots": 8125,
      "agreement": 8126,
      "extended": 8127,
      "anchor": 8128,
      "whir": 8129,
      "##eline": 8130,
      "firstname": 8131,
      "catching": 8132,
      "expert": 8133,
      "sailing": 8134,
      "47": 8135,
      "sunny": 8136,
      "beef": 8137,
      "stable": 8138,
      "claus": 8139,
      "regions": 8140,
      "##no": 8141,
      "##cts": 8142,
      "highway": 8143,
      "untr": 8144,
      "depth": 8145,
      "dign": 8146,
      "swept": 8147,
      "cape": 8148,
      "defeat": 8149,
      "convinced": 8150,
      "37": 8151,
      "dia": 8152,
      "jw": 8153,
      "oink": 8154,
      "panc": 8155,
      "beard": 8156,
      "deserve": 8157,
      "engage": 8158,
      "punishment": 8159,
      "golf": 8160,
      "glob": 8161,
      "von": 8162,
      "##ti": 8163,
      "norah": 8164,
      "valent": 8165,
      "kicked": 8166,
      "dynasty": 8167,
      "paralymp": 8168,
      "42": 8169,
      "diet": 8170,
      "##anes": 8171,
      "stated": 8172,
      "##acious": 8173,
      "roxy": 8174,
      "awfully": 8175,
      "dolph": 8176,
      "hats": 8177,
      "perman": 8178,
      "capable": 8179,
      "threatened": 8180,
      "gam": 8181,
      "hated": 8182,
      "rasp": 8183,
      "##mad": 8184,
      "##olas": 8185,
      "charges": 8186,
      "southwest": 8187,
      "extent": 8188,
      "1956": 8189,
      "liquid": 8190,
      "sophie": 8191,
      "##illon": 8192,
      "bru": 8193,
      "perce": 8194,
      "consist": 8195,
      "packed": 8196,
      "oxy": 8197,
      "dominic": 8198,
      "##bot": 8199,
      "wend": 8200,
      "loll": 8201,
      "sacred": 8202,
      "##iev": 8203,
      "impact": 8204,
      "cleared": 8205,
      "atmosphere": 8206,
      "hs": 8207,
      "fridge": 8208,
      "agric": 8209,
      "strain": 8210,
      "assistance": 8211,
      "valuable": 8212,
      "stores": 8213,
      "canoe": 8214,
      "maur": 8215,
      "rocky": 8216,
      "gross": 8217,
      "##ros": 8218,
      "grade": 8219,
      "candle": 8220,
      "neckl": 8221,
      "discussion": 8222,
      "acquaint": 8223,
      "mcdonalds": 8224,
      "cushi": 8225,
      "##gues": 8226,
      "stays": 8227,
      "bench": 8228,
      "ratt": 8229,
      "carrot": 8230,
      "?'": 8231,
      "noon": 8232,
      "##ilton": 8233,
      "hoor": 8234,
      "guards": 8235,
      "ceased": 8236,
      "boring": 8237,
      "sean": 8238,
      "shelf": 8239,
      "##issed": 8240,
      "regarded": 8241,
      "dew": 8242,
      "basis": 8243,
      "millions": 8244,
      "spray": 8245,
      "faithful": 8246,
      "sticky": 8247,
      "stephen": 8248,
      "appropri": 8249,
      "bald": 8250,
      "mour": 8251,
      "ri": 8252,
      "##oto": 8253,
      "cheek": 8254,
      "liberty": 8255,
      "exhib": 8256,
      "flies": 8257,
      "##mann": 8258,
      "engineer": 8259,
      "absor": 8260,
      "napp": 8261,
      "photo": 8262,
      "composed": 8263,
      "clears": 8264,
      "illeg": 8265,
      "douglas": 8266,
      "38": 8267,
      "##dles": 8268,
      "glue": 8269,
      "cooked": 8270,
      "skirt": 8271,
      "bapt": 8272,
      "fetch": 8273,
      "ira": 8274,
      "##bing": 8275,
      "cattle": 8276,
      "elections": 8277,
      "recovered": 8278,
      "agricult": 8279,
      "bure": 8280,
      "worm": 8281,
      "##oses": 8282,
      "joan": 8283,
      "confl": 8284,
      "##hole": 8285,
      "device": 8286,
      "hitting": 8287,
      "tis": 8288,
      "##iac": 8289,
      "##inging": 8290,
      "##ington": 8291,
      "fisher": 8292,
      "hastily": 8293,
      "existence": 8294,
      "hooray": 8295,
      "item": 8296,
      "chef": 8297,
      "tire": 8298,
      "##aid": 8299,
      "##esome": 8300,
      "scor": 8301,
      "humph": 8302,
      "picardie": 8303,
      "##eav": 8304,
      "amos": 8305,
      "era": 8306,
      "monkeys": 8307,
      "attitude": 8308,
      "obst": 8309,
      "constantly": 8310,
      "kangaroo": 8311,
      "eliminated": 8312,
      "19th": 8313,
      "directions": 8314,
      "##town": 8315,
      "##mates": 8316,
      "183": 8317,
      "affected": 8318,
      "digger": 8319,
      "literally": 8320,
      "##rd": 8321,
      "snakes": 8322,
      "dwell": 8323,
      "pipp": 8324,
      "apply": 8325,
      "##ricts": 8326,
      "closet": 8327,
      "nephew": 8328,
      "poured": 8329,
      "suicide": 8330,
      "theme": 8331,
      "ending": 8332,
      "label": 8333,
      "ease": 8334,
      "##rim": 8335,
      "stab": 8336,
      "stress": 8337,
      "##ourt": 8338,
      "mars": 8339,
      "commit": 8340,
      "##bbie": 8341,
      "sailors": 8342,
      "waving": 8343,
      "44": 8344,
      "hired": 8345,
      "circles": 8346,
      "suggestion": 8347,
      "gazed": 8348,
      "voyage": 8349,
      "]...": 8350,
      "##outs": 8351,
      "parr": 8352,
      "minnes": 8353,
      "lightning": 8354,
      "carrots": 8355,
      "congratulations": 8356,
      "tut": 8357,
      "terribly": 8358,
      "kit": 8359,
      "ther": 8360,
      "##olk": 8361,
      "proced": 8362,
      "cheering": 8363,
      "sailed": 8364,
      "remarkable": 8365,
      "feathers": 8366,
      "##bors": 8367,
      "hah": 8368,
      "##ogue": 8369,
      "geo": 8370,
      "profession": 8371,
      "rainbow": 8372,
      "yeh": 8373,
      "##ustomed": 8374,
      "minnesota": 8375,
      "foss": 8376,
      "lloy": 8377,
      "moore": 8378,
      "naked": 8379,
      "duties": 8380,
      "gloves": 8381,
      "argument": 8382,
      "victims": 8383,
      "pace": 8384,
      "##icated": 8385,
      "##ema": 8386,
      "enorm": 8387,
      "airlines": 8388,
      "meters": 8389,
      "costume": 8390,
      "cd": 8391,
      "##esc": 8392,
      "awesome": 8393,
      "grounds": 8394,
      "acknow": 8395,
      "hollow": 8396,
      "genus": 8397,
      "miller": 8398,
      "batteries": 8399,
      "48": 8400,
      "kong": 8401,
      "##raine": 8402,
      "outer": 8403,
      "northwest": 8404,
      "software": 8405,
      "visitor": 8406,
      "status": 8407,
      "instrument": 8408,
      "impatient": 8409,
      "dent": 8410,
      "invite": 8411,
      "##aks": 8412,
      "raven": 8413,
      "revenge": 8414,
      "##inent": 8415,
      "snack": 8416,
      "operations": 8417,
      "holidays": 8418,
      "chan": 8419,
      "flav": 8420,
      "neverth": 8421,
      "##���": 8422,
      "solar": 8423,
      "sympathy": 8424,
      "##tub": 8425,
      "fled": 8426,
      "endeav": 8427,
      "survey": 8428,
      "encoun": 8429,
      "sandwiches": 8430,
      "constituency": 8431,
      "categ": 8432,
      "pon": 8433,
      "##rie": 8434,
      "tha": 8435,
      "attorn": 8436,
      "senator": 8437,
      "roses": 8438,
      "nam": 8439,
      "portion": 8440,
      "ashore": 8441,
      "incredible": 8442,
      "##otic": 8443,
      "dock": 8444,
      "kne": 8445,
      "proph": 8446,
      "intr": 8447,
      "overt": 8448,
      "steep": 8449,
      "yelling": 8450,
      "philad": 8451,
      "insisted": 8452,
      "kenneth": 8453,
      "nevertheless": 8454,
      "gulf": 8455,
      "##orous": 8456,
      "comed": 8457,
      "slice": 8458,
      "bars": 8459,
      "sharply": 8460,
      "ker": 8461,
      "yan": 8462,
      "##vo": 8463,
      "babbling": 8464,
      "silk": 8465,
      "claimed": 8466,
      "industrial": 8467,
      "resources": 8468,
      "##owing": 8469,
      "##sex": 8470,
      "trace": 8471,
      "##iences": 8472,
      "##mony": 8473,
      "##ux": 8474,
      "iris": 8475,
      "1965": 8476,
      "cops": 8477,
      "organized": 8478,
      "dealing": 8479,
      "dennis": 8480,
      "##yard": 8481,
      "##hl": 8482,
      "twin": 8483,
      "##ova": 8484,
      "feature": 8485,
      "kindness": 8486,
      "##heim": 8487,
      "crowded": 8488,
      "administr": 8489,
      "bicycle": 8490,
      "sie": 8491,
      "vroom": 8492,
      "warn": 8493,
      "satell": 8494,
      "gabrie": 8495,
      "cze": 8496,
      "curios": 8497,
      "ceremony": 8498,
      "concluded": 8499,
      "thorn": 8500,
      "contents": 8501,
      "mae": 8502,
      "rabbits": 8503,
      "tucker": 8504,
      "dah": 8505,
      "chum": 8506,
      "tricks": 8507,
      "blast": 8508,
      "founder": 8509,
      "districts": 8510,
      "regional": 8511,
      "diagn": 8512,
      "mead": 8513,
      "rav": 8514,
      "##like": 8515,
      "haul": 8516,
      "taxi": 8517,
      "fiction": 8518,
      "cod": 8519,
      "explosion": 8520,
      "chasing": 8521,
      "mothers": 8522,
      "1961": 8523,
      "limit": 8524,
      "possibility": 8525,
      "wrapped": 8526,
      "kin": 8527,
      "ss": 8528,
      "##armed": 8529,
      "phr": 8530,
      "significant": 8531,
      "taylor": 8532,
      "lloyd": 8533,
      "mes": 8534,
      "##iven": 8535,
      "comin": 8536,
      "##encies": 8537,
      "awk": 8538,
      "behavior": 8539,
      "candidate": 8540,
      "columbia": 8541,
      "oxygen": 8542,
      "khan": 8543,
      "##tes": 8544,
      "gerva": 8545,
      "1947": 8546,
      "1945": 8547,
      "reference": 8548,
      "grabs": 8549,
      "55": 8550,
      "reception": 8551,
      "bride": 8552,
      "enters": 8553,
      "##agger": 8554,
      "emot": 8555,
      "centuries": 8556,
      "refuse": 8557,
      "visible": 8558,
      "extraord": 8559,
      "semi": 8560,
      "jury": 8561,
      "##urbed": 8562,
      "debbie": 8563,
      "abra": 8564,
      "heading": 8565,
      "sis2": 8566,
      "katie": 8567,
      "audrey": 8568,
      "supreme": 8569,
      "yer": 8570,
      "yuck": 8571,
      "trim": 8572,
      "##igan": 8573,
      "amused": 8574,
      "##oused": 8575,
      "childhood": 8576,
      "disaster": 8577,
      "eva": 8578,
      "southeast": 8579,
      "coward": 8580,
      "copies": 8581,
      "railroad": 8582,
      "subjects": 8583,
      "400": 8584,
      "65": 8585,
      "rein": 8586,
      "monsters": 8587,
      "earthqu": 8588,
      "alien": 8589,
      "ignor": 8590,
      "additional": 8591,
      "##achi": 8592,
      "jackie": 8593,
      "personally": 8594,
      "metropol": 8595,
      "budd": 8596,
      "blessed": 8597,
      "sel": 8598,
      "mock": 8599,
      "leather": 8600,
      "smack": 8601,
      "muttered": 8602,
      "accompanied": 8603,
      "##elphia": 8604,
      "canal": 8605,
      "sul": 8606,
      "natives": 8607,
      "midst": 8608,
      "unconscious": 8609,
      "feared": 8610,
      "##inating": 8611,
      "##acity": 8612,
      "twins": 8613,
      "##velope": 8614,
      "raising": 8615,
      "symptoms": 8616,
      "mice": 8617,
      "viv": 8618,
      "##rin": 8619,
      "conven": 8620,
      "envelope": 8621,
      "pops": 8622,
      "1962": 8623,
      "beaten": 8624,
      "episodes": 8625,
      "vegetables": 8626,
      "races": 8627,
      "##ption": 8628,
      "resolved": 8629,
      "situ": 8630,
      "musician": 8631,
      "germans": 8632,
      "##omi": 8633,
      "nel": 8634,
      "strongly": 8635,
      "1952": 8636,
      "domestic": 8637,
      "cone": 8638,
      "##car": 8639,
      "hend": 8640,
      "loft": 8641,
      "warned": 8642,
      "1963": 8643,
      "\"),": 8644,
      "introduce": 8645,
      "awkward": 8646,
      "rebe": 8647,
      "##tery": 8648,
      "adults": 8649,
      "movements": 8650,
      "deaths": 8651,
      "##shire": 8652,
      "pierre": 8653,
      "oswald": 8654,
      "inquir": 8655,
      "dragged": 8656,
      "orchestra": 8657,
      "##rich": 8658,
      "##zing": 8659,
      "bean": 8660,
      "gettin": 8661,
      "throne": 8662,
      "##pton": 8663,
      "singles": 8664,
      "generous": 8665,
      "1959": 8666,
      "garbage": 8667,
      "luke": 8668,
      "necklace": 8669,
      "czech": 8670,
      "39": 8671,
      "ny": 8672,
      "##bly": 8673,
      "##put": 8674,
      "startled": 8675,
      "yells": 8676,
      "cowboy": 8677,
      "resistance": 8678,
      "complicated": 8679,
      "nails": 8680,
      "vin": 8681,
      "##mal": 8682,
      "##esar": 8683,
      "print": 8684,
      "bills": 8685,
      "jennie": 8686,
      "concept": 8687,
      "appointment": 8688,
      "depos": 8689,
      "philadelphia": 8690,
      "##force": 8691,
      "breeze": 8692,
      "wool": 8693,
      "spani": 8694,
      "bacon": 8695,
      "hip": 8696,
      "##hu": 8697,
      "lover": 8698,
      "ruin": 8699,
      "##amation": 8700,
      "causing": 8701,
      "neighbors": 8702,
      "obtained": 8703,
      "ballet": 8704,
      "memories": 8705,
      "bunk": 8706,
      "xv": 8707,
      "##iour": 8708,
      "##eder": 8709,
      "lil": 8710,
      "yourselves": 8711,
      "##osis": 8712,
      "overall": 8713,
      "searching": 8714,
      "obvious": 8715,
      "cared": 8716,
      "judy": 8717,
      "motorcy": 8718,
      "##ico": 8719,
      "reflect": 8720,
      "1958": 8721,
      "absence": 8722,
      "materials": 8723,
      "vest": 8724,
      "dod": 8725,
      "firing": 8726,
      "newman": 8727,
      "cather": 8728,
      "perfor": 8729,
      "gardens": 8730,
      "views": 8731,
      "applied": 8732,
      "hans": 8733,
      "ras": 8734,
      "inner": 8735,
      "##ands": 8736,
      "inte": 8737,
      "flung": 8738,
      "daylight": 8739,
      "coron": 8740,
      "angle": 8741,
      "angela": 8742,
      "murmured": 8743,
      "inher": 8744,
      "##ifying": 8745,
      "seventh": 8746,
      "bounce": 8747,
      "jill": 8748,
      "mik": 8749,
      "chalk": 8750,
      "childs": 8751,
      "facts": 8752,
      "scenes": 8753,
      "gig": 8754,
      "##with": 8755,
      "grief": 8756,
      "hums": 8757,
      "confusion": 8758,
      "pandemic": 8759,
      "bureau": 8760,
      "gervaise": 8761,
      "##una": 8762,
      "mistaken": 8763,
      "worthy": 8764,
      "selfish": 8765,
      "barking": 8766,
      "delicate": 8767,
      "dipl": 8768,
      "rack": 8769,
      "##wes": 8770,
      "##lle": 8771,
      "roots": 8772,
      "interf": 8773,
      "starred": 8774,
      "michelle": 8775,
      "anxiously": 8776,
      "##adesh": 8777,
      "narrator": 8778,
      "instruments": 8779,
      "dash": 8780,
      "##hical": 8781,
      "abroad": 8782,
      "juan": 8783,
      "tube": 8784,
      "apologize": 8785,
      "tremendous": 8786,
      "43": 8787,
      "kl": 8788,
      "kam": 8789,
      "superior": 8790,
      "1948": 8791,
      "kicking": 8792,
      "squirrel": 8793,
      "worldwide": 8794,
      "consp": 8795,
      "bronze": 8796,
      "##apore": 8797,
      "marine": 8798,
      "hugh": 8799,
      "##ysis": 8800,
      "babe": 8801,
      "passes": 8802,
      "covering": 8803,
      "troubled": 8804,
      "elephants": 8805,
      "frequently": 8806,
      "emphas": 8807,
      "46": 8808,
      "_s": 8809,
      "arose": 8810,
      "nas": 8811,
      "##gage": 8812,
      "marvel": 8813,
      "mounted": 8814,
      "chickens": 8815,
      "injury": 8816,
      "##mun": 8817,
      "##bal": 8818,
      "##orus": 8819,
      "##acles": 8820,
      "vehic": 8821,
      "detect": 8822,
      "delivered": 8823,
      "aaron": 8824,
      "tang": 8825,
      "singapore": 8826,
      "consum": 8827,
      "install": 8828,
      "pumpkin": 8829,
      "aeroplane": 8830,
      "conflict": 8831,
      "dared": 8832,
      "invitation": 8833,
      "bloss": 8834,
      "surre": 8835,
      "accustomed": 8836,
      "hurting": 8837,
      "geoff": 8838,
      "questioned": 8839,
      "smells": 8840,
      "poetry": 8841,
      "avenue": 8842,
      "eagle": 8843,
      "##bai": 8844,
      "lasted": 8845,
      "hatch": 8846,
      "lookee": 8847,
      "digital": 8848,
      "impressed": 8849,
      "##ugs": 8850,
      "biography": 8851,
      "preparing": 8852,
      "[$=": 8853,
      "attorney": 8854,
      "kite": 8855,
      "neut": 8856,
      "reputation": 8857,
      "entering": 8858,
      "enterpr": 8859,
      "forests": 8860,
      "bou": 8861,
      "hath": 8862,
      "ming": 8863,
      "render": 8864,
      "sponge": 8865,
      "offers": 8866,
      "##izations": 8867,
      "accused": 8868,
      "footballer": 8869,
      "gown": 8870,
      "##omed": 8871,
      "adu": 8872,
      "leads": 8873,
      "massive": 8874,
      "##cules": 8875,
      "rage": 8876,
      "##12": 8877,
      "##aya": 8878,
      "alab": 8879,
      "1950": 8880,
      "contained": 8881,
      "olive": 8882,
      "increasing": 8883,
      "critical": 8884,
      "curiosity": 8885,
      "mp": 8886,
      "sall": 8887,
      "hopefully": 8888,
      "choos": 8889,
      "operating": 8890,
      "cultural": 8891,
      "##standing": 8892,
      "ohio": 8893,
      "##kers": 8894,
      "sometime": 8895,
      "##izz": 8896,
      "catal": 8897,
      "infant": 8898,
      "subs": 8899,
      "ruined": 8900,
      "##avery": 8901,
      "core": 8902,
      "dean": 8903,
      "breaks": 8904,
      "crawl": 8905,
      "sacrif": 8906,
      "decent": 8907,
      "claire": 8908,
      "enormous": 8909,
      "vehicles": 8910,
      "sacrifice": 8911,
      "tables": 8912,
      "manners": 8913,
      "eyed": 8914,
      "printed": 8915,
      "communist": 8916,
      "describ": 8917,
      "praise": 8918,
      "##western": 8919,
      "##wan": 8920,
      "solution": 8921,
      "inspector": 8922,
      "rol": 8923,
      "sack": 8924,
      "##dog": 8925,
      "##isse": 8926,
      "underground": 8927,
      "reviews": 8928,
      "jasper": 8929,
      "cust": 8930,
      "dug": 8931,
      "conver": 8932,
      "norman": 8933,
      "depression": 8934,
      "announce": 8935,
      "gathering": 8936,
      "cabinet": 8937,
      "uncomfort": 8938,
      "nelson": 8939,
      "rebecca": 8940,
      "hedge": 8941,
      "ket": 8942,
      "sobb": 8943,
      "worship": 8944,
      "lazy": 8945,
      "secrets": 8946,
      "peach": 8947,
      "##borough": 8948,
      "eri": 8949,
      "fake": 8950,
      "mim": 8951,
      "##vant": 8952,
      "##master": 8953,
      "root": 8954,
      "norway": 8955,
      "sweets": 8956,
      "deliber": 8957,
      "octop": 8958,
      "articles": 8959,
      "extraordinary": 8960,
      "dup": 8961,
      "##cake": 8962,
      "##abor": 8963,
      "lend": 8964,
      "trailer": 8965,
      "las": 8966,
      "lions": 8967,
      "##asion": 8968,
      "##ealed": 8969,
      "##ainted": 8970,
      "guar": 8971,
      "genius": 8972,
      "puzzled": 8973,
      "dak": 8974,
      "##uan": 8975,
      "shem": 8976,
      "##ifer": 8977,
      "crane": 8978,
      "happily": 8979,
      "babys": 8980,
      "clubs": 8981,
      "shells": 8982,
      "blues": 8983,
      "austrian": 8984,
      "jet": 8985,
      "##thy": 8986,
      "physics": 8987,
      "provinces": 8988,
      "74": 8989,
      "kun": 8990,
      "heels": 8991,
      "advis": 8992,
      "julie": 8993,
      "fashioned": 8994,
      "dashed": 8995,
      "rival": 8996,
      "rushing": 8997,
      "heath": 8998,
      "##usc": 8999,
      "comments": 9000,
      "travelling": 9001,
      "employed": 9002,
      "communication": 9003,
      "pel": 9004,
      "boxer": 9005,
      "associated": 9006,
      "firmly": 9007,
      "journalist": 9008,
      "##itors": 9009,
      "unique": 9010,
      "##say": 9011,
      "atom": 9012,
      "bris": 9013,
      "checking": 9014,
      "wolves": 9015,
      "despair": 9016,
      "''": 9017,
      "zone": 9018,
      "emmy": 9019,
      "owners": 9020,
      "##inny": 9021,
      "songwriter": 9022,
      "potential": 9023,
      "1946": 9024,
      "destruction": 9025,
      "oscar": 9026,
      "wret": 9027,
      "##corn": 9028,
      "twist": 9029,
      "hugo": 9030,
      "shield": 9031,
      "recon": 9032,
      "##brush": 9033,
      "1957": 9034,
      "global": 9035,
      "##lement": 9036,
      "##ldom": 9037,
      "reject": 9038,
      "potty": 9039,
      "villages": 9040,
      "computers": 9041,
      "tribes": 9042,
      "##arse": 9043,
      "##ima": 9044,
      "alp": 9045,
      "bubble": 9046,
      "writes": 9047,
      "youngest": 9048,
      "cert": 9049,
      "##ikes": 9050,
      "claims": 9051,
      "leaning": 9052,
      "slippers": 9053,
      "64": 9054,
      "tires": 9055,
      "roast": 9056,
      "##iley": 9057,
      "laying": 9058,
      "considering": 9059,
      "corporation": 9060,
      "95": 9061,
      "##itage": 9062,
      "joking": 9063,
      "remi": 9064,
      "##ibly": 9065,
      "collar": 9066,
      "collected": 9067,
      "lawrence": 9068,
      "brazilian": 9069,
      "85": 9070,
      "##ded": 9071,
      "thread": 9072,
      "##itals": 9073,
      "mosc": 9074,
      "pros": 9075,
      "assume": 9076,
      "sweep": 9077,
      "pajamas": 9078,
      "lengthened": 9079,
      "representative": 9080,
      "bleeding": 9081,
      "##rog": 9082,
      "elector": 9083,
      "bbc": 9084,
      "wy": 9085,
      "bew": 9086,
      "##ili": 9087,
      "lookin": 9088,
      "##rah": 9089,
      "colony": 9090,
      "instinct": 9091,
      "harvey": 9092,
      "kidna": 9093,
      "insist": 9094,
      "burnt": 9095,
      "aliens": 9096,
      "##rified": 9097,
      "kilomet": 9098,
      "revealed": 9099,
      "merchant": 9100,
      "##aria": 9101,
      "laur": 9102,
      "patri": 9103,
      "counties": 9104,
      "harriet": 9105,
      "robber": 9106,
      "tests": 9107,
      "childsname": 9108,
      "jumps": 9109,
      "vul": 9110,
      "##gas": 9111,
      "prosec": 9112,
      "swung": 9113,
      "effie": 9114,
      "##pleas": 9115,
      "autumn": 9116,
      "lollip": 9117,
      "##burn": 9118,
      "ink": 9119,
      "select": 9120,
      "brac": 9121,
      "appeal": 9122,
      "creation": 9123,
      "180": 9124,
      "floating": 9125,
      "spoons": 9126,
      "testing": 9127,
      "crisis": 9128,
      "sear": 9129,
      "helmet": 9130,
      "billboard": 9131,
      "cannon": 9132,
      "sharing": 9133,
      "candles": 9134,
      "environmental": 9135,
      "elevator": 9136,
      "drowned": 9137,
      "calend": 9138,
      "cable": 9139,
      "dna": 9140,
      "##rad": 9141,
      "##ete": 9142,
      "invented": 9143,
      "precise": 9144,
      "wrap": 9145,
      "creep": 9146,
      "terrific": 9147,
      "urban": 9148,
      "mischief": 9149,
      "farmers": 9150,
      "practical": 9151,
      "cares": 9152,
      "magnific": 9153,
      "stripes": 9154,
      "ach": 9155,
      "theater": 9156,
      "begged": 9157,
      "##ghan": 9158,
      "archer": 9159,
      "##enses": 9160,
      "refuge": 9161,
      "wendy": 9162,
      "oranges": 9163,
      "midship": 9164,
      "skills": 9165,
      "conservative": 9166,
      "graduated": 9167,
      "catherine": 9168,
      "cel": 9169,
      "om": 9170,
      "weary": 9171,
      "blake": 9172,
      "resem": 9173,
      "ruff": 9174,
      "uttered": 9175,
      "hei": 9176,
      "waist": 9177,
      "bedtime": 9178,
      "harrison": 9179,
      "welsh": 9180,
      "experienced": 9181,
      "negro": 9182,
      "venture": 9183,
      "electronic": 9184,
      "cot": 9185,
      "listed": 9186,
      "personality": 9187,
      "landl": 9188,
      "dang": 9189,
      "una": 9190,
      "intent": 9191,
      "1955": 9192,
      "convention": 9193,
      "queens": 9194,
      "alcohol": 9195,
      "visiting": 9196,
      "179": 9197,
      "hamilton": 9198,
      "supporting": 9199,
      "electrical": 9200,
      "tas": 9201,
      "whip": 9202,
      "spaces": 9203,
      "timber": 9204,
      "loan": 9205,
      "expand": 9206,
      "appet": 9207,
      "indist": 9208,
      "lego": 9209,
      "cousins": 9210,
      "negot": 9211,
      "bacter": 9212,
      "inclined": 9213,
      "nappie": 9214,
      "moscow": 9215,
      "pots": 9216,
      "##eur": 9217,
      "aloud": 9218,
      "amid": 9219,
      "solo": 9220,
      "churches": 9221,
      "renew": 9222,
      "possessed": 9223,
      "egyptian": 9224,
      "caleb": 9225,
      "alternative": 9226,
      "borders": 9227,
      "?]": 9228,
      "seldom": 9229,
      "grows": 9230,
      "bands": 9231,
      "effective": 9232,
      "encourage": 9233,
      "clo": 9234,
      "scattered": 9235,
      "minus": 9236,
      "accur": 9237,
      "poem": 9238,
      "crashed": 9239,
      "counted": 9240,
      "resting": 9241,
      "pockets": 9242,
      "widely": 9243,
      "borough": 9244,
      "sheriff": 9245,
      "waved": 9246,
      "):": 9247,
      "##avis": 9248,
      "accounts": 9249,
      "informed": 9250,
      "reasonable": 9251,
      "bananas": 9252,
      "attempted": 9253,
      "cure": 9254,
      "jing": 9255,
      "zip": 9256,
      "##rac": 9257,
      "stall": 9258,
      "drank": 9259,
      "thankful": 9260,
      "##group": 9261,
      "balt": 9262,
      "loaded": 9263,
      "granted": 9264,
      "kel": 9265,
      "shade": 9266,
      "shepher": 9267,
      "behave": 9268,
      "opposition": 9269,
      "admiral": 9270,
      "pronounced": 9271,
      "helpless": 9272,
      "hearted": 9273,
      "annual": 9274,
      "tones": 9275,
      "protected": 9276,
      "mississ": 9277,
      "bundle": 9278,
      "conductor": 9279,
      "conclusion": 9280,
      "hud": 9281,
      "##ras": 9282,
      "##aring": 9283,
      "handker": 9284,
      "footst": 9285,
      "meetings": 9286,
      "incor": 9287,
      "classical": 9288,
      "goddess": 9289,
      "cunning": 9290,
      "##cat": 9291,
      "##erg": 9292,
      "##etime": 9293,
      "leap": 9294,
      "karl": 9295,
      "housing": 9296,
      "automob": 9297,
      "session": 9298,
      "##away": 9299,
      "orph": 9300,
      "arc": 9301,
      "carter": 9302,
      "naval": 9303,
      "grain": 9304,
      "1954": 9305,
      "debt": 9306,
      "combined": 9307,
      "swinging": 9308,
      "motorcycle": 9309,
      "hv": 9310,
      "sty": 9311,
      "##olis": 9312,
      "1949": 9313,
      "favourite": 9314,
      "integr": 9315,
      "49": 9316,
      "_the": 9317,
      "##dling": 9318,
      "##dled": 9319,
      "##ament": 9320,
      "longest": 9321,
      "laz": 9322,
      "lighted": 9323,
      "camping": 9324,
      "stealing": 9325,
      "suspected": 9326,
      "appropriate": 9327,
      "dess": 9328,
      "rim": 9329,
      "therap": 9330,
      "##bec": 9331,
      "182": 9332,
      "poop": 9333,
      "cyr": 9334,
      "uncomfortable": 9335,
      "handkerchief": 9336,
      ";\"": 9337,
      "##unks": 9338,
      "dischar": 9339,
      "patience": 9340,
      "horrid": 9341,
      "1960s": 9342,
      "mant": 9343,
      "##omon": 9344,
      "##erec": 9345,
      "mini": 9346,
      "balloons": 9347,
      "louisiana": 9348,
      "dispos": 9349,
      "grunting": 9350,
      "##roach": 9351,
      "images": 9352,
      "breed": 9353,
      "surrounding": 9354,
      "goddam": 9355,
      "divorce": 9356,
      "prospect": 9357,
      "untrans": 9358,
      "_p": 9359,
      "annabel": 9360,
      "sighed": 9361,
      "tastes": 9362,
      "020": 9363,
      "mul": 9364,
      "nit": 9365,
      "yach": 9366,
      "yield": 9367,
      "##enna": 9368,
[...]
