{
  "version": "1.0",
  "truncation": null,
  "padding": null,
  "added_tokens": [
    {
      "id": 0,
      "content": "<pad>",
      "single_word": false,
      "lstrip": false,
      "rstrip": false,
      "normalized": false,
      "special": true
    },
    {
      "id": 1,
      "content": "<s>",
      "single_word": false,
      "lstrip": false,
      "rstrip": false,
      "normalized": false,
      "special": true
    },
    {
      "id": 2,
      "content": "</s>",
      "single_word": false,
      "lstrip": false,
      "rstrip": false,
      "normalized": false,
      "special": true
    }
  ],
  "normalizer": {
    "type": "NFKC"
  },
  "pre_tokenizer": {
    "type": "ByteLevel",
    "add_prefix_space": true,
    "trim_offsets": true,
    "use_regex": true
  },
  "post_processor": {
    "type": "ByteLevel",
    "add_prefix_space": true,
    "trim_offsets": true,
    "use_regex": true
  },
  "decoder": {
    "type": "ByteLevel",
    "add_prefix_space": true,
    "trim_offsets": true,
    "use_regex": true
  },
  "model": {
    "type": "BPE",
    "dropout": null,
    "unk_token": null,
    "continuing_subword_prefix": null,
    "end_of_word_suffix": null,
    "fuse_unk": false,
    "byte_fallback": false,
    "vocab": {
      "<pad>": 0,
      "<s>": 1,
      "</s>": 2,
      "!": 3,
      "\"": 4,
      "#": 5,
      "$": 6,
      "%": 7,
      "&": 8,
      "'": 9,
      "(": 10,
      ")": 11,
      "*": 12,
      "+": 13,
      ",": 14,
      "-": 15,
      ".": 16,
      "/": 17,
      "0": 18,
      "1": 19,
      "2": 20,
      "3": 21,
      "4": 22,
      "5": 23,
      "6": 24,
      "7": 25,
      "8": 26,
      "9": 27,
      ":": 28,
      ";": 29,
      "<": 30,
      "=": 31,
      ">": 32,
      "?": 33,
      "@": 34,
      "A": 35,
      "B": 36,
      "C": 37,
      "D": 38,
      "E": 39,
      "F": 40,
      "G": 41,
      "H": 42,
      "I": 43,
      "J": 44,
      "K": 45,
      "L": 46,
      "M": 47,
      "N": 48,
      "O": 49,
      "P": 50,
      "Q": 51,
      "R": 52,
      "S": 53,
      "T": 54,
      "U": 55,
      "V": 56,
      "W": 57,
      "X": 58,
      "Y": 59,
      "Z": 60,
      "[": 61,
      "\\": 62,
      "]": 63,
      "^": 64,
      "_": 65,
      "`": 66,
      "a": 67,
      "b": 68,
      "c": 69,
      "d": 70,
      "e": 71,
      "f": 72,
      "g": 73,
      "h": 74,
      "i": 75,
      "j": 76,
      "k": 77,
      "l": 78,
      "m": 79,
      "n": 80,
      "o": 81,
      "p": 82,
      "q": 83,
      "r": 84,
      "s": 85,
      "t": 86,
      "u": 87,
      "v": 88,
      "w": 89,
      "x": 90,
      "y": 91,
      "z": 92,
      "{": 93,
      "|": 94,
      "}": 95,
      "~": 96,
      "¡": 97,
      "¢": 98,
      "£": 99,
      "¤": 100,
      "¥": 101,
      "¦": 102,
      "§": 103,
      "¨": 104,
      "©": 105,
      "ª": 106,
      "«": 107,
      "¬": 108,
      "®": 109,
      "¯": 110,
      "°": 111,
      "±": 112,
      "²": 113,
      "³": 114,
      "´": 115,
      "µ": 116,
      "¶": 117,
      "·": 118,
      "¸": 119,
      "¹": 120,
      "º": 121,
      "»": 122,
      "¼": 123,
      "½": 124,
      "¾": 125,
      "¿": 126,
      "Â": 127,
      "Ã": 128,
      "Ä": 129,
      "Å": 130,
      "Æ": 131,
      "Ç": 132,
      "È": 133,
      "É": 134,
      "Ê": 135,
      "Ë": 136,
      "×": 137,
      "Ø": 138,
      "Ù": 139,
      "à": 140,
      "á": 141,
      "â": 142,
      "ã": 143,
      "ê": 144,
      "ï": 145,
      "ð": 146,
      "ó": 147,
      "ô": 148,
      "ĉ": 149,
      "Ċ": 150,
      "Ġ": 151,
      "ġ": 152,
      "Ģ": 153,
      "ģ": 154,
      "Ĥ": 155,
      "ĥ": 156,
      "Ħ": 157,
      "ħ": 158,
      "Ĩ": 159,
      "ĩ": 160,
      "Ī": 161,
      "ī": 162,
      "Ĭ": 163,
      "ĭ": 164,
      "Į": 165,
      "į": 166,
      "İ": 167,
      "ı": 168,
      "Ĳ": 169,
      "ĳ": 170,
      "Ĵ": 171,
      "ĵ": 172,
      "Ķ": 173,
      "ķ": 174,
      "ĸ": 175,
      "Ĺ": 176,
      "ĺ": 177,
      "Ļ": 178,
      "ļ": 179,
      "Ľ": 180,
      "ľ": 181,
      "Ŀ": 182,
      "ŀ": 183,
      "Ł": 184,
      "ł": 185,
      "Ń": 186,
      "Ġt": 187,
      "he": 188,
      "Ġa": 189,
      "in": 190,
      "Ġ*": 191,
      "ou": 192,
      "Ġthe": 193,
      "Ġw": 194,
      "re": 195,
      "Ġs": 196,
      "ha": 197,
      "on": 198,
      "er": 199,
      "Ġb": 200,
      "it": 201,
      "nd": 202,
      "is": 203,
      "Ġc": 204,
      "Ġm": 205,
      "ĠĊ": 206,
      "Ġo": 207,
      "Ġd": 208,
      "ing": 209,
      "Ġf": 210,
      "ll": 211,
      "OT": 212,
      "MOT": 213,
      "Ġy": 214,
      "Ġto": 215,
      "an": 216,
      "or": 217,
      "ed": 218,
      "es": 219,
      "ĠI": 220,
      "hat": 221,
      "Ġyou": 222,
      "Ġp": 223,
      "en": 224,
      "CH": 225,
      "Ġg": 226,
      "CHI": 227,
      "Ġl": 228,
      "ar": 229,
      "Ġand": 230,
      "Ġof": 231,
      "as": 232,
      "Ġin": 233,
      "no": 234,
      "at": 235,
      "om": 236,
      "Ġhe": 237,
      "'s": 238,
      "Ġh": 239,
      "Ġha": 240,
      "le": 241,
      "Ġit": 242,
      "ve": 243,
      "ay": 244,
      "et": 245,
      "ic": 246,
      "Ġon": 247,
      "Ġth": 248,
      "ĠT": 249,
      "us": 250,
      "Ġthat": 251,
      "gh": 252,
      "id": 253,
      "Ġbe": 254,
      "oo": 255,
      "ĠA": 256,
      "Ġis": 257,
      "al": 258,
      "ut": 259,
      "ld": 260,
      "ow": 261,
      "Ġe": 262,
      "Ġno": 263,
      "Ġwe": 264,
      "Ġwas": 265,
      "ĠS": 266,
      "'t": 267,
      "im": 268,
      "ac": 269,
      "ad": 270,
      "ke": 271,
      "ot": 272,
      "ver": 273,
      "Ġre": 274,
      "ri": 275,
      "ĠM": 276,
      "..": 277,
      "ght": 278,
      "Ġn": 279,
      "se": 280,
      "ir": 281,
      "Ġfor": 282,
      "ly": 283,
      "ĠB": 284,
      "ĠW": 285,
      "Ġdo": 286,
      "ent": 287,
      "Ġst": 288,
      "ion": 289,
      "Ġ=": 290,
      "ĠH": 291,
      "am": 292,
      "Ġu": 293,
      "out": 294,
      "st": 295,
      "Ġk": 296,
      "ro": 297,
      "ith": 298,
      "ĠC": 299,
      "Ġ\"": 300,
      "ea": 301,
      "âĢ": 302,
      "Ġme": 303,
      "her": 304,
      "ĠThe": 305,
      "Ġwith": 306,
      "ome": 307,
      "Ġ[": 308,
      "all": 309,
      "and": 310,
      "Ġgo": 311,
      "ur": 312,
      "ch": 313,
      "Ġas": 314,
      "Ġse": 315,
      "Ġli": 316,
      "Ġan": 317,
      "ter": 318,
      "Ġat": 319,
      "ĠY": 320,
      "ill": 321,
      "Ġnot": 322,
      "Ġwh": 323,
      "ould": 324,
      "Ġhave": 325,
      "Ġthis": 326,
      "now": 327,
      "ce": 328,
      "ĠD": 329,
      "Ġare": 330,
      "ook": 331,
      "ust": 332,
      "ĠP": 333,
      "ell": 334,
      "ĠN": 335,
      "Ġ-": 336,
      "if": 337,
      "ant": 338,
      "Ġhis": 339,
      "um": 340,
      "ct": 341,
      "il": 342,
      "un": 343,
      "ain": 344,
      "Ġknow": 345,
      "Ġthey": 346,
      "eah": 347,
      "Ġone": 348,
      "xx": 349,
      "ĠO": 350,
      "Ġr": 351,
      "here": 352,
      "IN": 353,
      "Ġher": 354,
      "Ġup": 355,
      "...": 356,
      "Ġcan": 357,
      "Ġyour": 358,
      "ĠG": 359,
      "th": 360,
      "Ġj": 361,
      "Ġthere": 362,
      "pp": 363,
      "ore": 364,
      "ĠL": 365,
      "Ġne": 366,
      "ie": 367,
      "Ġdon": 368,
      "Ġwhat": 369,
      "Ġso": 370,
      "Ġhad": 371,
      "Ġshe": 372,
      "ge": 373,
      "ĠF": 374,
      "our": 375,
      "Ġall": 376,
      "INV": 377,
      "op": 378,
      "Ġmy": 379,
      "Ġfr": 380,
      "ĠJ": 381,
      "Ġsh": 382,
      "ab": 383,
      "Ġsa": 384,
      "ĠR": 385,
      "ack": 386,
      "Ġ1": 387,
      "el": 388,
      "Ġout": 389,
      "Ġlike": 390,
      "ood": 391,
      "ight": 392,
      "oh": 393,
      "ul": 394,
      "ink": 395,
      "ol": 396,
      "'re": 397,
      "Ġhim": 398,
      "ĠE": 399,
      "ĠHe": 400,
      "ig": 401,
      "art": 402,
      "AT": 403,
      "ake": 404,
      "ry": 405,
      "Ġab": 406,
      "Ġget": 407,
      "ck": 408,
      "ĠIt": 409,
      "Ġpl": 410,
      "hen": 411,
      "Ġfrom": 412,
      "Ġbut": 413,
      "right": 414,
      "Ġde": 415,
      "Ġal": 416,
      "ers": 417,
      "han": 418,
      "red": 419,
      "very": 420,
      "ation": 421,
      "Ġsee": 422,
      "ess": 423,
      "Ġwere": 424,
      "what": 425,
      "you": 426,
      "one": 427,
      "ound": 428,
      "Ġdid": 429,
      "Ġor": 430,
      "ra": 431,
      "'m": 432,
      "ist": 433,
      "est": 434,
      "qu": 435,
      "Ġsu": 436,
      "ard": 437,
      "ind": 438,
      "ĠYou": 439,
      "Ġby": 440,
      "Ġthem": 441,
      "os": 442,
      "ame": 443,
      "ther": 444,
      "itt": 445,
      "ong": 446,
      "na": 447,
      "nt": 448,
      "FAT": 449,
      "Ġsome": 450,
      "use": 451,
      "own": 452,
      "Ġgot": 453,
      "Ġcom": 454,
      "ak": 455,
      "Ġthink": 456,
      "Ġwor": 457,
      "Ġabout": 458,
      "Ġlook": 459,
      "Ġ2": 460,
      "ast": 461,
      "ĠâĢ": 462,
      "ally": 463,
      "Ġhere": 464,
      "yeah": 465,
      "Ġsp": 466,
      "Ġwant": 467,
      "res": 468,
      "Ġjust": 469,
      "ive": 470,
      "'ll": 471,
      "em": 472,
      "ep": 473,
      "Ġsaid": 474,
      "Ġcon": 475,
      "Ġ(": 476,
      "Ġv": 477,
      "Ġwould": 478,
      "ap": 479,
      "].": 480,
      "ick": 481,
      "ice": 482,
      "ate": 483,
      "Ġif": 484,
      "od": 485,
      "Ġex": 486,
      "xxx": 487,
      "ber": 488,
      "Ġthen": 489,
      "Ġwho": 490,
      "ough": 491,
      "ime": 492,
      "Ġman": 493,
      "Ġany": 494,
      "ort": 495,
      "fe": 496,
      "Ġnow": 497,
      "ine": 498,
      "hi": 499,
      "kay": 500,
      "Ġwhen": 501,
      "ven": 502,
      "ich": 503,
      "are": 504,
      "Ġright": 505,
      "hing": 506,
      "Ġus": 507,
      "Ġsay": 508,
      "ĠâĢľ": 509,
      ".\"": 510,
      "that": 511,
      "Ġwill": 512,
      "ide": 513,
      "âĢĿ": 514,
      "ear": 515,
      "Ġtw": 516,
      "Ġtr": 517,
      "ag": 518,
      "ittle": 519,
      "Ġint": 520,
      "--": 521,
      "Ġbo": 522,
      "ca": 523,
      "ous": 524,
      "âĢĻ": 525,
      "'ve": 526,
      "Ġdown": 527,
      "Ġpro": 528,
      "au": 529,
      "Ġgoing": 530,
      "way": 531,
      "Ġag": 532,
      "Ġback": 533,
      "ies": 534,
      "ost": 535,
      "Ġbeen": 536,
      "Ġlittle": 537,
      "Ġput": 538,
      "Ġcl": 539,
      "ĠAnd": 540,
      "Ġtime": 541,
      "ĠK": 542,
      "ose": 543,
      "Ġcould": 544,
      "end": 545,
      "Ġ19": 546,
      "Ġhas": 547,
      "Ġgood": 548,
      "Ġoff": 549,
      "ĠĠ": 550,
      "Ġover": 551,
      "ne": 552,
      "Ġar": 553,
      "ace": 554,
      "Ġmore": 555,
      "Ġ20": 556,
      "uh": 557,
      "we": 558,
      "my": 559,
      "lf": 560,
      "cause": 561,
      "Ġtoo": 562,
      "Ġvery": 563,
      "Ġtheir": 564,
      "ity": 565,
      "yes": 566,
      "the": 567,
      "ĠWhat": 568,
      "Ġro": 569,
      "Ġwhich": 570,
      "ove": 571,
      "ree": 572,
      "ite": 573,
      "Ġpe": 574,
      "Ġother": 575,
      "so": 576,
      "ure": 577,
      "Ġqu": 578,
      "ĠU": 579,
      "ish": 580,
      "Ġtwo": 581,
      "Ġthing": 582,
      "ft": 583,
      "Ġbr": 584,
      "Ġplay": 585,
      "ud": 586,
      "Ġfe": 587,
      "alk": 588,
      ",\"": 589,
      "ĠTh": 590,
      "Ġgr": 591,
      "Ġxxx": 592,
      "Ġ'": 593,
      "Ġaf": 594,
      "Ġle": 595,
      "pe": 596,
      "reat": 597,
      "urn": 598,
      "Ġbl": 599,
      "ond": 600,
      "age": 601,
      "Ġcome": 602,
      "omet": 603,
      "ue": 604,
      "ĠSt": 605,
      "ĠIn": 606,
      "hed": 607,
      "orn": 608,
      "ment": 609,
      "ian": 610,
      "ĠNo": 611,
      "hy": 612,
      "other": 613,
      "ho": 614,
      "onna": 615,
      "Ġinto": 616,
      "ought": 617,
      "ty": 618,
      "ople": 619,
      "ĠWe": 620,
      "ps": 621,
      "ia": 622,
      "Ġer": 623,
      "Ġagain": 624,
      "irst": 625,
      "ĠBut": 626,
      "Ġway": 627,
      "ass": 628,
      "be": 629,
      "Ġgonna": 630,
      "ĠShe": 631,
      "ble": 632,
      "Ġhow": 633,
      "iv": 634,
      "Ġen": 635,
      "ade": 636,
      "uck": 637,
      "add": 638,
      "Ġmake": 639,
      "Ġwhere": 640,
      "Ġdoes": 641,
      "Ġwork": 642,
      ".=": 643,
      "pl": 644,
      "ire": 645,
      "Ġthan": 646,
      "iss": 647,
      "Ġwell": 648,
      "ase": 649,
      "ary": 650,
      "do": 651,
      "ater": 652,
      "Ġpeople": 653,
      "Ġsomet": 654,
      "ount": 655,
      "ĠYeah": 656,
      "Ġpr": 657,
      "ĠOh": 658,
      "Ġcall": 659,
      "Ġcar": 660,
      "Ġam": 661,
      "Ġco": 662,
      "int": 663,
      "Ġtake": 664,
      "Ġfl": 665,
      "Ġday": 666,
      "ci": 667,
      "Ġfirst": 668,
      "ran": 669,
      "pt": 670,
      "okay": 671,
      "Ġmean": 672,
      "Ġtell": 673,
      "ise": 674,
      "per": 675,
      "Ġneed": 676,
      "Ġhand": 677,
      "ov": 678,
      "Ġafter": 679,
      "self": 680,
      "ull": 681,
      "Ġpart": 682,
      "uch": 683,
      "ĠThey": 684,
      "ff": 685,
      "ord": 686,
      "act": 687,
      "ng": 688,
      "Ġbet": 689,
      "fore": 690,
      "Ġlet": 691,
      "ĠThat": 692,
      "mer": 693,
      "ark": 694,
      "where": 695,
      "Ġour": 696,
      "Ġonly": 697,
      "ather": 698,
      "nder": 699,
      "Ġthr": 700,
      "Ġshould": 701,
      "ĠMr": 702,
      "Ġsha": 703,
      "wn": 704,
      "hm": 705,
      "ys": 706,
      "Ġevery": 707,
      "cl": 708,
      "augh": 709,
      "ting": 710,
      "ouse": 711,
      "able": 712,
      "ach": 713,
      "ool": 714,
      "Ġdidn": 715,
      "thing": 716,
      "av": 717,
      "ĠV": 718,
      "Ġpo": 719,
      "Ġmuch": 720,
      "iz": 721,
      "ress": 722,
      "Ġun": 723,
      "there": 724,
      "ady": 725,
      "Ġhapp": 726,
      "Ġcha": 727,
      "Ġsomething": 728,
      "Ġte": 729,
      "irl": 730,
      "Ġpre": 731,
      "ile": 732,
      "ĠSo": 733,
      "ub": 734,
      "Ġmade": 735,
      "Ġreally": 736,
      "Ġyear": 737,
      "Ġbig": 738,
      "Ġthese": 739,
      "les": 740,
      "ren": 741,
      "Ġad": 742,
      "anna": 743,
      "day": 744,
      "Ġlong": 745,
      "Ġdis": 746,
      "Ġsm": 747,
      "AR": 748,
      "Ġgu": 749,
      "cc": 750,
      "Ġbecause": 751,
      "Ġtalk": 752,
      "ory": 753,
      "Ġaway": 754,
      "man": 755,
      "Ġsc": 756,
      "ict": 757,
      "ated": 758,
      "ah": 759,
      "hild": 760,
      "ĠWell": 761,
      "hes": 762,
      "get": 763,
      "ions": 764,
      "Ġbefore": 765,
      "Ġcomp": 766,
      "'d": 767,
      "ied": 768,
      "ĠThis": 769,
      "Ġim": 770,
      "Ġke": 771,
      "ang": 772,
      "Ġgirl": 773,
      "Ġwent": 774,
      "ody": 775,
      "Ġrem": 776,
      "ving": 777,
      "Ġunder": 778,
      "ob": 779,
      "let": 780,
      "Ġdoing": 781,
      "?\"": 782,
      "oll": 783,
      "Ġwr": 784,
      "riend": 785,
      "og": 786,
      "ence": 787,
      "Ġold": 788,
      "Ġcr": 789,
      "look": 790,
      "ward": 791,
      "but": 792,
      "Ġact": 793,
      "ix": 794,
      "Ġwanna": 795,
      "tain": 796,
      "ĠThere": 797,
      "atch": 798,
      "Ġchild": 799,
      "Ġalso": 800,
      "Ġapp": 801,
      "ons": 802,
      "ful": 803,
      "Ġthought": 804,
      "Ġnever": 805,
      "Ġch": 806,
      "Ġhel": 807,
      "Ġturn": 808,
      "Ġhome": 809,
      "ried": 810,
      "Ġask": 811,
      "ip": 812,
      "Ġcame": 813,
      "Ġsec": 814,
      "oc": 815,
      "nother": 816,
      "well": 817,
      "00": 818,
      "Ġthree": 819,
      "Ġthings": 820,
      "Ġthose": 821,
      "Ġbu": 822,
      "Ġhead": 823,
      "gg": 824,
      "Ġper": 825,
      "Ġmay": 826,
      "ĠĠĠĠ": 827,
      "ock": 828,
      "up": 829,
      "ors": 830,
      "Ġmust": 831,
      "Ġbook": 832,
      "old": 833,
      "Ġnew": 834,
      "ĠCh": 835,
      "ens": 836,
      "Ġthrough": 837,
      "Ġgreat": 838,
      "ance": 839,
      "Ġhouse": 840,
      "Ġfind": 841,
      "Ġeven": 842,
      "ath": 843,
      "ny": 844,
      "Ġ%": 845,
      ".]": 846,
      "Ġmany": 847,
      "Ġstart": 848,
      "ks": 849,
      "ved": 850,
      "Ġbit": 851,
      "ily": 852,
      "can": 853,
      "Ġanother": 854,
      "ĠYes": 855,
      "ĠUn": 856,
      "Ġeat": 857,
      "ings": 858,
      "aby": 859,
      "Ġstill": 860,
      "ened": 861,
      "lease": 862,
      "ave": 863,
      "ect": 864,
      "ru": 865,
      "akes": 866,
      "EX": 867,
      "Ġgive": 868,
      "ait": 869,
      "Ġwon": 870,
      "Ġ201": 871,
      "ans": 872,
      "laugh": 873,
      "Ġdone": 874,
      "come": 875,
      "Ġhelp": 876,
      "Ġboy": 877,
      "oy": 878,
      "ummy": 879,
      "Ġsl": 880,
      "Ġlast": 881,
      "aking": 882,
      "land": 883,
      "ail": 884,
      "Ġcont": 885,
      "EXP": 886,
      "Ġmight": 887,
      "Ġres": 888,
      "ious": 889,
      "Ġfound": 890,
      "Ġlea": 891,
      "ild": 892,
      "Ġcalled": 893,
      "air": 894,
      "igh": 895,
      ".âĢĿ": 896,
      "xt": 897,
      "ign": 898,
      "Ġser": 899,
      "te": 900,
      "Ġtry": 901,
      "ww": 902,
      "ves": 903,
      "chool": 904,
      "Ġshow": 905,
      "aw": 906,
      "TE": 907,
      "rd": 908,
      "ually": 909,
      "Ġmin": 910,
      "Ġchan": 911,
      "med": 912,
      "Ġfriend": 913,
      "Ġlot": 914,
      "Ġbel": 915,
      "oot": 916,
      "ult": 917,
      "Ġlove": 918,
      "Ġel": 919,
      "side": 920,
      "ms": 921,
      "ates": 922,
      "huh": 923,
      "body": 924,
      "Ġisn": 925,
      "Ġnight": 926,
      "ars": 927,
      "Ġdif": 928,
      "ling": 929,
      "als": 930,
      "ĠHow": 931,
      "Ġop": 932,
      "Ġname": 933,
      "IS": 934,
      "Ġbot": 935,
      "ember": 936,
      "oss": 937,
      "Ġaround": 938,
      "Ġmov": 939,
      "Ġown": 940,
      "Ġmother": 941,
      "Ġbetter": 942,
      ",âĢĿ": 943,
      "oney": 944,
      "Ġmom": 945,
      "Ġits": 946,
      "Ġgl": 947,
      "Ġche": 948,
      "ces": 949,
      "ever": 950,
      "Ġkind": 951,
      "Ġmost": 952,
      "ĠIf": 953,
      "Ġend": 954,
      "Ġâ": 955,
      "Ġuh": 956,
      "rent": 957,
      "Ġrec": 958,
      "Ġcare": 959,
      "vers": 960,
      "Ġplace": 961,
      "Ġcount": 962,
      "ical": 963,
      "Ġfeel": 964,
      "Ġcomm": 965,
      "Ġbeing": 966,
      "Ġwater": 967,
      "Ġyears": 968,
      "ye": 969,
      "port": 970,
      "ited": 971,
      "ways": 972,
      "imes": 973,
      "Ġbaby": 974,
      "Ġroom": 975,
      "Ġsure": 976,
      "Ġcour": 977,
      "Ġschool": 978,
      "!\"": 979,
      "ĠIs": 980,
      "Ġwhy": 981,
      "Ġatt": 982,
      "Ġused": 983,
      "inn": 984,
      "ere": 985,
      "Ġkeep": 986,
      "amp": 987,
      "ont": 988,
      "ee": 989,
      "Ġokay": 990,
      "led": 991,
      "ĠAs": 992,
      "this": 993,
      "Ġbeg": 994,
      "ew": 995,
      "for": 996,
      "Ġsuch": 997,
      "ĠDo": 998,
      "ĠAl": 999,
      "Ġwhile": 1000,
      "row": 1001,
      "Ġelse": 1002,
      "Ġlife": 1003,
      "Ġfour": 1004,
      "Ġyeah": 1005,
      "Ġdoesn": 1006,
      "Ġdes": 1007,
      "Ġsame": 1008,
      "outh": 1009,
      "Ġanything": 1010,
      "Ġfin": 1011,
      "AN": 1012,
      "Ġnice": 1013,
      "ĠBr": 1014,
      "Ġrun": 1015,
      "RO": 1016,
      "laughs": 1017,
      "Ġsupp": 1018,
      "Ġbus": 1019,
      "they": 1020,
      "ike": 1021,
      "mhm": 1022,
      "Ġear": 1023,
      "orry": 1024,
      "Ġnext": 1025,
      "ince": 1026,
      "addy": 1027,
      "ute": 1028,
      "how": 1029,
      "ĠMar": 1030,
      "ations": 1031,
      "Ġyes": 1032,
      "Ġbre": 1033,
      "atter": 1034,
      "Ġlooks": 1035,
      "ĠBe": 1036,
      "ta": 1037,
      "du": 1038,
      "Ġ3": 1039,
      "ĠAn": 1040,
      "ss": 1041,
      "Ġwee": 1042,
      "Ġtold": 1043,
      "Ġsaw": 1044,
      "Ġalways": 1045,
      "ition": 1046,
      "ced": 1047,
      "ican": 1048,
      "ds": 1049,
      "ump": 1050,
      "ction": 1051,
      "Ġdr": 1052,
      "Ġsit": 1053,
      "Ġleft": 1054,
      "pped": 1055,
      "mp": 1056,
      "Ġset": 1057,
      "ung": 1058,
      "Ġfar": 1059,
      "Ġread": 1060,
      "AD": 1061,
      "leep": 1062,
      "ident": 1063,
      "Ġcol": 1064,
      "Ġmon": 1065,
      "ins": 1066,
      "Ġsw": 1067,
      "Ġfather": 1068,
      "she": 1069,
      "ĠAll": 1070,
      "Ġerm": 1071,
      "Ġdiffe": 1072,
      "raw": 1073,
      "aught": 1074,
      "ï¿": 1075,
      "ï¿½": 1076,
      "hank": 1077,
      "Ġpret": 1078,
      "ug": 1079,
      "Ġgone": 1080,
      "The": 1081,
      "ĠAmer": 1082,
      "ĠTH": 1083,
      "Ġhard": 1084,
      "Ġmen": 1085,
      "Ġuse": 1086,
      "Ġfam": 1087,
      "not": 1088,
      "oun": 1089,
      "Ġball": 1090,
      "ness": 1091,
      "Ġ200": 1092,
      "ream": 1093,
      "Ġever": 1094,
      "mm": 1095,
      "Ġunt": 1096,
      "ister": 1097,
      "Ġcle": 1098,
      "Ġsays": 1099,
      "und": 1100,
      "Ġtook": 1101,
      "Ġgoes": 1102,
      "ĠDon": 1103,
      "SIS": 1104,
      "Ġdoor": 1105,
      "Ġhold": 1106,
      "ĠThen": 1107,
      "ret": 1108,
      "Ġbed": 1109,
      "Ġele": 1110,
      "Ġmoney": 1111,
      "mber": 1112,
      "Ġfun": 1113,
      "orning": 1114,
      "Ġpoint": 1115,
      "ĠNow": 1116,
      "vel": 1117,
      "Ġpol": 1118,
      "Ġret": 1119,
      "ĠFran": 1120,
      "who": 1121,
      "Ġwait": 1122,
      "Ġpres": 1123,
      "erson": 1124,
      "Ġsur": 1125,
      "de": 1126,
      "Ġthough": 1127,
      "Ġcoming": 1128,
      "ished": 1129,
      "Ġnum": 1130,
      "ĠWhy": 1131,
      "Ġwalk": 1132,
      "vent": 1133,
      "Ġenough": 1134,
      "ĠAr": 1135,
      "ger": 1136,
      "Ġwom": 1137,
      "az": 1138,
      "ĠWhen": 1139,
      "Ġac": 1140,
      "Ġbox": 1141,
      "Ļª": 1142,
      "gether": 1143,
      "pect": 1144,
      "gr": 1145,
      "ries": 1146,
      "ph": 1147,
      "Ġkne": 1148,
      "une": 1149,
      "ower": 1150,
      "Ġface": 1151,
      "Ġplease": 1152,
      "Ġeyes": 1153,
      "Ġacc": 1154,
      "Ġyoung": 1155,
      "to": 1156,
      "ĠOn": 1157,
      "oup": 1158,
      "Ġhear": 1159,
      "why": 1160,
      "Ġob": 1161,
      "Ġside": 1162,
      "Ġstr": 1163,
      "bab": 1164,
      "ĠCha": 1165,
      "Ġuntil": 1166,
      "Ġmorning": 1167,
      "Ġcourse": 1168,
      "ec": 1169,
      "Ġreal": 1170,
      "Ġquite": 1171,
      "rew": 1172,
      "ired": 1173,
      "put": 1174,
      "uff": 1175,
      "Ġopen": 1176,
      "ellow": 1177,
      "fta": 1178,
      "Ġbelie": 1179,
      "go": 1180,
      "me": 1181,
      "Ġbir": 1182,
      "br": 1183,
      "ts": 1184,
      "Ġsing": 1185,
      "Ġasked": 1186,
      "ĠâĻª": 1187,
      "Ġlooking": 1188,
      "cle": 1189,
      "wh": 1190,
      "Ġfive": 1191,
      "ross": 1192,
      "Ġsecond": 1193,
      "ton": 1194,
      "leas": 1195,
      "Ġreg": 1196,
      "ier": 1197,
      "Ġseen": 1198,
      "Ġfew": 1199,
      "Ġpass": 1200,
      "Ġwar": 1201,
      "ible": 1202,
      "ollow": 1203,
      "Ġnothing": 1204,
      "don": 1205,
      "ctor": 1206,
      "Ġlight": 1207,
      "ope": 1208,
      "Ġent": 1209,
      "Ġdifferent": 1210,
      "Ġstand": 1211,
      "Ġdog": 1212,
      "Ġ_": 1213,
      "Ġhafta": 1214,
      "ational": 1215,
      "Ġdist": 1216,
      "Ġbest": 1217,
      "Ġworld": 1218,
      "ĠFor": 1219,
      "Ġkill": 1220,
      "reen": 1221,
      "Ġnear": 1222,
      "Ġround": 1223,
      "any": 1224,
      "Ġshall": 1225,
      "Ġhands": 1226,
      "Ġhur": 1227,
      "Ġmar": 1228,
      "ial": 1229,
      "Ġstay": 1230,
      "ĠAt": 1231,
      "ĠDe": 1232,
      "Ġsound": 1233,
      "uring": 1234,
      "Ġsmall": 1235,
      "Ġpick": 1236,
      "Ġ202": 1237,
      "ank": 1238,
      "Ġknown": 1239,
      "oor": 1240,
      "ten": 1241,
      "Ġtogether": 1242,
      "Ġpie": 1243,
      "ween": 1244,
      "ning": 1245,
      "mb": 1246,
      "ents": 1247,
      "Ġgetting": 1248,
      "ER": 1249,
      "ash": 1250,
      "Ġremember": 1251,
      "Ġonce": 1252,
      "ris": 1253,
      "eak": 1254,
      "Ġyet": 1255,
      "tern": 1256,
      "Ġdri": 1257,
      "\".": 1258,
      "ĠCome": 1259,
      "Ġsk": 1260,
      "Ġdear": 1261,
      "Ġwind": 1262,
      "Ġsoon": 1263,
      "Ġtoday": 1264,
      "----": 1265,
      "Ġrel": 1266,
      "ures": 1267,
      "Ġfall": 1268,
      "Ġsleep": 1269,
      "Ġsix": 1270,
      "MA": 1271,
      "TEA": 1272,
      "Ġboth": 1273,
      "Ġtrain": 1274,
      "did": 1275,
      "Ġchar": 1276,
      "ES": 1277,
      "ĠMrs": 1278,
      "Ġbad": 1279,
      "ĠMy": 1280,
      "Ġpict": 1281,
      "orth": 1282,
      "ĠMiss": 1283,
      "Ġmil": 1284,
      "anc": 1285,
      "Ġheard": 1286,
      "ĠOkay": 1287,
      "ush": 1288,
      "sh": 1289,
      "Ġter": 1290,
      "Ġwatch": 1291,
      "ina": 1292,
      "),": 1293,
      "ĠGr": 1294,
      "ĠLet": 1295,
      "Ġhimself": 1296,
      "Ġlooked": 1297,
      "Ġeach": 1298,
      "ĠNew": 1299,
      "ib": 1300,
      "iet": 1301,
      "tle": 1302,
      "ating": 1303,
      "Ġchildren": 1304,
      "ics": 1305,
      "ohn": 1306,
      "ĠEr": 1307,
      "Ġfire": 1308,
      "Ġmind": 1309,
      "Ġoh": 1310,
      "ĠNot": 1311,
      "rist": 1312,
      "ener": 1313,
      "ĠCl": 1314,
      "Ġupon": 1315,
      "Ġ18": 1316,
      "Ġlist": 1317,
      "Ġperson": 1318,
      "Ġbro": 1319,
      "MCH": 1320,
      "Ġcap": 1321,
      "its": 1322,
      "ines": 1323,
      "Ġhappened": 1324,
      "Ġwithout": 1325,
      "Ġbetween": 1326,
      "Ġleave": 1327,
      "ĠSp": 1328,
      "Ġfollow": 1329,
      "Ġum": 1330,
      "fect": 1331,
      "ĠCan": 1332,
      "ason": 1333,
      "Ġhalf": 1334,
      "Ġsort": 1335,
      "ject": 1336,
      "Ġhat": 1337,
      "ular": 1338,
      "You": 1339,
      "Ġhaven": 1340,
      "Ġrest": 1341,
      "oe": 1342,
      "less": 1343,
      "Ġhaving": 1344,
      "ames": 1345,
      "ged": 1346,
      "Ġwanted": 1347,
      "ĠGod": 1348,
      "ats": 1349,
      "âĢĶ": 1350,
      "ĠEng": 1351,
      "Ġstory": 1352,
      "Ġlater": 1353,
      "BRO": 1354,
      "ets": 1355,
      "oon": 1356,
      "aper": 1357,
      "ĠAf": 1358,
      "Ġdec": 1359,
      "most": 1360,
      "ale": 1361,
      "ball": 1362,
      "der": 1363,
      "Ġph": 1364,
      "Ġinst": 1365,
      "stand": 1366,
      "ĠMay": 1367,
      "Ġbec": 1368,
      "ĠBl": 1369,
      "ched": 1370,
      "Ġtalking": 1371,
      "Ġsorry": 1372,
      "ĠHey": 1373,
      "ife": 1374,
      "Ġlar": 1375,
      "ork": 1376,
      "io": 1377,
      "Ġmus": 1378,
      "Ġfoot": 1379,
      "cha": 1380,
      "Ġnumber": 1381,
      "Ġmatter": 1382,
      "Ġ199": 1383,
      "ready": 1384,
      "ĠUnited": 1385,
      "ertain": 1386,
      "aut": 1387,
      "bo": 1388,
      "Oh": 1389,
      "ĠAmerican": 1390,
      "Ġtable": 1391,
      "Ġair": 1392,
      "Ġcons": 1393,
      "ane": 1394,
      "Ġknew": 1395,
      "dd": 1396,
      "Ġ4": 1397,
      "sel": 1398,
      "eth": 1399,
      "Ġhigh": 1400,
      "Ġwond": 1401,
      "cial": 1402,
      "Ġtop": 1403,
      "Ġpretty": 1404,
      "Ġalong": 1405,
      "Ġhour": 1406,
      "Ġheart": 1407,
      "unt": 1408,
      "Ġstop": 1409,
      "Ġdire": 1410,
      "Ġri": 1411,
      "Ġred": 1412,
      "ters": 1413,
      "www": 1414,
      "ĠFr": 1415,
      "Ġdep": 1416,
      "ĠMm": 1417,
      "ĠJohn": 1418,
      "Ġmaking": 1419,
      "Ġready": 1420,
      ").": 1421,
      "ï¿½ï¿½": 1422,
      "ern": 1423,
      "ows": 1424,
      "Ġinv": 1425,
      "Ġans": 1426,
      "osed": 1427,
      "Ġeverything": 1428,
      "Ġagainst": 1429,
      "Ġgave": 1430,
      "ĠInd": 1431,
      "Ġid": 1432,
      "ĠJust": 1433,
      "iness": 1434,
      "uss": 1435,
      "ubl": 1436,
      "Ġsy": 1437,
      "OU": 1438,
      "GMA": 1439,
      "Ġlive": 1440,
      "Ġwasn": 1441,
      "hip": 1442,
      "ĠMummy": 1443,
      "wo": 1444,
      "ual": 1445,
      "Ġdied": 1446,
      "Ġboys": 1447,
      "Ġmove": 1448,
      "Ġhor": 1449,
      "?âĢĿ": 1450,
      "Ġwhe": 1451,
      "Ġdays": 1452,
      "erest": 1453,
      "oint": 1454,
      "Ġbreak": 1455,
      "\",": 1456,
      "ully": 1457,
      "ommy": 1458,
      "Ġanim": 1459,
      "idd": 1460,
      "Ġcut": 1461,
      "ĠRe": 1462,
      "ĠTHE": 1463,
      "Ġtra": 1464,
      "clud": 1465,
      "ither": 1466,
      "Ġimp": 1467,
      "Ġstud": 1468,
      "ĠCar": 1469,
      "ĠCHI": 1470,
      "Ġlaugh": 1471,
      "Ġ5": 1472,
      "Ġmiss": 1473,
      "ĠGo": 1474,
      "Ġvo": 1475,
      "Ġbelieve": 1476,
      "Ġfamily": 1477,
      "cept": 1478,
      "Ġmoment": 1479,
      "Ġnoise": 1480,
      "ches": 1481,
      "It": 1482,
      "eter": 1483,
      "Ġcity": 1484,
      "Ġactually": 1485,
      "Ġsince": 1486,
      "PAR": 1487,
      "Ġreturn": 1488,
      "ma": 1489,
      "app": 1490,
      "Ġdrink": 1491,
      "zz": 1492,
      "enty": 1493,
      "see": 1494,
      "ants": 1495,
      "ision": 1496,
      "Ġbring": 1497,
      "Ġstarted": 1498,
      "ĠJack": 1499,
      "Ġadd": 1500,
      "ĠChrist": 1501,
      "Ġind": 1502,
      "Ġborn": 1503,
      "bably": 1504,
      "Ġass": 1505,
      "ĠWho": 1506,
      "ĠHis": 1507,
      "ax": 1508,
      "Ġtrying": 1509,
      "Ġwhole": 1510,
      "aster": 1511,
      "Ġbas": 1512,
      "wards": 1513,
      "Ġinterest": 1514,
      "Ġtri": 1515,
      "by": 1516,
      "ery": 1517,
      "ered": 1518,
      "ĠWhere": 1519,
      "Ã©": 1520,
      "Ġpop": 1521,
      "vern": 1522,
      "Ġdisc": 1523,
      "ĠZ": 1524,
      "ING": 1525,
      "Ġcent": 1526,
      "omas": 1527,
      "Ġsaying": 1528,
      "Ġca": 1529,
      "ield": 1530,
      "read": 1531,
      "Ġeas": 1532,
      "ĠTo": 1533,
      "Ġfriends": 1534,
      "Ġfloor": 1535,
      "Ġmeet": 1536,
      "Ġblack": 1537,
      "Ġsub": 1538,
      "Ġcat": 1539,
      "Ġfood": 1540,
      "oke": 1541,
      "Ġcomes": 1542,
      "orrow": 1543,
      "Ġdel": 1544,
      "Ġwonder": 1545,
      "uth": 1546,
      "ĠAre": 1547,
      "ted": 1548,
      "Ġquest": 1549,
      "Ġchair": 1550,
      "Ġwouldn": 1551,
      "ying": 1552,
      "DAD": 1553,
      "Ġteam": 1554,
      "Ġalmost": 1555,
      "Ġbuild": 1556,
      "aid": 1557,
      "ustr": 1558,
      "ocal": 1559,
      "ony": 1560,
      "Ġste": 1561,
      "aj": 1562,
      "ined": 1563,
      "Ġalready": 1564,
      "Ġhair": 1565,
      "Ġclose": 1566,
      "Ġtown": 1567,
      "Ġunderstand": 1568,
      "Ġsir": 1569,
      "cess": 1570,
      "ĠRight": 1571,
      "Ġgirls": 1572,
      "Ġhot": 1573,
      "And": 1574,
      "Ġgame": 1575,
      "Ġplaying": 1576,
      "Ġposs": 1577,
      "ative": 1578,
      "aces": 1579,
      "Ġdro": 1580,
      "ĠCom": 1581,
      "Ġwrong": 1582,
      "sha": 1583,
      "ues": 1584,
      "Ġwhite": 1585,
      "aken": 1586,
      "Ġdraw": 1587,
      "Ġland": 1588,
      "ĠStates": 1589,
      "Ġbegan": 1590,
      "cy": 1591,
      "Ġbecame": 1592,
      "Ġword": 1593,
      "Ġsong": 1594,
      "ises": 1595,
      "ĠGer": 1596,
      "ring": 1597,
      "Ġminute": 1598,
      "Ġ198": 1599,
      "got": 1600,
      "Ġsign": 1601,
      "Ġpay": 1602,
      "Ġpain": 1603,
      "elt": 1604,
      "Ġsent": 1605,
      "ense": 1606,
      "ĠPr": 1607,
      "Ġkid": 1608,
      "EN": 1609,
      "Ġdoll": 1610,
      "Ġjob": 1611,
      "Ġblue": 1612,
      "Ġpicture": 1613,
      "Ġswe": 1614,
      "ĠSc": 1615,
      "ex": 1616,
      "ĠGood": 1617,
      "orm": 1618,
      "ole": 1619,
      "ĠOne": 1620,
      "ON": 1621,
      "Ġcontin": 1622,
      "hind": 1623,
      "oud": 1624,
      "ird": 1625,
      "ages": 1626,
      "Ġidea": 1627,
      "Ġinter": 1628,
      "ĠTom": 1629,
      "Ġinclud": 1630,
      "Ġmet": 1631,
      "kes": 1632,
      "Ġbrother": 1633,
      "Ġfact": 1634,
      "ital": 1635,
      "ize": 1636,
      "Ġtimes": 1637,
      "Ġgotta": 1638,
      "Ġpaper": 1639,
      "ster": 1640,
      "ĠWill": 1641,
      "Ġref": 1642,
      "Ġfeet": 1643,
      "ared": 1644,
      "Ġcolor": 1645,
      "ives": 1646,
      "cted": 1647,
      "ĠQ": 1648,
      "eb": 1649,
      "Ġbeaut": 1650,
      "Ġwoman": 1651,
      "ĠLook": 1652,
      "Ġrep": 1653,
      "ober": 1654,
      "ĠSh": 1655,
      "Ġexp": 1656,
      "ken": 1657,
      "Ġcountry": 1658,
      "ouch": 1659,
      "Ġspeak": 1660,
      "Ġson": 1661,
      "ene": 1662,
      "haps": 1663,
      "19": 1664,
      "Ġsqu": 1665,
      "ities": 1666,
      "Ġseemed": 1667,
      "Ġprobably": 1668,
      "airs": 1669,
      "Ġten": 1670,
      "Ġgi": 1671,
      "Ġleg": 1672,
      "just": 1673,
      "Ġfront": 1674,
      "itting": 1675,
      "ĠâĢĵ": 1676,
      "Ġguess": 1677,
      "Ġlost": 1678,
      "ape": 1679,
      "Well": 1680,
      "Ġspe": 1681,
      "good": 1682,
      "hey": 1683,
      "Ġduring": 1684,
      "Ġmovie": 1685,
      "Ġ6": 1686,
      "ivers": 1687,
      "room": 1688,
      "Ġvoice": 1689,
      "Ġcertain": 1690,
      "ently": 1691,
      "Ġconf": 1692,
      "FCH": 1693,
      "Ġlead": 1694,
      "Ġpur": 1695,
      "Ġpull": 1696,
      "EL": 1697,
      "Ġhope": 1698,
      "Ġfull": 1699,
      "Ġeight": 1700,
      "Ġcoll": 1701,
      "!âĢĿ": 1702,
      "Ġsat": 1703,
      "ĠPh": 1704,
      "Ġturned": 1705,
      "Ġbehind": 1706,
      "ert": 1707,
      "Ġhappy": 1708,
      "Ġproble": 1709,
      "Ġaw": 1710,
      "ĠĠĠĠĠĠĠĠ": 1711,
      "iver": 1712,
      "Ġquick": 1713,
      "Ġi": 1714,
      "Ġplayed": 1715,
      "Ġgreen": 1716,
      "key": 1717,
      "Ġbrought": 1718,
      "Ġsil": 1719,
      "Ġstuff": 1720,
      "Ġweek": 1721,
      "Ġtre": 1722,
      "Ġ.": 1723,
      "ner": 1724,
      "Ġmusic": 1725,
      "illy": 1726,
      "Ġext": 1727,
      "ĠDid": 1728,
      "Ġmeans": 1729,
      "Ġmonth": 1730,
      "ama": 1731,
      "Ġmakes": 1732,
      "Ġparty": 1733,
      "ple": 1734,
      "Ġshort": 1735,
      "Ġhum": 1736,
      "Ġoutside": 1737,
      "Ġhuh": 1738,
      "Ġlear": 1739,
      "Ġexc": 1740,
      "Ġfight": 1741,
      "ming": 1742,
      "UR": 1743,
      "Ġyourself": 1744,
      "Ġdead": 1745,
      "Ġable": 1746,
      "ured": 1747,
      "Ġaren": 1748,
      "Ġran": 1749,
      "ĠThank": 1750,
      "Ġ7": 1751,
      "because": 1752,
      "undred": 1753,
      "iful": 1754,
      "Ġoffic": 1755,
      "Ġwants": 1756,
      "Ġexpl": 1757,
      "Ġpoor": 1758,
      "like": 1759,
      "Ġ8": 1760,
      "ury": 1761,
      "Ġfine": 1762,
      "wer": 1763,
      "ided": 1764,
      "ĠAfter": 1765,
      "unch": 1766,
      "ica": 1767,
      "utes": 1768,
      "ipp": 1769,
      "ney": 1770,
      "Ġones": 1771,
      "ĠDaddy": 1772,
      "inner": 1773,
      "Ġ197": 1774,
      "ouble": 1775,
      "Ġplan": 1776,
      "Ġsim": 1777,
      "aur": 1778,
      "Ġsun": 1779,
      "ised": 1780,
      "fully": 1781,
      "Ġpiece": 1782,
      "ese": 1783,
      "iew": 1784,
      "ief": 1785,
      "ote": 1786,
      "rying": 1787,
      "Ġcur": 1788,
      "What": 1789,
      "ned": 1790,
      "oes": 1791,
      "Ġgener": 1792,
      "ĠSome": 1793,
      "Ġcouldn": 1794,
      "ments": 1795,
      "OR": 1796,
      "Ġoften": 1797,
      "Uh": 1798,
      "ĠHar": 1799,
      "Ġrecord": 1800,
      "Ġhundred": 1801,
      "ze": 1802,
      "lish": 1803,
      "Ġprom": 1804,
      "Mummy": 1805,
      "Ġtaken": 1806,
      "Ġdeath": 1807,
      "ĠHer": 1808,
      "Ġlate": 1809,
      "MAR": 1810,
      "rog": 1811,
      "Ġstick": 1812,
      "Ġless": 1813,
      "Ġprodu": 1814,
      "Ġbusiness": 1815,
      "Ġeng": 1816,
      "els": 1817,
      "Ġlarge": 1818,
      "ized": 1819,
      "Ġpu": 1820,
      "Yeah": 1821,
      "Ġmyself": 1822,
      "But": 1823,
      "Ġfell": 1824,
      "Ġtele": 1825,
      "Ġimport": 1826,
      "eng": 1827,
      "rap": 1828,
      "used": 1829,
      "Ġfore": 1830,
      "Ġdress": 1831,
      "Ġfelt": 1832,
      "Ġrepl": 1833,
      "Ġclot": 1834,
      "Ġvis": 1835,
      "Ġinc": 1836,
      "Ġhappen": 1837,
      "iam": 1838,
      "Ġmouth": 1839,
      "ĠFl": 1840,
      "Ġes": 1841,
      "Ġform": 1842,
      "ĠLe": 1843,
      "head": 1844,
      "ides": 1845,
      "Yes": 1846,
      "Ġline": 1847,
      "Ġage": 1848,
      "Ġmed": 1849,
      "oub": 1850,
      "ĠThomas": 1851,
      "Ġthank": 1852,
      "Ġmaybe": 1853,
      "Ġstre": 1854,
      "leased": 1855,
      "Ġrather": 1856,
      "Ġed": 1857,
      "bit": 1858,
      "ĠPro": 1859,
      "Ġminutes": 1860,
      "selves": 1861,
      "aim": 1862,
      "Ġev": 1863,
      "uc": 1864,
      "more": 1865,
      "arent": 1866,
      "Ġbear": 1867,
      "Ġgrand": 1868,
      "Ġcook": 1869,
      "ider": 1870,
      "Ġwords": 1871,
      "ĠGe": 1872,
      "bed": 1873,
      "ention": 1874,
      "Ġtaking": 1875,
      "ĠYour": 1876,
      "Ġrock": 1877,
      "sp": 1878,
      "Ġsister": 1879,
      "ik": 1880,
      "Ġmine": 1881,
      "ĠWith": 1882,
      "llo": 1883,
      "Ġinside": 1884,
      "Ġdark": 1885,
      "ator": 1886,
      "ific": 1887,
      "Ġbar": 1888,
      "umb": 1889,
      "Ġroad": 1890,
      "men": 1891,
      "Ġmain": 1892,
      "have": 1893,
      "olog": 1894,
      "bye": 1895,
      "thank": 1896,
      "ĠAb": 1897,
      "Ġjo": 1898,
      "||": 1899,
      "ards": 1900,
      "rench": 1901,
      "gy": 1902,
      "Ġago": 1903,
      "gan": 1904,
      "ara": 1905,
      "Ġbag": 1906,
      "Ġguy": 1907,
      "born": 1908,
      "ĠGerman": 1909,
      "Ġmag": 1910,
      "Ġwife": 1911,
      "We": 1912,
      "Ġhurt": 1913,
      "NAN": 1914,
      "ĠMOT": 1915,
      "Ġtree": 1916,
      "Ġem": 1917,
      "Ġwear": 1918,
      "form": 1919,
      "ĠCount": 1920,
      "fl": 1921,
      "Ġcup": 1922,
      "sing": 1923,
      "Ġ9": 1924,
      "Ġpresent": 1925,
      "Ġchange": 1926,
      "Ġgiven": 1927,
      "Ġgets": 1928,
      "ones": 1929,
      "sc": 1930,
      "No": 1931,
      "gin": 1932,
      "Ġbeautiful": 1933,
      "Ġ196": 1934,
      "Ġclass": 1935,
      "Ġstrong": 1936,
      "Ġfunny": 1937,
      "uhhuh": 1938,
      "Ġcase": 1939,
      "irty": 1940,
      "Ġserv": 1941,
      "enn": 1942,
      "amed": 1943,
      "ĠEx": 1944,
      "Ġhorse": 1945,
      "LD": 1946,
      "Ġpage": 1947,
      "ĠPhil": 1948,
      "Ġlisten": 1949,
      "ists": 1950,
      "Ġart": 1951,
      "RA": 1952,
      "Ġtrue": 1953,
      "That": 1954,
      "Ġcold": 1955,
      "Ġlady": 1956,
      "ĠWh": 1957,
      "Ġcir": 1958,
      "Ġpast": 1959,
      "Ġpower": 1960,
      "aughter": 1961,
      "ison": 1962,
      "Ġothers": 1963,
      "Ġpubl": 1964,
      "pri": 1965,
      "range": 1966,
      "Ġocc": 1967,
      "Ġtoys": 1968,
      "Ġbirth": 1969,
      "Ġpri": 1970,
      "dy": 1971,
      "ey": 1972,
      "Ġcried": 1973,
      "ĠX": 1974,
      "atur": 1975,
      "Ġmess": 1976,
      "Ġleast": 1977,
      "ffe": 1978,
      "Ġmark": 1979,
      "idge": 1980,
      "ĠGet": 1981,
      "ĠJan": 1982,
      "Ġdeal": 1983,
      "then": 1984,
      "Ġstate": 1985,
      "Ġalone": 1986,
      "Ġeither": 1987,
      "000": 1988,
      "Ġsn": 1989,
      "Ġworking": 1990,
      "ots": 1991,
      "Ġbody": 1992,
      "ĠChar": 1993,
      "Ġgovern": 1994,
      "Ġreac": 1995,
      "ĠHere": 1996,
      "Ġimportant": 1997,
      "ĠEnglish": 1998,
      "rest": 1999,
      "min": 2000,
      "son": 2001,
      "ĠPe": 2002,
      "itc": 2003,
      "ham": 2004,
      "morrow": 2005,
      "Ġgun": 2006,
      "ĠOr": 2007,
      "]?": 2008,
      "fic": 2009,
      "rie": 2010,
      "ained": 2011,
      "Ġquestion": 2012,
      "Ġground": 2013,
      "Ġtrans": 2014,
      "Ġcho": 2015,
      "Ġtea": 2016,
      "Ġgroup": 2017,
      "ĠPer": 2018,
      "ĠBrit": 2019,
      "Ġadv": 2020,
      "pr": 2021,
      "Ġwish": 2022,
      "Ġherself": 2023,
      "Ġarea": 2024,
      "artment": 2025,
      "Ġacross": 2026,
      "ĠBar": 2027,
      "Ġsometimes": 2028,
      "ately": 2029,
      "ism": 2030,
      "ians": 2031,
      "Ġsomeone": 2032,
      "does": 2033,
      "Ġsweet": 2034,
      "Ġ10": 2035,
      "Ġwood": 2036,
      "shall": 2037,
      "Ġclear": 2038,
      "Ġtwenty": 2039,
      "ept": 2040,
      "uro": 2041,
      "Ġpar": 2042,
      "Ġstar": 2043,
      "Ġfav": 2044,
      "olly": 2045,
      "Ġmilk": 2046,
      "Ġearly": 2047,
      "fort": 2048,
      "Ġsever": 2049,
      "Ġbuy": 2050,
      "Ġwomen": 2051,
      "Ġboat": 2052,
      "ĠAd": 2053,
      "Ġfing": 2054,
      "Ġgrow": 2055,
      "iversity": 2056,
      "Ġcreat": 2057,
      "Ġtoy": 2058,
      "iously": 2059,
      "Ġtill": 2060,
      "ĠBen": 2061,
      "Ġorder": 2062,
      "Ġcamp": 2063,
      "erv": 2064,
      "Ġexpect": 2065,
      "iding": 2066,
      "Ġpos": 2067,
      "ges": 2068,
      "Ġlaw": 2069,
      "ature": 2070,
      "stem": 2071,
      "ĠEd": 2072,
      "Ġhon": 2073,
      "ĠMe": 2074,
      "Ġfinished": 2075,
      "oops": 2076,
      "Ġrece": 2077,
      "iving": 2078,
      "ety": 2079,
      "Ġseveral": 2080,
      "Ġanimals": 2081,
      "icha": 2082,
      "ley": 2083,
      "Ġpolit": 2084,
      "ĠJap": 2085,
      "iting": 2086,
      "Ġfif": 2087,
      "when": 2088,
      "Ġyellow": 2089,
      "osp": 2090,
      "ĠFrance": 2091,
      "Ġfast": 2092,
      "acher": 2093,
      "ĠMan": 2094,
      "ĠFrench": 2095,
      "Ġwall": 2096,
      "Ġdinner": 2097,
      "Ġfair": 2098,
      "Ġhung": 2099,
      "Ġguys": 2100,
      "Ġwin": 2101,
      "bl": 2102,
      "icks": 2103,
      "ĠCap": 2104,
      "ana": 2105,
      "Ġresp": 2106,
      "ĠPar": 2107,
      "een": 2108,
      "ering": 2109,
      "night": 2110,
      "Ġlay": 2111,
      "Ġty": 2112,
      "Ġsum": 2113,
      "ĠBob": 2114,
      "over": 2115,
      "Ġjump": 2116,
      "Ġprot": 2117,
      "Ġpartic": 2118,
      "Ġthinking": 2119,
      "Ġfish": 2120,
      "Ġprov": 2121,
      "Ġquiet": 2122,
      "overed": 2123,
      "mon": 2124,
      "ĠWor": 2125,
      "ĠPl": 2126,
      "ĠKing": 2127,
      "ĠAh": 2128,
      "ued": 2129,
      "Ġopp": 2130,
      "two": 2131,
      "Ġtried": 2132,
      "ox": 2133,
      "Ġfuck": 2134,
      "Ġsea": 2135,
      "Ġmod": 2136,
      "ĠCon": 2137,
      "eared": 2138,
      "Ġfree": 2139,
      "ĠEl": 2140,
      "Ġsitting": 2141,
      "IC": 2142,
      "Ġcompany": 2143,
      "Ġmill": 2144,
      "fess": 2145,
      "ices": 2146,
      "ution": 2147,
      "ains": 2148,
      "Ġdar": 2149,
      "pping": 2150,
      "att": 2151,
      "Ġglad": 2152,
      "Ġ2020": 2153,
      "Ġphone": 2154,
      "ĠJune": 2155,
      "oof": 2156,
      "Ġthrow": 2157,
      "Ġfig": 2158,
      "yl": 2159,
      "ric": 2160,
      "uary": 2161,
      "Ġlad": 2162,
      "Ġblood": 2163,
      "ĠBy": 2164,
      "ĠJim": 2165,
      "alright": 2166,
      "ĠJapan": 2167,
      "raid": 2168,
      "iter": 2169,
      "Ġclean": 2170,
      "ford": 2171,
      "Ġpat": 2172,
      "rence": 2173,
      "Ġice": 2174,
      "Ġdoctor": 2175,
      "Ġfellow": 2176,
      "uly": 2177,
      "Ġwindow": 2178,
      "alth": 2179,
      "Ġseven": 2180,
      "Ġreason": 2181,
      "Ġkilled": 2182,
      "ĠBecause": 2183,
      "ĠGrand": 2184,
      "king": 2185,
      "ĠEvery": 2186,
      "com": 2187,
      "Ġallow": 2188,
      "aced": 2189,
      "ĠSe": 2190,
      "aser": 2191,
      "Ġchance": 2192,
      "irt": 2193,
      "LL": 2194,
      "Ġins": 2195,
      "aul": 2196,
      "ĠMarch": 2197,
      "Ġpen": 2198,
      "Ġliving": 2199,
      "cent": 2200,
      "Ġnorth": 2201,
      "ĠTr": 2202,
      "ĠYork": 2203,
      "âĮ": 2204,
      "Ġsend": 2205,
      "Ġsomebody": 2206,
      "che": 2207,
      "20": 2208,
      "Ġ195": 2209,
      "ĠDav": 2210,
      "angu": 2211,
      "ello": 2212,
      "lly": 2213,
      "dden": 2214,
      "Ġkept": 2215,
      "ĠCounty": 2216,
      "ilt": 2217,
      "Ġhit": 2218,
      "Ġtakes": 2219,
      "Ġbooks": 2220,
      "Ġbecome": 2221,
      "Ġcor": 2222,
      "TER": 2223,
      "Ġalright": 2224,
      "ived": 2225,
      "Ġamong": 2226,
      "Ġsold": 2227,
      "Ġroll": 2228,
      "Ġheld": 2229,
      "Ġ!": 2230,
      "inning": 2231,
      "ead": 2232,
      "Ġegg": 2233,
      "arch": 2234,
      "Ġap": 2235,
      "ĠOf": 2236,
      "Ġrunning": 2237,
      "Th": 2238,
      "ĠThese": 2239,
      "Ġsystem": 2240,
      "--------": 2241,
      "ium": 2242,
      "Ġstep": 2243,
      "Ġsudden": 2244,
      "ement": 2245,
      "LO": 2246,
      "pril": 2247,
      "itten": 2248,
      "Ġfil": 2249,
      "ically": 2250,
      "Ġproblem": 2251,
      "ĠSha": 2252,
      "Ġz": 2253,
      "Ġpot": 2254,
      "vision": 2255,
      "Ġtrouble": 2256,
      "Ġsoft": 2257,
      "raz": 2258,
      "ls": 2259,
      "ĠBet": 2260,
      "Ġnose": 2261,
      "ĠErm": 2262,
      "ĠAm": 2263,
      "ald": 2264,
      "Ġra": 2265,
      "Ġexper": 2266,
      "Ġlived": 2267,
      "rict": 2268,
      "Ġfootball": 2269,
      "ai": 2270,
      "Ġlo": 2271,
      "ĠDr": 2272,
      "II": 2273,
      "ears": 2274,
      "omb": 2275,
      "Ġletter": 2276,
      "ude": 2277,
      "unk": 2278,
      "ĠYOU": 2279,
      "Ġafraid": 2280,
      "Ġda": 2281,
      "Ġ17": 2282,
      "ĠJoe": 2283,
      "Ġtruck": 2284,
      "Ġ194": 2285,
      "Ġstra": 2286,
      "Ġanswer": 2287,
      "Ġ15": 2288,
      "iddle": 2289,
      "teen": 2290,
      "ĠGeor": 2291,
      "Ġfrog": 2292,
      "Ġdef": 2293,
      "ract": 2294,
      "Ġbirthday": 2295,
      "Ġmot": 2296,
      "cil": 2297,
      "Ġattack": 2298,
      "col": 2299,
      "Ġwrite": 2300,
      "Ġhist": 2301,
      "ĠFrank": 2302,
      "Ġstood": 2303,
      "Ġtouch": 2304,
      "ĠHel": 2305,
      "ĠWorld": 2306,
      "point": 2307,
      "makes": 2308,
      "ron": 2309,
      "ĠJanuary": 2310,
      "Ġbath": 2311,
      "Ġhours": 2312,
      "ousand": 2313,
      "nock": 2314,
      "Ġarm": 2315,
      "ĠNe": 2316,
      "ked": 2317,
      "Ġusually": 2318,
      "ient": 2319,
      "Ġcross": 2320,
      "mas": 2321,
      "Ġwat": 2322,
      "Ġ12": 2323,
      "ĠEuro": 2324,
      "ional": 2325,
      "Ġseries": 2326,
      "ĠGu": 2327,
      "Ġreport": 2328,
      "Ġsal": 2329,
      "ange": 2330,
      "Ġappro": 2331,
      "friend": 2332,
      "Ġperhaps": 2333,
      "band": 2334,
      "anger": 2335,
      "ccess": 2336,
      "urch": 2337,
      "gue": 2338,
      "Ġlow": 2339,
      "Ġspecial": 2340,
      "Ġcorn": 2341,
      "CAR": 2342,
      "child": 2343,
      "co": 2344,
      "tom": 2345,
      "ĠWar": 2346,
      "Ġlov": 2347,
      "ility": 2348,
      "Ġcatch": 2349,
      "cer": 2350,
      "Ġfly": 2351,
      "Ġring": 2352,
      "play": 2353,
      "Ġsto": 2354,
      "aint": 2355,
      "Ġtem": 2356,
      "Ġsuppose": 2357,
      "hold": 2358,
      "Ġtired": 2359,
      "Ġheav": 2360,
      "ĠSouth": 2361,
      "mother": 2362,
      "Ġfix": 2363,
      "ounds": 2364,
      "Ġdaddy": 2365,
      "UN": 2366,
      "Ġthemselves": 2367,
      "hello": 2368,
      "ugust": 2369,
      "though": 2370,
      "ĠBritish": 2371,
      "ĠPlease": 2372,
      "ajor": 2373,
      "Ġreplied": 2374,
      "bum": 2375,
      "Ġclothes": 2376,
      "Ġseems": 2377,
      "aged": 2378,
      "Ġreleased": 2379,
      "Ġthousand": 2380,
      "Ġlangu": 2381,
      "ky": 2382,
      "ĠCH": 2383,
      "owers": 2384,
      "He": 2385,
      "Ġcos": 2386,
      "Ġwhether": 2387,
      "Ġpoints": 2388,
      "Ġvill": 2389,
      "Ġpost": 2390,
      "Ġcheck": 2391,
      "may": 2392,
      "entle": 2393,
      "Ġband": 2394,
      "Ġmarried": 2395,
      "Ġship": 2396,
      "Ġve": 2397,
      "ager": 2398,
      "ories": 2399,
      "cri": 2400,
      "ĠHave": 2401,
      "Ġpleas": 2402,
      "Ġdarling": 2403,
      "Ġyours": 2404,
      "ctober": 2405,
      "Ġtomorrow": 2406,
      "Ġkids": 2407,
      "itch": 2408,
      "rop": 2409,
      "Ġknows": 2410,
      "Ġnamed": 2411,
      "RE": 2412,
      "stairs": 2413,
      "Ġmonths": 2414,
      "PAT": 2415,
      "Ġill": 2416,
      "Ġ]": 2417,
      "Ġclim": 2418,
      "Ġconst": 2419,
      "Ġlives": 2420,
      "Ġsand": 2421,
      "Ġexcl": 2422,
      "Ġgovernment": 2423,
      "Ġblock": 2424,
      "velop": 2425,
      "ĠCol": 2426,
      "Ġking": 2427,
      "amer": 2428,
      "eptember": 2429,
      "ĠAN": 2430,
      "Ġcomplet": 2431,
      "oman": 2432,
      "Ġdiffic": 2433,
      "Ġnoises": 2434,
      "hanks": 2435,
      "Ġdra": 2436,
      "Ġdoub": 2437,
      "Ġwithin": 2438,
      "reed": 2439,
      "actly": 2440,
      "oop": 2441,
      "Ġfur": 2442,
      "Ġproper": 2443,
      "arden": 2444,
      "Ġpossible": 2445,
      "Ġhar": 2446,
      "Ġju": 2447,
      "Ġeye": 2448,
      "ott": 2449,
      "wered": 2450,
      "Ġmount": 2451,
      "Ġmember": 2452,
      "Ġkiss": 2453,
      "hel": 2454,
      "ĠTe": 2455,
      "ause": 2456,
      "AP": 2457,
      "Ġslow": 2458,
      "oose": 2459,
      "Ġdaughter": 2460,
      "cient": 2461,
      "Ġspec": 2462,
      "Ġ...": 2463,
      "Ġstraight": 2464,
      "par": 2465,
      "Ġnine": 2466,
      "ĠApril": 2467,
      "aimed": 2468,
      "oth": 2469,
      "joy": 2470,
      "Ġcannot": 2471,
      "Ġfit": 2472,
      "Ġeasy": 2473,
      "Ġpig": 2474,
      "Ġcharac": 2475,
      "net": 2476,
      "Ġfield": 2477,
      "ĠMart": 2478,
      "Ġdeep": 2479,
      "Ġton": 2480,
      "Ġforget": 2481,
      "Ġcoup": 2482,
      "Ġhus": 2483,
      "urs": 2484,
      "Ġworked": 2485,
      "Ġanswered": 2486,
      "uit": 2487,
      "ored": 2488,
      "ovember": 2489,
      "ĠChi": 2490,
      "Ġdream": 2491,
      "ĠAugust": 2492,
      "ardon": 2493,
      "gas": 2494,
      "Ġpassed": 2495,
      "ĠPres": 2496,
      "Ġcow": 2497,
      "ĠOctober": 2498,
      "gram": 2499,
      "Ġobject": 2500,
      "ĠNor": 2501,
      "Ġmommy": 2502,
      "iday": 2503,
      "Ġpress": 2504,
      "Ġcontro": 2505,
      "ada": 2506,
      "Ġbird": 2507,
      "Ġlovely": 2508,
      "ĠCaptain": 2509,
      "say": 2510,
      "cember": 2511,
      "Ġevent": 2512,
      "ĠCal": 2513,
      "Ġeating": 2514,
      "Ġfa": 2515,
      "ĠSam": 2516,
      "ĠEurope": 2517,
      "Ġsuccess": 2518,
      "ĠSw": 2519,
      "Ġmoved": 2520,
      "fer": 2521,
      "que": 2522,
      "Ġshop": 2523,
      "Ġsounds": 2524,
      "ruary": 2525,
      "ebruary": 2526,
      "ĠSeptember": 2527,
      "Ġtowards": 2528,
      "Ġshoes": 2529,
      "Ġelect": 2530,
      "fast": 2531,
      "Ġalbum": 2532,
      "Ġlots": 2533,
      "Ġwaiting": 2534,
      "Ġ193": 2535,
      "Ġseat": 2536,
      "Ġfavor": 2537,
      "Ġrain": 2538,
      "Ġsafe": 2539,
      "erry": 2540,
      "Ġboard": 2541,
      "Ġduck": 2542,
      "lie": 2543,
      "phone": 2544,
      "Ġforgot": 2545,
      "ooh": 2546,
      "Ġ16": 2547,
      "ances": 2548,
      "ode": 2549,
      "ior": 2550,
      "Ġhowever": 2551,
      "Ġinde": 2552,
      "Ġtelevision": 2553,
      "Ġhang": 2554,
      "AM": 2555,
      "ĠUniversity": 2556,
      "urd": 2557,
      "ĠNorth": 2558,
      "ĠTO": 2559,
      "ĠMary": 2560,
      "Ġlonger": 2561,
      "ĠHello": 2562,
      "Ġeverybody": 2563,
      "Ġdad": 2564,
      "Ġdanger": 2565,
      "Ġdiv": 2566,
      "RY": 2567,
      "Ġvar": 2568,
      "Ġputting": 2569,
      "Ġforward": 2570,
      "Ġdie": 2571,
      "Ġevening": 2572,
      "Ġcouple": 2573,
      "ĠAny": 2574,
      "Ġshot": 2575,
      "Ġnews": 2576,
      "ulation": 2577,
      "Ġreturned": 2578,
      "ĠNovember": 2579,
      "ĠâĢĺ": 2580,
      "ging": 2581,
      "rat": 2582,
      "Ġhusband": 2583,
      "Ġgold": 2584,
      "Ġbroken": 2585,
      "Ġbow": 2586,
      "Ġcry": 2587,
      "ĠSu": 2588,
      "ĠEngland": 2589,
      "Ġsol": 2590,
      "Ġfeeling": 2591,
      "Ġabove": 2592,
      "Ġquickly": 2593,
      "Ġcray": 2594,
      "Ġterri": 2595,
      "Ġya": 2596,
      "Ġoffice": 2597,
      "ffect": 2598,
      "Ġcaught": 2599,
      "Ġluck": 2600,
      "bs": 2601,
      "ral": 2602,
      "Ġarri": 2603,
      "Ġ#": 2604,
      "iff": 2605,
      "Ġsail": 2606,
      "Ġengine": 2607,
      "Ġgentle": 2608,
      "Ġbuilding": 2609,
      "Ġvisit": 2610,
      "rigin": 2611,
      "Ġequ": 2612,
      "Ġnational": 2613,
      "Ġpolice": 2614,
      "Ġbreat": 2615,
      "uri": 2616,
      "terday": 2617,
      "Ġsingle": 2618,
      "ĠDecember": 2619,
      "Ġdet": 2620,
      "Ġabs": 2621,
      "Ġarms": 2622,
      "lex": 2623,
      "which": 2624,
      "ining": 2625,
      "Ġoper": 2626,
      "bor": 2627,
      "ĠLea": 2628,
      "Ġsick": 2629,
      "ĠFebruary": 2630,
      "Ġmist": 2631,
      "Ġtreat": 2632,
      "Ġtoward": 2633,
      "Ġpretend": 2634,
      "Ġann": 2635,
      "itchen": 2636,
      "Ġenjoy": 2637,
      "Ġadm": 2638,
      "ĠPeter": 2639,
      "Ġdrive": 2640,
      "Ġseem": 2641,
      "Ġesc": 2642,
      "AS": 2643,
      "ask": 2644,
      "ĠDavid": 2645,
      "ĠMark": 2646,
      "ĠUh": 2647,
      "Ġshout": 2648,
      "Ġsight": 2649,
      "ĠWas": 2650,
      "Ġknock": 2651,
      "af": 2652,
      "Ġhop": 2653,
      "emy": 2654,
      "your": 2655,
      "Ġstri": 2656,
      "Ġmillion": 2657,
      "Ġdi": 2658,
      "âĢĵ": 2659,
      "CHILD": 2660,
      "rave": 2661,
      "ience": 2662,
      "Ġneeds": 2663,
      "Ġanyway": 2664,
      "Ġsnow": 2665,
      "ality": 2666,
      "Ġhungry": 2667,
      "Ġplaces": 2668,
      "ĠMin": 2669,
      "Ġclos": 2670,
      "ĠPaul": 2671,
      "Ġchildes": 2672,
      "Ġnearly": 2673,
      "CHILDES": 2674,
      "ĠJe": 2675,
      "Ġahead": 2676,
      "Ġest": 2677,
      "ising": 2678,
      "Ġpublic": 2679,
      "Ġshut": 2680,
      "Ġtonight": 2681,
      "Ġthird": 2682,
      "ggest": 2683,
      "con": 2684,
      "ĠJuly": 2685,
      "ĠIN": 2686,
      "Ġriver": 2687,
      "Ġdepartment": 2688,
      "LE": 2689,
      "Ġcost": 2690,
      "ĠDan": 2691,
      "Ġmis": 2692,
      "noon": 2693,
      "singing": 2694,
      "Ġhors": 2695,
      "Ġcover": 2696,
      "Ġreached": 2697,
      "Ġvi": 2698,
      "ustral": 2699,
      "Ġteacher": 2700,
      "ĠComm": 2701,
      "Ġview": 2702,
      "Ġsecret": 2703,
      "Ġparent": 2704,
      "icken": 2705,
      "Ġputs": 2706,
      "ĠMc": 2707,
      "Ġhuman": 2708,
      "ondon": 2709,
      "gest": 2710,
      "Ġfill": 2711,
      "Ġsuggest": 2712,
      "Ġah": 2713,
      "Ġturns": 2714,
      "ĠEar": 2715,
      "Ġshar": 2716,
      "ray": 2717,
      "unity": 2718,
      "ospital": 2719,
      "Ġclub": 2720,
      "Ġdisapp": 2721,
      "IT": 2722,
      "Ġwhatever": 2723,
      "amb": 2724,
      "attle": 2725,
      "ĠSir": 2726,
      "Ġdest": 2727,
      "Ġdevelop": 2728,
      "Ġkitchen": 2729,
      "Ġstation": 2730,
      "Ġtelling": 2731,
      "Ġglass": 2732,
      "Ġstat": 2733,
      "ample": 2734,
      "ĠChristmas": 2735,
      "ler": 2736,
      "hile": 2737,
      "Ġeffect": 2738,
      "Ġnor": 2739,
      "Ġcareful": 2740,
      "Ġorgan": 2741,
      "Ġstopped": 2742,
      "Ġprofess": 2743,
      "rill": 2744,
      "ĠMommy": 2745,
      "Ġcool": 2746,
      "Ġdem": 2747,
      "Ġtrees": 2748,
      "ĠMaybe": 2749,
      "Ġseason": 2750,
      "Ġdecided": 2751,
      "Ġdat": 2752,
      "Ġ11": 2753,
      "ency": 2754,
      "Ġchanged": 2755,
      "ĠRep": 2756,
      "vol": 2757,
      "Ġstanding": 2758,
      "Ġcommon": 2759,
      "vo": 2760,
      "Ġtest": 2761,
      "ĠAustral": 2762,
      "Ġsupport": 2763,
      "Ġstrange": 2764,
      "some": 2765,
      "ĠFrom": 2766,
      "Ġformer": 2767,
      "Ġsilly": 2768,
      "Ġparticular": 2769,
      "Ġbroke": 2770,
      "Ġain": 2771,
      "Ġsca": 2772,
      "Ġdirect": 2773,
      "Ġjuice": 2774,
      "Ġgarden": 2775,
      "ror": 2776,
      "Ġfear": 2777,
      "bles": 2778,
      "Ġfollowed": 2779,
      "Ġdam": 2780,
      "ĠGl": 2781,
      "ffic": 2782,
      "hant": 2783,
      "maybe": 2784,
      "Ġopened": 2785,
      "ips": 2786,
      "yn": 2787,
      "Ġcareer": 2788,
      "Ġmeant": 2789,
      "NA": 2790,
      "Ġinstead": 2791,
      "udd": 2792,
      "Ġla": 2793,
      "Ġlie": 2794,
      "Ġled": 2795,
      "ĠSee": 2796,
      "Ġwarm": 2797,
      "Ġindeed": 2798,
      "ĠLondon": 2799,
      "Ġworry": 2800,
      "Ġbab": 2801,
      "Ġsuper": 2802,
      "Ġafternoon": 2803,
      "ĠBlack": 2804,
      "Ġcarry": 2805,
      "iron": 2806,
      "ĠNational": 2807,
      "Ġlearn": 2808,
      "Ġwild": 2809,
      "Ġpieces": 2810,
      "Ġbright": 2811,
      "Ġprogram": 2812,
      "GRA": 2813,
      "Ġhappens": 2814,
      "mbers": 2815,
      "Ġposition": 2816,
      "ushed": 2817,
      "Ġregion": 2818,
      "ĠQu": 2819,
      "llustr": 2820,
      "ATT": 2821,
      "OM": 2822,
      "ege": 2823,
      "Ġcal": 2824,
      "Ġusing": 2825,
      "cially": 2826,
      "ician": 2827,
      "Ġrequ": 2828,
      "ĠItal": 2829,
      "Ġwritten": 2830,
      "Ġperfect": 2831,
      "Ġappear": 2832,
      "ED": 2833,
      "ĠRuss": 2834,
      "Ġ14": 2835,
      "rey": 2836,
      "Ġut": 2837,
      "Ġsupposed": 2838,
      "ceed": 2839,
      "Ġyesterday": 2840,
      "ĠCity": 2841,
      "Ġadded": 2842,
      "ander": 2843,
      "Ġisland": 2844,
      "Ġmiddle": 2845,
      "Ġdoubt": 2846,
      "Ġbreakfast": 2847,
      "Ġcre": 2848,
      "ĠMa": 2849,
      "unic": 2850,
      "Ġbottom": 2851,
      "Ġ13": 2852,
      "was": 2853,
      "Ġpack": 2854,
      "Ġwhom": 2855,
      "Ġprison": 2856,
      "empt": 2857,
      "Ġcompet": 2858,
      "Ġbuilt": 2859,
      "iny": 2860,
      "Ġlaughs": 2861,
      "Ġtape": 2862,
      "Ġorigin": 2863,
      "Ġfollowing": 2864,
      ",--": 2865,
      "arty": 2866,
      "ĠChe": 2867,
      "ended": 2868,
      "Ġanyone": 2869,
      "Ġmad": 2870,
      "Ġsmil": 2871,
      "Ġrad": 2872,
      "'.": 2873,
      "Ġtrack": 2874,
      "ĠKe": 2875,
      "Ġstore": 2876,
      "ĠOF": 2877,
      "ĠThanks": 2878,
      "ills": 2879,
      "Ġconc": 2880,
      "Ġride": 2881,
      "Ġwhis": 2882,
      "uel": 2883,
      "ffee": 2884,
      "Ġsouth": 2885,
      "Ġexclaimed": 2886,
      "Ġang": 2887,
      "Ġweeks": 2888,
      "Ġblow": 2889,
      "Ġcertainly": 2890,
      "Ġbes": 2891,
      "Ġquar": 2892,
      "Ġplayer": 2893,
      "idence": 2894,
      "Ġinform": 2895,
      "pes": 2896,
      "Ġexactly": 2897,
      "ĠSm": 2898,
      "ĠHi": 2899,
      "ĠMad": 2900,
      "ĠDad": 2901,
      "ĠWest": 2902,
      "Ġworks": 2903,
      "Ġswim": 2904,
      "Ġmiles": 2905,
      "ID": 2906,
      "Ġsus": 2907,
      "urg": 2908,
      "with": 2909,
      "box": 2910,
      "Ġcomplete": 2911,
      "TUR": 2912,
      "would": 2913,
      "Ġdecl": 2914,
      "Ġfort": 2915,
      "ĠLord": 2916,
      "ĠSte": 2917,
      "Ġcake": 2918,
      "ĠPat": 2919,
      "time": 2920,
      "ĨĴ": 2921,
      "ĠOK": 2922,
      "Ġhasn": 2923,
      "Ã¡": 2924,
      "Ġtruth": 2925,
      "ĠGreat": 2926,
      "oul": 2927,
      "Ġru": 2928,
      "work": 2929,
      "Why": 2930,
      "Ġpark": 2931,
      "Ġburn": 2932,
      "Ġcast": 2933,
      "Ġbought": 2934,
      "Ġearth": 2935,
      "Ġsave": 2936,
      "ĠGeorge": 2937,
      "Ġgiving": 2938,
      "ĠAnn": 2939,
      "itty": 2940,
      "Ġlunch": 2941,
      "Ġheavy": 2942,
      "Ġholding": 2943,
      "Ġworth": 2944,
      "ĠLou": 2945,
      "ek": 2946,
      "wow": 2947,
      "Ġfail": 2948,
      "Ġfinish": 2949,
      "ternational": 2950,
      "Ġhell": 2951,
      "Ġprotect": 2952,
      "isten": 2953,
      "ĠPol": 2954,
      "rupt": 2955,
      "uthor": 2956,
      "looks": 2957,
      "Ġdifficult": 2958,
      "vocal": 2959,
      "Ġwatching": 2960,
      "Ġhole": 2961,
      "Ġmach": 2962,
      "ï¿½ï¿½ï¿½ï¿½": 2963,
      "Ġstreet": 2964,
      "ĠLike": 2965,
      "ĠIndian": 2966,
      "Ġought": 2967,
      "ĠBetty": 2968,
      "Ġcond": 2969,
      "tered": 2970,
      "Ġsomewhere": 2971,
      "Ġmembers": 2972,
      "ounter": 2973,
      "Ġpract": 2974,
      "ĠFraser": 2975,
      "Ġhol": 2976,
      "ien": 2977,
      "ishing": 2978,
      "ĠPresident": 2979,
      "Ġval": 2980,
      "asp": 2981,
      "Ġmer": 2982,
      "Ġhistory": 2983,
      "Ġnin": 2984,
      "Ġexample": 2985,
      "sit": 2986,
      "Ġhospital": 2987,
      "board": 2988,
      "lin": 2989,
      "Ġstuck": 2990,
      "Ġspo": 2991,
      "Ġvillage": 2992,
      "mie": 2993,
      "has": 2994,
      "ĠĠĠĠĠĠ": 2995,
      "ppy": 2996,
      "Ġdev": 2997,
      "US": 2998,
      "Ġspace": 2999,
      "Ġwhose": 3000,
      "Ġexcept": 3001,
      "Ġpictures": 3002,
      "give": 3003,
      "RYA": 3004,
      "ressed": 3005,
      "Ġfigure": 3006,
      "ula": 3007,
      "Ġreceived": 3008,
      "Ġlau": 3009,
      "Ġbread": 3010,
      "Ġservice": 3011,
      "Ġanymore": 3012,
      "Ġbelong": 3013,
      "Ġtick": 3014,
      "ales": 3015,
      "Ġconsider": 3016,
      "Ġcompan": 3017,
      "Ġsuddenly": 3018,
      "ĠTwo": 3019,
      "Ġlegs": 3020,
      "Ġbrown": 3021,
      "igg": 3022,
      "Ġbusy": 3023,
      "rit": 3024,
      "isc": 3025,
      "Ġwrote": 3026,
      "Ġkn": 3027,
      "ground": 3028,
      "Ġ2018": 3029,
      "Ġleaving": 3030,
      "gar": 3031,
      "Ġprop": 3032,
      "ogn": 3033,
      "ya": 3034,
      "Ġmur": 3035,
      "Ġmajor": 3036,
      "noise": 3037,
      "APTER": 3038,
      "Ġfarm": 3039,
      "Ġimag": 3040,
      "Ġcaptain": 3041,
      "There": 3042,
      "Ġcard": 3043,
      "bing": 3044,
      "Ġcop": 3045,
      "Ġgeneral": 3046,
      "Ġpuzz": 3047,
      "nel": 3048,
      "Ġemp": 3049,
      "ĠWait": 3050,
      "Ġresult": 3051,
      "Ġcharacter": 3052,
      "ingly": 3053,
      "bers": 3054,
      "ift": 3055,
      "Ġtot": 3056,
      "Ġhig": 3057,
      "ĠRober": 3058,
      "sings": 3059,
      "Ġcontinued": 3060,
      "Ġincluding": 3061,
      "LOI": 3062,
      "points": 3063,
      "ĠMot": 3064,
      "osaur": 3065,
      "Ġlanguage": 3066,
      "ĠTake": 3067,
      "uation": 3068,
      "Ġloc": 3069,
      "resent": 3070,
      "GH": 3071,
      "cuse": 3072,
      "Ġsell": 3073,
      "Ġsummer": 3074,
      "Ġspoke": 3075,
      "._": 3076,
      "ĠMom": 3077,
      "ET": 3078,
      "izz": 3079,
      "Ġbutter": 3080,
      "ĠHelen": 3081,
      "ille": 3082,
      "Ġeveryone": 3083,
      "Ġcars": 3084,
      "ĠHowever": 3085,
      "reet": 3086,
      "ouncil": 3087,
      "ĠCHAPTER": 3088,
      "ancy": 3089,
      "Ġcand": 3090,
      "So": 3091,
      "dom": 3092,
      "ti": 3093,
      "Ġsense": 3094,
      "prise": 3095,
      "Ġconvers": 3096,
      "view": 3097,
      "Ġweren": 3098,
      "Ġhast": 3099,
      "Ġparents": 3100,
      "Ġneck": 3101,
      "Ġlevel": 3102,
      "ĠWilliam": 3103,
      "light": 3104,
      "arr": 3105,
      "ĠCent": 3106,
      "ĠJul": 3107,
      "lo": 3108,
      "ĠAg": 3109,
      "Ġanybody": 3110,
      "Ġtast": 3111,
      "Ġcoffee": 3112,
      "Ġappeared": 3113,
      "acing": 3114,
      "Ġmid": 3115,
      "clock": 3116,
      "ele": 3117,
      "Ġcurrent": 3118,
      "Ġban": 3119,
      "ino": 3120,
      "Ġbeat": 3121,
      "ĠSorry": 3122,
      "Ġself": 3123,
      "ruct": 3124,
      "Ġcirc": 3125,
      "Ġbase": 3126,
      "ounced": 3127,
      "chi": 3128,
      "Ġlock": 3129,
      "ĠMother": 3130,
      "ases": 3131,
      "Ġloud": 3132,
      "mpions": 3133,
      "Ġorange": 3134,
      "Ġspir": 3135,
      "pecially": 3136,
      "Ġdefe": 3137,
      "rs": 3138,
      "Ġdescri": 3139,
      "Ġdistrict": 3140,
      "Ġflowers": 3141,
      "FAD": 3142,
      "la": 3143,
      "Ġbeginning": 3144,
      "Ġcomfort": 3145,
      "Ġcrying": 3146,
      "Ġfinger": 3147,
      "ĠUncle": 3148,
      "Ġcontain": 3149,
      "Ġcarried": 3150,
      ".'": 3151,
      "turn": 3152,
      "rom": 3153,
      "Ġallowed": 3154,
      "Ġ30": 3155,
      "will": 3156,
      "Ġcause": 3157,
      "sy": 3158,
      "Ġremark": 3159,
      "eal": 3160,
      "Ġmoving": 3161,
      "rodu": 3162,
      "Ġfurther": 3163,
      "estern": 3164,
      "Ġpush": 3165,
      "Ġteeth": 3166,
      "Ġtrust": 3167,
      "Ġ?": 3168,
      "ĠEven": 3169,
      "Ġrecogn": 3170,
      "ified": 3171,
      "Ġthirty": 3172,
      "pris": 3173,
      "Ġsad": 3174,
      "Ġnatur": 3175,
      "ume": 3176,
      "Ġreach": 3177,
      "ket": 3178,
      "raph": 3179,
      "Ġgar": 3180,
      "val": 3181,
      "ĠSy": 3182,
      "ĠAmerica": 3183,
      "ĠAND": 3184,
      "iers": 3185,
      "Ġlift": 3186,
      "Ġjour": 3187,
      "ĠSomet": 3188,
      "Ġvol": 3189,
      "Ġcommune": 3190,
      "Ġcreated": 3191,
      "tr": 3192,
      "gasps": 3193,
      "Ġwalked": 3194,
      "Ġwalking": 3195,
      "Ġtail": 3196,
      "itted": 3197,
      "Ġvide": 3198,
      "Ġrub": 3199,
      "ae": 3200,
      "Ġcab": 3201,
      "Ġaccount": 3202,
      "Ġmeeting": 3203,
      "Ġmum": 3204,
      "Ġinformation": 3205,
      "olute": 3206,
      "aff": 3207,
      "Ġrace": 3208,
      "Ġplays": 3209,
      "Ġanimal": 3210,
      "rem": 3211,
      "Ġalthough": 3212,
      "Ġ25": 3213,
      "off": 3214,
      "iod": 3215,
      "Ġdesign": 3216,
      "ĠAunt": 3217,
      "Ġpopulation": 3218,
      "Ġspend": 3219,
      "Ġgen": 3220,
      "iger": 3221,
      "Ġmat": 3222,
      "iced": 3223,
      "Ġdistance": 3224,
      "Ġpriv": 3225,
      "Ġlikes": 3226,
      "uk": 3227,
      "ok": 3228,
      "Ġneigh": 3229,
      "Ġord": 3230,
      "chan": 3231,
      "Ġpock": 3232,
      "Ġate": 3233,
      "Ġcorner": 3234,
      "Ġmix": 3235,
      "ichael": 3236,
      "Ġ$": 3237,
      "Ġdry": 3238,
      "Ġwide": 3239,
      "eally": 3240,
      "Ġbank": 3241,
      "Ġattention": 3242,
      "whis": 3243,
      "Ġentire": 3244,
      "ĠMag": 3245,
      "Ġpicks": 3246,
      "rel": 3247,
      "Ġgames": 3248,
      "ĠSec": 3249,
      "Ġdropped": 3250,
      "pardon": 3251,
      "Ġnecess": 3252,
      "ously": 3253,
      "Ġport": 3254,
      "pper": 3255,
      "Ġobs": 3256,
      "Ġgrass": 3257,
      "Ġperfor": 3258,
      "ÃŃ": 3259,
      "Ġlose": 3260,
      "tell": 3261,
      "Ġhoney": 3262,
      "Ġaccept": 3263,
      "How": 3264,
      "Ġinvol": 3265,
      "want": 3266,
      "LA": 3267,
      "por": 3268,
      "Ġprin": 3269,
      "ades": 3270,
      "Ġwash": 3271,
      "Ġhealth": 3272,
      "antly": 3273,
      "razy": 3274,
      "Ġtall": 3275,
      "Don": 3276,
      "Ġseeing": 3277,
      "Ġdelight": 3278,
      "ased": 3279,
      "cell": 3280,
      "har": 3281,
      "Ġwet": 3282,
      "vin": 3283,
      "ĠFirst": 3284,
      "het": 3285,
      "Ġjack": 3286,
      "ĠJames": 3287,
      "Ġsex": 3288,
      "aven": 3289,
      "ression": 3290,
      "Ġstarts": 3291,
      "Ġcollect": 3292,
      "They": 3293,
      "Ġauthor": 3294,
      "str": 3295,
      "ghed": 3296,
      "Ġtype": 3297,
      "hys": 3298,
      "Ġfat": 3299,
      "elve": 3300,
      "Ġcompl": 3301,
      "ipe": 3302,
      "Ġmm": 3303,
      "ĠMon": 3304,
      "oom": 3305,
      "hips": 3306,
      "raft": 3307,
      "ĠRiver": 3308,
      "Ġpopular": 3309,
      "Ġrul": 3310,
      "riage": 3311,
      "abel": 3312,
      "ĠPeople": 3313,
      "wait": 3314,
      "Ġfifty": 3315,
      "Ġmaster": 3316,
      "acy": 3317,
      "ribut": 3318,
      "Ġcounty": 3319,
      "cher": 3320,
      "Ġcamer": 3321,
      "wanna": 3322,
      "OTH": 3323,
      "bert": 3324,
      "Ġanx": 3325,
      "ization": 3326,
      "Ġrab": 3327,
      "Ġbased": 3328,
      "Ġcrayon": 3329,
      "Ġ2021": 3330,
      "Ġbur": 3331,
      "resh": 3332,
      "Ġinterested": 3333,
      "Ġfavorite": 3334,
      "uty": 3335,
      "If": 3336,
      "itive": 3337,
      "Ġchicken": 3338,
      "yep": 3339,
      "Ġincre": 3340,
      "Ġ192": 3341,
      "Ġchurch": 3342,
      "Ġcontrol": 3343,
      "rief": 3344,
      "ato": 3345,
      "Ġspot": 3346,
      "Ġgrew": 3347,
      "round": 3348,
      "Illustr": 3349,
      "field": 3350,
      "Ġcream": 3351,
      "Ġinteresting": 3352,
      "ĠTell": 3353,
      "Ġparts": 3354,
      "Ġleaves": 3355,
      "Daddy": 3356,
      "Ġrespect": 3357,
      "ĠPark": 3358,
      "house": 3359,
      "baby": 3360,
      "ĠAfr": 3361,
      "Ġfut": 3362,
      "reg": 3363,
      "ply": 3364,
      "Ġletters": 3365,
      "Ġtor": 3366,
      "Ġpet": 3367,
      "ĠEn": 3368,
      "Ġhate": 3369,
      "itions": 3370,
      "Ġitself": 3371,
      "Illustration": 3372,
      "roy": 3373,
      "ilar": 3374,
      "Ġshowed": 3375,
      "uge": 3376,
      "ggy": 3377,
      "eh": 3378,
      "ĠAmy": 3379,
      "astic": 3380,
      "ination": 3381,
      "ĠSar": 3382,
      "Ġshouldn": 3383,
      "ology": 3384,
      "unny": 3385,
      "ann": 3386,
      "Ġleng": 3387,
      "ĠEm": 3388,
      "ĠRobert": 3389,
      "ays": 3390,
      "Ġvict": 3391,
      "isf": 3392,
      "under": 3393,
      "Ġmention": 3394,
      "icro": 3395,
      "ĠNin": 3396,
      "Ġlaughed": 3397,
      "Ġ2017": 3398,
      "Ġmoon": 3399,
      "Ġstars": 3400,
      "ĠEle": 3401,
      "Ġbene": 3402,
      "ĠSer": 3403,
      "iforn": 3404,
      "ĠâĨĴ": 3405,
      "Ġnorm": 3406,
      "Ġcentury": 3407,
      "pered": 3408,
      "ĠBert": 3409,
      "Ġserious": 3410,
      "Ġ2022": 3411,
      "Ġfeed": 3412,
      "Ġsurpris": 3413,
      "Ġliked": 3414,
      "Ġcomput": 3415,
      "viously": 3416,
      "Ġsmell": 3417,
      "Ġlim": 3418,
      "ĠCo": 3419,
      "medi": 3420,
      "Ġjud": 3421,
      "Ġcharge": 3422,
      "Ġscared": 3423,
      "ĠAnge": 3424,
      "Ġwheel": 3425,
      "Ġpaid": 3426,
      "Ġreading": 3427,
      "Ġperiod": 3428,
      "Ġwriting": 3429,
      "ĠMum": 3430,
      "Ġplate": 3431,
      "Ġquestions": 3432,
      "Ġproblems": 3433,
      "Ġattempt": 3434,
      "Ġmem": 3435,
      "ires": 3436,
      "10": 3437,
      "ĠMor": 3438,
      "ĠRob": 3439,
      "ston": 3440,
      "Ġep": 3441,
      "ĠParty": 3442,
      "Ġbottle": 3443,
      "RI": 3444,
      "ĠCaliforn": 3445,
      "ograp": 3446,
      "Ġlocal": 3447,
      "Ġwonderful": 3448,
      "take": 3449,
      "inosaur": 3450,
      "Ġbull": 3451,
      "ission": 3452,
      "Ġsubject": 3453,
      "ording": 3454,
      "Ġfle": 3455,
      "ĠSpan": 3456,
      "ĠStop": 3457,
      "oly": 3458,
      "Ġwel": 3459,
      "ĠHist": 3460,
      "\")": 3461,
      "rian": 3462,
      "Ġfinally": 3463,
      "ivil": 3464,
      "eddy": 3465,
      "ĠMat": 3466,
      "va": 3467,
      "Ġplant": 3468,
      "oots": 3469,
      "Ġvers": 3470,
      "gu": 3471,
      "AL": 3472,
      "wood": 3473,
      "aves": 3474,
      "ĠRoman": 3475,
      "ancing": 3476,
      "Ġfilm": 3477,
      "Ġhous": 3478,
      "Ġalive": 3479,
      "ploy": 3480,
      "Ġpresident": 3481,
      "ids": 3482,
      "set": 3483,
      "Ġcheese": 3484,
      "Ġneeded": 3485,
      "Ġkey": 3486,
      "Ġphot": 3487,
      "ites": 3488,
      "Ġnames": 3489,
      "Ġslowly": 3490,
      "Ġfuture": 3491,
      "Ġhall": 3492,
      "iment": 3493,
      "Ġ21": 3494,
      "irm": 3495,
      "ĠIT": 3496,
      "Ġforce": 3497,
      "Ġofficer": 3498,
      "elle": 3499,
      "Ġsky": 3500,
      "ĠJes": 3501,
      "Ġmatch": 3502,
      "Ġchief": 3503,
      "Ġconversation": 3504,
      "Ġholds": 3505,
      "ĠWH": 3506,
      "Ġsurprise": 3507,
      "Ġcell": 3508,
      "ĠCalifornia": 3509,
      "Ġtur": 3510,
      "Ġgives": 3511,
      "ĠNat": 3512,
      "Ġfucking": 3513,
      "Ġexam": 3514,
      "Ġlying": 3515,
      "Ġterrible": 3516,
      "gs": 3517,
      "orts": 3518,
      "Ġpolitician": 3519,
      "gie": 3520,
      "Now": 3521,
      "yle": 3522,
      "Ġbell": 3523,
      "illa": 3524,
      "Ġbigger": 3525,
      "Ġsle": 3526,
      "Ġbasket": 3527,
      "Ġcrazy": 3528,
      "ads": 3529,
      "Ġrap": 3530,
      "Ġhorses": 3531,
      "ashed": 3532,
      "Ġkick": 3533,
      "Ġdig": 3534,
      "uhoh": 3535,
      "Ġlaughing": 3536,
      "Ġbridge": 3537,
      "ĠReally": 3538,
      "ĠBon": 3539,
      "Ġdance": 3540,
      "ĠRed": 3541,
      "ĠCarl": 3542,
      "Ġdrop": 3543,
      "Ġfingers": 3544,
      "Ġactiv": 3545,
      "Ġpause": 3546,
      "Ġears": 3547,
      "Ġsmile": 3548,
      "Ġeduc": 3549,
      "Ġinfl": 3550,
      "ĠĠĠĠĠĠĠĠĠĠĠĠĠĠĠĠ": 3551,
      "itary": 3552,
      "please": 3553,
      "Ġprep": 3554,
      "Ġtit": 3555,
      "Ġsna": 3556,
      "Ġsilver": 3557,
      "ĠGermany": 3558,
      "Ġcommand": 3559,
      "Ġdue": 3560,
      "Ġshape": 3561,
      "uses": 3562,
      "ala": 3563,
      "ĠBill": 3564,
      "ichard": 3565,
      "ĠFather": 3566,
      "ĠEll": 3567,
      "upid": 3568,
      "Ġhide": 3569,
      "Ġspeed": 3570,
      "ĠLu": 3571,
      "ĠMer": 3572,
      "Ġaccident": 3573,
      "Ġcapital": 3574,
      "Ġinvest": 3575,
      "Ġ24": 3576,
      "Ġcrow": 3577,
      "aching": 3578,
      "ylv": 3579,
      "Ġclosed": 3580,
      "Ġextra": 3581,
      "nes": 3582,
      "ĠCor": 3583,
      "soci": 3584,
      "OW": 3585,
      "Ġvideo": 3586,
      "Ġthanks": 3587,
      "lymp": 3588,
      "Ġmachine": 3589,
      "Ġsinging": 3590,
      "'?": 3591,
      "icy": 3592,
      "SI": 3593,
      "imin": 3594,
      "know": 3595,
      "Ġrid": 3596,
      "down": 3597,
      "Ġserved": 3598,
      "ĠQue": 3599,
      "Ġeggs": 3600,
      "St": 3601,
      "ĠColl": 3602,
      "Ġfamous": 3603,
      "Ġdirection": 3604,
      "Ġfool": 3605,
      "roll": 3606,
      "aps": 3607,
      "ĠBo": 3608,
      "Ġhy": 3609,
      "isted": 3610,
      "Ġtrad": 3611,
      "ably": 3612,
      "ĠNothing": 3613,
      "ĠIndia": 3614,
      "Ġpap": 3615,
      "Ġcapt": 3616,
      "Ġshare": 3617,
      "mommy": 3618,
      "ĠHen": 3619,
      "Ġchoo": 3620,
      "epend": 3621,
      "Ġspent": 3622,
      "Ġshows": 3623,
      "lt": 3624,
      "Ġslight": 3625,
      "ĠHouse": 3626,
      "hood": 3627,
      "ĠCr": 3628,
      "Ġasking": 3629,
      "Ġspecies": 3630,
      "Do": 3631,
      "ĠOlymp": 3632,
      "Ġrepe": 3633,
      "ius": 3634,
      "Ġturning": 3635,
      "dered": 3636,
      "Ġbang": 3637,
      "Ġcountries": 3638,
      "URS": 3639,
      "eneral": 3640,
      "iles": 3641,
      "Ġcamera": 3642,
      "Ġlikely": 3643,
      "Ġfamil": 3644,
      "ĠMany": 3645,
      "Ġapple": 3646,
      "Ġnone": 3647,
      "Ġconne": 3648,
      "of": 3649,
      "She": 3650,
      "Ġsatisf": 3651,
      "cul": 3652,
      "Ġloved": 3653,
      "Ġspl": 3654,
      "ĠAnt": 3655,
      "Ġespecially": 3656,
      "Ġiss": 3657,
      "watch": 3658,
      "phant": 3659,
      "Ġdollars": 3660,
      "Ġpink": 3661,
      "three": 3662,
      "ico": 3663,
      "cks": 3664,
      "ustom": 3665,
      "Ġearl": 3666,
      "Ġpicked": 3667,
      "wise": 3668,
      "Ġpocket": 3669,
      "Ġamount": 3670,
      "Ġscar": 3671,
      "big": 3672,
      "ida": 3673,
      "gged": 3674,
      "ument": 3675,
      "Ġremain": 3676,
      "ville": 3677,
      "Ġimmedi": 3678,
      "ĠBlue": 3679,
      "Ġhost": 3680,
      "cious": 3681,
      "ĠLa": 3682,
      "ĠLeague": 3683,
      "cience": 3684,
      "Ġaut": 3685,
      "ding": 3686,
      "anced": 3687,
      "ĠGovern": 3688,
      "Ġsituation": 3689,
      "Ġconcern": 3690,
      "pose": 3691,
      "usic": 3692,
      "Ġdrawing": 3693,
      "yond": 3694,
      "Ġasleep": 3695,
      "Ġpounds": 3696,
      "Ġrose": 3697,
      "ĠAir": 3698,
      "ita": 3699,
      "Ġinclude": 3700,
      "Ġprocess": 3701,
      "Ġbelow": 3702,
      "counter": 3703,
      "itz": 3704,
      "Ġsepar": 3705,
      "Ġaccom": 3706,
      "izes": 3707,
      "Ġmass": 3708,
      "ĠAlex": 3709,
      "iant": 3710,
      "enny": 3711,
      "ĠAct": 3712,
      "aker": 3713,
      "ĠMichael": 3714,
      "ĠSan": 3715,
      "ĠWould": 3716,
      "Ġvan": 3717,
      "vi": 3718,
      "Ġdirty": 3719,
      "Ġcaused": 3720,
      "Ġspread": 3721,
      "Ġener": 3722,
      "Ġolder": 3723,
      "Ġtwelve": 3724,
      "order": 3725,
      "ĠRichard": 3726,
      "Ġways": 3727,
      "Ġtow": 3728,
      "ĠMost": 3729,
      "ĠDoctor": 3730,
      "ĠBrown": 3731,
      "Ġpupp": 3732,
      "Ch": 3733,
      "Ġ(\"": 3734,
      "Ġentered": 3735,
      "Ġpers": 3736,
      "olutely": 3737,
      "Ġoccas": 3738,
      "Ġblank": 3739,
      "VE": 3740,
      "Mum": 3741,
      "Ġhardly": 3742,
      "ĠSund": 3743,
      "Ġhelped": 3744,
      "Ġbirds": 3745,
      "Ġ2010": 3746,
      "Ġnobody": 3747,
      "Ġ&": 3748,
      "Ġrese": 3749,
      "ĠGive": 3750,
      "ĠOur": 3751,
      "ship": 3752,
      "Ġfre": 3753,
      "Ġstudy": 3754,
      "Ġlength": 3755,
      "ĠBel": 3756,
      "Ġdogs": 3757,
      "inite": 3758,
      "eder": 3759,
      "Ġlearned": 3760,
      "Ġchocol": 3761,
      "Ġtalked": 3762,
      "Ġpray": 3763,
      "ĠSant": 3764,
      "Ġcircle": 3765,
      "rect": 3766,
      "Ġarmy": 3767,
      "Ġrob": 3768,
      "Ġ2019": 3769,
      "Ġbreath": 3770,
      "Ġsheep": 3771,
      "Ġrepresent": 3772,
      "Ġfresh": 3773,
      "Ġspoon": 3774,
      "ĠJapanese": 3775,
      "iar": 3776,
      "mond": 3777,
      "18": 3778,
      "kin": 3779,
      "olf": 3780,
      "Ġrole": 3781,
      "ensus": 3782,
      "Ġnatural": 3783,
      "Ġworse": 3784,
      "arm": 3785,
      "omes": 3786,
      "ushing": 3787,
      "Ġsleeping": 3788,
      "ĠHall": 3789,
      "Ġcovered": 3790,
      "ummer": 3791,
      "Ġvocal": 3792,
      "ipped": 3793,
      "Ġstage": 3794,
      "My": 3795,
      "ĠMal": 3796,
      "Ġrich": 3797,
      "back": 3798,
      "ĠListen": 3799,
      "Ġjoined": 3800,
      "uten": 3801,
      "ĠJwww": 3802,
      "these": 3803,
      "]!": 3804,
      "Ġeff": 3805,
      "ĠDuring": 3806,
      "Ġsimilar": 3807,
      "Ġfright": 3808,
      "car": 3809,
      "Ġï¿½": 3810,
      "ils": 3811,
      "Ġgas": 3812,
      "Ġdeclared": 3813,
      "Mommy": 3814,
      "Ġcrack": 3815,
      "Ġdinosaur": 3816,
      "uts": 3817,
      "Ġaff": 3818,
      "laughing": 3819,
      "ĠDor": 3820,
      "Ġcoat": 3821,
      "Ġ2011": 3822,
      "aded": 3823,
      "Ġsilence": 3824,
      "ference": 3825,
      "Ġpromise": 3826,
      "Ġshore": 3827,
      "Ġmeat": 3828,
      "Ġcomb": 3829,
      "ĠRepubl": 3830,
      "stit": 3831,
      "da": 3832,
      "Ġshit": 3833,
      "Ġbroad": 3834,
      "Ġbye": 3835,
      "Ġpossib": 3836,
      "lands": 3837,
      "Ġutter": 3838,
      "Ġpuzzle": 3839,
      "Ġ22": 3840,
      "Ġsearch": 3841,
      "Ġscr": 3842,
      "Ġcourt": 3843,
      "Ġfem": 3844,
      "Ġhey": 3845,
      "Ġdiscuss": 3846,
      "ĠAustralia": 3847,
      "Ġpeace": 3848,
      "anor": 3849,
      "Ġris": 3850,
      "ĠJo": 3851,
      "ĠHistory": 3852,
      "Ġhm": 3853,
      "ĠEast": 3854,
      "Ġ23": 3855,
      "bour": 3856,
      "name": 3857,
      "erve": 3858,
      "Ġmovies": 3859,
      "Ġdirected": 3860,
      "Ġstories": 3861,
      "Ġmonkey": 3862,
      "Ġrespons": 3863,
      "Ġmeas": 3864,
      "boy": 3865,
      "conom": 3866,
      "ests": 3867,
      "ails": 3868,
      "ĠHarry": 3869,
      "aturday": 3870,
      "Ġver": 3871,
      "Ġstupid": 3872,
      "ĠTheir": 3873,
      "hand": 3874,
      "ĠSchool": 3875,
      "----------------": 3876,
      "Ġforty": 3877,
      "Ġterm": 3878,
      "ĠAc": 3879,
      "brother": 3880,
      "ĠMinister": 3881,
      "Ġow": 3882,
      "Ġjoin": 3883,
      "four": 3884,
      "ption": 3885,
      "ĠTex": 3886,
      "Then": 3887,
      "Ġviol": 3888,
      "Ġtend": 3889,
      "Ġcalling": 3890,
      "Ġforest": 3891,
      "Ġenemy": 3892,
      "action": 3893,
      "Ġdiscovered": 3894,
      "cing": 3895,
      "Ġtour": 3896,
      "pret": 3897,
      "Ġdriving": 3898,
      "hire": 3899,
      "Ġwelcome": 3900,
      "Ġphys": 3901,
      "inary": 3902,
      "Ġupstairs": 3903,
      "Ġhill": 3904,
      "ĠState": 3905,
      "Ġbeyond": 3906,
      "Ġuncle": 3907,
      "pers": 3908,
      "Ġlab": 3909,
      "ĠOl": 3910,
      "Ġadult": 3911,
      "andy": 3912,
      "Ġvarious": 3913,
      "ĠOther": 3914,
      "Ġbound": 3915,
      "ums": 3916,
      "ĠRo": 3917,
      "ĠDoes": 3918,
      "Ġhappening": 3919,
      "Ġdeter": 3920,
      "Ġcollege": 3921,
      "Ġ,": 3922,
      "ĠLittle": 3923,
      "isy": 3924,
      "line": 3925,
      "Ġtech": 3926,
      "ĠHigh": 3927,
      "An": 3928,
      "_,": 3929,
      "reme": 3930,
      "ĠII": 3931,
      "Ġeager": 3932,
      "Ġstraw": 3933,
      "Ġlines": 3934,
      "aud": 3935,
      "Ġnumbers": 3936,
      "Ġarrived": 3937,
      "ĠUS": 3938,
      "Ġmissing": 3939,
      "ĠHam": 3940,
      "ĠSure": 3941,
      "ciety": 3942,
      "ĠAust": 3943,
      "aine": 3944,
      "erved": 3945,
      "nce": 3946,
      "Ġangry": 3947,
      "itude": 3948,
      "CK": 3949,
      "Ġsize": 3950,
      "Ġrefer": 3951,
      "ĠTony": 3952,
      "cour": 3953,
      "Ġpal": 3954,
      "Ġpath": 3955,
      "ira": 3956,
      "anda": 3957,
      "Ġgoin": 3958,
      "Ġguard": 3959,
      "oyal": 3960,
      "Ġdressed": 3961,
      "Ġlargest": 3962,
      "ĠTim": 3963,
      "elly": 3964,
      "hered": 3965,
      "ĠIts": 3966,
      "ĠChristian": 3967,
      "ousin": 3968,
      "Ġapart": 3969,
      "LY": 3970,
      "Ġsharp": 3971,
      "picks": 3972,
      "ste": 3973,
      "Ġdriver": 3974,
      "Ġexplain": 3975,
      "Ġrelations": 3976,
      "ĠJesus": 3977,
      "ĠMac": 3978,
      "Ġneedta": 3979,
      "Ġannounced": 3980,
      "ka": 3981,
      "outs": 3982,
      "Ġtax": 3983,
      "Ġforth": 3984,
      "Ġthrew": 3985,
      "Ġcolors": 3986,
      "Ġhouses": 3987,
      "ially": 3988,
      "Ġbite": 3989,
      "essel": 3990,
      "ĠChild": 3991,
      "face": 3992,
      "ĠOld": 3993,
      "Ġfinal": 3994,
      "Ġraised": 3995,
      "Ġrabbit": 3996,
      "Ġsquare": 3997,
      "thern": 3998,
      "Ġnaught": 3999,
      "ural": 4000,
      "Ġintrodu": 4001,
      "Ġsurprised": 4002,
      "ped": 4003,
      "adu": 4004,
      "Ġchocolate": 4005,
      "Ġsteps": 4006,
      "inct": 4007,
      "Ġhadn": 4008,
      "Ġtrip": 4009,
      "Ġdestroy": 4010,
      "ĠOnly": 4011,
      "Ġstone": 4012,
      "Ġskin": 4013,
      "ĠWhich": 4014,
      "Ġoppos": 4015,
      "Ġenergy": 4016,
      "nam": 4017,
      "Ġtight": 4018,
      "ĠBig": 4019,
      "Ġbrief": 4020,
      "ĠBefore": 4021,
      "Ġthinks": 4022,
      "Ġclever": 4023,
      "Ġsimple": 4024,
      "Ġbattle": 4025,
      "Ġstreng": 4026,
      "Ġpleasure": 4027,
      "iel": 4028,
      "sidered": 4029,
      "atic": 4030,
      "Ġspring": 4031,
      "Ġconsidered": 4032,
      "azing": 4033,
      "Ġemploy": 4034,
      "Ġdrew": 4035,
      "11": 4036,
      "ences": 4037,
      "ĠON": 4038,
      "eds": 4039,
      "Ġsevent": 4040,
      "antic": 4041,
      "Ġrough": 4042,
      "ĠGeneral": 4043,
      "Ġshirt": 4044,
      "Ġhiding": 4045,
      "Ġeast": 4046,
      "ĠLouis": 4047,
      "Ġplaced": 4048,
      "Ġwearing": 4049,
      "Ġinterrupt": 4050,
      "ached": 4051,
      "ĠMed": 4052,
      "ĠDick": 4053,
      "Ġshoot": 4054,
      "ggie": 4055,
      "hin": 4056,
      "itor": 4057,
      "Ġsens": 4058,
      "ĠBer": 4059,
      "Ġcrit": 4060,
      "ĠSunday": 4061,
      "GR": 4062,
      "Ġcult": 4063,
      "ĠVery": 4064,
      "Ġdifference": 4065,
      "Ġopport": 4066,
      "Ġide": 4067,
      "ĠTw": 4068,
      "Ġtiny": 4069,
      "Ġwatched": 4070,
      "Ġtou": 4071,
      "ĠSim": 4072,
      "Is": 4073,
      "Ġproud": 4074,
      "alt": 4075,
      "ĠInternational": 4076,
      "fit": 4077,
      "Ġiron": 4078,
      "reek": 4079,
      "Ġcomputer": 4080,
      "those": 4081,
      "Ġsho": 4082,
      "Ġmedic": 4083,
      "Ġmissed": 4084,
      "Ġfalling": 4085,
      "Ġfighting": 4086,
      "ĠTexas": 4087,
      "ĠJane": 4088,
      "ĠAbout": 4089,
      "Ġlaid": 4090,
      "hem": 4091,
      "Ġwinter": 4092,
      "ivid": 4093,
      "ses": 4094,
      "In": 4095,
      "AY": 4096,
      "Ġmicro": 4097,
      "Ġsuff": 4098,
      "UNK": 4099,
      "zen": 4100,
      "Ġbegin": 4101,
      "Ġregard": 4102,
      "Ġden": 4103,
      "father": 4104,
      "Ġmountain": 4105,
      "Ġleader": 4106,
      "asons": 4107,
      "atives": 4108,
      "stop": 4109,
      "ĠDes": 4110,
      "Ġtherefore": 4111,
      "aches": 4112,
      "ĠTV": 4113,
      "istan": 4114,
      "ĠChampions": 4115,
      "Ġdemand": 4116,
      "Ġonto": 4117,
      "Ġholiday": 4118,
      "All": 4119,
      "eer": 4120,
      "Ġactor": 4121,
      "Ġhonest": 4122,
      "Ġ100": 4123,
      "Ġtone": 4124,
      "ĠBur": 4125,
      "ĠSpanish": 4126,
      "Ġexpected": 4127,
      "Ġquarter": 4128,
      "Ġmarket": 4129,
      "Ġtaste": 4130,
      "Ġescape": 4131,
      "ĠST": 4132,
      "Ġpun": 4133,
      "Ġroof": 4134,
      "Ġvessel": 4135,
      "Ġmir": 4136,
      "Ġformed": 4137,
      "Ġund": 4138,
      "Ġregular": 4139,
      "five": 4140,
      "Ġsuit": 4141,
      "Ġur": 4142,
      "Ġhandle": 4143,
      "Ġunless": 4144,
      "Right": 4145,
      "ĠSaturday": 4146,
      "alley": 4147,
      "Ġmanage": 4148,
      "Ġanywhere": 4149,
      "Ġprofessional": 4150,
      "unicip": 4151,
      "Ġmanner": 4152,
      "Ġbeside": 4153,
      "Ġbill": 4154,
      "ples": 4155,
      "ĠParis": 4156,
      "Ġstarting": 4157,
      "ighs": 4158,
      "Ġblocks": 4159,
      "Ġtemper": 4160,
      "Ġrelig": 4161,
      "Ġcompletely": 4162,
      "sey": 4163,
      "iest": 4164,
      "vious": 4165,
      "Ġaction": 4166,
      "ashion": 4167,
      "umber": 4168,
      "Ġfilled": 4169,
      "Ġmater": 4170,
      "ĠFin": 4171,
      "Ġcivil": 4172,
      "Ġho": 4173,
      "Ġgod": 4174,
      "Ġclock": 4175,
      "oves": 4176,
      "Ġstran": 4177,
      "Ġtrave": 4178,
      "Ġnecessary": 4179,
      "Ġspeaking": 4180,
      ":=": 4181,
      "ĠThree": 4182,
      "Ġaud": 4183,
      "Ġrail": 4184,
      "mit": 4185,
      "hern": 4186,
      "Ġdeg": 4187,
      "Ġspirit": 4188,
      "Ġinflu": 4189,
      "ĠÂ": 4190,
      "Ġduty": 4191,
      "ĠMex": 4192,
      "Ġappl": 4193,
      "Ġeasily": 4194,
      "Ġagree": 4195,
      "Ġnature": 4196,
      "ĠBu": 4197,
      "Ġthick": 4198,
      "Ġproduced": 4199,
      "ago": 4200,
      "Ġnet": 4201,
      "Ġfol": 4202,
      "Ġagreed": 4203,
      "Ġexcited": 4204,
      "Ġlion": 4205,
      "Ġplane": 4206,
      "asc": 4207,
      "Ġmoves": 4208,
      "ography": 4209,
      "lyn": 4210,
      "Ġflat": 4211,
      "Ġwest": 4212,
      "eg": 4213,
      "Ġsimply": 4214,
      "Ġcrowd": 4215,
      "Ġtap": 4216,
      "Ġhero": 4217,
      "cast": 4218,
      "Ġthreat": 4219,
      "cean": 4220,
      "ĠLee": 4221,
      "uckles": 4222,
      "Ġsett": 4223,
      "Ġwound": 4224,
      "lect": 4225,
      "ĠBeck": 4226,
      "UT": 4227,
      "arrow": 4228,
      "ĠExcuse": 4229,
      "Ġflying": 4230,
      "Ġet": 4231,
      "Ġ2016": 4232,
      "Ġpaint": 4233,
      "Ġlog": 4234,
      "Ġgoodness": 4235,
      "Ġpolitical": 4236,
      "Not": 4237,
      "ĠPet": 4238,
      "ĠCharlie": 4239,
      "Ġnaughty": 4240,
      "wr": 4241,
      "Ġpleased": 4242,
      "ĠPort": 4243,
      "Ġma": 4244,
      "Ġfaith": 4245,
      "Ġradio": 4246,
      "ĠAnne": 4247,
      "Ġimmediately": 4248,
      "athy": 4249,
      "worth": 4250,
      "ĠSarah": 4251,
      "ĠScott": 4252,
      "Ġweather": 4253,
      "eaks": 4254,
      "gon": 4255,
      "Ġproject": 4256,
      "oring": 4257,
      "icle": 4258,
      "ĠGot": 4259,
      "Ġexperience": 4260,
      "ival": 4261,
      "Ġweap": 4262,
      "Ġcuri": 4263,
      "30": 4264,
      "utenant": 4265,
      "ĠCO": 4266,
      "IM": 4267,
      "ĠNever": 4268,
      "Thomas": 4269,
      "ĠEuropean": 4270,
      "Ġgate": 4271,
      "road": 4272,
      "Ġbud": 4273,
      "Ġsoldiers": 4274,
      "Ġlower": 4275,
      "Ġpurpose": 4276,
      "yy": 4277,
      "Ġhuge": 4278,
      "Ġcrew": 4279,
      "Ġ26": 4280,
      "ĠSince": 4281,
      "Ġhi": 4282,
      "rer": 4283,
      "bon": 4284,
      "Ġfro": 4285,
      "ĠHenry": 4286,
      "cries": 4287,
      "icious": 4288,
      "Ġnotice": 4289,
      "Ġsmoke": 4290,
      "ĠScot": 4291,
      "Ġarrest": 4292,
      "ensive": 4293,
      "Ġhigher": 4294,
      "ĠSl": 4295,
      "sm": 4296,
      "Ġelephant": 4297,
      "Ġempty": 4298,
      "Ġprivate": 4299,
      "Ã¨": 4300,
      "ĠDem": 4301,
      "osh": 4302,
      "Ġbackground": 4303,
      "outhern": 4304,
      "urse": 4305,
      "Ġended": 4306,
      "...?": 4307,
      "Ġsocial": 4308,
      "oph": 4309,
      "Ġepis": 4310,
      "ĠSch": 4311,
      "Ġpulled": 4312,
      "Ġinf": 4313,
      "Ġ27": 4314,
      "rugg": 4315,
      "ĠPerhaps": 4316,
      "Ġinj": 4317,
      "Ġboo": 4318,
      "igs": 4319,
      "Ġbegins": 4320,
      "Ġfeat": 4321,
      "Ġble": 4322,
      "Ġ29": 4323,
      "Ġsurv": 4324,
      "heart": 4325,
      "Ġ28": 4326,
      "Ġcontinues": 4327,
      "ba": 4328,
      "ups": 4329,
      "oved": 4330,
      "ĠWhile": 4331,
      "ĠDis": 4332,
      "Ġscene": 4333,
      "Ġscream": 4334,
      "Ġadvent": 4335,
      "Ġ2015": 4336,
      "Ġfault": 4337,
      "ushes": 4338,
      "idden": 4339,
      "Ġ2014": 4340,
      ",'": 4341,
      "12": 4342,
      "gl": 4343,
      "Ġdangerous": 4344,
      "ki": 4345,
      "ĠBE": 4346,
      "ables": 4347,
      "Ġbelieved": 4348,
      "Ġ2012": 4349,
      "ĠGra": 4350,
      "Ġpossess": 4351,
      "Ġstruck": 4352,
      "ĠWhite": 4353,
      "Ġeh": 4354,
      "Ġnurs": 4355,
      "whoops": 4356,
      "Ġwit": 4357,
      "Ġdate": 4358,
      "Ġmilitary": 4359,
      "ois": 4360,
      "Ġoffer": 4361,
      "ĠAdam": 4362,
      "ĠHa": 4363,
      "ĠTur": 4364,
      "Ġsinger": 4365,
      "Ġcabin": 4366,
      "ĠSen": 4367,
      "Ġoffe": 4368,
      "rig": 4369,
      "utch": 4370,
      "ELS": 4371,
      "Ġsusp": 4372,
      "bel": 4373,
      "Ġlistening": 4374,
      "sil": 4375,
      "Ġimpro": 4376,
      "Ġye": 4377,
      "Ġfruit": 4378,
      "Ġsaved": 4379,
      "Ġimm": 4380,
      "Ġwake": 4381,
      "Ġlights": 4382,
      "Ġawful": 4383,
      "SO": 4384,
      "Ġusual": 4385,
      "rance": 4386,
      "Ġpan": 4387,
      "Ġinvolved": 4388,
      "ening": 4389,
      "This": 4390,
      "Ġtotal": 4391,
      "Ġant": 4392,
      "Ġnon": 4393,
      "vail": 4394,
      "Ġstream": 4395,
      "Ġruns": 4396,
      "Ġjourney": 4397,
      "--\"": 4398,
      "ĠPri": 4399,
      "ĠMore": 4400,
      "Ġrow": 4401,
      "ĠFriday": 4402,
      "Ġcheer": 4403,
      "ĠChina": 4404,
      "Ġsongs": 4405,
      "Ġpil": 4406,
      "ators": 4407,
      "ĠGar": 4408,
      "Ġcondu": 4409,
      "Ġsandw": 4410,
      "Ġflower": 4411,
      "ria": 4412,
      "Ġearlier": 4413,
      "ĠCup": 4414,
      "ĠCouncil": 4415,
      "oups": 4416,
      "Ġshoe": 4417,
      "Ġfallen": 4418,
      "ĠRos": 4419,
      "Ġplenty": 4420,
      "keep": 4421,
      "roat": 4422,
      "Ġflag": 4423,
      "Ġsnake": 4424,
      "ĠCos": 4425,
      "Ġsoul": 4426,
      "Ġhun": 4427,
      "Ġstorm": 4428,
      "Ġdepend": 4429,
      "Ġlucky": 4430,
      "Ġimagine": 4431,
      "Nin": 4432,
      "Ġbomb": 4433,
      "Ġmeaning": 4434,
      "Ġtraining": 4435,
      "Ġoccup": 4436,
      "ontin": 4437,
      "Ã¼": 4438,
      "ĠMil": 4439,
      "Ġwed": 4440,
      "cip": 4441,
      "Ġguns": 4442,
      "Ġoriginal": 4443,
      "Ġtwice": 4444,
      "inese": 4445,
      "Ġmodern": 4446,
      "Ġbabies": 4447,
      "bered": 4448,
      "ĠRussian": 4449,
      "ĠMel": 4450,
      "ĠâĢĶ": 4451,
      "Ġcoast": 4452,
      "ĠCarol": 4453,
      "Ġdru": 4454,
      "ĠCharles": 4455,
      "ĠLady": 4456,
      "Ġedge": 4457,
      "ns": 4458,
      "Ġmouse": 4459,
      "Ġmotor": 4460,
      "ĠIr": 4461,
      "Ġsugar": 4462,
      "Ġofficers": 4463,
      "ĠCould": 4464,
      "log": 4465,
      "ishes": 4466,
      "Ġ2008": 4467,
      "Ġhurry": 4468,
      "urdie": 4469,
      "Ġham": 4470,
      "ĠFred": 4471,
      "ossible": 4472,
      "Ġchem": 4473,
      "Ġindust": 4474,
      "Ġcensus": 4475,
      "Ġsmart": 4476,
      "Ġtravel": 4477,
      "ĠÃ": 4478,
      "ĠEarth": 4479,
      "ointed": 4480,
      "ram": 4481,
      "Ġwoods": 4482,
      "ĠDar": 4483,
      "ĠUnion": 4484,
      "ruction": 4485,
      "ĠGO": 4486,
      "Ġsupper": 4487,
      "Ġ)": 4488,
      "ĠDu": 4489,
      "yer": 4490,
      "Ġassist": 4491,
      "ĠBear": 4492,
      "Ġspell": 4493,
      "iber": 4494,
      "jo": 4495,
      "ems": 4496,
      "somet": 4497,
      "eless": 4498,
      "Ġexist": 4499,
      "Ġfounded": 4500,
      "Ġswimming": 4501,
      "oming": 4502,
      "Ġpound": 4503,
      "ĠStreet": 4504,
      "Ġterms": 4505,
      "hest": 4506,
      "Ġplain": 4507,
      "Ġmanaged": 4508,
      "Ġeconom": 4509,
      "ledge": 4510,
      "ĠCanada": 4511,
      "Ġtries": 4512,
      "dad": 4513,
      "Ġlid": 4514,
      "ĠRem": 4515,
      "looking": 4516,
      "Ġseconds": 4517,
      "ola": 4518,
      "ĠMic": 4519,
      "ĠMhm": 4520,
      "ĠTHAT": 4521,
      "ucky": 4522,
      "Ġhotel": 4523,
      "Ġteddy": 4524,
      "Ġopening": 4525,
      "Ġdouble": 4526,
      "ords": 4527,
      "Ġknife": 4528,
      "IR": 4529,
      "eech": 4530,
      "ĠTod": 4531,
      "Fr": 4532,
      "ux": 4533,
      "aren": 4534,
      "Ġpainting": 4535,
      "Ġmostly": 4536,
      "Ġattract": 4537,
      "initely": 4538,
      "iana": 4539,
      "Ġnoticed": 4540,
      "Ġ2009": 4541,
      "anch": 4542,
      "using": 4543,
      "Ġemb": 4544,
      "pet": 4545,
      "omin": 4546,
      "osing": 4547,
      "ĠDel": 4548,
      "berry": 4549,
      "Ġ2007": 4550,
      "Ġladies": 4551,
      "ero": 4552,
      "essie": 4553,
      "another": 4554,
      "fly": 4555,
      "Ġbrave": 4556,
      "Ġbrush": 4557,
      "200": 4558,
      "Ġbeha": 4559,
      "urity": 4560,
      "bu": 4561,
      "Ġmam": 4562,
      "ental": 4563,
      "ĠItaly": 4564,
      "STE": 4565,
      "Ġtrick": 4566,
      "Ġscient": 4567,
      "ĠSus": 4568,
      "ĠJose": 4569,
      "Ġelection": 4570,
      "Ġestab": 4571,
      "Ġtower": 4572,
      "Ġcarefully": 4573,
      "Ġpir": 4574,
      "50": 4575,
      "anny": 4576,
      "Ġgrown": 4577,
      "Ġstrength": 4578,
      "isn": 4579,
      "Ġinqu": 4580,
      "Ġgrowing": 4581,
      "Ġrapid": 4582,
      "Ġareas": 4583,
      "Ġbutton": 4584,
      "Ġpurple": 4585,
      "Ġpuppet": 4586,
      "Ġstret": 4587,
      "Ġpromised": 4588,
      "Ġdownstairs": 4589,
      "Ġpin": 4590,
      "usion": 4591,
      "Ġshown": 4592,
      "Ġearn": 4593,
      "Ġwatches": 4594,
      "Ġindepend": 4595,
      "Ġwalks": 4596,
      "Ġstrugg": 4597,
      "Ġthus": 4598,
      "Ġident": 4599,
      "Ġhello": 4600,
      "Ġsettle": 4601,
      "Ġ[?": 4602,
      "Ġchoose": 4603,
      "ERE": 4604,
      "Ġinvestig": 4605,
      "sed": 4606,
      "book": 4607,
      "Ġdirector": 4608,
      "ners": 4609,
      "Ġlips": 4610,
      "ĠGreen": 4611,
      "Ġevident": 4612,
      "Ġnote": 4613,
      "mo": 4614,
      "Ġweak": 4615,
      "puts": 4616,
      "ĠMartin": 4617,
      "mot": 4618,
      "Ġmeal": 4619,
      "Ġchoice": 4620,
      "hal": 4621,
      "ols": 4622,
      "ively": 4623,
      "Ġdisp": 4624,
      "blue": 4625,
      "Ġnea": 4626,
      "ration": 4627,
      "ĠSummer": 4628,
      "Ġevidence": 4629,
      "Ġcart": 4630,
      "Ġmunicip": 4631,
      "Ġheat": 4632,
      "Ġmistake": 4633,
      "pan": 4634,
      "Ġdise": 4635,
      "Ġpit": 4636,
      "Ġbedroom": 4637,
      "Ġtitle": 4638,
      "burg": 4639,
      "Ġcalls": 4640,
      "pa": 4641,
      "ĠBart": 4642,
      "Ġcards": 4643,
      "Ġ2013": 4644,
      "Ã¶": 4645,
      "ĠEve": 4646,
      "Ġplants": 4647,
      "ĠItalian": 4648,
      "Ġflight": 4649,
      "make": 4650,
      "Ġprepared": 4651,
      "rid": 4652,
      "Ġpleasant": 4653,
      "Ġmessage": 4654,
      "Ġworried": 4655,
      "actor": 4656,
      "Ġkeeping": 4657,
      "Ġbowl": 4658,
      "ĠOver": 4659,
      "Ġgrab": 4660,
      "Ġpersonal": 4661,
      "yup": 4662,
      "liam": 4663,
      "Ġwheels": 4664,
      "vey": 4665,
      "âĮī": 4666,
      "âĮĭ": 4667,
      "Ġbuck": 4668,
      "Ġremem": 4669,
      "ops": 4670,
      "ĠFlor": 4671,
      "Ġtears": 4672,
      "osta": 4673,
      "ĠAcc": 4674,
      "Ġvac": 4675,
      "Ġtaught": 4676,
      "Ġheads": 4677,
      "onse": 4678,
      "ĠChurch": 4679,
      "Ġspoken": 4680,
      "Ġdust": 4681,
      "vere": 4682,
      "ĠWin": 4683,
      "Ġdeck": 4684,
      "ĠAcad": 4685,
      "Ġfirm": 4686,
      "ĠPal": 4687,
      "Ġ2006": 4688,
      "eman": 4689,
      "his": 4690,
      "ata": 4691,
      "Ġdesp": 4692,
      "17": 4693,
      "ittee": 4694,
      "Ġgroups": 4695,
      "ĠQueen": 4696,
      "iller": 4697,
      "Ġsch": 4698,
      "gypt": 4699,
      "Ġoccur": 4700,
      "Ġopportunity": 4701,
      ".,": 4702,
      "Ġsour": 4703,
      "iction": 4704,
      "ĠMont": 4705,
      "iring": 4706,
      "going": 4707,
      "liament": 4708,
      "Ġcustom": 4709,
      "anche": 4710,
      "Ġcere": 4711,
      "ĠGold": 4712,
      "Ġclaim": 4713,
      "arently": 4714,
      "hington": 4715,
      "Ġpill": 4716,
      "Ġbeach": 4717,
      "HE": 4718,
      "su": 4719,
      "Ġtelephone": 4720,
      "Ġchanges": 4721,
      "Ġswing": 4722,
      "Ġfellows": 4723,
      "Ġstairs": 4724,
      "Ġcases": 4725,
      "ĠNet": 4726,
      "ROZ": 4727,
      "Ġpair": 4728,
      "Ġacqu": 4729,
      "Ġgall": 4730,
      "nic": 4731,
      "Ġcommunity": 4732,
      "could": 4733,
      "iot": 4734,
      "Ġcousin": 4735,
      "Ġtells": 4736,
      "ĠDist": 4737,
      "ĠKingdom": 4738,
      "mine": 4739,
      "chie": 4740,
      "onel": 4741,
      "Ġpublished": 4742,
      "CO": 4743,
      "ĠChan": 4744,
      "Ġ--": 4745,
      "aret": 4746,
      "ĠJulia": 4747,
      "ograph": 4748,
      "....": 4749,
      "ĠHE": 4750,
      "ĠLat": 4751,
      "cend": 4752,
      "ĠDep": 4753,
      "Ġfifteen": 4754,
      "Ġaddress": 4755,
      "ĠJud": 4756,
      "Ġappre": 4757,
      "CE": 4758,
      "Ġbatter": 4759,
      "ooth": 4760,
      "ĠFlore": 4761,
      "ij": 4762,
      "ena": 4763,
      "every": 4764,
      "Ġweight": 4765,
      "ĠSing": 4766,
      "izza": 4767,
      "elebr": 4768,
      "Ġstock": 4769,
      "Ġjoy": 4770,
      "Ġoccasion": 4771,
      "ĠThose": 4772,
      "aving": 4773,
      "nie": 4774,
      "Ġmult": 4775,
      "ĠSal": 4776,
      "Ġbless": 4777,
      "Ġquietly": 4778,
      "Ġwand": 4779,
      "Ġshoulder": 4780,
      "Ġeducation": 4781,
      "Ġbi": 4782,
      "Ġgra": 4783,
      "ĠEgypt": 4784,
      "Ġgentleman": 4785,
      "icated": 4786,
      "babbles": 4787,
      "ĠHold": 4788,
      "Ġshad": 4789,
      "Ġchap": 4790,
      "sw": 4791,
      "ĠUm": 4792,
      "KF": 4793,
      "Ġstudents": 4794,
      "Ġrule": 4795,
      "Ġrate": 4796,
      "agon": 4797,
      "GHT": 4798,
      "Ġtong": 4799,
      "ĠFort": 4800,
      "Ġharm": 4801,
      "Ġaged": 4802,
      "oted": 4803,
      "ĠâĮ": 4804,
      "Ġduh": 4805,
      "aked": 4806,
      "ĠWal": 4807,
      "cis": 4808,
      "Ġmonster": 4809,
      "Ġenter": 4810,
      "Ġorders": 4811,
      "ii": 4812,
      "vy": 4813,
      "ĠCle": 4814,
      "urt": 4815,
      "sl": 4816,
      "aura": 4817,
      "Ġabsolutely": 4818,
      "Ġnormal": 4819,
      "Ġloss": 4820,
      "ĠPlay": 4821,
      "ĠSylv": 4822,
      "Ġmovement": 4823,
      "Ġsides": 4824,
      "ĠSmith": 4825,
      "cream": 4826,
      "Ġneg": 4827,
      "ĠRes": 4828,
      "oughs": 4829,
      "Ġbrain": 4830,
      "ĠOnce": 4831,
      "ooting": 4832,
      "ĠOoh": 4833,
      "ĠChinese": 4834,
      "ĠOut": 4835,
      "istics": 4836,
      "âĢĿ.": 4837,
      "onday": 4838,
      "Ġbits": 4839,
      "ĠClub": 4840,
      "Ġcenter": 4841,
      "Ġvocalises": 4842,
      "Ġ50": 4843,
      "fall": 4844,
      "ĠIS": 4845,
      "ĠCour": 4846,
      "Ġdancing": 4847,
      "Ġimpossible": 4848,
      "Ġmagaz": 4849,
      "Chi": 4850,
      "cut": 4851,
      "Ġblind": 4852,
      "iled": 4853,
      "aning": 4854,
      "Ġlap": 4855,
      "ĠSun": 4856,
      "open": 4857,
      "Ġforgotten": 4858,
      "ĠApp": 4859,
      "Ġteach": 4860,
      "Ġopin": 4861,
      "ĠSometimes": 4862,
      "ech": 4863,
      "ĠWashington": 4864,
      "ĠBonnet": 4865,
      "Ġgrave": 4866,
      "ĠVict": 4867,
      "Ġcloser": 4868,
      "Ġmurder": 4869,
      "__": 4870,
      "Ġbother": 4871,
      "Ġmo": 4872,
      "Ġjumped": 4873,
      "Ġordered": 4874,
      "Ġrocks": 4875,
      "Ġelectric": 4876,
      "Ġsuggested": 4877,
      "bes": 4878,
      "lected": 4879,
      "Ġge": 4880,
      "ĠIre": 4881,
      "ari": 4882,
      "Ġcorrect": 4883,
      "ĠPut": 4884,
      "ĠMax": 4885,
      "Ġnewsp": 4886,
      "Ġcalm": 4887,
      "Ġ()": 4888,
      "Ġindivid": 4889,
      "Ġrespond": 4890,
      "Ġtent": 4891,
      "Ġlake": 4892,
      "Be": 4893,
      "ĠArab": 4894,
      "Ġremind": 4895,
      "Ġactress": 4896,
      "Ġremained": 4897,
      "Ġsurround": 4898,
      "15": 4899,
      "Ġninet": 4900,
      "ify": 4901,
      "ella": 4902,
      "ĠMama": 4903,
      "ĠKore": 4904,
      "Ġslide": 4905,
      "ĠReg": 4906,
      "lor": 4907,
      "ours": 4908,
      "ĠSuper": 4909,
      "oured": 4910,
      "Ġkinds": 4911,
      "Ġdread": 4912,
      "ĠBern": 4913,
      "ceeded": 4914,
      "Ġlocated": 4915,
      "Ġpeas": 4916,
      "ube": 4917,
      "ini": 4918,
      "should": 4919,
      "ĠFuck": 4920,
      "ĠAfrica": 4921,
      "Ġschools": 4922,
      "Ġ..": 4923,
      "Ġpants": 4924,
      "Ġprice": 4925,
      "sure": 4926,
      "Ġgro": 4927,
      "AK": 4928,
      "Ġreck": 4929,
      "Ġspeech": 4930,
      "Ġsurface": 4931,
      "Ġdare": 4932,
      "Ġyouth": 4933,
      "Ġtiger": 4934,
      "ocrat": 4935,
      "orough": 4936,
      "Ġproduct": 4937,
      "ĠMaster": 4938,
      "ĠDO": 4939,
      "actually": 4940,
      "ĠDam": 4941,
      "Ġcro": 4942,
      "Ġpa": 4943,
      "Ġcomed": 4944,
      "Ġplans": 4945,
      "cat": 4946,
      "Ġeverywhere": 4947,
      "Ġcontinue": 4948,
      "ĠCare": 4949,
      "ĠFour": 4950,
      "Ġversion": 4951,
      "ĠStill": 4952,
      "rees": 4953,
      "ĠRock": 4954,
      "icked": 4955,
      "Ġfixed": 4956,
      "Ġamb": 4957,
      "Ġobviously": 4958,
      "ĠRoss": 4959,
      "13": 4960,
      "Ġshouted": 4961,
      "Ġliter": 4962,
      "useum": 4963,
      "ĠHur": 4964,
      "iety": 4965,
      "bie": 4966,
      "Ġanxious": 4967,
      "ĠSanta": 4968,
      "daddy": 4969,
      "ez": 4970,
      "Ġnovel": 4971,
      "ims": 4972,
      "ban": 4973,
      "ashing": 4974,
      "think": 4975,
      "Ġsmaller": 4976,
      "asy": 4977,
      "cely": 4978,
      "ĠSpain": 4979,
      "hah": 4980,
      "oms": 4981,
      "show": 4982,
      "Ġ~": 4983,
      "ĠMo": 4984,
      "Ġappearance": 4985,
      "Ġprevent": 4986,
      "Ġneither": 4987,
      "ĠDay": 4988,
      "Ġfalls": 4989,
      "cles": 4990,
      "itional": 4991,
      "ĠEverything": 4992,
      "Ġopposite": 4993,
      "west": 4994,
      "ĠâĢĻ": 4995,
      "Ġbloody": 4996,
      "Come": 4997,
      "Ġmut": 4998,
      "icans": 4999,
      "berg": 5000,
      "ule": 5001,
      "ĠLuc": 5002,
      "Ġmodel": 5003,
      "host": 5004,
      "Ġreaches": 5005,
      "vest": 5006,
      "Ġboss": 5007,
      "Ġcred": 5008,
      "rilliant": 5009,
      "Ġcelebr": 5010,
      "ĠAward": 5011,
      "known": 5012,
      "Ġthou": 5013,
      "Ġsoftly": 5014,
      "Ġbike": 5015,
      "Ġoil": 5016,
      "Fraser": 5017,
      "Ġscrew": 5018,
      "Ġgenerally": 5019,
      "Ġpractice": 5020,
      "Ġkitty": 5021,
      "June": 5022,
      "rows": 5023,
      "little": 5024,
      "Ġourselves": 5025,
      "Ġballoon": 5026,
      "ĠBomb": 5027,
      "ĠCong": 5028,
      "Ġfourth": 5029,
      "Ġavail": 5030,
      "Ġemer": 5031,
      "ching": 5032,
      "bet": 5033,
      "rison": 5034,
      "ĠWE": 5035,
      "Ġ2000": 5036,
      "Ġprint": 5037,
      "Ġancient": 5038,
      "Ġtrail": 5039,
      "bout": 5040,
      "Ġsuc": 5041,
      "Ġhonor": 5042,
      "Ġcarrying": 5043,
      "mar": 5044,
      "Ġcontract": 5045,
      "Ġ2005": 5046,
      "Ġce": 5047,
      "Ġaffect": 5048,
      "ĠIsland": 5049,
      "ĠMount": 5050,
      "Ġevents": 5051,
      "Ġsac": 5052,
      "Ġ190": 5053,
      "izing": 5054,
      "Ġresponse": 5055,
      "Ġmotion": 5056,
      "Ġsmiled": 5057,
      "Ġfaces": 5058,
      "ĠChief": 5059,
      "Ġheaven": 5060,
      "ĠRec": 5061,
      "Ġeleven": 5062,
      "Ġsuccessful": 5063,
      "Ġloves": 5064,
      "ĠAnother": 5065,
      "Ġstayed": 5066,
      "pen": 5067,
      "Ġsake": 5068,
      "ĠFlorence": 5069,
      "Ġtrade": 5070,
      "ĠGrandma": 5071,
      "Ġparticularly": 5072,
      "Ġpool": 5073,
      "Ġexec": 5074,
      "Ġrights": 5075,
      "Ġchat": 5076,
      "bur": 5077,
      "Ġstyle": 5078,
      "ĠOlympics": 5079,
      "Ġbal": 5080,
      "green": 5081,
      "ĠSom": 5082,
      "ĠFOR": 5083,
      "nal": 5084,
      "AMY": 5085,
      "14": 5086,
      "CAT": 5087,
      "Ġcondition": 5088,
      "ST": 5089,
      "Ġflo": 5090,
      "rising": 5091,
      "Where": 5092,
      "ĠHon": 5093,
      "Ġstring": 5094,
      "gress": 5095,
      "Ġhelping": 5096,
      "bell": 5097,
      "Ġtv": 5098,
      "Ġupset": 5099,
      "Ġsits": 5100,
      "Ġknee": 5101,
      "vert": 5102,
      "Ġeasier": 5103,
      "Ġfashion": 5104,
      "ĠBye": 5105,
      "Ġleading": 5106,
      "VER": 5107,
      "Ġtoast": 5108,
      "Ġrising": 5109,
      "arl": 5110,
      "gen": 5111,
      "ĠBoy": 5112,
      "Ġcrime": 5113,
      "Ġbee": 5114,
      "Ġunc": 5115,
      "Ġwhispered": 5116,
      "cellent": 5117,
      "ials": 5118,
      "Ġretired": 5119,
      "Ġdetect": 5120,
      "rible": 5121,
      "ĠHal": 5122,
      "oses": 5123,
      "vocalizes": 5124,
      "hum": 5125,
      "Ġshowing": 5126,
      "Ġstands": 5127,
      "Ġnursery": 5128,
      "Ġfinding": 5129,
      "Ġcentre": 5130,
      "itation": 5131,
      "inger": 5132,
      "Ġhistor": 5133,
      "Ġyell": 5134,
      "ĠUp": 5135,
      "Ġir": 5136,
      "Ġtowel": 5137,
      "Ġpossibly": 5138,
      "ĠVer": 5139,
      "Ġperfectly": 5140,
      "ker": 5141,
      "ĠSylvia": 5142,
      "inson": 5143,
      "Ġofficial": 5144,
      "Ġmedicine": 5145,
      "Ġtim": 5146,
      "Ġthroat": 5147,
      "ĠMus": 5148,
      "Ġstudied": 5149,
      "ota": 5150,
      "ĠPre": 5151,
      "ĠKen": 5152,
      "ĠFrancis": 5153,
      "volution": 5154,
      "ounce": 5155,
      "ĠBru": 5156,
      "Ġartist": 5157,
      "16": 5158,
      "cr": 5159,
      "ique": 5160,
      "Ġuses": 5161,
      "Ġtalks": 5162,
      "UK": 5163,
      "Ġbump": 5164,
      "ĠSay": 5165,
      "ĠRog": 5166,
      "fection": 5167,
      "ĠWind": 5168,
      "Ġsaf": 5169,
      "ENT": 5170,
      "making": 5171,
      "ĠNic": 5172,
      "ulty": 5173,
      "Ġdrinking": 5174,
      "Ġmicrophone": 5175,
      "ache": 5176,
      "aly": 5177,
      "Ġprim": 5178,
      "Ġcontact": 5179,
      "Ġshopping": 5180,
      "bre": 5181,
      "Ġladd": 5182,
      "achel": 5183,
      "ĠLove": 5184,
      "ĠMike": 5185,
      "ented": 5186,
      "uhuh": 5187,
      "minist": 5188,
      "ulf": 5189,
      "Ġmummy": 5190,
      "Ġdoors": 5191,
      "olic": 5192,
      "Ġsuspect": 5193,
      "Ġclimb": 5194,
      "Ġresc": 5195,
      "Ġmagic": 5196,
      "aled": 5197,
      "Ġattend": 5198,
      "zzz": 5199,
      "ĠFar": 5200,
      "Ġgreatest": 5201,
      "fish": 5202,
      "Ġdecision": 5203,
      "Ġcraw": 5204,
      "aries": 5205,
      "Ġexcuse": 5206,
      "ĠTer": 5207,
      "Ġmemory": 5208,
      "Ġfemale": 5209,
      "JEN": 5210,
      "bly": 5211,
      "Ġwindows": 5212,
      "arily": 5213,
      "Ġsociety": 5214,
      "Ġ2004": 5215,
      "SOA": 5216,
      "Ġscore": 5217,
      "Ġneighbor": 5218,
      "ĠRome": 5219,
      "pany": 5220,
      "Ġyounger": 5221,
      "Ġincluded": 5222,
      "ĠMartine": 5223,
      "irgin": 5224,
      "icking": 5225,
      "Ġpercent": 5226,
      "Ġ2001": 5227,
      "Ġdirectly": 5228,
      "semb": 5229,
      "water": 5230,
      "Ġideas": 5231,
      "Ġforced": 5232,
      "Ġextreme": 5233,
      "Ġbisc": 5234,
      "Ġpor": 5235,
      "ellig": 5236,
      "ĠLin": 5237,
      "Ġobl": 5238,
      "mn": 5239,
      "Ġbat": 5240,
      "aft": 5241,
      "Ġbare": 5242,
      "ĠBraz": 5243,
      "Ġuniversity": 5244,
      "Ġfairly": 5245,
      "LI": 5246,
      "Ġsomewhat": 5247,
      "sorry": 5248,
      ".âĢĻ": 5249,
      "yellow": 5250,
      "Ġdoin": 5251,
      "Ġshook": 5252,
      "Let": 5253,
      "Ġdecide": 5254,
      "lend": 5255,
      "Ġnarrow": 5256,
      "Ġreply": 5257,
      "eat": 5258,
      "gel": 5259,
      "CT": 5260,
      "ĠBre": 5261,
      "Ġkeeps": 5262,
      "Ġcomfortable": 5263,
      "Ġwalls": 5264,
      "viron": 5265,
      "Ġrange": 5266,
      "ĠKeep": 5267,
      "ĠChris": 5268,
      "Ġshake": 5269,
      "Ġtie": 5270,
      "Al": 5271,
      "stood": 5272,
      "Ġboots": 5273,
      "Ġexplained": 5274,
      "Ġpapers": 5275,
      "Ġwilling": 5276,
      "Ġpolic": 5277,
      "Ġwise": 5278,
      "Ġclown": 5279,
      "Ġteams": 5280,
      "ĠPrince": 5281,
      "Ġtun": 5282,
      "igsaw": 5283,
      "dr": 5284,
      "ĠMonday": 5285,
      "ethod": 5286,
      "ĠJew": 5287,
      "ĠRam": 5288,
      "Ġmanager": 5289,
      "Ġwriter": 5290,
      "vis": 5291,
      "omen": 5292,
      "Ġrules": 5293,
      "Ġdun": 5294,
      "Ġdoc": 5295,
      "Ġassoci": 5296,
      "brary": 5297,
      "Ġcloth": 5298,
      "fat": 5299,
      "Ġbathroom": 5300,
      "ĠDen": 5301,
      "Ġresearch": 5302,
      "KAT": 5303,
      "Ġmountains": 5304,
      "Ġdisease": 5305,
      "ients": 5306,
      "pering": 5307,
      "alled": 5308,
      "Ġthoughts": 5309,
      "asty": 5310,
      "Ġblanket": 5311,
      "yan": 5312,
      "Ġwashing": 5313,
      "tering": 5314,
      "Ġknowledge": 5315,
      "ulous": 5316,
      "Ġboats": 5317,
      "Ġbin": 5318,
      "rael": 5319,
      "Ġoffered": 5320,
      "Ġtongue": 5321,
      "Ġcastle": 5322,
      "hee": 5323,
      "Ġremarked": 5324,
      "Ġlawyer": 5325,
      "ĠJer": 5326,
      "Ġmarry": 5327,
      "ĠBecky": 5328,
      "cise": 5329,
      "ĠLaw": 5330,
      "ĠAlright": 5331,
      "ĠBilly": 5332,
      "ĠChic": 5333,
      "Ġproperly": 5334,
      "ĠLake": 5335,
      "Ġarch": 5336,
      "ĠSea": 5337,
      "Ġevil": 5338,
      "Ġdefend": 5339,
      "eed": 5340,
      "Ġfurn": 5341,
      "Ġdesk": 5342,
      "ugg": 5343,
      "Ġmail": 5344,
      "ĠWood": 5345,
      "Ġconcerned": 5346,
      "draw": 5347,
      "ĠBay": 5348,
      "ĠBrazil": 5349,
      "Ġscience": 5350,
      "Ġmentioned": 5351,
      "Ġsposta": 5352,
      "Ġzoo": 5353,
      "plane": 5354,
      "Ġaver": 5355,
      "opher": 5356,
      "ĠRay": 5357,
      "Ġmarriage": 5358,
      "Ġdepart": 5359,
      "Ġappreci": 5360,
      "ĠME": 5361,
      "rand": 5362,
      "ĠProfess": 5363,
      "mend": 5364,
      "Ġsettled": 5365,
      "ĠVictor": 5366,
      "Ġeld": 5367,
      "ĠMass": 5368,
      "Ġnap": 5369,
      "ĠEmp": 5370,
      "Ġdeveloped": 5371,
      "Ġjudge": 5372,
      "rell": 5373,
      "Ġshell": 5374,
      "Ġbutt": 5375,
      "Ġstir": 5376,
      "aze": 5377,
      "iggles": 5378,
      "Ġnineteen": 5379,
      "Ġpour": 5380,
      "odes": 5381,
      "Ġ0": 5382,
      "Ġescap": 5383,
      "Ġrisk": 5384,
      "mom": 5385,
      "try": 5386,
      "Ã³": 5387,
      "ĠSol": 5388,
      "Ġrout": 5389,
      "Ġtar": 5390,
      "\"]": 5391,
      "ett": 5392,
      "ĠPo": 5393,
      "ĠJimmy": 5394,
      "ĠWel": 5395,
      "ĠRepublic": 5396,
      "owed": 5397,
      "silence": 5398,
      "Ġlod": 5399,
      "Ġafford": 5400,
      "Ġepisode": 5401,
      "ĠJoseph": 5402,
      "Ġnomin": 5403,
      "mark": 5404,
      "year": 5405,
      "Ġprove": 5406,
      "Ġafterwards": 5407,
      "ĠAcademy": 5408,
      "Ġwaste": 5409,
      "Ġelected": 5410,
      "ALL": 5411,
      "Ġnurse": 5412,
      "Ġchee": 5413,
      "ĠAustralian": 5414,
      "Ġburst": 5415,
      "Ġeffort": 5416,
      "itan": 5417,
      "Ġdeb": 5418,
      "Ġsteal": 5419,
      "Ġcities": 5420,
      "pill": 5421,
      "Ġaward": 5422,
      "ctors": 5423,
      "Ġnerv": 5424,
      "Ġfeels": 5425,
      "Ġbringing": 5426,
      "ĠBea": 5427,
      "ĠDa": 5428,
      "uce": 5429,
      "happy": 5430,
      "atory": 5431,
      "ette": 5432,
      "ĠSomething": 5433,
      "ĠLie": 5434,
      "sung": 5435,
      "icles": 5436,
      "Ġbiggest": 5437,
      "ĠIsn": 5438,
      "ĠAtl": 5439,
      "Ġsilent": 5440,
      "fortun": 5441,
      "Ġgay": 5442,
      "ĠWow": 5443,
      "ĠMaggie": 5444,
      "vince": 5445,
      "Ġcancer": 5446,
      "Ġ188": 5447,
      "Ġfrightened": 5448,
      "Ġopinion": 5449,
      "gn": 5450,
      "voc": 5451,
      "Ġlatter": 5452,
      "ĠBro": 5453,
      "Ġ189": 5454,
      "Ġdisappeared": 5455,
      "ĠSecret": 5456,
      "run": 5457,
      "ification": 5458,
      "reedom": 5459,
      "mined": 5460,
      "Ġbunny": 5461,
      "Ġpencil": 5462,
      "dis": 5463,
      "adian": 5464,
      "ĠMur": 5465,
      "ĠPak": 5466,
      "Ġtractor": 5467,
      "ĠBobby": 5468,
      "Ġwedding": 5469,
      "music": 5470,
      "Ġstudio": 5471,
      "Ġadvant": 5472,
      "Ġavailable": 5473,
      "ctions": 5474,
      "Ġfailed": 5475,
      "Ġpages": 5476,
      "Ġshel": 5477,
      "Ġrepeated": 5478,
      "Ġsafety": 5479,
      "sequ": 5480,
      "Ġriding": 5481,
      "Ġworst": 5482,
      "Ġeaten": 5483,
      "kend": 5484,
      "Ġune": 5485,
      "Ġships": 5486,
      "Ġmission": 5487,
      "umps": 5488,
      "idding": 5489,
      "Ġaware": 5490,
      "Ġmate": 5491,
      "Ġacting": 5492,
      "Ġlanguages": 5493,
      "Ġsen": 5494,
      "ĠCollege": 5495,
      "Ġredu": 5496,
      "uments": 5497,
      "Ġ1990": 5498,
      "Ġfeelings": 5499,
      "Ġdefinitely": 5500,
      "ĠScotland": 5501,
      "Ġstro": 5502,
      "Ġhurried": 5503,
      "Ġhanging": 5504,
      "ĠAlthough": 5505,
      "vocalize": 5506,
      "ĠIrish": 5507,
      "ĠBomba": 5508,
      "haha": 5509,
      "Ġcute": 5510,
      "ingu": 5511,
      "ordon": 5512,
      "Ġglasses": 5513,
      "amps": 5514,
      "ĠOk": 5515,
      "ĠPrin": 5516,
      "Ġproperty": 5517,
      "Ġninety": 5518,
      "Ġpushed": 5519,
      "ĠUnder": 5520,
      "Ġwaited": 5521,
      "acks": 5522,
      "Ġflew": 5523,
      "Ġcoach": 5524,
      "kins": 5525,
      "ĠDutch": 5526,
      "ropical": 5527,
      "fa": 5528,
      "imit": 5529,
      "onder": 5530,
      "iling": 5531,
      "Ġinvent": 5532,
      "Ġserve": 5533,
      "ĠIsrael": 5534,
      "Ġrealize": 5535,
      "Ġthin": 5536,
      "Ġshock": 5537,
      "Ġsixty": 5538,
      "Ġcouncil": 5539,
      "ĠMajor": 5540,
      "apt": 5541,
      "ĠSteven": 5542,
      "ĠLes": 5543,
      "Ġprefer": 5544,
      "vironment": 5545,
      "ELL": 5546,
      "FA": 5547,
      "Ġwha": 5548,
      "eta": 5549,
      "pretend": 5550,
      "Ġcong": 5551,
      "Ġplayers": 5552,
      "ĠJeff": 5553,
      "Ġavo": 5554,
      "Ġbrothers": 5555,
      "Ġwhist": 5556,
      "Ġtroub": 5557,
      "pull": 5558,
      "Ġbub": 5559,
      "uf": 5560,
      "imate": 5561,
      "ĠIreland": 5562,
      "ĠChicago": 5563,
      "Ġfund": 5564,
      "iano": 5565,
      "Ġpowerful": 5566,
      "Ġqual": 5567,
      "Ġmor": 5568,
      "ĠLaura": 5569,
      "eping": 5570,
      "Ġpoet": 5571,
      "Ġstaff": 5572,
      "Ġhighest": 5573,
      "Good": 5574,
      "wing": 5575,
      "while": 5576,
      "Ġforever": 5577,
      "Ġservices": 5578,
      "Ġplat": 5579,
      "Ġgentlemen": 5580,
      "Ġrings": 5581,
      "Ġtummy": 5582,
      "Ġmud": 5583,
      "nolog": 5584,
      "ading": 5585,
      "Ġhook": 5586,
      "Ġlarger": 5587,
      "Ġmatters": 5588,
      "Ġwine": 5589,
      "Ġprevious": 5590,
      "bow": 5591,
      "Ġpressure": 5592,
      "Ġtid": 5593,
      "Ġwished": 5594,
      "Ġfoc": 5595,
      "ĠHol": 5596,
      "thur": 5597,
      "azed": 5598,
      "Ġrope": 5599,
      "place": 5600,
      "Ġreported": 5601,
      "SS": 5602,
      "Ġneat": 5603,
      "ĠRoyal": 5604,
      "Ġpositive": 5605,
      "Ġmere": 5606,
      "scri": 5607,
      "ĠWil": 5608,
      "ĠCamp": 5609,
      "oviet": 5610,
      "astern": 5611,
      "Ġballs": 5612,
      "holds": 5613,
      "rick": 5614,
      "ĠBaby": 5615,
      "ĠFire": 5616,
      "ĠHot": 5617,
      "Ġexpress": 5618,
      "gent": 5619,
      "Ġknowing": 5620,
      "Ġgreater": 5621,
      "Ġfancy": 5622,
      "Ġarrange": 5623,
      "Ġpassing": 5624,
      "Ġsigned": 5625,
      "Ġremembered": 5626,
      "bey": 5627,
      "Ġmagnet": 5628,
      "ĠLong": 5629,
      "ĠIm": 5630,
      "Ġjigsaw": 5631,
      "Ġknocked": 5632,
      "LAU": 5633,
      "aign": 5634,
      "peech": 5635,
      "Peter": 5636,
      "ĠPolly": 5637,
      "Ġ2002": 5638,
      "rot": 5639,
      "Ġwave": 5640,
      "Ġbeauty": 5641,
      "Ġveh": 5642,
      "Who": 5643,
      "Ġtravell": 5644,
      "Ġdrawn": 5645,
      "ĠFlorida": 5646,
      "isa": 5647,
      "Ġinternational": 5648,
      "ĠBa": 5649,
      "Ġreve": 5650,
      "ĠArt": 5651,
      "Ġdetermined": 5652,
      "Ġsees": 5653,
      "innie": 5654,
      "Ġexcit": 5655,
      "uan": 5656,
      "ĠPurdie": 5657,
      "Ġtreas": 5658,
      "Ġrelationship": 5659,
      "ĠGreek": 5660,
      "Ġcooking": 5661,
      "ĠWestern": 5662,
      "ĠYoung": 5663,
      "Ġperforman": 5664,
      "May": 5665,
      "Ġbark": 5666,
      "Ġcy": 5667,
      "ela": 5668,
      "ockey": 5669,
      "ĠSqu": 5670,
      "ĠEarly": 5671,
      "pro": 5672,
      "abeth": 5673,
      "Ġfavour": 5674,
      "Ġaunt": 5675,
      "llen": 5676,
      "ĠKat": 5677,
      "nothing": 5678,
      "ĠSil": 5679,
      "Ġdesper": 5680,
      "Ġsmiling": 5681,
      "pha": 5682,
      "ĠAndy": 5683,
      "Ġdistribut": 5684,
      "Ġcrayons": 5685,
      "itar": 5686,
      "Ġthrown": 5687,
      "ĠNed": 5688,
      "ĠJon": 5689,
      "Ġknees": 5690,
      "Ġpatient": 5691,
      "Ġentirely": 5692,
      "GE": 5693,
      "OO": 5694,
      "ĠLos": 5695,
      "Ġrelated": 5696,
      "Ġsandwich": 5697,
      "Ġfired": 5698,
      "Ġdebut": 5699,
      "aging": 5700,
      "ION": 5701,
      "mes": 5702,
      "Ġweird": 5703,
      "ĠBoth": 5704,
      "Ġdolly": 5705,
      "Ġfence": 5706,
      "ilities": 5707,
      "Ġjoke": 5708,
      "ĠIndians": 5709,
      "othy": 5710,
      "Ġstates": 5711,
      "inda": 5712,
      "aterpill": 5713,
      "Ġbecoming": 5714,
      "ĠSwed": 5715,
      "oned": 5716,
      "Ġ2003": 5717,
      "ĠPrime": 5718,
      "ocratic": 5719,
      "ware": 5720,
      "ĠRod": 5721,
      "Ġchest": 5722,
      "Ġrare": 5723,
      "den": 5724,
      "ĠAnna": 5725,
      "Ġï¿½ï¿½ï¿½ï¿½": 5726,
      "ĠSoviet": 5727,
      "Ġfully": 5728,
      "Ġconstit": 5729,
      "Ġwondering": 5730,
      "Of": 5731,
      "ora": 5732,
      "ĠLab": 5733,
      "Ġslipp": 5734,
      "Ġcircum": 5735,
      "cel": 5736,
      "ĠGab": 5737,
      "ĠVal": 5738,
      "Ġsav": 5739,
      "Ġplastic": 5740,
      "Ġtext": 5741,
      "ibility": 5742,
      "Ġfamilies": 5743,
      "Ġmaterial": 5744,
      "icate": 5745,
      "Ġrealized": 5746,
      "Ġadvice": 5747,
      "really": 5748,
      "Ġfishing": 5749,
      "nina": 5750,
      "Ġexpression": 5751,
      "orge": 5752,
      "Ġ40": 5753,
      "Ġpizza": 5754,
      "ĠRE": 5755,
      "ĠEdward": 5756,
      "Ġdevelopment": 5757,
      "Ġgat": 5758,
      "atsy": 5759,
      "Ġ1980": 5760,
      "ona": 5761,
      "Ġdying": 5762,
      "Ġweekend": 5763,
      "ouds": 5764,
      "Ġinno": 5765,
      "igan": 5766,
      "quar": 5767,
      "Ġperm": 5768,
      "BC": 5769,
      "Ġbod": 5770,
      "ĠHas": 5771,
      "ĠCorn": 5772,
      "Ġcentral": 5773,
      "six": 5774,
      "ĠEliz": 5775,
      "rant": 5776,
      "ĠNice": 5777,
      "KAR": 5778,
      "peror": 5779,
      "Ġvote": 5780,
      "iance": 5781,
      "Ġpred": 5782,
      "Ġdozen": 5783,
      "ĠFore": 5784,
      "Ġcomment": 5785,
      "Ġcrash": 5786,
      "Ġmetal": 5787,
      "rol": 5788,
      "Ġexer": 5789,
      "Ġotherwise": 5790,
      "Ġresol": 5791,
      "ĠBarb": 5792,
      "Ġpra": 5793,
      "ishment": 5794,
      "ĠRussia": 5795,
      "Ġcarriage": 5796,
      "Ġthrowing": 5797,
      "kee": 5798,
      "ĠHy": 5799,
      "Ġcompanion": 5800,
      "ĠTurn": 5801,
      "iece": 5802,
      "Ġocean": 5803,
      "ĠStep": 5804,
      "ĠMexico": 5805,
      "Ġshooting": 5806,
      "ĠDistrict": 5807,
      "Ġthee": 5808,
      "Ġbrilliant": 5809,
      "arts": 5810,
      "Ġshoulders": 5811,
      "Ġboxes": 5812,
      "Ġpsy": 5813,
      "ĠCall": 5814,
      "whoa": 5815,
      "ĠSaint": 5816,
      "choo": 5817,
      "Ġstruct": 5818,
      "Ġcloud": 5819,
      "bits": 5820,
      "Ġcit": 5821,
      "oston": 5822,
      "Ġexcitement": 5823,
      "Ġhorn": 5824,
      "Ġminister": 5825,
      "\".=": 5826,
      "atoes": 5827,
      "ĠStar": 5828,
      "chair": 5829,
      "Ġcris": 5830,
      "Ġstranger": 5831,
      "uits": 5832,
      "Ġmel": 5833,
      "Ġsink": 5834,
      "Ġtoile": 5835,
      "Ġinn": 5836,
      "walk": 5837,
      "Ġox": 5838,
      "ga": 5839,
      "Ġwitness": 5840,
      "Ġvalue": 5841,
      "Ġmethod": 5842,
      "ĠNick": 5843,
      "ĠFine": 5844,
      "Ġsecurity": 5845,
      "Ġincludes": 5846,
      "ĠJean": 5847,
      "Ġfriendly": 5848,
      "Ġentertain": 5849,
      "Ġprovince": 5850,
      "ĠEleanor": 5851,
      "ĠLife": 5852,
      "Ġapparently": 5853,
      "Ġbarn": 5854,
      "after": 5855,
      "sters": 5856,
      "ĠRose": 5857,
      "ĠStone": 5858,
      "Ġgarage": 5859,
      "Ġaverage": 5860,
      "Ġrelease": 5861,
      "ĠCast": 5862,
      "Mr": 5863,
      "fle": 5864,
      "Ġreasons": 5865,
      "untary": 5866,
      "ĠVirgin": 5867,
      "199": 5868,
      "wor": 5869,
      "Ġleaf": 5870,
      "Ġstaying": 5871,
      "ussy": 5872,
      "ĠPakistan": 5873,
      "takes": 5874,
      "tained": 5875,
      "ĠAmericans": 5876,
      "fin": 5877,
      "Ġinstant": 5878,
      "Ġprepar": 5879,
      "Ġtouched": 5880,
      "ĠArmy": 5881,
      "Ġpaying": 5882,
      "Ġactivity": 5883,
      "ĠProfessor": 5884,
      "ĠBeth": 5885,
      "Ġgather": 5886,
      "ĠLast": 5887,
      "Ġinterview": 5888,
      "Ġmagn": 5889,
      "ĠOx": 5890,
      "ano": 5891,
      "Ġshr": 5892,
      "Ġfought": 5893,
      "ĠJerry": 5894,
      "Ġfac": 5895,
      "thew": 5896,
      "aws": 5897,
      "Ġkinda": 5898,
      "Ġcourage": 5899,
      "Ġpresence": 5900,
      "etch": 5901,
      "ĠXX": 5902,
      "Ġcats": 5903,
      "Ġclearly": 5904,
      "ential": 5905,
      "Ġsocks": 5906,
      "Ġtied": 5907,
      "ension": 5908,
      "ĠAfrican": 5909,
      "Ġmile": 5910,
      "aining": 5911,
      "och": 5912,
      "Ġknight": 5913,
      "ĠCons": 5914,
      "ĠToday": 5915,
      "ĠTime": 5916,
      "ĠBull": 5917,
      "Ġsoldier": 5918,
      "Ġdegree": 5919,
      "Ġta": 5920,
      "âĢķ": 5921,
      "otion": 5922,
      "ĠLater": 5923,
      "ĠGovernor": 5924,
      "Ġmagazine": 5925,
      "ĠTran": 5926,
      "oles": 5927,
      "Ġopens": 5928,
      "ĠCanadian": 5929,
      "Ġvent": 5930,
      "Ġaccording": 5931,
      "Ġmunicipality": 5932,
      "ĠEs": 5933,
      "Ġdrove": 5934,
      "craft": 5935,
      "ĠCentral": 5936,
      "ĠAccording": 5937,
      "VID": 5938,
      "erves": 5939,
      "Ġwa": 5940,
      "Ġwore": 5941,
      "Ġsite": 5942,
      "chief": 5943,
      "igned": 5944,
      "Ġhearing": 5945,
      "Ġfamiliar": 5946,
      "Ġestabl": 5947,
      "IA": 5948,
      "Ġfond": 5949,
      "Ġaside": 5950,
      "IGHT": 5951,
      "Ġhesit": 5952,
      "Ġends": 5953,
      "ĠGirl": 5954,
      "Ġpointed": 5955,
      "Ġformula": 5956,
      "Ġ187": 5957,
      "Ġsymp": 5958,
      "only": 5959,
      "angle": 5960,
      "Ġglance": 5961,
      "',": 5962,
      "Ġsoup": 5963,
      "Ġveget": 5964,
      "Ġgift": 5965,
      "Ġrank": 5966,
      "spect": 5967,
      "ĠAz": 5968,
      "ĠMet": 5969,
      "amin": 5970,
      "mouth": 5971,
      "Ġrom": 5972,
      "Ġsorts": 5973,
      "Ġfier": 5974,
      "Ġnative": 5975,
      "Ġrust": 5976,
      "ias": 5977,
      "ulations": 5978,
      "Ġvoices": 5979,
      "Ġcharacters": 5980,
      "Ġfarmer": 5981,
      "Ġdrops": 5982,
      "Ġdescribed": 5983,
      "isions": 5984,
      "Ġbend": 5985,
      "Ġgoal": 5986,
      "ĠArthur": 5987,
      "Ġdistur": 5988,
      "uesday": 5989,
      "whispers": 5990,
      "ĠThink": 5991,
      "Ġencour": 5992,
      "Ġsignal": 5993,
      "Ġdamage": 5994,
      "Ġfart": 5995,
      "Ġanno": 5996,
      "lam": 5997,
      "Ġpoo": 5998,
      "Ġrecently": 5999,
      "Ġhorrible": 6000,
      "Ġgathered": 6001,
      "ado": 6002,
      "Ġstom": 6003,
      "ĠEach": 6004,
      "Ġcommunic": 6005,
      "Ġnorthern": 6006,
      "Ġdamn": 6007,
      "Ġthy": 6008,
      "esty": 6009,
      "Ġfigures": 6010,
      "Ste": 6011,
      "Ġtoes": 6012,
      "nods": 6013,
      "istic": 6014,
      "ping": 6015,
      "isher": 6016,
      "Ġfan": 6017,
      "enced": 6018,
      "Ġspeaks": 6019,
      "Ġunderstood": 6020,
      "Ġthroughout": 6021,
      "remember": 6022,
      "Ġpump": 6023,
      "Ġgiant": 6024,
      "Ġdeer": 6025,
      "ĠNobody": 6026,
      "âĮĬ": 6027,
      "Ġmirror": 6028,
      "Ġstudent": 6029,
      "ĠSusan": 6030,
      "anchester": 6031,
      "ĠSpe": 6032,
      "ĠRad": 6033,
      "Ġodd": 6034,
      "Ġforeign": 6035,
      "Ġobserved": 6036,
      "Ġuseful": 6037,
      "bar": 6038,
      "urance": 6039,
      "Ġrise": 6040,
      "oving": 6041,
      "Ġenjoyed": 6042,
      "Ġbunch": 6043,
      "ima": 6044,
      "ĠBus": 6045,
      "ĠWed": 6046,
      "Ġbuildings": 6047,
      "playing": 6048,
      "ĠFAT": 6049,
      "rang": 6050,
      "Ġ186": 6051,
      "Ġdarkness": 6052,
      "Ġtotally": 6053,
      "Ġscarcely": 6054,
      "ĠMars": 6055,
      "berries": 6056,
      "ĠAp": 6057,
      "Ġghost": 6058,
      "avy": 6059,
      "Ġslightly": 6060,
      "Ġrapidly": 6061,
      "Ġmale": 6062,
      "Ġinit": 6063,
      "aming": 6064,
      "ĠSa": 6065,
      "Ġsport": 6066,
      "together": 6067,
      "pointing": 6068,
      "Ġhorsie": 6069,
      "obile": 6070,
      "Ġfairy": 6071,
      "Ġnervous": 6072,
      "Ġloose": 6073,
      "Ġnu": 6074,
      "Ġladder": 6075,
      "Did": 6076,
      "Ġder": 6077,
      "Ġforces": 6078,
      "Ġarg": 6079,
      "Ġcampaign": 6080,
      "Mom": 6081,
      "Ġproved": 6082,
      "stances": 6083,
      "ĠCath": 6084,
      "emic": 6085,
      "Ġscreen": 6086,
      "Ġstops": 6087,
      "Ġcookie": 6088,
      "ederal": 6089,
      "from": 6090,
      "ĠBest": 6091,
      "Ġamazing": 6092,
      "Ã©e": 6093,
      "ĠBes": 6094,
      "ĠBoston": 6095,
      "ĠCla": 6096,
      "ĠBack": 6097,
      "osition": 6098,
      "Ġspite": 6099,
      "Ġcutting": 6100,
      "ĠAngeles": 6101,
      "talk": 6102,
      "Ġbeast": 6103,
      "RIC": 6104,
      "Ġtheory": 6105,
      "ĠDidn": 6106,
      "Ġsports": 6107,
      "Ġwondered": 6108,
      "Ġmedical": 6109,
      "Ġwings": 6110,
      "Ġfaster": 6111,
      "ĠSid": 6112,
      "Ġburied": 6113,
      "aterpillar": 6114,
      "Ġforms": 6115,
      "Ġqueen": 6116,
      "Ġpic": 6117,
      "Ġshame": 6118,
      "itcher": 6119,
      "Ġjumping": 6120,
      "Ġsalt": 6121,
      "ĠRoger": 6122,
      "ĠVan": 6123,
      "ĠHad": 6124,
      "Ġrequest": 6125,
      "itzer": 6126,
      "Ġbeneath": 6127,
      "ĠEv": 6128,
      "Ġ(;": 6129,
      "Ġairport": 6130,
      "war": 6131,
      "Ġwan": 6132,
      "orter": 6133,
      "Ġ\"'": 6134,
      "engu": 6135,
      "Ġmixed": 6136,
      "Here": 6137,
      "Ġkm": 6138,
      "Ġrear": 6139,
      "emon": 6140,
      "risc": 6141,
      "asped": 6142,
      "bury": 6143,
      "Ġfold": 6144,
      "SE": 6145,
      "win": 6146,
      "ĠAye": 6147,
      "Ġconfess": 6148,
      "Ġrecording": 6149,
      "ĠGovernment": 6150,
      "Ã±": 6151,
      "ĠCat": 6152,
      "owing": 6153,
      "alo": 6154,
      "ilty": 6155,
      "weet": 6156,
      "Ġtypes": 6157,
      "Ġwestern": 6158,
      "Ġgray": 6159,
      "Ġaccess": 6160,
      "Ġfortune": 6161,
      "neath": 6162,
      "Ġfrequ": 6163,
      "ĠTra": 6164,
      "ĠSand": 6165,
      "ĠEmpire": 6166,
      "Ġtask": 6167,
      "Ġlies": 6168,
      "Ġrooms": 6169,
      "Ġterror": 6170,
      "Ġdifficulty": 6171,
      "Ġstrike": 6172,
      "Ġcurrently": 6173,
      "Ġmaid": 6174,
      "Ġplanet": 6175,
      "ILL": 6176,
      "Per": 6177,
      "ĠWay": 6178,
      "Ġcurious": 6179,
      "ouri": 6180,
      "ĠSk": 6181,
      "ĠIran": 6182,
      "ĠWomen": 6183,
      "nice": 6184,
      "ooper": 6185,
      "ĠBrian": 6186,
      "istry": 6187,
      "Ġarran": 6188,
      "Ġ31": 6189,
      "Ġseparate": 6190,
      "asing": 6191,
      "ĠDire": 6192,
      "Ġdestroyed": 6193,
      "soft": 6194,
      "ĠFer": 6195,
      "pot": 6196,
      "SIB": 6197,
      "Ġtough": 6198,
      "ĠLau": 6199,
      "eps": 6200,
      "Ġfolks": 6201,
      "Ġcraft": 6202,
      "--_": 6203,
      "Ġoblig": 6204,
      "Ġpulling": 6205,
      "Ġ1970": 6206,
      "Ġmeasure": 6207,
      "Ġess": 6208,
      "Ġachie": 6209,
      "Ġactive": 6210,
      "Ġowned": 6211,
      "Ġlistened": 6212,
      "Ġ1960": 6213,
      "ITH": 6214,
      "Ġlocked": 6215,
      "Ġnewspaper": 6216,
      "Ġaft": 6217,
      "ĠHor": 6218,
      "ousers": 6219,
      "Ġremoved": 6220,
      "gly": 6221,
      "Ġbra": 6222,
      "Ġdu": 6223,
      "ĠNext": 6224,
      "ĠSteve": 6225,
      "Ġsplend": 6226,
      "Ġadop": 6227,
      "Ġevidently": 6228,
      "ĠPot": 6229,
      "icket": 6230,
      "ĠKim": 6231,
      "Ġbricks": 6232,
      "Ġkeys": 6233,
      "Ġyards": 6234,
      "chuckles": 6235,
      "engers": 6236,
      "Ġburning": 6237,
      "ĠTommy": 6238,
      "illed": 6239,
      "cture": 6240,
      "oli": 6241,
      "ĠParliament": 6242,
      "stitute": 6243,
      "ĠHuh": 6244,
      "Ġreceive": 6245,
      "ĠAgain": 6246,
      "Ġresponsible": 6247,
      "rate": 6248,
      "Ġheight": 6249,
      "Ġlibrary": 6250,
      "Mama": 6251,
      "Ġrecorded": 6252,
      "Ġquality": 6253,
      "ĠAlice": 6254,
      "Ġpointing": 6255,
      "Ġrestaur": 6256,
      "Ġadvantage": 6257,
      "bird": 6258,
      "Ġgently": 6259,
      "ĠHill": 6260,
      "ĠAnyway": 6261,
      "ania": 6262,
      "ĠTown": 6263,
      "Ġchannel": 6264,
      "Ġsurely": 6265,
      "Ġhidden": 6266,
      "Ġpartner": 6267,
      "Ġinfluence": 6268,
      "Ġslept": 6269,
      "TH": 6270,
      "unts": 6271,
      "Ġtoilet": 6272,
      "UST": 6273,
      "riscilla": 6274,
      "EW": 6275,
      "rough": 6276,
      "ĠMabel": 6277,
      "ĠFil": 6278,
      "Ġgradu": 6279,
      "Ġblame": 6280,
      "Ġast": 6281,
      "ams": 6282,
      "ĠGames": 6283,
      "Ġunus": 6284,
      "nesday": 6285,
      "Ġcredit": 6286,
      "Ġpale": 6287,
      "ological": 6288,
      "ursday": 6289,
      "Ġlone": 6290,
      "ura": 6291,
      "ĠFox": 6292,
      "Ġprogress": 6293,
      "hus": 6294,
      "Ġphil": 6295,
      "about": 6296,
      "Ġlads": 6297,
      "ĠElizabeth": 6298,
      "ĠTy": 6299,
      "Ġexciting": 6300,
      "ĠCra": 6301,
      "Ġengaged": 6302,
      "ĠPost": 6303,
      "Ġpulls": 6304,
      "Ġfeatures": 6305,
      "rif": 6306,
      "Ġuseta": 6307,
      "Ġyo": 6308,
      "Ġ1999": 6309,
      "Ġstreets": 6310,
      "ĠMAN": 6311,
      "aboo": 6312,
      "Ġwounded": 6313,
      "ĠLatin": 6314,
      "bin": 6315,
      "Ġrent": 6316,
      "ĠMen": 6317,
      "OB": 6318,
      "ko": 6319,
      "sighs": 6320,
      "Ġyard": 6321,
      "ĠOrd": 6322,
      "Ġdrama": 6323,
      "Ġrang": 6324,
      "Ġexcellent": 6325,
      "Ġ1996": 6326,
      "Ġtrial": 6327,
      "Ġreckon": 6328,
      "IV": 6329,
      "za": 6330,
      "Ġwow": 6331,
      "ĠSon": 6332,
      "umph": 6333,
      "giggles": 6334,
      "umed": 6335,
      "Ġstepped": 6336,
      "Ġlearning": 6337,
      "ĠLand": 6338,
      "Ġsomehow": 6339,
      "Ġbitch": 6340,
      "FF": 6341,
      "Ġhelps": 6342,
      "Ġbesides": 6343,
      "Ġborder": 6344,
      "ĠShow": 6345,
      "Ġsword": 6346,
      "ĠCourt": 6347,
      "Ġestablished": 6348,
      "ĠSix": 6349,
      "ĠCOM": 6350,
      "Ġkilling": 6351,
      "Ġresults": 6352,
      "nope": 6353,
      "Ġcompeted": 6354,
      "Ġtrains": 6355,
      "heast": 6356,
      "ĠMake": 6357,
      "ĠJac": 6358,
      "Ġclouds": 6359,
      "Ġgreatly": 6360,
      "ĠJones": 6361,
      "fire": 6362,
      "Åį": 6363,
      "Ġsouthern": 6364,
      "ĠHmm": 6365,
      "rank": 6366,
      "iverse": 6367,
      "Ġcot": 6368,
      "Ġoven": 6369,
      "Ġpipe": 6370,
      "Ġenvironment": 6371,
      "Ġinstr": 6372,
      "appy": 6373,
      "Ġequal": 6374,
      "Ġlack": 6375,
      "ĠTri": 6376,
      "Ġsole": 6377,
      "Ġwooden": 6378,
      "Ġcash": 6379,
      "ootball": 6380,
      "Ġmainly": 6381,
      "phan": 6382,
      "Ġwid": 6383,
      "Ġ1994": 6384,
      "ĠPriscilla": 6385,
      "ua": 6386,
      "Ġthorough": 6387,
      "Ġnest": 6388,
      "ĠFive": 6389,
      "Ġcrown": 6390,
      "anches": 6391,
      "Ġrush": 6392,
      "Ġholes": 6393,
      "Ġpitcher": 6394,
      "Ġhabit": 6395,
      "CA": 6396,
      "ĠShould": 6397,
      "Ġpow": 6398,
      "met": 6399,
      "Ġnation": 6400,
      "ĠShut": 6401,
      "iamond": 6402,
      "ĠCharl": 6403,
      "Ġchampions": 6404,
      "Hel": 6405,
      "sn": 6406,
      "ĠKitty": 6407,
      "AND": 6408,
      "Ġexperien": 6409,
      "tw": 6410,
      "Ġfox": 6411,
      "Ġbreaking": 6412,
      "Ġpicking": 6413,
      "Ġsymb": 6414,
      "ointment": 6415,
      "Ġprisoners": 6416,
      "ili": 6417,
      "ĠGordon": 6418,
      "ĠRon": 6419,
      "Ġdere": 6420,
      "Ġalarm": 6421,
      "rane": 6422,
      "Ġeffects": 6423,
      "ĠSE": 6424,
      "ĠMY": 6425,
      "ĠCy": 6426,
      "âĢľ": 6427,
      "Ġjacket": 6428,
      "\"?": 6429,
      "Ġfaint": 6430,
      "rose": 6431,
      "Ġtechn": 6432,
      "NIC": 6433,
      "Ġple": 6434,
      "ati": 6435,
      "Ġscary": 6436,
      "ĠJimmie": 6437,
      "Ġcitiz": 6438,
      "ĠLi": 6439,
      "Ġ1998": 6440,
      "ĠChampionship": 6441,
      "nology": 6442,
      "uries": 6443,
      "Ġindependent": 6444,
      "ault": 6445,
      "ĠDun": 6446,
      "Ġhandsome": 6447,
      "Ġsigns": 6448,
      "Ġnormally": 6449,
      "Ġcopy": 6450,
      "iraffe": 6451,
      "Ġupper": 6452,
      "aring": 6453,
      "Ġdunno": 6454,
      "ĠAld": 6455,
      "Ġnodd": 6456,
      "Ġsection": 6457,
      "Ġdish": 6458,
      "osen": 6459,
      "Ġinvited": 6460,
      "yay": 6461,
      "Ġstones": 6462,
      "Ġ1992": 6463,
      "law": 6464,
      "Ġmort": 6465,
      "ĠPatsy": 6466,
      "ĠGal": 6467,
      "hib": 6468,
      "Ġthrows": 6469,
      "Ġcontr": 6470,
      "Ġweapons": 6471,
      "ja": 6472,
      "tin": 6473,
      "ĠAT": 6474,
      "Ġsweetheart": 6475,
      "umn": 6476,
      "ĠJenn": 6477,
      "Ġresist": 6478,
      "ĠMaria": 6479,
      "ĠâĮĪ": 6480,
      "Ġdoggie": 6481,
      "Ġliber": 6482,
      "Ġbrings": 6483,
      "Ġcoal": 6484,
      "ĠAssoci": 6485,
      "Ġeighty": 6486,
      "Ġrequired": 6487,
      "John": 6488,
      "hall": 6489,
      "Ġsaus": 6490,
      "Ġsuffe": 6491,
      "Ġprotest": 6492,
      "miss": 6493,
      "ĠInt": 6494,
      "ĠOw": 6495,
      "Ġincident": 6496,
      "ĠLieutenant": 6497,
      "ĠIll": 6498,
      "umm": 6499,
      "Ġdescend": 6500,
      "Ġexecut": 6501,
      "rican": 6502,
      "Ġinha": 6503,
      "Ġ1995": 6504,
      "apping": 6505,
      "ĠBritain": 6506,
      "_.": 6507,
      "bling": 6508,
      "dat": 6509,
      "Ġaim": 6510,
      "ĠDiv": 6511,
      "Ġteaching": 6512,
      "Ġperformed": 6513,
      "erk": 6514,
      "Ġlorry": 6515,
      "stead": 6516,
      "Ġadventure": 6517,
      "usted": 6518,
      "Ġadmir": 6519,
      "PE": 6520,
      "Ġtear": 6521,
      "ĠHA": 6522,
      "Ġrushed": 6523,
      "ĠFair": 6524,
      "ĠStan": 6525,
      "Ġdesire": 6526,
      "sembly": 6527,
      "Ġtarget": 6528,
      "invol": 6529,
      "ĠOff": 6530,
      "Ġobjects": 6531,
      "Ġbon": 6532,
      "Ġprize": 6533,
      "Ġstatistics": 6534,
      "Ġtip": 6535,
      "ication": 6536,
      "Ġcompanies": 6537,
      "When": 6538,
      "Ġvir": 6539,
      "Ġcock": 6540,
      "Ġguilty": 6541,
      "ĠWinter": 6542,
      "Ġsore": 6543,
      "Ġpatter": 6544,
      "ĠCa": 6545,
      "cho": 6546,
      "umble": 6547,
      "Ġadminist": 6548,
      "As": 6549,
      "ila": 6550,
      "Ġcompanions": 6551,
      "Ġearnest": 6552,
      "Ġhills": 6553,
      "Ġtrousers": 6554,
      "Ġtreated": 6555,
      "bish": 6556,
      "care": 6557,
      "ĠCam": 6558,
      "Ġaer": 6559,
      "Ġhunt": 6560,
      "ĠMove": 6561,
      "Ġspare": 6562,
      "Ġspider": 6563,
      "Ġbecomes": 6564,
      "ĠHelp": 6565,
      "oos": 6566,
      "ĠBird": 6567,
      "ĠBessie": 6568,
      "Ġordinary": 6569,
      "igator": 6570,
      "dog": 6571,
      "Ġchick": 6572,
      "Ġwolf": 6573,
      "ĠServ": 6574,
      "nons": 6575,
      "Ġslipped": 6576,
      "Ġleaders": 6577,
      "Ġindividual": 6578,
      "Ġsupply": 6579,
      "Ġsquee": 6580,
      "Ġwipe": 6581,
      "Ġborrow": 6582,
      "ĠFe": 6583,
      "Are": 6584,
      "Ġdump": 6585,
      "gery": 6586,
      "Ġrecognized": 6587,
      "Ġreview": 6588,
      "ansas": 6589,
      "Ġterrit": 6590,
      "ĠDou": 6591,
      "ĠPac": 6592,
      "Ġ2023": 6593,
      "Ġbadly": 6594,
      "ception": 6595,
      "Ġclosely": 6596,
      "rapes": 6597,
      "ares": 6598,
      "cow": 6599,
      "Ġfal": 6600,
      "Ġintellig": 6601,
      "ĠWhoa": 6602,
      "Ġsisters": 6603,
      "involuntary": 6604,
      "hell": 6605,
      "Ġcouch": 6606,
      "tles": 6607,
      "hew": 6608,
      "Ġwaves": 6609,
      "Ġbone": 6610,
      "Ġpity": 6611,
      "icing": 6612,
      "keys": 6613,
      "Ġhadta": 6614,
      "Ġairplane": 6615,
      "Ġraise": 6616,
      "Ġdreams": 6617,
      "ĠBas": 6618,
      "Ġgolden": 6619,
      "athan": 6620,
      "ĠClare": 6621,
      "Ġissue": 6622,
      "Ġeagerly": 6623,
      "Ġnearer": 6624,
      "Ġtooth": 6625,
      "ĠTHIS": 6626,
      "Ġprofessor": 6627,
      "ĠÂ¶": 6628,
      "Ġqueer": 6629,
      "Ġautom": 6630,
      "ontinues": 6631,
      "fers": 6632,
      "Ġgir": 6633,
      "irmed": 6634,
      "ĠWatch": 6635,
      "ani": 6636,
      "Ġspecific": 6637,
      "Ġmatches": 6638,
      "ĠWHAT": 6639,
      "rain": 6640,
      "ĠHun": 6641,
      "ĠStay": 6642,
      "Ġicecream": 6643,
      "Ġdivided": 6644,
      "Ġcups": 6645,
      "Ġreplaced": 6646,
      "Ġfields": 6647,
      "Ġbodies": 6648,
      "Ġwashed": 6649,
      "ĠWater": 6650,
      "Ġsevere": 6651,
      "Ġjail": 6652,
      "Ġguest": 6653,
      "Ġcreate": 6654,
      "Ah": 6655,
      "Ġhug": 6656,
      "ĠProvince": 6657,
      "Ġlifted": 6658,
      "ĠSecond": 6659,
      "Ġjobs": 6660,
      "itzerland": 6661,
      "40": 6662,
      "Ġunderneath": 6663,
      "Ġintroduced": 6664,
      "ĠTuesday": 6665,
      "were": 6666,
      "Ġpolicy": 6667,
      "ĠBi": 6668,
      "ĠRom": 6669,
      "Ġtraffic": 6670,
      "Ġstomach": 6671,
      "Ġcontent": 6672,
      "Ġproduction": 6673,
      "Ġowner": 6674,
      "Ġmedal": 6675,
      "Ġapartment": 6676,
      "Ġhasta": 6677,
      "Ġsatisfied": 6678,
      "25": 6679,
      "had": 6680,
      "ĠPen": 6681,
      "Ġconditions": 6682,
      "Ġdemon": 6683,
      "Ġbranches": 6684,
      "Ġsource": 6685,
      "ugh": 6686,
      "ĠHaw": 6687,
      "Ġchanging": 6688,
      "Ġpurs": 6689,
      "Ġhonour": 6690,
      "ĠSwitzerland": 6691,
      "Ġnetwork": 6692,
      "Ġbrand": 6693,
      "Ġshower": 6694,
      "ĠRen": 6695,
      "Ġexchan": 6696,
      "Ġgrandmother": 6697,
      "Ġbags": 6698,
      "Ġugly": 6699,
      "Ġchosen": 6700,
      "Ġadmit": 6701,
      "Ġgy": 6702,
      "Ġgang": 6703,
      "Ġagent": 6704,
      "Ġbranch": 6705,
      "To": 6706,
      "Ġlosing": 6707,
      "Ġkidding": 6708,
      "tt": 6709,
      "Ġgrandfather": 6710,
      "Ġcandid": 6711,
      "cod": 6712,
      "Ġconv": 6713,
      "Ġhurts": 6714,
      "Ġtrunk": 6715,
      "Ġchairs": 6716,
      "ELA": 6717,
      "Ġcreature": 6718,
      "push": 6719,
      "Ġwire": 6720,
      "estival": 6721,
      "Ġgrad": 6722,
      "Ġgrant": 6723,
      "Ġours": 6724,
      "Ġawake": 6725,
      "too": 6726,
      "Ġmechan": 6727,
      "Ġsofa": 6728,
      "Ġtroops": 6729,
      "Ġaid": 6730,
      "Ġshapes": 6731,
      "Ġseriously": 6732,
      "Ġrecom": 6733,
      "Ġcomedy": 6734,
      "Ġperformance": 6735,
      "Ġ1997": 6736,
      "Ġtransl": 6737,
      "ĠCOVID": 6738,
      "Ġsoap": 6739,
      "bec": 6740,
      "lets": 6741,
      "Ġ1991": 6742,
      "Ġrecorder": 6743,
      "Ġreligious": 6744,
      "throw": 6745,
      "ocks": 6746,
      "Ġcommander": 6747,
      "ĠSecretary": 6748,
      "Ġwinning": 6749,
      "riff": 6750,
      "enth": 6751,
      "ĠJenny": 6752,
      "door": 6753,
      "ĠWednesday": 6754,
      "sell": 6755,
      "rial": 6756,
      "ĠPap": 6757,
      "ĠRel": 6758,
      "Ġbelt": 6759,
      "Ġrelief": 6760,
      "kiss": 6761,
      "zo": 6762,
      "Ġwrest": 6763,
      "Ġben": 6764,
      "eding": 6765,
      "Ġsticks": 6766,
      "ĠSH": 6767,
      "formed": 6768,
      "shouts": 6769,
      "ipper": 6770,
      "ervation": 6771,
      "Ġpilot": 6772,
      "Ġindustry": 6773,
      "aa": 6774,
      "eau": 6775,
      "Ġwhenever": 6776,
      "Ġhearts": 6777,
      "ĠDisney": 6778,
      "ĠBesides": 6779,
      "bot": 6780,
      "Ġdecor": 6781,
      "coughs": 6782,
      "Ġroles": 6783,
      "ĠLar": 6784,
      "Ġmusical": 6785,
      "aval": 6786,
      "Ġfinds": 6787,
      "ĠRoad": 6788,
      "first": 6789,
      "Ġdrown": 6790,
      "Ġapolog": 6791,
      "ĠTor": 6792,
      "ĠDi": 6793,
      "ulated": 6794,
      "mpion": 6795,
      "Ġteachers": 6796,
      "ĠTre": 6797,
      "ĠChair": 6798,
      "Ġlaws": 6799,
      "ĠâĢĶâĢĶ": 6800,
      "Ġescaped": 6801,
      "uous": 6802,
      "Ġdrunk": 6803,
      "Ġpurse": 6804,
      "ĠPhilipp": 6805,
      "Ġgreet": 6806,
      "Ġload": 6807,
      "Ġdoo": 6808,
      "ĠMu": 6809,
      "Ġcruel": 6810,
      "ĠDemocratic": 6811,
      "Ele": 6812,
      "Ġunp": 6813,
      "ANT": 6814,
      "eaking": 6815,
      "Ġdata": 6816,
      ",âĢĻ": 6817,
      "cia": 6818,
      "Ġwra": 6819,
      "Ġmyst": 6820,
      "hang": 6821,
      "Ġintended": 6822,
      "Ġbitter": 6823,
      "ĠEdna": 6824,
      "dro": 6825,
      "Ġanti": 6826,
      "III": 6827,
      "Ġpony": 6828,
      "ĠAng": 6829,
      "Ġrefused": 6830,
      "ĠWhatever": 6831,
      "ĠFrances": 6832,
      "ĠBra": 6833,
      "aki": 6834,
      "Ġrolling": 6835,
      "Ġincreased": 6836,
      "ĠCatholic": 6837,
      "found": 6838,
      "gency": 6839,
      "ami": 6840,
      "annine": 6841,
      "ĠOliver": 6842,
      "Ġlonely": 6843,
      "Ġregret": 6844,
      "ĠZeal": 6845,
      "fficient": 6846,
      "Ġsplendid": 6847,
      "Ġmustn": 6848,
      "low": 6849,
      "Ġhoped": 6850,
      "Ġhammer": 6851,
      "Ġaltogether": 6852,
      "Ġleague": 6853,
      "ĠAlso": 6854,
      "Ġplanning": 6855,
      "inc": 6856,
      "ĠYet": 6857,
      "ĠGi": 6858,
      "Ġchain": 6859,
      "Ġsmooth": 6860,
      "onsense": 6861,
      "ĠLeave": 6862,
      "Ġflash": 6863,
      "Ġpoison": 6864,
      "Ġpassage": 6865,
      "Ġpuppy": 6866,
      "ĠPortug": 6867,
      "Ġfarther": 6868,
      "Ma": 6869,
      "ĠPhilip": 6870,
      "Ġfifth": 6871,
      "Ġstatement": 6872,
      "ĠCont": 6873,
      "emies": 6874,
      "Ġlanded": 6875,
      "Ġplanned": 6876,
      "ĠSomeone": 6877,
      "ĠAnnie": 6878,
      "Ġprincess": 6879,
      "ĠZealand": 6880,
      "ĠBir": 6881,
      "ĠNancy": 6882,
      "aved": 6883,
      "ĠMarg": 6884,
      "Ġproduce": 6885,
      "ji": 6886,
      "Ġbones": 6887,
      "isl": 6888,
      "ores": 6889,
      "Ġspr": 6890,
      "Ġappointed": 6891,
      "Ġparticip": 6892,
      "Ġprovided": 6893,
      "ĠDorothy": 6894,
      "ĠDet": 6895,
      "scream": 6896,
      "ĠGeorg": 6897,
      "Ġpicnic": 6898,
      "Ġmoments": 6899,
      "Ġexpensive": 6900,
      "Ġsplit": 6901,
      "AB": 6902,
      "unior": 6903,
      "Ġcommun": 6904,
      "ĠColonel": 6905,
      "Ġtender": 6906,
      "Ġdemanded": 6907,
      "22": 6908,
      "ĠRachel": 6909,
      "new": 6910,
      "Ġ1993": 6911,
      "Ġdoggy": 6912,
      "Ġcolour": 6913,
      "ĠWilliams": 6914,
      "ĠThursday": 6915,
      "ĠEric": 6916,
      "Ġdesigned": 6917,
      "Ġcritic": 6918,
      "Ġintern": 6919,
      "Ġcru": 6920,
      "Ġcrimin": 6921,
      "Ġeventually": 6922,
      "Ġcompetition": 6923,
      "Ġbriefly": 6924,
      "Ġgained": 6925,
      "Ġaccepted": 6926,
      "overy": 6927,
      "Ġpile": 6928,
      "Ġactual": 6929,
      "Ġtransport": 6930,
      "Ġoperation": 6931,
      "Ġowl": 6932,
      "Ġcircumstances": 6933,
      "oons": 6934,
      "inder": 6935,
      "ivity": 6936,
      "Ġparties": 6937,
      "shine": 6938,
      "ĠOxford": 6939,
      "Ġpure": 6940,
      "ador": 6941,
      "Ġliqu": 6942,
      "Ġprovide": 6943,
      "Ġoriginally": 6944,
      "Ġcommer": 6945,
      "char": 6946,
      "Ġlegal": 6947,
      "Ġthousands": 6948,
      "rences": 6949,
      "Ġswear": 6950,
      "inal": 6951,
      "awa": 6952,
      "Ġentrance": 6953,
      "Ġwoke": 6954,
      "Ġforgive": 6955,
      "Ġdelay": 6956,
      "Ġhoping": 6957,
      "Ġcandy": 6958,
      "turns": 6959,
      "Ġetc": 6960,
      "Ġtowns": 6961,
      "ĠGuy": 6962,
      "IL": 6963,
      "reck": 6964,
      "Ġgrace": 6965,
      "Ġslip": 6966,
      "Ġpresently": 6967,
      "Ġdiscover": 6968,
      "Ġlessons": 6969,
      "help": 6970,
      "li": 6971,
      "ĠAwards": 6972,
      "otte": 6973,
      "ĠMaj": 6974,
      "ĠDaniel": 6975,
      "Ġhunting": 6976,
      "Ar": 6977,
      "Ġcher": 6978,
      "Ġcaterpillar": 6979,
      "Ġmummie": 6980,
      "ridge": 6981,
      "Ġfant": 6982,
      "Ġbears": 6983,
      "umes": 6984,
      "Ġcode": 6985,
      "Ġbeans": 6986,
      "ĠHung": 6987,
      "ĠSoon": 6988,
      "ĠRemember": 6989,
      "ĠEveryone": 6990,
      "hetti": 6991,
      "Ell": 6992,
      "mi": 6993,
      "Ġcontribut": 6994,
      "Ġsetting": 6995,
      "Ġlesson": 6996,
      "Ġgrandma": 6997,
      "ĠEverybody": 6998,
      "writer": 6999,
      "ĠBat": 7000,
      "ĠHome": 7001,
      "ĠDown": 7002,
      "Ġrat": 7003,
      "Ġbutterfly": 7004,
      "Ġdelighted": 7005,
      "Ġrode": 7006,
      "inky": 7007,
      "ĠStud": 7008,
      "Ġpresents": 7009,
      "Um": 7010,
      "cies": 7011,
      "Ġpitch": 7012,
      "rib": 7013,
      "ĠRun": 7014,
      "ĠKar": 7015,
      "Ġpassengers": 7016,
      "Ġpond": 7017,
      "Ġlit": 7018,
      "arian": 7019,
      "Ġfrogs": 7020,
      "Ġtemperature": 7021,
      "âĮī.": 7022,
      "Ġguide": 7023,
      "Ġmedia": 7024,
      "--------------------------------": 7025,
      "Ġselected": 7026,
      "Ġcounter": 7027,
      "orange": 7028,
      "Ġcomr": 7029,
      "Ġsentence": 7030,
      "Ġapproach": 7031,
      "Ġsuffered": 7032,
      "Okay": 7033,
      "Ġpushing": 7034,
      "ĠOpen": 7035,
      "Ġcurtain": 7036,
      "hamed": 7037,
      "Ġlink": 7038,
      "Ġsteam": 7039,
      "Just": 7040,
      "Ġtin": 7041,
      "ĠNO": 7042,
      "Ġagre": 7043,
      "Ġcrossed": 7044,
      "geon": 7045,
      "Ġsprang": 7046,
      "Ġsmo": 7047,
      "Ġremains": 7048,
      "Ġsystems": 7049,
      "ĠRuth": 7050,
      "Ġfeather": 7051,
      "Ġmighty": 7052,
      "Ġpenny": 7053,
      "voice": 7054,
      "Ġoccurred": 7055,
      "ĠMolly": 7056,
      "Ġnotes": 7057,
      "ĠPic": 7058,
      "Ġimprove": 7059,
      "Ġtiss": 7060,
      "Ġsings": 7061,
      "Ġhomes": 7062,
      "eme": 7063,
      "Ġconce": 7064,
      "dam": 7065,
      "Ġaddition": 7066,
      "Ġtransfer": 7067,
      "Ġprisoner": 7068,
      "Ġavoid": 7069,
      "Ġyum": 7070,
      "ĠLara": 7071,
      "Ġsuppl": 7072,
      "Ġcaptured": 7073,
      "Ġarrested": 7074,
      "aned": 7075,
      "ĠWITH": 7076,
      "ĠMissouri": 7077,
      "ĠNorthern": 7078,
      "ĠMatthew": 7079,
      "long": 7080,
      "icted": 7081,
      "ĠPooh": 7082,
      "Ġracing": 7083,
      "ĠUN": 7084,
      "aye": 7085,
      "ĠStand": 7086,
      "ĠBrother": 7087,
      "clear": 7088,
      "Ġsending": 7089,
      "Ġburned": 7090,
      "Ġvictim": 7091,
      "stein": 7092,
      "Ġextremely": 7093,
      "eral": 7094,
      "ĠLI": 7095,
      "goes": 7096,
      "Ġsooner": 7097,
      "Ġpillow": 7098,
      "issa": 7099,
      "ĠCompany": 7100,
      "Ġculture": 7101,
      "tes": 7102,
      "gend": 7103,
      "lfriend": 7104,
      "ĠMadame": 7105,
      "Ġoldest": 7106,
      "acle": 7107,
      "Ġstern": 7108,
      "ability": 7109,
      "Amer": 7110,
      "Ġtal": 7111,
      "ĠIII": 7112,
      "Ġmole": 7113,
      "Ġpant": 7114,
      "ĠSO": 7115,
      "opter": 7116,
      "Ġapples": 7117,
      "Ġrib": 7118,
      "198": 7119,
      "dri": 7120,
      "wan": 7121,
      "Ġ{": 7122,
      "Ġbac": 7123,
      "Ġcries": 7124,
      "Ġseats": 7125,
      "ulance": 7126,
      "Ġbreast": 7127,
      "Ġhighly": 7128,
      "ekaboo": 7129,
      "umbling": 7130,
      "Ġincrease": 7131,
      "wers": 7132,
      "Ġaston": 7133,
      "Ġmap": 7134,
      "Ġdivor": 7135,
      "ĠPenn": 7136,
      "Ġwarning": 7137,
      "Ġmurm": 7138,
      "Ġcookies": 7139,
      "Ġrecognize": 7140,
      "Bob": 7141,
      "rr": 7142,
      "Ġsons": 7143,
      "Ġcave": 7144,
      "ĠSuch": 7145,
      "ĠDE": 7146,
      "iffe": 7147,
      "60": 7148,
      "Mother": 7149,
      "ĠWAS": 7150,
      "ĠHind": 7151,
      "Ġchim": 7152,
      "Ġclimbed": 7153,
      "Ġweapon": 7154,
      "Ġx": 7155,
      "Ġtom": 7156,
      "Ġrot": 7157,
      "Ġdishes": 7158,
      "esh": 7159,
      "ĠCross": 7160,
      "Ġgrate": 7161,
      "ucker": 7162,
      "Ġsecure": 7163,
      "Ġchemical": 7164,
      "Ġcents": 7165,
      "stra": 7166,
      "eable": 7167,
      "Ġash": 7168,
      "ĠBernard": 7169,
      "squ": 7170,
      "ĠKate": 7171,
      "Ġsets": 7172,
      "Ġrelax": 7173,
      "Ġdeliver": 7174,
      "ĠActually": 7175,
      "OD": 7176,
      "ĠClark": 7177,
      "Go": 7178,
      "hot": 7179,
      "Ã¤": 7180,
      "iture": 7181,
      "Ġpiano": 7182,
      "enger": 7183,
      "Ġunif": 7184,
      "Ġvictory": 7185,
      "nonspeech": 7186,
      "21": 7187,
      "Ġdim": 7188,
      "ĠSue": 7189,
      "ĠFif": 7190,
      "Ġtruly": 7191,
      "Ġcells": 7192,
      "Ġseventy": 7193,
      "ture": 7194,
      "Ġjam": 7195,
      "Eleanor": 7196,
      "Ġupside": 7197,
      "Ġworn": 7198,
      "Ġcolon": 7199,
      "Ġrecords": 7200,
      "hh": 7201,
      "ĠMos": 7202,
      "ĠBell": 7203,
      "gging": 7204,
      "Ġswitch": 7205,
      "Ġbelongs": 7206,
      "FRI": 7207,
      "Miss": 7208,
      "ĠBelle": 7209,
      "Ġtreatment": 7210,
      "Ġdrug": 7211,
      "anut": 7212,
      "ĠMusic": 7213,
      "ĠHan": 7214,
      "Ġbrick": 7215,
      "ĠIslam": 7216,
      "Ġdelicious": 7217,
      "Ġaffair": 7218,
      "Ġguitar": 7219,
      "Ġconfirmed": 7220,
      "ipping": 7221,
      "Ġrolled": 7222,
      "Ġconnected": 7223,
      "Ġshadow": 7224,
      "ĠVirginia": 7225,
      "Ġarranged": 7226,
      "gers": 7227,
      "hia": 7228,
      "Ġproceed": 7229,
      "Ġdisg": 7230,
      "ĠBad": 7231,
      "Ġrice": 7232,
      "Ġconsequ": 7233,
      "Ġfate": 7234,
      "Ġstandard": 7235,
      "Ġsignific": 7236,
      "ĠHard": 7237,
      "geant": 7238,
      "aghetti": 7239,
      "ERS": 7240,
      "Ġvolume": 7241,
      "Ġinsp": 7242,
      "kel": 7243,
      "Ġ1988": 7244,
      "Ġshops": 7245,
      "hor": 7246,
      "iation": 7247,
      "ĠWales": 7248,
      "Ġenemies": 7249,
      "Ġdistant": 7250,
      "ĠSyd": 7251,
      "Ġbuttons": 7252,
      "ĠAssociation": 7253,
      "sa": 7254,
      "imp": 7255,
      "Ġstole": 7256,
      "Thank": 7257,
      "ĠBook": 7258,
      "amas": 7259,
      "high": 7260,
      "Ġmarks": 7261,
      "ottage": 7262,
      "sk": 7263,
      "Ġchips": 7264,
      "Ġlord": 7265,
      "Ġeats": 7266,
      "Ġwaters": 7267,
      "Ġscratch": 7268,
      "ĠOrder": 7269,
      "Ġsang": 7270,
      "omer": 7271,
      "ĠPoor": 7272,
      "ĠLight": 7273,
      "Ġdisplay": 7274,
      "ĠINV": 7275,
      "Ġnut": 7276,
      "irteen": 7277,
      "Ġstor": 7278,
      "ĠList": 7279,
      "Ġpregn": 7280,
      "Ġneighbour": 7281,
      "Ġrescue": 7282,
      "Ġcant": 7283,
      "Ġreact": 7284,
      "Ġfunction": 7285,
      "ĠDeath": 7286,
      "Ġdolls": 7287,
      "umbled": 7288,
      "Ġattacked": 7289,
      "ĠCongress": 7290,
      "Ġdoctors": 7291,
      "opl": 7292,
      "Ġbent": 7293,
      "Ġcows": 7294,
      "ĠAndrew": 7295,
      "Ġappears": 7296,
      "Ġpainted": 7297,
      "Ġsolid": 7298,
      "Ġharder": 7299,
      "Ġbasically": 7300,
      "ĠShall": 7301,
      "Ġclimbing": 7302,
      "quarters": 7303,
      "ricane": 7304,
      "Ġpoliceman": 7305,
      "erable": 7306,
      "Ġbun": 7307,
      "ĠTen": 7308,
      "ĠWalter": 7309,
      "gt": 7310,
      "ios": 7311,
      "Ġrhy": 7312,
      "ĠLy": 7313,
      "Ġvalley": 7314,
      "Ġjournal": 7315,
      "Ġsixteen": 7316,
      "ĠJackson": 7317,
      "Ġmerry": 7318,
      "ĠOb": 7319,
      "Ġsweetie": 7320,
      "Ġshouting": 7321,
      "ĠAsia": 7322,
      "ĠHolly": 7323,
      "ĠRyan": 7324,
      "Ġgotten": 7325,
      "Ġroy": 7326,
      "ĠDeb": 7327,
      "Ġauthority": 7328,
      "Helen": 7329,
      "press": 7330,
      "Ġdiss": 7331,
      "Ġhaha": 7332,
      "Ġtyp": 7333,
      "cipal": 7334,
      "Ġtreasure": 7335,
      "non": 7336,
      "poor": 7337,
      "Ġappreciate": 7338,
      "24": 7339,
      "ĠPier": 7340,
      "bage": 7341,
      "mont": 7342,
      "âĢĺ": 7343,
      "âĮĭ.": 7344,
      "Ġcough": 7345,
      "Ġbuff": 7346,
      "Ġinstruct": 7347,
      "count": 7348,
      "ught": 7349,
      "alls": 7350,
      "ailed": 7351,
      "Ġaccompl": 7352,
      "Ġconcent": 7353,
      "Ġcovers": 7354,
      "sho": 7355,
      "lock": 7356,
      "zy": 7357,
      "ĠGrace": 7358,
      "Ġpoorly": 7359,
      "Ġinquired": 7360,
      "ĠIllustr": 7361,
      "Ġjelly": 7362,
      "Ġorganization": 7363,
      "Ġdom": 7364,
      "enly": 7365,
      "ĠRa": 7366,
      "Ġunfortun": 7367,
      "Ġswift": 7368,
      "Ġcheeks": 7369,
      "Look": 7370,
      "ĠHea": 7371,
      "Ġequip": 7372,
      "ĠCommittee": 7373,
      "Ġbaseball": 7374,
      "LYN": 7375,
      "something": 7376,
      "23": 7377,
      "otes": 7378,
      "Ġplus": 7379,
      "lers": 7380,
      "olk": 7381,
      "ĠGroup": 7382,
      "Ġselling": 7383,
      "wha": 7384,
      "aron": 7385,
      "Ġshining": 7386,
      "Ġcomplex": 7387,
      "Ġdollar": 7388,
      "KE": 7389,
      "Ġtoss": 7390,
      "Ġhanded": 7391,
      "doesn": 7392,
      "hlet": 7393,
      "Ġgrey": 7394,
      "ĠGil": 7395,
      "ĠEmm": 7396,
      "Ġcheap": 7397,
      "Ġeighteen": 7398,
      "ĠDamn": 7399,
      "Ġdocument": 7400,
      "For": 7401,
      "ctic": 7402,
      "ulate": 7403,
      "Ġpee": 7404,
      "Ġcompleted": 7405,
      "Ġmamma": 7406,
      "ĠBang": 7407,
      "ĠPan": 7408,
      "Ġguests": 7409,
      "Ġfinan": 7410,
      "ĠBrook": 7411,
      "bridge": 7412,
      "excuse": 7413,
      "Ġability": 7414,
      "toys": 7415,
      "Ġdrugs": 7416,
      "ĠWhe": 7417,
      "ĠRh": 7418,
      "Ġnic": 7419,
      "amily": 7420,
      "Ġ1984": 7421,
      "Ġmarked": 7422,
      "Ġdivision": 7423,
      "Ġunusual": 7424,
      "gi": 7425,
      "Ġscare": 7426,
      "Ġwealth": 7427,
      "Ġsucceeded": 7428,
      "Ġsuck": 7429,
      "coming": 7430,
      "Ġrude": 7431,
      "aks": 7432,
      "Ġpron": 7433,
      "Ġsounded": 7434,
      "Ġ1989": 7435,
      "Ġphilos": 7436,
      "Ġowe": 7437,
      "ĠSur": 7438,
      "Ġfailure": 7439,
      "Jwww": 7440,
      "adium": 7441,
      "ros": 7442,
      "ths": 7443,
      "ĠFI": 7444,
      "ĠFord": 7445,
      "Ġhappiness": 7446,
      "Ġsigh": 7447,
      "Ġmood": 7448,
      "Ġfork": 7449,
      "Ġislands": 7450,
      "sometimes": 7451,
      "Can": 7452,
      "SC": 7453,
      "stone": 7454,
      "cts": 7455,
      "ĠFanny": 7456,
      "Ġspark": 7457,
      "Ġquit": 7458,
      "ĠUK": 7459,
      "ĠInter": 7460,
      "babble": 7461,
      "LES": 7462,
      "Ġadvance": 7463,
      "Ġreligion": 7464,
      "Ġlaughter": 7465,
      "Ġconfidence": 7466,
      "Ġdetails": 7467,
      "SH": 7468,
      "pir": 7469,
      "Ġadvert": 7470,
      "Ġenthus": 7471,
      "Ġexplos": 7472,
      "Ġinnocent": 7473,
      "ĠDiana": 7474,
      "Ġflu": 7475,
      "Ġelder": 7476,
      "Ġkindly": 7477,
      "Ġridic": 7478,
      "âĻª": 7479,
      "Ġwagon": 7480,
      "ĠColumb": 7481,
      "oma": 7482,
      "irk": 7483,
      "ĠYep": 7484,
      "197": 7485,
      "Ġsorrow": 7486,
      "ĠPrincess": 7487,
      "Ġfreedom": 7488,
      "Ġthirst": 7489,
      "ĠSeth": 7490,
      "olen": 7491,
      "Ġexperiment": 7492,
      "ĠDepartment": 7493,
      "Steven": 7494,
      "ĠTem": 7495,
      "ĠHoly": 7496,
      "Ġbanana": 7497,
      "Ġseated": 7498,
      "Ġbold": 7499,
      "Ġ60": 7500,
      "Ġjar": 7501,
      "Ġmyster": 7502,
      "ĠUs": 7503,
      "Ġchose": 7504,
      "inned": 7505,
      "ĠMusl": 7506,
      "Cause": 7507,
      "Ġpengu": 7508,
      "ĠNight": 7509,
      "Ġspect": 7510,
      "ahhah": 7511,
      "Ġarchite": 7512,
      "Ne": 7513,
      "alds": 7514,
      "rier": 7515,
      "ĠGran": 7516,
      "Ġbackwards": 7517,
      "ties": 7518,
      "isha": 7519,
      "Ġthrill": 7520,
      "Ġelev": 7521,
      "ĠBelg": 7522,
      "ĠEvelyn": 7523,
      "Ġcig": 7524,
      "ateg": 7525,
      "Ġbasketball": 7526,
      "ĠAud": 7527,
      "ARD": 7528,
      "ĠRobinson": 7529,
      "Ġcam": 7530,
      "Ġcoun": 7531,
      "Ġyyy": 7532,
      "ĠALL": 7533,
      "Ġsuffer": 7534,
      "Ġcaut": 7535,
      "Ġtools": 7536,
      "Ġincl": 7537,
      "ader": 7538,
      "Ġdaily": 7539,
      "Ġrecent": 7540,
      "Ġtracks": 7541,
      "Ġpsych": 7542,
      "Ġsequ": 7543,
      "ĠFootball": 7544,
      "ĠCenter": 7545,
      "ĠKorea": 7546,
      "Ġprecious": 7547,
      "TA": 7548,
      "ĠDave": 7549,
      "Ġunable": 7550,
      ").=": 7551,
      "ĠJess": 7552,
      "Ġtrucks": 7553,
      "Ġcalcul": 7554,
      "Ġschol": 7555,
      "Ġrestaurant": 7556,
      "Ġsaving": 7557,
      "Ġproducer": 7558,
      "ĠDanny": 7559,
      "Ġoccupied": 7560,
      "gonna": 7561,
      "Ġbush": 7562,
      "whispered": 7563,
      "Ġissues": 7564,
      "ĠSydney": 7565,
      "Ġfourteen": 7566,
      "Ġgovernor": 7567,
      "Ġrequire": 7568,
      "ĠLew": 7569,
      "atively": 7570,
      "Ġclimate": 7571,
      "isne": 7572,
      "ĠTele": 7573,
      "Ġmerc": 7574,
      "Ġtropical": 7575,
      "Ġbast": 7576,
      "iser": 7577,
      "Ġletting": 7578,
      "Ġ1987": 7579,
      "ĠHurry": 7580,
      "Ġplates": 7581,
      "Ġcompos": 7582,
      "Ġbuying": 7583,
      "Ġblowing": 7584,
      "ĠPict": 7585,
      "ĠDavis": 7586,
      "rels": 7587,
      "Ġfacing": 7588,
      "ĠMid": 7589,
      "Ġpriest": 7590,
      "Ġphysical": 7591,
      "Ġgiraffe": 7592,
      "ĠJake": 7593,
      "hmm": 7594,
      "Ġtempt": 7595,
      "Ġbuddy": 7596,
      "ending": 7597,
      "Ġworkers": 7598,
      "Ġ1986": 7599,
      "Ġconsiderable": 7600,
      "aka": 7601,
      "ĠAlbert": 7602,
      "Ġevol": 7603,
      "Ġaye": 7604,
      "ĠOs": 7605,
      "Ġdriven": 7606,
      "Ġ1950": 7607,
      "Ġspirits": 7608,
      "ĠEllen": 7609,
      "New": 7610,
      "whee": 7611,
      "Ġwicked": 7612,
      "atre": 7613,
      "omed": 7614,
      "addle": 7615,
      "Ġobliged": 7616,
      "Ġspin": 7617,
      "Ġlamb": 7618,
      "sylv": 7619,
      "Ġjeal": 7620,
      "ĠAtt": 7621,
      "Ġlieutenant": 7622,
      "hetic": 7623,
      "Ġmuseum": 7624,
      "Ġeastern": 7625,
      "Ġsteady": 7626,
      "ĠAngel": 7627,
      "ungle": 7628,
      "Ġsquir": 7629,
      "Ġlodge": 7630,
      "Ġnodded": 7631,
      "Ġhers": 7632,
      "ague": 7633,
      "Ġwing": 7634,
      "Ġpushes": 7635,
      "ĠHay": 7636,
      "ques": 7637,
      "Ġnights": 7638,
      "Ġbelief": 7639,
      "Ġlately": 7640,
      "Ġengines": 7641,
      "Ġincred": 7642,
      "ĠBlackie": 7643,
      "Ġcircus": 7644,
      "Ġsexual": 7645,
      "Ġequipment": 7646,
      "pass": 7647,
      "ĠJoy": 7648,
      "Ġstudies": 7649,
      "Ġresponsibility": 7650,
      "ĠOffic": 7651,
      "Ġseek": 7652,
      "oxy": 7653,
      "Ġproposed": 7654,
      "IE": 7655,
      "Ġpussy": 7656,
      "ĠPart": 7657,
      "Ġhumans": 7658,
      "Ġhundreds": 7659,
      "Ġgain": 7660,
      "Ġconclud": 7661,
      "Ġpurcha": 7662,
      "Ġpresented": 7663,
      "Ġstruggle": 7664,
      "pol": 7665,
      "Ġwitch": 7666,
      "Ġbay": 7667,
      "venue": 7668,
      "Ġdrinks": 7669,
      "Ġcauses": 7670,
      "hun": 7671,
      "erb": 7672,
      "azz": 7673,
      "Ġrug": 7674,
      "Ġpalace": 7675,
      "wide": 7676,
      "Ġpowers": 7677,
      "Ġathlet": 7678,
      "ieur": 7679,
      "Ġglanced": 7680,
      "nament": 7681,
      "Ġcage": 7682,
      "stick": 7683,
      "Ġaltern": 7684,
      "Ġfever": 7685,
      "isie": 7686,
      "ications": 7687,
      "ĠFre": 7688,
      "ĠCarolina": 7689,
      "UD": 7690,
      "cup": 7691,
      "Ġlat": 7692,
      "Ġshed": 7693,
      "ĠFa": 7694,
      "ĠLouise": 7695,
      "ĠRobin": 7696,
      "pur": 7697,
      "Ġooh": 7698,
      "ĠAisne": 7699,
      "Ġbegun": 7700,
      "arrass": 7701,
      "Ġcollection": 7702,
      "Ġefforts": 7703,
      "Ġjustice": 7704,
      "boat": 7705,
      "Ġfortun": 7706,
      "Ġambulance": 7707,
      "ĠAD": 7708,
      "ĠEh": 7709,
      "Ġchase": 7710,
      "Ġstronger": 7711,
      "zes": 7712,
      "elia": 7713,
      "Ġminor": 7714,
      "yard": 7715,
      "ĠBal": 7716,
      "Ġactions": 7717,
      "ĠMcC": 7718,
      "Ġstructure": 7719,
      "ĠMargaret": 7720,
      "Ġroyal": 7721,
      "uman": 7722,
      "ĠKN": 7723,
      "ĠAtlantic": 7724,
      "Ġward": 7725,
      "ĠSit": 7726,
      "Ġpride": 7727,
      "ĠGrant": 7728,
      "alais": 7729,
      "Ġgirlfriend": 7730,
      "ĠSenate": 7731,
      "Ġplatform": 7732,
      "Ġtub": 7733,
      "ĠSouthern": 7734,
      "Ġasks": 7735,
      "pected": 7736,
      "ufact": 7737,
      "Ġnoble": 7738,
      "Ġexha": 7739,
      "Ġphotograph": 7740,
      "ĠTwenty": 7741,
      "Ġresponded": 7742,
      "Ġrejo": 7743,
      "ĠHim": 7744,
      "ĠPop": 7745,
      "Ġshaking": 7746,
      "OY": 7747,
      "Ġseized": 7748,
      "again": 7749,
      "Ġinhabit": 7750,
      "Your": 7751,
      "Ġbeer": 7752,
      "Ġcarpet": 7753,
      "ĠDonald": 7754,
      "Ġcoloring": 7755,
      "Ġsunshine": 7756,
      "Ġservant": 7757,
      "Ġemergency": 7758,
      "sylvania": 7759,
      "],": 7760,
      "lar": 7761,
      "Ġfile": 7762,
      "Ġchuck": 7763,
      "Ġdragon": 7764,
      "Ġbalance": 7765,
      "eight": 7766,
      "ĠEastern": 7767,
      "Ġsuffering": 7768,
      "ĠCareer": 7769,
      "listen": 7770,
      "ĠGreg": 7771,
      "hens": 7772,
      "Ġ1981": 7773,
      "Ġrailway": 7774,
      "Ġbul": 7775,
      "icide": 7776,
      "ĠAlf": 7777,
      "ĠWall": 7778,
      "Ġkil": 7779,
      "unched": 7780,
      "Ġsheet": 7781,
      "Ġconqu": 7782,
      "ĠPacific": 7783,
      "American": 7784,
      "sec": 7785,
      "ava": 7786,
      "ĠSara": 7787,
      "byebye": 7788,
      "Ġmajority": 7789,
      "Ġretire": 7790,
      "Ġcontainer": 7791,
      "Mar": 7792,
      "Ġfo": 7793,
      "iches": 7794,
      "ĠWant": 7795,
      "Ġashamed": 7796,
      "quick": 7797,
      "Ġaffection": 7798,
      "ĠBrad": 7799,
      "----\"": 7800,
      "Ġmultip": 7801,
      "Ġjealous": 7802,
      "Ġsin": 7803,
      "erous": 7804,
      "Ġdiamond": 7805,
      "Ġrevol": 7806,
      "ĠCho": 7807,
      "ĠCON": 7808,
      "elled": 7809,
      "ĠEdu": 7810,
      "Ġcliff": 7811,
      "Ġembarrass": 7812,
      "Ġexercise": 7813,
      "Ġign": 7814,
      "Ġ[.": 7815,
      "Ġquant": 7816,
      "ĠWere": 7817,
      "Ġunit": 7818,
      "Ġwip": 7819,
      "imme": 7820,
      "Ġstove": 7821,
      "Ġconduct": 7822,
      "ĠBruce": 7823,
      "Ġtunnel": 7824,
      "wa": 7825,
      "hara": 7826,
      "ĠSC": 7827,
      "iments": 7828,
      "Ġbreathing": 7829,
      "hemat": 7830,
      "On": 7831,
      "ĠAri": 7832,
      "igno": 7833,
      "ĠPolice": 7834,
      "ieve": 7835,
      "osity": 7836,
      "ĠArgent": 7837,
      "Carl": 7838,
      "Ġsche": 7839,
      "Ġ1972": 7840,
      "Ġbenefit": 7841,
      "ĠDuke": 7842,
      "Ġpitched": 7843,
      "upp": 7844,
      "Ġbees": 7845,
      "ĠBow": 7846,
      "ĠPerson": 7847,
      "Ġslaves": 7848,
      "Ġreturning": 7849,
      "Ġpirates": 7850,
      "Ġnoisy": 7851,
      "Ġringing": 7852,
      "Ġloudly": 7853,
      "ĠMajesty": 7854,
      "fits": 7855,
      "Ġax": 7856,
      "Ġuncom": 7857,
      "Ġcontroll": 7858,
      "ĠBarbara": 7859,
      "ĠChristopher": 7860,
      "ĠSomers": 7861,
      "oard": 7862,
      "ito": 7863,
      "Ġgosh": 7864,
      "orted": 7865,
      "Ġflour": 7866,
      "ONE": 7867,
      "Ġsatisfaction": 7868,
      "ĠHAVE": 7869,
      "real": 7870,
      "refer": 7871,
      "beep": 7872,
      "Ġbushes": 7873,
      "Ġanswers": 7874,
      "Ġcupboard": 7875,
      "Ġdisappear": 7876,
      "ĠGolden": 7877,
      "Ġsenior": 7878,
      "mal": 7879,
      "Ġlif": 7880,
      "Ġconvin": 7881,
      "ĠUnt": 7882,
      "Ġfed": 7883,
      "ĠSally": 7884,
      "ĠUk": 7885,
      "Ġappeal": 7886,
      "Ġchecked": 7887,
      "Ġframe": 7888,
      "ĠInstitute": 7889,
      "27": 7890,
      "ĠMi": 7891,
      "ĠWalk": 7892,
      "Ġflood": 7893,
      "ibly": 7894,
      "Ġpossession": 7895,
      "ĠLeslie": 7896,
      "Ġcord": 7897,
      "ĠStory": 7898,
      "Ġ185": 7899,
      "ĠXV": 7900,
      "Ġcas": 7901,
      "Ġbeep": 7902,
      "Ġnick": 7903,
      "Ġquack": 7904,
      "Ġdesert": 7905,
      "brush": 7906,
      "Ġkissed": 7907,
      "break": 7908,
      "nda": 7909,
      "ĠSport": 7910,
      "ĠClass": 7911,
      "Ġexplan": 7912,
      "Ġprompt": 7913,
      "PS": 7914,
      "even": 7915,
      "Ġpardon": 7916,
      "oto": 7917,
      "ĠDev": 7918,
      "Ġfollows": 7919,
      "Ġconscious": 7920,
      "Ġheavily": 7921,
      "Ġkingdom": 7922,
      "Ġnominated": 7923,
      "onia": 7924,
      "ĠMiddle": 7925,
      "Ġclient": 7926,
      "Ġpretending": 7927,
      "COL": 7928,
      "boo": 7929,
      "____": 7930,
      "ĠBY": 7931,
      "Ġgoat": 7932,
      "Ġimit": 7933,
      "Ġprotection": 7934,
      "ĠBuild": 7935,
      "âĨĴ": 7936,
      "Ġbree": 7937,
      "ccer": 7938,
      "onsieur": 7939,
      "Ġadvanced": 7940,
      "Bl": 7941,
      "Ġboot": 7942,
      "ĠKath": 7943,
      "ĠOlympic": 7944,
      "Ġpirate": 7945,
      "uzz": 7946,
      "ammy": 7947,
      "Ġspots": 7948,
      "Ġ1985": 7949,
      "Ġadmitted": 7950,
      "Ġshelter": 7951,
      "Ġpup": 7952,
      "hole": 7953,
      "Ġlic": 7954,
      "Ġbug": 7955,
      "Ġelimin": 7956,
      "Ġraining": 7957,
      "aska": 7958,
      "'...": 7959,
      ".)": 7960,
      "filler": 7961,
      "Ġangel": 7962,
      "Ġfrag": 7963,
      "Ġconsult": 7964,
      "Ġcottage": 7965,
      "ĠNina": 7966,
      "ĠEst": 7967,
      "Ġdistinct": 7968,
      "didn": 7969,
      "Ġreturns": 7970,
      "osphere": 7971,
      "Ġsafely": 7972,
      "inois": 7973,
      "GER": 7974,
      "refers": 7975,
      "etts": 7976,
      "Ġanch": 7977,
      "ĠLisa": 7978,
      "aughters": 7979,
      "Ġrivers": 7980,
      "ĠPrize": 7981,
      "aling": 7982,
      "Ġje": 7983,
      "ĠLois": 7984,
      "Ġconfl": 7985,
      "ĠMickey": 7986,
      "yum": 7987,
      "ĠOt": 7988,
      "Ġacted": 7989,
      "continues": 7990,
      "ĠTry": 7991,
      "aman": 7992,
      "ĠJas": 7993,
      "elf": 7994,
      "ĠHead": 7995,
      "Ġaboard": 7996,
      "Ġpigs": 7997,
      "Ġtorn": 7998,
      "ĠLincol": 7999,
      "Ġthoroughly": 8000,
      "leave": 8001,
      "ĠToo": 8002,
      "ivered": 8003,
      "Ġexped": 8004,
      "Have": 8005,
      "Un": 8006,
      "umper": 8007,
      "Ġcontains": 8008,
      "Ġinjured": 8009,
      "ĠMich": 8010,
      "Ġleans": 8011,
      "Ġsomethin": 8012,
      "Ġvehicle": 8013,
      "Ġsne": 8014,
      "Ġmama": 8015,
      "Ġlou": 8016,
      "ĠBab": 8017,
      "ĠHope": 8018,
      "Ġunknown": 8019,
      "Ġattached": 8020,
      "Ġillustr": 8021,
      "rella": 8022,
      "crying": 8023,
      "also": 8024,
      "ript": 8025,
      "ĠLo": 8026,
      "achus": 8027,
      "IST": 8028,
      "ĠShit": 8029,
      "Ġelectron": 8030,
      "Ġducks": 8031,
      "ifts": 8032,
      "Ġcolored": 8033,
      "Ġ1979": 8034,
      "ĠBall": 8035,
      "Ġanger": 8036,
      "Ġchallen": 8037,
      "Ġclasses": 8038,
      "Ġdepends": 8039,
      "cake": 8040,
      "Ġstolen": 8041,
      "Ġcommittee": 8042,
      "ddie": 8043,
      "Ġreports": 8044,
      "ĠJersey": 8045,
      "Ġgri": 8046,
      "ĠTa": 8047,
      "ĠJam": 8048,
      "Ġserving": 8049,
      "Ġstopping": 8050,
      "Ġdistributed": 8051,
      "Sp": 8052,
      "Ġdyn": 8053,
      "Ġfuss": 8054,
      "ĠMem": 8055,
      "ĠMister": 8056,
      "ĠFranklin": 8057,
      "Ġdiag": 8058,
      "ĠDirector": 8059,
      "corn": 8060,
      "owa": 8061,
      "ĠPeggy": 8062,
      "Ġticket": 8063,
      "mind": 8064,
      "icopter": 8065,
      "ĠMod": 8066,
      "ĠHealth": 8067,
      "ĠâĢľâĢĺ": 8068,
      "ĠWithout": 8069,
      "Ġaudience": 8070,
      "Ġstiff": 8071,
      "standing": 8072,
      "Ġcosts": 8073,
      "Ġhealthy": 8074,
      "Ġturtle": 8075,
      "ĠIllinois": 8076,
      "ĠChairman": 8077,
      "pick": 8078,
      "ĠNOT": 8079,
      "olph": 8080,
      "ĠKent": 8081,
      "Ġarmed": 8082,
      "Ġpotatoes": 8083,
      "Ġquarters": 8084,
      "ĠPennsylvania": 8085,
      "Ġresour": 8086,
      "Ġinstance": 8087,
      "Ġbond": 8088,
      "Ġhut": 8089,
      "Ġsauce": 8090,
      "Ġgoodbye": 8091,
      "ĠStu": 8092,
      "Ġsteel": 8093,
      "Ġpapa": 8094,
      "burgh": 8095,
      "Ġobey": 8096,
      "ĠAk": 8097,
      "ĠSandy": 8098,
      "Grand": 8099,
      "lots": 8100,
      "Ġoo": 8101,
      "Ġconfused": 8102,
      "GRF": 8103,
      "bang": 8104,
      "ession": 8105,
      "Ġreality": 8106,
      "inging": 8107,
      "Ġreward": 8108,
      "abr": 8109,
      "Ġelement": 8110,
      "Ġtremb": 8111,
      "Ġsales": 8112,
      "Ġfoolish": 8113,
      "Ġneighborhood": 8114,
      "ĠNether": 8115,
      "Ġpermission": 8116,
      "Ġfalse": 8117,
      "ĠJason": 8118,
      "ologist": 8119,
      "Ġexpecting": 8120,
      "uddle": 8121,
      "Ġtickle": 8122,
      "Ġsurrounded": 8123,
      "hur": 8124,
      "Ġsock": 8125,
      "Ġsurgery": 8126,
      "Ġ1976": 8127,
      "Ġelectr": 8128,
      "Ġscale": 8129,
      "Ġinterrupted": 8130,
      "Br": 8131,
      "Ġdull": 8132,
      "ĠAle": 8133,
      "ertainly": 8134,
      "truck": 8135,
      "Ġsuspic": 8136,
      "AUN": 8137,
      "Ġbeds": 8138,
      "Ġapproached": 8139,
      "Ġprinci": 8140,
      "De": 8141,
      "nis": 8142,
      "ĠHoney": 8143,
      "Ġshy": 8144,
      "Ġswall": 8145,
      "Ġfits": 8146,
      "ĠMinn": 8147,
      "ĠPubl": 8148,
      "ĠThough": 8149,
      "ĠTurk": 8150,
      "Ġbiscuit": 8151,
      "Ġridiculous": 8152,
      "referring": 8153,
      "cest": 8154,
      "anta": 8155,
      "ĠRal": 8156,
      "ighed": 8157,
      "Ġmanufact": 8158,
      "Ġgoods": 8159,
      "pron": 8160,
      "ĠMadam": 8161,
      "achusetts": 8162,
      "Ġopt": 8163,
      "ĠBerry": 8164,
      "ĠAnything": 8165,
      "Ġsettlement": 8166,
      "Ġpoll": 8167,
      "Ġestate": 8168,
      "Ġtissue": 8169,
      "top": 8170,
      "ington": 8171,
      "enes": 8172,
      "lying": 8173,
      "olt": 8174,
      "ĠDef": 8175,
      "Ġroads": 8176,
      "Ġsnap": 8177,
      "Ġsymbol": 8178,
      "Ġgodd": 8179,
      "Ġunion": 8180,
      "annah": 8181,
      "teacher": 8182,
      "Ġloft": 8183,
      "26": 8184,
      "Ġdirt": 8185,
      "Ġhipp": 8186,
      "Ġthunder": 8187,
      "rily": 8188,
      "allas": 8189,
      "ookie": 8190,
      "Ġpole": 8191,
      "ebra": 8192,
      "ĠGabri": 8193,
      "Ġfinancial": 8194,
      "MP": 8195,
      "ees": 8196,
      "Ġpear": 8197,
      "Ġbeads": 8198,
      "Ġtray": 8199,
      "Ġrifle": 8200,
      "Ġservants": 8201,
      "Ġmystery": 8202,
      "ĠBible": 8203,
      "Ġtechnology": 8204,
      "uties": 8205,
      "Ġunf": 8206,
      "Ġattended": 8207,
      "ĠYOUR": 8208,
      "Ġfleet": 8209,
      "Ġpersons": 8210,
      "GLO": 8211,
      "Ġwreck": 8212,
      "necess": 8213,
      "Ġclothing": 8214,
      "Ġlocation": 8215,
      "Ġromantic": 8216,
      "ĠMmm": 8217,
      "alle": 8218,
      "196": 8219,
      "Ġvisited": 8220,
      "ĠHoll": 8221,
      "ands": 8222,
      "Ġsoil": 8223,
      "Ġvain": 8224,
      "Ġpartly": 8225,
      "Ġdrift": 8226,
      "OULD": 8227,
      "ĠSever": 8228,
      "ĠVis": 8229,
      "Ġimage": 8230,
      "Ġdrum": 8231,
      "ĠLooks": 8232,
      "ĠMassachusetts": 8233,
      "ju": 8234,
      "rah": 8235,
      "Ġpassion": 8236,
      "Ġillness": 8237,
      "ĠRepublican": 8238,
      "Ġdreadful": 8239,
      "Ġrubbish": 8240,
      "Ġprincipal": 8241,
      "Ġpersu": 8242,
      "MB": 8243,
      "ĠHug": 8244,
      "ĠSocial": 8245,
      "Ġdisappointed": 8246,
      "ĠKevin": 8247,
      "song": 8248,
      "Ġmas": 8249,
      "Ġnuts": 8250,
      "ĠYear": 8251,
      "lessly": 8252,
      "kyo": 8253,
      "Ġfurniture": 8254,
      "abs": 8255,
      "Ġresident": 8256,
      "EST": 8257,
      "ĠPercy": 8258,
      "cur": 8259,
      "eating": 8260,
      "jamin": 8261,
      "van": 8262,
      "azy": 8263,
      "Ġdough": 8264,
      "ANN": 8265,
      "Ġinstit": 8266,
      "Ġtrap": 8267,
      "shakes": 8268,
      "ĠJeannine": 8269,
      "Ġcitizens": 8270,
      "Ġwishes": 8271,
      "ĠMill": 8272,
      "ĠAnth": 8273,
      "ĠProt": 8274,
      "Ġaffairs": 8275,
      "Ġdesperate": 8276,
      "uals": 8277,
      "Ġumb": 8278,
      "Ġhorror": 8279,
      "Ġpiggy": 8280,
      "Ġnaturally": 8281,
      "ĠEmperor": 8282,
      "ĠWelcome": 8283,
      "ĠRand": 8284,
      "eling": 8285,
      "Ġboyfriend": 8286,
      "Ġtempor": 8287,
      "ĠJewish": 8288,
      "places": 8289,
      "ĠTeam": 8290,
      "ĠAnton": 8291,
      "uls": 8292,
      "oyd": 8293,
      "whose": 8294,
      "Ġsupported": 8295,
      "ĠAustria": 8296,
      "Ġpowder": 8297,
      "ĠTay": 8298,
      "Ġspy": 8299,
      "Ġsleepy": 8300,
      "Ġlanding": 8301,
      "Ġrolls": 8302,
      "ishop": 8303,
      "Ġdeeply": 8304,
      "Ġtraditional": 8305,
      "Ġbroadcast": 8306,
      "Ġtidy": 8307,
      "Ġdies": 8308,
      "ĠCathy": 8309,
      "Ġgods": 8310,
      "pson": 8311,
      "Ġperform": 8312,
      "ĠAsh": 8313,
      "Ġinstantly": 8314,
      "black": 8315,
      "Ġpressed": 8316,
      "Will": 8317,
      "ĠPas": 8318,
      "ĠKy": 8319,
      "Ġdescribe": 8320,
      "Ġdegrees": 8321,
      "works": 8322,
      "bal": 8323,
      "Ġsixth": 8324,
      "ĠChampionships": 8325,
      "mat": 8326,
      "mate": 8327,
      "Ġbord": 8328,
      "ĠWork": 8329,
      "Ġimportance": 8330,
      "Ġpatients": 8331,
      "JES": 8332,
      "anas": 8333,
      "Ġhockey": 8334,
      "ĠSat": 8335,
      "usting": 8336,
      "Ġvast": 8337,
      "ĠProbably": 8338,
      "Ġbullet": 8339,
      "icycle": 8340,
      "ĠNetherlands": 8341,
      "move": 8342,
      "Ġyummy": 8343,
      "Ġgard": 8344,
      "uddenly": 8345,
      "Ġdemonstr": 8346,
      "tie": 8347,
      "Ġtale": 8348,
      "Ġna": 8349,
      "seven": 8350,
      "Ġatm": 8351,
      "ĠIntern": 8352,
      "Ġutterances": 8353,
      "One": 8354,
      "gone": 8355,
      "ĠLl": 8356,
      "elp": 8357,
      "Ġconstruction": 8358,
      "whispering": 8359,
      "mpt": 8360,
      "amma": 8361,
      "ĠLE": 8362,
      "Ġteen": 8363,
      "Ġwarri": 8364,
      "ĠService": 8365,
      "Ġgrapes": 8366,
      "ĠAren": 8367,
      "Ġapproaching": 8368,
      "Ġbudget": 8369,
      "Ġmerely": 8370,
      "zing": 8371,
      "Ġgorge": 8372,
      "irts": 8373,
      "Ġinterrupts": 8374,
      "ĠFrancisco": 8375,
      "foot": 8376,
      "ĠJr": 8377,
      "Ġages": 8378,
      "GRM": 8379,
      "Ġmanagement": 8380,
      "keeper": 8381,
      "...\"": 8382,
      "ĠSociety": 8383,
      "ocr": 8384,
      "Ġdistingu": 8385,
      "Ġ1983": 8386,
      "ipt": 8387,
      "ĠTal": 8388,
      "ĠPers": 8389,
      "ĠGree": 8390,
      "Ġscheme": 8391,
      "ĠRalph": 8392,
      "Calais": 8393,
      "icip": 8394,
      "Ġstared": 8395,
      "ĠFC": 8396,
      "Ġ1982": 8397,
      "Ġinsurance": 8398,
      "Ġutterance": 8399,
      "Ġbillion": 8400,
      "Ġfolk": 8401,
      "ĠCaroline": 8402,
      "careful": 8403,
      "Ġuniform": 8404,
      "ĠTeddy": 8405,
      "Ġspaghetti": 8406,
      "Ġlets": 8407,
      "Ġinhabitants": 8408,
      "pool": 8409,
      "ĠMoo": 8410,
      "ĠMatt": 8411,
      "ĠHoward": 8412,
      "Ġcleaning": 8413,
      "ĠCommander": 8414,
      "Ġrubber": 8415,
      "ĠGraham": 8416,
      "ĠGeorgia": 8417,
      "Ġcakes": 8418,
      "stant": 8419,
      "ĠThus": 8420,
      "Ġscored": 8421,
      "Ġunderstanding": 8422,
      "ĠLewis": 8423,
      "\").": 8424,
      "Ġboun": 8425,
      "still": 8426,
      "Ġalpha": 8427,
      "Ġunits": 8428,
      "ĠAsian": 8429,
      "bro": 8430,
      "sound": 8431,
      "itched": 8432,
      "Ġstarring": 8433,
      "ĠBurton": 8434,
      "Ġbattery": 8435,
      "away": 8436,
      "ĠAB": 8437,
      "Ġstack": 8438,
      "Ġgoals": 8439,
      "Ġseasons": 8440,
      "estic": 8441,
      "ĠIslands": 8442,
      "Ġshark": 8443,
      "Ġwhistle": 8444,
      "ĠLabour": 8445,
      "Ġheadquarters": 8446,
      "Ġarrival": 8447,
      "Ġvacation": 8448,
      "bag": 8449,
      "Ġgle": 8450,
      "ĠManchester": 8451,
      "ĠEX": 8452,
      "Ġproof": 8453,
      "OUT": 8454,
      "Ġcrocod": 8455,
      "halie": 8456,
      "Ġreaction": 8457,
      "ĠDie": 8458,
      "Ġintense": 8459,
      "âĮĪ": 8460,
      "Ġhits": 8461,
      "sex": 8462,
      "ĠBor": 8463,
      "apers": 8464,
      "Ġbetray": 8465,
      "Ġnearest": 8466,
      "lection": 8467,
      "Ġvig": 8468,
      "hio": 8469,
      "Ġfireman": 8470,
      "Ġrecommend": 8471,
      "uable": 8472,
      "ĠSong": 8473,
      "ĠMuseum": 8474,
      "Ġjoint": 8475,
      "igger": 8476,
      "venge": 8477,
      "Ġcricket": 8478,
      "Ġearned": 8479,
      "Ġconfident": 8480,
      "Ġthirteen": 8481,
      "agement": 8482,
      "Ġfactory": 8483,
      "Ġcommonly": 8484,
      "Ġconnection": 8485,
      "Ġseparated": 8486,
      "Ġaccompan": 8487,
      "rad": 8488,
      "sur": 8489,
      "heim": 8490,
      "umin": 8491,
      "arson": 8492,
      "Ġlaunched": 8493,
      "thanks": 8494,
      "Ġitems": 8495,
      "inkle": 8496,
      "hess": 8497,
      "Ġdumb": 8498,
      "Ġnoted": 8499,
      "ardie": 8500,
      "atherine": 8501,
      "Ġacid": 8502,
      "ĠCharlotte": 8503,
      "Ġdaughters": 8504,
      "ĠCur": 8505,
      "Ġtrained": 8506,
      "Ġcuts": 8507,
      "Ġdelightful": 8508,
      "ĠUntil": 8509,
      "ĠTalk": 8510,
      "Ġcereal": 8511,
      "Ġpaused": 8512,
      "Ġstroke": 8513,
      "ĠMichigan": 8514,
      "ints": 8515,
      "Ġremove": 8516,
      "rogen": 8517,
      "ĠMorgan": 8518,
      "last": 8519,
      "named": 8520,
      "arn": 8521,
      "ĠCAN": 8522,
      "Ġstretched": 8523,
      "Ġunex": 8524,
      "Ġachieve": 8525,
      "MO": 8526,
      "UCK": 8527,
      "ĠRaymond": 8528,
      "Ġaband": 8529,
      "Ġdrawer": 8530,
      "Ġarticle": 8531,
      "Ġsmiles": 8532,
      "ĠPoland": 8533,
      "Ġcapture": 8534,
      "Ġlabor": 8535,
      "Ġscientific": 8536,
      "ĠSweden": 8537,
      "Ġcub": 8538,
      "imum": 8539,
      "ĠLiber": 8540,
      "Ġslave": 8541,
      "ĠJohnny": 8542,
      "Ġ1977": 8543,
      "ĠSomebody": 8544,
      "ĠMexican": 8545,
      "Ġbiscuits": 8546,
      "Ġwanting": 8547,
      "white": 8548,
      "Ġdawn": 8549,
      "ĠLincoln": 8550,
      "ĠTha": 8551,
      "Ġbelly": 8552,
      "Ġcompared": 8553,
      "Ã¡n": 8554,
      "Ġmidnight": 8555,
      "ĠNathalie": 8556,
      "ĠAlexander": 8557,
      "Ġblew": 8558,
      "necessary": 8559,
      "Ġdea": 8560,
      "Ġincome": 8561,
      "Ġnonsense": 8562,
      "unning": 8563,
      "Ġheaded": 8564,
      "ĠAlan": 8565,
      "Ġknights": 8566,
      "Ġanal": 8567,
      "Ġkeen": 8568,
      "Ġremaining": 8569,
      "ĠBerlin": 8570,
      "Ġgrateful": 8571,
      "47": 8572,
      "close": 8573,
      "ĠLucy": 8574,
      "Ġhid": 8575,
      "ĠWinnie": 8576,
      "Ġ[$": 8577,
      "Ġ80": 8578,
      "Ġattacks": 8579,
      "ĠTrans": 8580,
      "bir": 8581,
      "icky": 8582,
      "agged": 8583,
      "ĠValley": 8584,
      "Ġanimated": 8585,
      "Ġviolence": 8586,
      "ĠSimon": 8587,
      "screams": 8588,
      "Ġber": 8589,
      "ĠThing": 8590,
      "Ġstout": 8591,
      "ĠDallas": 8592,
      "Ġsale": 8593,
      "Ġamongst": 8594,
      "Sh": 8595,
      "jan": 8596,
      "po": 8597,
      "ophy": 8598,
      "Ġconcl": 8599,
      "Ġchances": 8600,
      "Ġminds": 8601,
      "Ġanxiety": 8602,
      "Mark": 8603,
      "Ġsched": 8604,
      "Ġvariety": 8605,
      "Ġauthorities": 8606,
      "Ġbucket": 8607,
      "Ġroute": 8608,
      "Ellie": 8609,
      "Lara": 8610,
      "gment": 8611,
      "ĠBan": 8612,
      "ĠPope": 8613,
      "ĠClar": 8614,
      "ĠJohnson": 8615,
      "Ġpolitics": 8616,
      "Ġrepresented": 8617,
      "Ġpregnant": 8618,
      "bi": 8619,
      "ĠIowa": 8620,
      "ĠShi": 8621,
      "thened": 8622,
      "Ġsolemn": 8623,
      "OS": 8624,
      "sque": 8625,
      "Ġtank": 8626,
      "Ġtoe": 8627,
      "Ġbeating": 8628,
      "ĠAL": 8629,
      "Ġwebs": 8630,
      "ĠHappy": 8631,
      "ĠGro": 8632,
      "Ġrefers": 8633,
      "Ġ90": 8634,
      "Ġmistress": 8635,
      "bus": 8636,
      "pre": 8637,
      "ĠEnd": 8638,
      "Ġboom": 8639,
      "Ġprince": 8640,
      "avid": 8641,
      "ĠWindows": 8642,
      "find": 8643,
      "yed": 8644,
      "Ġinches": 8645,
      "ĠTob": 8646,
      "Ġseeds": 8647,
      "unte": 8648,
      "ĠRail": 8649,
      "Ġexact": 8650,
      "Ġlegend": 8651,
      "ordan": 8652,
      "ĠVol": 8653,
      "Ġconstitu": 8654,
      "Ex": 8655,
      "mates": 8656,
      "Ġdining": 8657,
      "Ġhay": 8658,
      "attles": 8659,
      "des": 8660,
      "giving": 8661,
      "ĠRub": 8662,
      "Ġtribe": 8663,
      "ĠProdu": 8664,
      "Ġlaunch": 8665,
      "culiar": 8666,
      "Ġsausage": 8667,
      "iens": 8668,
      "Â°": 8669,
      "Ġmal": 8670,
      "Ġmarch": 8671,
      "ĠSeven": 8672,
      "Ġhopes": 8673,
      "Perhaps": 8674,
      "28": 8675,
      "Ġfasc": 8676,
      "ĠRich": 8677,
      "Ġdrill": 8678,
      "Ġalongside": 8679,
      "ennis": 8680,
      "Ġdetective": 8681,
      "Ġtroubles": 8682,
      "silly": 8683,
      "ĠTon": 8684,
      "ĠAssembly": 8685,
      "Ġ35": 8686,
      "Ġreaching": 8687,
      "ĠNathan": 8688,
      "ĠAustin": 8689,
      "Ġfocus": 8690,
      "toy": 8691,
      "Ġancest": 8692,
      "Ġvoy": 8693,
      "Ġ1968": 8694,
      "Ġadventures": 8695,
      "Ġadopted": 8696,
      "Ġterritory": 8697,
      "orial": 8698,
      "Ġwhisper": 8699,
      "Ġinstructions": 8700,
      "Very": 8701,
      "ĠConf": 8702,
      "ĠTech": 8703,
      "Ġ(,": 8704,
      "Ġwinner": 8705,
      "Ġpeculiar": 8706,
      "Ġcarbon": 8707,
      "ĠTokyo": 8708,
      "ĠMean": 8709,
      "Sure": 8710,
      "Ġod": 8711,
      "Ġgrat": 8712,
      "issors": 8713,
      "Ġ1978": 8714,
      "Ġdefeated": 8715,
      "Ġlimited": 8716,
      "ĠOcean": 8717,
      "Ġsticker": 8718,
      "ĠKenn": 8719,
      "Ġsteamer": 8720,
      "DE": 8721,
      "rings": 8722,
      "ali": 8723,
      "Ġknot": 8724,
      "Ġnearby": 8725,
      "ĠSpring": 8726,
      "Ġimpression": 8727,
      "Ġdinosaurs": 8728,
      "Ġassistant": 8729,
      "Ġexchange": 8730,
      "Ġcriminal": 8731,
      "ĠKNOW": 8732,
      "cation": 8733,
      "part": 8734,
      "iders": 8735,
      "ĠNaz": 8736,
      "Ġshared": 8737,
      "45": 8738,
      "Pl": 8739,
      "TV": 8740,
      "lings": 8741,
      "ĠTop": 8742,
      "ĠWolf": 8743,
      "ĠFollow": 8744,
      "âĢķâĢķ": 8745,
      "reaches": 8746,
      "ender": 8747,
      "never": 8748,
      "Ġofficially": 8749,
      "Ġ1975": 8750,
      "Ġsalad": 8751,
      "Ġmathemat": 8752,
      "Ġvirus": 8753,
      "!'": 8754,
      "gro": 8755,
      "leg": 8756,
      "Ġamuse": 8757,
      "Ġdisci": 8758,
      "leton": 8759,
      "ĠAirport": 8760,
      "Ġchampion": 8761,
      "ESS": 8762,
      "Ġfilms": 8763,
      "Ġdrag": 8764,
      "Ġstations": 8765,
      "ĠUt": 8766,
      "Ġimpl": 8767,
      "Ġ1974": 8768,
      "Ġcreatures": 8769,
      "Ġvisitors": 8770,
      "Ġpackage": 8771,
      "Ġkiller": 8772,
      "Man": 8773,
      "uing": 8774,
      "Ġ/": 8775,
      "asion": 8776,
      "ĠDra": 8777,
      "ĠDolly": 8778,
      "Ġplot": 8779,
      "ugs": 8780,
      "Ġdiscovery": 8781,
      "Ġestim": 8782,
      "Ġprogramme": 8783,
      "ĠFinally": 8784,
      "dale": 8785,
      "Ġrattle": 8786,
      "Ġjungle": 8787,
      "Ġprospect": 8788,
      "Ġdressing": 8789,
      "ĠAbs": 8790,
      "Ġclosing": 8791,
      "Ġtradition": 8792,
      "itter": 8793,
      "Ġforb": 8794,
      "ĠOri": 8795,
      "Ġproceeded": 8796,
      "Ġprior": 8797,
      "Ġbelonged": 8798,
      "aah": 8799,
      "onge": 8800,
      "ĠSho": 8801,
      "Ġindign": 8802,
      "Ġ1969": 8803,
      "Ġsneak": 8804,
      "Ġawarded": 8805,
      "ĠAw": 8806,
      "ĠWild": 8807,
      "ĠLang": 8808,
      "Ġcompar": 8809,
      "Ġretreat": 8810,
      "Ġprograms": 8811,
      "ĠVictoria": 8812,
      "Ġconflict": 8813,
      "IES": 8814,
      "love": 8815,
      "rots": 8816,
      "orious": 8817,
      "iable": 8818,
      "eline": 8819,
      "Ġelements": 8820,
      "Ġacad": 8821,
      "Ġcharged": 8822,
      "ropol": 8823,
      "Ġreferred": 8824,
      "Ġbubbles": 8825,
      "gun": 8826,
      "nold": 8827,
      "attered": 8828,
      "ĠARE": 8829,
      "ĠMas": 8830,
      "Ġconcer": 8831,
      "Ġclay": 8832,
      "pless": 8833,
      "angar": 8834,
      "Ġcounting": 8835,
      "ĠMargot": 8836,
      "Ġcrept": 8837,
      "Ġcotton": 8838,
      "master": 8839,
      "Ġreign": 8840,
      "ĠKnow": 8841,
      "Ġcontest": 8842,
      "Ġbasic": 8843,
      "UL": 8844,
      "tick": 8845,
      "utions": 8846,
      "imately": 8847,
      ".\"--_": 8848,
      "ĠKansas": 8849,
      "gets": 8850,
      "ĠArmen": 8851,
      "somebody": 8852,
      "Ġwhale": 8853,
      "Ġbuzz": 8854,
      "Ġstudying": 8855,
      "Ġarrive": 8856,
      "ĠRepresent": 8857,
      "Ġsurvive": 8858,
      "Ġing": 8859,
      "erted": 8860,
      "omi": 8861,
      "ĠAS": 8862,
      "Ġstamp": 8863,
      "ament": 8864,
      "ĠCass": 8865,
      "bee": 8866,
      "Ġ1971": 8867,
      "OP": 8868,
      "Ġfuel": 8869,
      "Ġwrit": 8870,
      "Ġstaring": 8871,
      "ĠGuard": 8872,
      "Ġproducts": 8873,
      "Ġsucceed": 8874,
      "Ġinse": 8875,
      "verse": 8876,
      "Ġven": 8877,
      "ĠChap": 8878,
      "Ġchimney": 8879,
      "90": 8880,
      "Ġfederal": 8881,
      "eness": 8882,
      "Ġrac": 8883,
      "Ġintention": 8884,
      "Ã¨re": 8885,
      "coh": 8886,
      "Ġbore": 8887,
      "Ġcad": 8888,
      "ĠOsw": 8889,
      "aste": 8890,
      "Ġtermin": 8891,
      "Ġfriendship": 8892,
      "ĠParaly": 8893,
      "Ġcloses": 8894,
      "ĠAuntie": 8895,
      "jump": 8896,
      "Ġiv": 8897,
      "Ġnarr": 8898,
      "ĠInstead": 8899,
      "ĠBarry": 8900,
      "Ġscientists": 8901,
      "Ġfierce": 8902,
      "GA": 8903,
      "loo": 8904,
      "Ġsought": 8905,
      "Ġgaze": 8906,
      "Ġthumb": 8907,
      "inking": 8908,
      "Ġuseless": 8909,
      "ĠArch": 8910,
      "ĠRevolution": 8911,
      "Ġdevil": 8912,
      "ĠScottish": 8913,
      "Ġumbrella": 8914,
      "ĠParalymp": 8915,
      "ĠBC": 8916,
      "agger": 8917,
      "Ġdraws": 8918,
      "ĠExactly": 8919,
      "Ġcommercial": 8920,
      "SL": 8921,
      "Ġvirt": 8922,
      "ĠInc": 8923,
      "Ġawait": 8924,
      "hands": 8925,
      "Ind": 8926,
      "duck": 8927,
      "wind": 8928,
      "utiful": 8929,
      "ĠBattle": 8930,
      "ĠNana": 8931,
      "Ġdisag": 8932,
      "Ġ36": 8933,
      "Ġenjoying": 8934,
      "Ġprepare": 8935,
      "ĠAy": 8936,
      "ĠAwww": 8937,
      "Ġexpressed": 8938,
      "Chris": 8939,
      "Ġstrawberry": 8940,
      "Ġsavage": 8941,
      "April": 8942,
      "pop": 8943,
      "Ġded": 8944,
      "acious": 8945,
      "Ġstated": 8946,
      "Ġchrist": 8947,
      "ĠCas": 8948,
      "olves": 8949,
      "Ġclap": 8950,
      "Ġbearing": 8951,
      "Ġgrowth": 8952,
      "Ġatmosphere": 8953,
      "JW": 8954,
      "haw": 8955,
      "ilton": 8956,
      "ĠMind": 8957,
      "Ġdece": 8958,
      "Ġwherever": 8959,
      "Ġspending": 8960,
      "ĠJacob": 8961,
      "ĠStuart": 8962,
      "iro": 8963,
      "ĠViet": 8964,
      "Ġdeserve": 8965,
      "Ġextent": 8966,
      "ĠAnthony": 8967,
      "mum": 8968,
      "mel": 8969,
      "sen": 8970,
      "Ġmend": 8971,
      "igr": 8972,
      "Ġfigured": 8973,
      "Ġcheerful": 8974,
      "?'": 8975,
      "NE": 8976,
      "Ġpist": 8977,
      "ĠHaving": 8978,
      "IND": 8979,
      "Ġcommitted": 8980,
      "Ġceased": 8981,
      "ĠCub": 8982,
      "Ġtremend": 8983,
      "Ġmiserable": 8984,
      "ĠEmma": 8985,
      "case": 8986,
      "gins": 8987,
      "mil": 8988,
      "ĠBox": 8989,
      "Ġstable": 8990,
      "ĠOUT": 8991,
      "ĠJessie": 8992,
      "Ġuniverse": 8993,
      "Ġpolite": 8994,
      "Ġidiot": 8995,
      "Ġimpress": 8996,
      "ĠScar": 8997,
      "Anne": 8998,
      "ĠPoint": 8999,
      "Ġfuneral": 9000,
      "Ġskill": 9001,
      "Ġ1973": 9002,
      "Ġsticking": 9003,
      "mony": 9004,
      "rich": 9005,
      "tries": 9006,
      "Ġhelicopter": 9007,
      "Ġhated": 9008,
      "Ġassured": 9009,
      "Ġmurdered": 9010,
      "Ġelectricity": 9011,
      "Ġpand": 9012,
      "Ġanyhow": 9013,
      "Ġruled": 9014,
      "ĠPete": 9015,
      "ĠSnow": 9016,
      "una": 9017,
      "ĠRoy": 9018,
      "next": 9019,
      "Ġarrow": 9020,
      "Ġnicely": 9021,
      "ĠMarie": 9022,
      "Ġbasis": 9023,
      "Ġeconomic": 9024,
      "Ġexplanation": 9025,
      "Ġscript": 9026,
      "Ġcapable": 9027,
      "ĠIndeed": 9028,
      "Ġ500": 9029,
      "Ġ70": 9030,
      "Ġdefeat": 9031,
      "Ġdanc": 9032,
      "ĠSuddenly": 9033,
      "ĠMust": 9034,
      "Ġnasty": 9035,
      "ĠVill": 9036,
      "Ġnumerous": 9037,
      "ĠEngine": 9038,
      "Ġrocket": 9039,
      "Ġloads": 9040,
      "ĠNorah": 9041,
      "ĠSupp": 9042,
      "Ġconvinced": 9043,
      "ulture": 9044,
      "Ġstead": 9045,
      "Ġloving": 9046,
      "Ġvessels": 9047,
      "At": 9048,
      "Ġmast": 9049,
      "Ġfires": 9050,
      "ĠRoxy": 9051,
      "Ġfeast": 9052,
      "ĠLeg": 9053,
      "glas": 9054,
      "Ġigno": 9055,
      "ĠAha": 9056,
      "Ġjew": 9057,
      "ĠEight": 9058,
      "Ġcleared": 9059,
      "Ġexpert": 9060,
      "Ġlevels": 9061,
      "Ġmurd": 9062,
      "Ġpier": 9063,
      "ĠBank": 9064,
      "Ġseas": 9065,
      "ĠDON": 9066,
      "ĠLily": 9067,
      "Ġsufficient": 9068,
      "Ġconsist": 9069,
      "helle": 9070,
      "gues": 9071,
      "inea": 9072,
      "Ġreput": 9073,
      "ĠJos": 9074,
      "Ġnowhere": 9075,
      "Ġconstant": 9076,
      "Ġlawn": 9077,
      "Ġactivities": 9078,
      "orne": 9079,
      "ĠDomin": 9080,
      "ĠLind": 9081,
      "Ġunivers": 9082,
      "Ġsubs": 9083,
      "Ġslee": 9084,
      "ni": 9085,
      "ppers": 9086,
      "Ġconference": 9087,
      "Ġcomposed": 9088,
      "ĠArm": 9089,
      "Ġshortly": 9090,
      "ĠPatrick": 9091,
      "Ġinnit": 9092,
      "mun": 9093,
      "Ġlemon": 9094,
      "Ġrevolution": 9095,
      "Ġseed": 9096,
      "ĠFle": 9097,
      "nah": 9098,
      "Ġchew": 9099,
      "Ġrecovered": 9100,
      "anything": 9101,
      "Ġsquad": 9102,
      "Ġprayer": 9103,
      "Ġregarded": 9104,
      "Ġbarely": 9105,
      "Ġunexpected": 9106,
      "Le": 9107,
      "akin": 9108,
      "Ġswept": 9109,
      "Ġawfully": 9110,
      "ĠFilm": 9111,
      "WE": 9112,
      "ĠMack": 9113,
      "Ġcanoe": 9114,
      "Ġblows": 9115,
      "whines": 9116,
      "Ġwinds": 9117,
      "Ġacquaint": 9118,
      "ĠPicardie": 9119,
      "35": 9120,
      "Qu": 9121,
      "Ġdried": 9122,
      "ĠCut": 9123,
      "ema": 9124,
      "need": 9125,
      "Ġgeneration": 9126,
      "Ġscreaming": 9127,
      "Because": 9128,
      "Ġprimary": 9129,
      "Ġloyal": 9130,
      "ĠSax": 9131,
      "ĠJu": 9132,
      "Ġbron": 9133,
      "intend": 9134,
      "Ġunhappy": 9135,
      "Ġlands": 9136,
      "Ġ1967": 9137,
      "Ġpunishment": 9138,
      "ĠKorean": 9139,
      "MAD": 9140,
      "lace": 9141,
      "Ãº": 9142,
      "anges": 9143,
      "Ġparish": 9144,
      "Ġvolunte": 9145,
      "Ġdiscussion": 9146,
      "Ġexistence": 9147,
      "Child": 9148,
      "pict": 9149,
      "Ġtack": 9150,
      "ĠTed": 9151,
      "ĠSub": 9152,
      "Ġbottles": 9153,
      "Ġthreatened": 9154,
      "29": 9155,
      "vant": 9156,
      "Ġgazed": 9157,
      "Ġpeanut": 9158,
      "Ġregions": 9159,
      "Ġkicked": 9160,
      "Ġsplash": 9161,
      "illon": 9162,
      "ĠRus": 9163,
      "ĠDivision": 9164,
      "Ġthirsty": 9165,
      "phew": 9166,
      "Ġtune": 9167,
      "ĠIda": 9168,
      "Ġunlike": 9169,
      "Ġcharges": 9170,
      "Ġaircraft": 9171,
      "OOK": 9172,
      "Ġrev": 9173,
      "ĠBud": 9174,
      "ĠCwww": 9175,
      "Ġaspect": 9176,
      "âĢĶâĢĿ": 9177,
      "Ġeconomy": 9178,
      "Ġcomrades": 9179,
      "Ġlung": 9180,
      "Ġmayor": 9181,
      "Ġskirt": 9182,
      "Ġvaluable": 9183,
      "ĠStephen": 9184,
      "OL": 9185,
      "Ġmental": 9186,
      "ĠDog": 9187,
      "ĠLyn": 9188,
      "ĠJordan": 9189,
      "ustomed": 9190,
      "Ġtournament": 9191,
      "western": 9192,
      "Ġack": 9193,
      "inity": 9194,
      "Ġdign": 9195,
      "esota": 9196,
      "ĠDuck": 9197,
      "inton": 9198,
      "ĠBenjamin": 9199,
      "ophie": 9200,
      "Ġrustling": 9201,
      "TS": 9202,
      "ext": 9203,
      "hu": 9204,
      "eav": 9205,
      "Ġfridge": 9206,
      "Ġspray": 9207,
      "Ġprime": 9208,
      "reading": 9209,
      "ratulations": 9210,
      "Ġdude": 9211,
      "ĠNumber": 9212,
      "Ġperman": 9213,
      "Ġnuclear": 9214,
      "80": 9215,
      "made": 9216,
      "Ġpoured": 9217,
      "inks": 9218,
      "Ġopera": 9219,
      "Ġsuggestion": 9220,
      "til": 9221,
      "Ġburd": 9222,
      "isation": 9223,
      "Ġlamp": 9224,
      "ĠFamily": 9225,
      "ĠKnight": 9226,
      "Ġstays": 9227,
      "Ġaffected": 9228,
      "Ġgorgeous": 9229,
      "ras": 9230,
      "Ġtool": 9231,
      "esome": 9232,
      "Ġthief": 9233,
      "ĠCard": 9234,
      "Ġshelf": 9235,
      "Ġfrank": 9236,
      "Ġshove": 9237,
      "Wh": 9238,
      "ingo": 9239,
      "oline": 9240,
      "inners": 9241,
      "force": 9242,
      "ĠBlood": 9243,
      "priate": 9244,
      "ĠEllie": 9245,
      "ĠJonathan": 9246,
      "bors": 9247,
      "vard": 9248,
      "Ġgum": 9249,
      "Ġrum": 9250,
      "ĠGina": 9251,
      "Ġ1966": 9252,
      "ĠAmos": 9253,
      "Ġpattern": 9254,
      "ĠPu": 9255,
      "ĠArk": 9256,
      "Ġdropping": 9257,
      "Ġmeters": 9258,
      "Ġ1930": 9259,
      "ĠRecords": 9260,
      "LOU": 9261,
      "Ġcush": 9262,
      "Ġlan": 9263,
      "ĠHo": 9264,
      "ĠFriend": 9265,
      "Ġconcert": 9266,
      "Ġmachines": 9267,
      "ĠLarry": 9268,
      "zer": 9269,
      "ĠScient": 9270,
      "Ġstool": 9271,
      "ĠNa": 9272,
      "Ġcharming": 9273,
      "ĠTrue": 9274,
      "Ġconstantly": 9275,
      "Ġpacked": 9276,
      "Ġeliminated": 9277,
      "ĠMir": 9278,
      "ĠHit": 9279,
      "ĠKaren": 9280,
      "Ġacts": 9281,
      "group": 9282,
      "ĠForm": 9283,
      "Ġcooked": 9284,
      "Ġstores": 9285,
      "Ġassistance": 9286,
      "ĠDouglas": 9287,
      "Ġmysterious": 9288,
      "iner": 9289,
      "ĠTour": 9290,
      "ĠFel": 9291,
      "ĠGranddad": 9292,
      "Ġ1940": 9293,
      "ĠEarl": 9294,
      "Ġmadam": 9295,
      "stitution": 9296,
      "iac": 9297,
      "iently": 9298,
      "orous": 9299,
      "otal": 9300,
      "ĠBour": 9301,
      "ĠPitt": 9302,
      "aints": 9303,
      "ainted": 9304,
      "resp": 9305,
      "theless": 9306,
      "irlines": 9307,
      "Ġsympt": 9308,
      "Ġdirections": 9309,
      "Ġtouches": 9310,
      "Cl": 9311,
      "]...": 9312,
      "Ġhee": 9313,
      "Ġchin": 9314,
      "shh": 9315,
      "Ġsecretary": 9316,
      "ĠEnter": 9317,
      "kind": 9318,
      "amen": 9319,
      "ĠGre": 9320,
      "Ġwilln": 9321,
      "ĠThrough": 9322,
      "Ġcommission": 9323,
      "Ġattitude": 9324,
      "Ġstrict": 9325,
      "Ġtemple": 9326,
      "Ġsailed": 9327,
      "pent": 9328,
      "ĠSav": 9329,
      "ĠPam": 9330,
      "Ġvision": 9331,
      "ĠMinnesota": 9332,
      "Ġhired": 9333,
      "ĠNap": 9334,
      "Ġhats": 9335,
      "Ġtennis": 9336,
      "Ġtouching": 9337,
      "Ġportion": 9338,
      "cry": 9339,
      "vior": 9340,
      "Ġtide": 9341,
      "Ġped": 9342,
      "arse": 9343,
      "armed": 9344,
      "Ġhal": 9345,
      "Ġweb": 9346,
      "ĠMorning": 9347,
      "Ġinsisted": 9348,
      "Ġhastily": 9349,
      "Ġfeeding": 9350,
      "pat": 9351,
      "Ġduties": 9352,
      "etic": 9353,
      "ifer": 9354,
      "ĠKelly": 9355,
      "Ġflesh": 9356,
      "ï¿½ï¿½ï¿½": 9357,
      "Ross": 9358,
      "Ġhelpless": 9359,
      "Ġilleg": 9360,
      "Ġargument": 9361,
      "By": 9362,
      "David": 9363,
      "ĠTam": 9364,
      "Ġshots": 9365,
      "Ġcommit": 9366,
      "Ġbreathe": 9367,
      "Ġtickets": 9368,
      "Ġliquid": 9369,
      "Ġashore": 9370,
      "Ġbuffalo": 9371,
      "ĠSeveral": 9372,
      "olas": 9373,
      "Ġ1964": 9374,
      "Ġsailing": 9375,
      "Ġcloset": 9376,
      "ĠEducation": 9377,
      "Ġexpedition": 9378,
      "grow": 9379,
      "anim": 9380,
      "vell": 9381,
      "Ġclaimed": 9382,
      "ĠAss": 9383,
      "zech": 9384,
      "Ġ1956": 9385,
      "Ġterribly": 9386,
      "Ġgenus": 9387,
      "Ġconcluded": 9388,
      "Ġnapp": 9389,
      "illing": 9390,
      "ĠSpecial": 9391,
      "Ġsmoking": 9392,
      "esc": 9393,
      "ĠIce": 9394,
      "ĠMoon": 9395,
      "Ġmultiple": 9396,
      "\"),": 9397,
      "tape": 9398,
      "ĠAM": 9399,
      "ĠJosh": 9400,
      "oused": 9401,
      "ĠKhan": 9402,
      "Ġroar": 9403,
      "Ġcheek": 9404,
      "Ġ45": 9405,
      "scar": 9406,
      "ĠTrust": 9407,
      "Ġcatching": 9408,
      "urious": 9409,
[...]
