{
  "version": "1.0",
  "truncation": null,
  "padding": null,
  "added_tokens": [
    {
      "id": 0,
      "content": "[UNK]",
      "single_word": false,
      "lstrip": false,
      "rstrip": false,
      "normalized": false,
      "special": true
    },
    {
      "id": 1,
      "content": "[CLS]",
      "single_word": false,
      "lstrip": false,
      "rstrip": false,
      "normalized": false,
      "special": true
    },
    {
      "id": 2,
      "content": "[SEP]",
      "single_word": false,
      "lstrip": false,
      "rstrip": false,
      "normalized": false,
      "special": true
    },
    {
      "id": 3,
      "content": "[PAD]",
      "single_word": false,
      "lstrip": false,
      "rstrip": false,
      "normalized": false,
      "special": true
    },
    {
      "id": 4,
      "content": "[MASK]",
      "single_word": false,
      "lstrip": false,
      "rstrip": false,
      "normalized": false,
      "special": true
    }
  ],
  "normalizer": {
    "type": "Sequence",
    "normalizers": [
      {
        "type": "NFD"
      },
      {
        "type": "Lowercase"
      },
      {
        "type": "StripAccents"
      }
    ]
  },
  "pre_tokenizer": {
    "type": "Whitespace"
  },
  "post_processor": {
    "type": "TemplateProcessing",
    "single": [
      {
        "SpecialToken": {
          "id": "[CLS]",
          "type_id": 0
        }
      },
      {
        "Sequence": {
          "id": "A",
          "type_id": 0
        }
      },
      {
        "SpecialToken": {
          "id": "[SEP]",
          "type_id": 0
        }
      }
    ],
    "pair": [
      {
        "SpecialToken": {
          "id": "[CLS]",
          "type_id": 0
        }
      },
      {
        "Sequence": {
          "id": "A",
          "type_id": 0
        }
      },
      {
        "SpecialToken": {
          "id": "[SEP]",
          "type_id": 0
        }
      },
      {
        "Sequence": {
          "id": "B",
          "type_id": 1
        }
      },
      {
        "SpecialToken": {
          "id": "[SEP]",
          "type_id": 1
        }
      }
    ],
    "special_tokens": {
      "[CLS]": {
        "id": "[CLS]",
        "ids": [
          1
        ],
        "tokens": [
          "[CLS]"
        ]
      },
      "[SEP]": {
        "id": "[SEP]",
        "ids": [
          2
        ],
        "tokens": [
          "[SEP]"
        ]
      }
    }
  },
  "decoder": null,
  "model": {
    "type": "WordPiece",
    "unk_token": "[UNK]",
    "continuing_subword_prefix": "##",
    "max_input_chars_per_word": 100,
    "vocab": {
      "[UNK]": 0,
      "[CLS]": 1,
      "[SEP]": 2,
      "[PAD]": 3,
      "[MASK]": 4,
      "!": 5,
      "\"": 6,
      "#": 7,
      "$": 8,
      "%": 9,
      "&": 10,
      "'": 11,
      "(": 12,
      ")": 13,
      "*": 14,
      "+": 15,
      ",": 16,
      "-": 17,
      ".": 18,
      "/": 19,
      "0": 20,
      "1": 21,
      "2": 22,
      "3": 23,
      "4": 24,
      "5": 25,
      "6": 26,
      "7": 27,
      "8": 28,
      "9": 29,
      ":": 30,
      ";": 31,
      "<": 32,
      "=": 33,
      ">": 34,
      "?": 35,
      "@": 36,
      "[": 37,
      "\\": 38,
      "]": 39,
      "^": 40,
      "_": 41,
      "`": 42,
      "a": 43,
      "b": 44,
      "c": 45,
      "d": 46,
      "e": 47,
      "f": 48,
      "g": 49,
      "h": 50,
      "i": 51,
      "j": 52,
      "k": 53,
      "l": 54,
      "m": 55,
      "n": 56,
      "o": 57,
      "p": 58,
      "q": 59,
      "r": 60,
      "s": 61,
      "t": 62,
      "u": 63,
      "v": 64,
      "w": 65,
      "x": 66,
      "y": 67,
      "z": 68,
      "{": 69,
      "|": 70,
      "}": 71,
      "~": 72,
      "": 73,
      "": 74,
      "": 75,
      "": 76,
      "": 77,
      "": 78,
      "": 79,
      "": 80,
      "": 81,
      "": 82,
      "": 83,
      "": 84,
      "": 85,
      "": 86,
      "": 87,
      "": 88,
      "": 89,
      "": 90,
      "": 91,
      "": 92,
      "": 93,
      "": 94,
      "": 95,
      "": 96,
      "": 97,
      "": 98,
      "¡": 99,
      "¢": 100,
      "£": 101,
      "¤": 102,
      "¥": 103,
      "¦": 104,
      "§": 105,
      "¨": 106,
      "©": 107,
      "«": 108,
      "¬": 109,
      "­": 110,
      "®": 111,
      "°": 112,
      "±": 113,
      "´": 114,
      "¶": 115,
      "·": 116,
      "»": 117,
      "¿": 118,
      "×": 119,
      "ß": 120,
      "æ": 121,
      "ð": 122,
      "÷": 123,
      "ø": 124,
      "þ": 125,
      "đ": 126,
      "ħ": 127,
      "ı": 128,
      "ł": 129,
      "ŋ": 130,
      "œ": 131,
      "ƅ": 132,
      "ǁ": 133,
      "ȝ": 134,
      "ɐ": 135,
      "ɑ": 136,
      "ɒ": 137,
      "ɔ": 138,
      "ɕ": 139,
      "ɖ": 140,
      "ɗ": 141,
      "ə": 142,
      "ɛ": 143,
      "ɜ": 144,
      "ɡ": 145,
      "ɣ": 146,
      "ɦ": 147,
      "ɨ": 148,
      "ɪ": 149,
      "ɫ": 150,
      "ɮ": 151,
      "ɯ": 152,
      "ɲ": 153,
      "ɳ": 154,
      "ɶ": 155,
      "ɸ": 156,
      "ɹ": 157,
      "ɺ": 158,
      "ɾ": 159,
      "ʁ": 160,
      "ʃ": 161,
      "ʊ": 162,
      "ʋ": 163,
      "ʌ": 164,
      "ʎ": 165,
      "ʏ": 166,
      "ʒ": 167,
      "ʔ": 168,
      "ʕ": 169,
      "ʘ": 170,
      "ʙ": 171,
      "ʝ": 172,
      "ʹ": 173,
      "ʻ": 174,
      "ʼ": 175,
      "ʽ": 176,
      "ʾ": 177,
      "ʿ": 178,
      "ˀ": 179,
      "ˆ": 180,
      "ˈ": 181,
      "ˌ": 182,
      "ː": 183,
      "˥": 184,
      "˨": 185,
      "˩": 186,
      "θ": 187,
      "π": 188,
      "σ": 189,
      "а": 190,
      "г": 191,
      "и": 192,
      "א": 193,
      "״": 194,
      "،": 195,
      "؟": 196,
      "ـ": 197,
      "١": 198,
      "٢": 199,
      "٤": 200,
      "٥": 201,
      "٦": 202,
      "٧": 203,
      "٨": 204,
      "٩": 205,
      "।": 206,
      "॥": 207,
      "०": 208,
      "१": 209,
      "२": 210,
      "३": 211,
      "४": 212,
      "५": 213,
      "६": 214,
      "७": 215,
      "८": 216,
      "९": 217,
      "་": 218,
      "།": 219,
      "᚛": 220,
      "᚜": 221,
      "០": 222,
      "១": 223,
      "២": 224,
      "៣": 225,
      "៤": 226,
      "៥": 227,
      "៦": 228,
      "៧": 229,
      "៨": 230,
      "៩": 231,
      "​": 232,
      "‌": 233,
      "‍": 234,
      "‎": 235,
      "‏": 236,
      "‐": 237,
      "–": 238,
      "—": 239,
      "―": 240,
      "‘": 241,
      "’": 242,
      "‚": 243,
      "“": 244,
      "”": 245,
      "„": 246,
      "†": 247,
      "‡": 248,
      "•": 249,
      "‬": 250,
      "‭": 251,
      "‰": 252,
      "′": 253,
      "※": 254,
      "‿": 255,
      "⁂": 256,
      "⁄": 257,
      "⁎": 258,
      "⁠": 259,
      "⁣": 260,
      "₤": 261,
      "₩": 262,
      "€": 263,
      "₵": 264,
      "₹": 265,
      "₿": 266,
      "←": 267,
      "↑": 268,
      "→": 269,
      "↗": 270,
      "↫": 271,
      "∂": 272,
      "∅": 273,
      "∆": 274,
      "∇": 275,
      "∈": 276,
      "−": 277,
      "∗": 278,
      "∙": 279,
      "√": 280,
      "∝": 281,
      "∞": 282,
      "∴": 283,
      "≈": 284,
      "≒": 285,
      "≡": 286,
      "≤": 287,
      "≥": 288,
      "⊙": 289,
      "⋅": 290,
      "⌈": 291,
      "⌉": 292,
      "⌊": 293,
      "⌋": 294,
      "─": 295,
      "▔": 296,
      "►": 297,
      "◉": 298,
      "◊": 299,
      "○": 300,
      "●": 301,
      "★": 302,
      "☆": 303,
      "☉": 304,
      "☣": 305,
      "☯": 306,
      "☺": 307,
      "♑": 308,
      "♠": 309,
      "♣": 310,
      "♥": 311,
      "♦": 312,
      "♪": 313,
      "♫": 314,
      "♭": 315,
      "♮": 316,
      "♯": 317,
      "✅": 318,
      "✚": 319,
      "❌": 320,
      "❦": 321,
      "⟨": 322,
      "⟩": 323,
      "⬄": 324,
      "⬱": 325,
      "ⱡ": 326,
      "、": 327,
      "。": 328,
      "〉": 329,
      "《": 330,
      "》": 331,
      "『": 332,
      "』": 333,
      "・": 334,
      "ー": 335,
      "꞉": 336,
      "ꞌ": 337,
      "": 338,
      "￼": 339,
      "�": 340,
      "🆖": 341,
      "🏰": 342,
      "🏴": 343,
      "👽": 344,
      "😊": 345,
      "󠁢": 346,
      "󠁧": 347,
      "󠁬": 348,
      "󠁳": 349,
      "󠁷": 350,
      "󠁿": 351,
      "􏿾": 352,
      "##h": 353,
      "##a": 354,
      "##u": 355,
      "##k": 356,
      "##t": 357,
      "##n": 358,
      "##g": 359,
      "##r": 360,
      "##y": 361,
      "##e": 362,
      "##o": 363,
      "##d": 364,
      "##i": 365,
      "##s": 366,
      "##b": 367,
      "##v": 368,
      "##l": 369,
      "##j": 370,
      "##c": 371,
      "##m": 372,
      "##w": 373,
      "##p": 374,
      "##.": 375,
      "##=": 376,
      "##f": 377,
      "##2": 378,
      "##3": 379,
      "##9": 380,
      "##_": 381,
      "##x": 382,
      "##'": 383,
      "##8": 384,
      "##⁠": 385,
      "##6": 386,
      "##0": 387,
      "##1": 388,
      "##7": 389,
      "##z": 390,
      "##q": 391,
      "##”": 392,
      "##?": 393,
      "##)": 394,
      "##4": 395,
      "##5": 396,
      "##!": 397,
      "##ð": 398,
      "##ł": 399,
      "##]": 400,
      "##\"": 401,
      "##-": 402,
      "##,": 403,
      "##’": 404,
      "##�": 405,
      "##œ": 406,
      "##þ": 407,
      "##∙": 408,
      "##⟩": 409,
      "##ə": 410,
      "##;": 411,
      "##‎": 412,
      "##:": 413,
      "##ı": 414,
      "##—": 415,
      "##ß": 416,
      "##€": 417,
      "##æ": 418,
      "##ʼ": 419,
      "##đ": 420,
      "##[": 421,
      "##ø": 422,
      "##―": 423,
      "##⌉": 424,
      "##٧": 425,
      "##٢": 426,
      "##٥": 427,
      "##«": 428,
      "##(": 429,
      "###": 430,
      "##ʻ": 431,
      "##​": 432,
      "##ɛ": 433,
      "##{": 434,
      "##\\": 435,
      "##ɪ": 436,
      "##ɨ": 437,
      "##⌋": 438,
      "##®": 439,
      "##|": 440,
      "##­": 441,
      "##": 442,
      "##¡": 443,
      "##±": 444,
      "##*": 445,
      "##“": 446,
      "##‡": 447,
      "##ɔ": 448,
      "##ː": 449,
      "##ˈ": 450,
      "##ɾ": 451,
      "##¿": 452,
      "##/": 453,
      "##⌈": 454,
      "##→": 455,
      "##}": 456,
      "##♪": 457,
      "##": 458,
      "##·": 459,
      "##១": 460,
      "##២": 461,
      "##៣": 462,
      "##៤": 463,
      "##៥": 464,
      "##៦": 465,
      "##៧": 466,
      "##៨": 467,
      "##៩": 468,
      "##《": 469,
      "##》": 470,
      "##+": 471,
      "##†": 472,
      "##^": 473,
      "##२": 474,
      "##°": 475,
      "##$": 476,
      "##%": 477,
      "##・": 478,
      "##‘": 479,
      "##¶": 480,
      "##>": 481,
      "##&": 482,
      "##£": 483,
      "##@": 484,
      "##ʊ": 485,
      "##¤": 486,
      "##©": 487,
      "##": 488,
      "##": 489,
      "##–": 490,
      "##×": 491,
      "##￼": 492,
      "##∞": 493,
      "##": 494,
      "##": 495,
      "##٤": 496,
      "##٨": 497,
      "##١": 498,
      "##′": 499,
      "##ɐ": 500,
      "##ŋ": 501,
      "##¬": 502,
      "##": 503,
      "##ɒ": 504,
      "##、": 505,
      "##ʌ": 506,
      "##ɡ": 507,
      "##▔": 508,
      "##∈": 509,
      "##ɑ": 510,
      "##ˌ": 511,
      "##": 512,
      "##ʾ": 513,
      "##": 514,
      "##ʒ": 515,
      "##ɳ": 516,
      "##∆": 517,
      "##५": 518,
      "##ʁ": 519,
      "##√": 520,
      "##`": 521,
      "##⁎": 522,
      "##ʔ": 523,
      "##ɫ": 524,
      "##ʹ": 525,
      "##♫": 526,
      "##¨": 527,
      "##ʏ": 528,
      "##~": 529,
      "##ʃ": 530,
      "##": 531,
      "##": 532,
      "##−": 533,
      "##٦": 534,
      "##ʿ": 535,
      "##ˀ": 536,
      "##": 537,
      "##": 538,
      "##": 539,
      "##": 540,
      "##ɸ": 541,
      "##ɯ": 542,
      "##↗": 543,
      "##¢": 544,
      "##÷": 545,
      "##↑": 546,
      "##∇": 547,
      "##ɖ": 548,
      "##": 549,
      "##§": 550,
      "##": 551,
      "##ɲ": 552,
      "##": 553,
      "##": 554,
      "##•": 555,
      "##ɹ": 556,
      "##ˆ": 557,
      "##☺": 558,
      "##״": 559,
      "##་": 560,
      "##།": 561,
      "##🏴": 562,
      "##󠁧": 563,
      "##󠁢": 564,
      "##󠁷": 565,
      "##󠁬": 566,
      "##󠁳": 567,
      "##󠁿": 568,
      "##´": 569,
      "##ʘ": 570,
      "##¦": 571,
      "##◊": 572,
      "##ʋ": 573,
      "##٩": 574,
      "##ȝ": 575,
      "##ɣ": 576,
      "##∂": 577,
      "##₿": 578,
      "##»": 579,
      "##⌊": 580,
      "##♭": 581,
      "##‬": 582,
      "##ɮ": 583,
      "##‿": 584,
      "##ʕ": 585,
      "##ʽ": 586,
      "##": 587,
      "##☆": 588,
      "##≤": 589,
      "##≥": 590,
      "##☯": 591,
      "##३": 592,
      "##¥": 593,
      "##✚": 594,
      "##ɕ": 595,
      "##ɺ": 596,
      "##०": 597,
      "##˩": 598,
      "##": 599,
      "##१": 600,
      "##ʎ": 601,
      "##ⱡ": 602,
      "##ɜ": 603,
      "##₤": 604,
      "##ꞌ": 605,
      "##‚": 606,
      "##": 607,
      "##४": 608,
      "##": 609,
      "##⬱": 610,
      "##ɗ": 611,
      "##ʝ": 612,
      "th": 613,
      "the": 614,
      "##re": 615,
      "##in": 616,
      "##nd": 617,
      "##er": 618,
      "##ou": 619,
      "##ing": 620,
      "in": 621,
      "##an": 622,
      "##at": 623,
      "and": 624,
      "##on": 625,
      "##es": 626,
      "##ot": 627,
      "##it": 628,
      "##or": 629,
      "##is": 630,
      "of": 631,
      "##ar": 632,
      "on": 633,
      "##en": 634,
      "##ll": 635,
      "##ed": 636,
      "is": 637,
      "to": 638,
      "##om": 639,
      "##le": 640,
      "##hi": 641,
      "##ac": 642,
      "se": 643,
      "we": 644,
      "##as": 645,
      "you": 646,
      "there": 647,
      "##ow": 648,
      "mot": 649,
      "##ic": 650,
      "can": 651,
      "see": 652,
      "wh": 653,
      "##ge": 654,
      "chi": 655,
      "it": 656,
      "##id": 657,
      "st": 658,
      "this": 659,
      "##al": 660,
      "he": 661,
      "##ay": 662,
      "##et": 663,
      "##ld": 664,
      "##gh": 665,
      "are": 666,
      "##ack": 667,
      "##age": 668,
      "##rou": 669,
      "be": 670,
      "##ut": 671,
      "##ith": 672,
      "##ad": 673,
      "##ers": 674,
      "##st": 675,
      "with": 676,
      "##oo": 677,
      "im": 678,
      "that": 679,
      "##ve": 680,
      "##ir": 681,
      "##ch": 682,
      "##ght": 683,
      "at": 684,
      "image": 685,
      "sh": 686,
      "##all": 687,
      "##round": 688,
      "back": 689,
      "##ion": 690,
      "##and": 691,
      "##se": 692,
      "##ur": 693,
      "##am": 694,
      "##ight": 695,
      "##ent": 696,
      "##ol": 697,
      "re": 698,
      "for": 699,
      "an": 700,
      "##ome": 701,
      "##ct": 702,
      "##op": 703,
      "##ground": 704,
      "fr": 705,
      "do": 706,
      "pl": 707,
      "##ke": 708,
      "background": 709,
      "##im": 710,
      "##ure": 711,
      "was": 712,
      "##il": 713,
      "##ain": 714,
      "ha": 715,
      "pers": 716,
      "person": 717,
      "##ver": 718,
      "##ide": 719,
      "##ab": 720,
      "##th": 721,
      "##ly": 722,
      "ch": 723,
      "##ter": 724,
      "##ew": 725,
      "some": 726,
      "##ap": 727,
      "##ard": 728,
      "as": 729,
      "what": 730,
      "##ant": 731,
      "bl": 732,
      "li": 733,
      "##ook": 734,
      "##un": 735,
      "##ea": 736,
      "##um": 737,
      "go": 738,
      "##ture": 739,
      "me": 740,
      "pic": 741,
      "##ce": 742,
      "ro": 743,
      "bu": 744,
      "##ill": 745,
      "tre": 746,
      "bo": 747,
      "##lding": 748,
      "##ite": 749,
      "man": 750,
      "##ust": 751,
      "##ore": 752,
      "##ind": 753,
      "no": 754,
      "##itt": 755,
      "tr": 756,
      "picture": 757,
      "cl": 758,
      "pe": 759,
      "##ro": 760,
      "fl": 761,
      "##ect": 762,
      "his": 763,
      "so": 764,
      "al": 765,
      "she": 766,
      "##ass": 767,
      "##ood": 768,
      "##ation": 769,
      "col": 770,
      "they": 771,
      "##ie": 772,
      "not": 773,
      "one": 774,
      "##ig": 775,
      "sk": 776,
      "##ck": 777,
      "##ist": 778,
      "te": 779,
      "le": 780,
      "peop": 781,
      "her": 782,
      "people": 783,
      "sp": 784,
      "right": 785,
      "have": 786,
      "up": 787,
      "##ere": 788,
      "whi": 789,
      "##ul": 790,
      "look": 791,
      "de": 792,
      "##ould": 793,
      "gr": 794,
      "##now": 795,
      "##us": 796,
      "white": 797,
      "but": 798,
      "from": 799,
      "out": 800,
      "con": 801,
      "##ft": 802,
      "stand": 803,
      "##art": 804,
      "##nt": 805,
      "trees": 806,
      "br": 807,
      "by": 808,
      "##able": 809,
      "ne": 810,
      "color": 811,
      "here": 812,
      "##res": 813,
      "all": 814,
      "sky": 815,
      "##les": 816,
      "your": 817,
      "ho": 818,
      "or": 819,
      "##est": 820,
      "like": 821,
      "side": 822,
      "##her": 823,
      "wall": 824,
      "my": 825,
      "##ag": 826,
      "don": 827,
      "##ake": 828,
      "which": 829,
      "ab": 830,
      "co": 831,
      "##ott": 832,
      "##pp": 833,
      "##ue": 834,
      "po": 835,
      "standing": 836,
      "##king": 837,
      "##ate": 838,
      "##..": 839,
      "play": 840,
      "mo": 841,
      "tw": 842,
      "wat": 843,
      "##el": 844,
      "##ri": 845,
      "bui": 846,
      "few": 847,
      "know": 848,
      "...": 849,
      "car": 850,
      "ar": 851,
      "sa": 852,
      "com": 853,
      "oh": 854,
      "building": 855,
      "table": 856,
      "##our": 857,
      "inv": 858,
      "ex": 859,
      "them": 860,
      "yea": 861,
      "##ry": 862,
      "##ame": 863,
      "yeah": 864,
      "wor": 865,
      "##au": 866,
      "##own": 867,
      "##ink": 868,
      "##ast": 869,
      "had": 870,
      "##one": 871,
      "##if": 872,
      "##out": 873,
      "lo": 874,
      "##ach": 875,
      "##ther": 876,
      "ve": 877,
      "him": 878,
      "##ess": 879,
      "wom": 880,
      "##ace": 881,
      "ob": 882,
      "who": 883,
      "two": 884,
      "##ort": 885,
      "get": 886,
      "hand": 887,
      "bott": 888,
      "##ong": 889,
      "##air": 890,
      "##ine": 891,
      "su": 892,
      "##ity": 893,
      "left": 894,
      "top": 895,
      "gre": 896,
      "##ject": 897,
      "##itting": 898,
      "over": 899,
      "water": 900,
      "##red": 901,
      "gl": 902,
      "holding": 903,
      "##ak": 904,
      "black": 905,
      "did": 906,
      "##ra": 907,
      "fat": 908,
      "sitting": 909,
      "##ive": 910,
      "##ep": 911,
      "##ish": 912,
      "##ont": 913,
      "##ark": 914,
      "were": 915,
      "sm": 916,
      "just": 917,
      "##ies": 918,
      "##em": 919,
      "##aring": 920,
      "if": 921,
      "woman": 922,
      "light": 923,
      "object": 924,
      "int": 925,
      "sc": 926,
      "now": 927,
      "well": 928,
      "other": 929,
      "##ous": 930,
      "##ated": 931,
      "##ving": 932,
      "##ick": 933,
      "##ice": 934,
      "##so": 935,
      "ag": 936,
      "##ber": 937,
      "##ally": 938,
      "about": 939,
      "front": 940,
      "##ount": 941,
      "when": 942,
      "road": 943,
      "tim": 944,
      "wearing": 945,
      "then": 946,
      "##ves": 947,
      "fo": 948,
      "off": 949,
      "also": 950,
      "their": 951,
      "us": 952,
      "##way": 953,
      "af": 954,
      "want": 955,
      "where": 956,
      "pro": 957,
      "am": 958,
      "how": 959,
      "plant": 960,
      "will": 961,
      "bottom": 962,
      "##ress": 963,
      "wind": 964,
      "would": 965,
      "pr": 966,
      "##ical": 967,
      "grass": 968,
      "##orn": 969,
      "en": 970,
      "##ven": 971,
      "ll": 972,
      "##na": 973,
      "##xt": 974,
      "ph": 975,
      "##uring": 976,
      "think": 977,
      "##hing": 978,
      "gir": 979,
      "got": 980,
      "yes": 981,
      "##oor": 982,
      "litt": 983,
      "ye": 984,
      "##ery": 985,
      "little": 986,
      "has": 987,
      "vi": 988,
      "##ign": 989,
      "fe": 990,
      "down": 991,
      "any": 992,
      "##ouse": 993,
      "##ds": 994,
      "##tain": 995,
      "##ound": 996,
      "un": 997,
      "chair": 998,
      "##ings": 999,
      "day": 1000,
      "said": 1001,
      "time": 1002,
      "beh": 1003,
      "good": 1004,
      "girl": 1005,
      "##ose": 1006,
      "ad": 1007,
      "##dy": 1008,
      "glass": 1009,
      "##ment": 1010,
      "##side": 1011,
      "blue": 1012,
      "during": 1013,
      "wal": 1014,
      "##os": 1015,
      "behind": 1016,
      "flow": 1017,
      "put": 1018,
      "pol": 1019,
      "##ath": 1020,
      "cent": 1021,
      "##are": 1022,
      "##ff": 1023,
      "say": 1024,
      "##ang": 1025,
      "red": 1026,
      "ill": 1027,
      "let": 1028,
      "act": 1029,
      "##ars": 1030,
      "].": 1031,
      "come": 1032,
      "after": 1033,
      "more": 1034,
      "##act": 1035,
      "##ustr": 1036,
      "again": 1037,
      "xx": 1038,
      "ok": 1039,
      "board": 1040,
      "ground": 1041,
      "many": 1042,
      "may": 1043,
      "##ree": 1044,
      "##ire": 1045,
      "##ian": 1046,
      "##ows": 1047,
      "##ting": 1048,
      "these": 1049,
      "xxx": 1050,
      "into": 1051,
      "gu": 1052,
      "##ail": 1053,
      "att": 1054,
      "##og": 1055,
      "##ple": 1056,
      "##oth": 1057,
      "sun": 1058,
      "##ble": 1059,
      "art": 1060,
      "view": 1061,
      "##ade": 1062,
      "qu": 1063,
      "wood": 1064,
      "ever": 1065,
      "buildings": 1066,
      "been": 1067,
      "cr": 1068,
      "going": 1069,
      "than": 1070,
      "house": 1071,
      "dr": 1072,
      "19": 1073,
      "illustr": 1074,
      "plants": 1075,
      "pre": 1076,
      "##other": 1077,
      "##omet": 1078,
      "could": 1079,
      "##ud": 1080,
      "objects": 1081,
      "##ase": 1082,
      "very": 1083,
      "new": 1084,
      "okay": 1085,
      "part": 1086,
      "shi": 1087,
      "tree": 1088,
      "des": 1089,
      "playing": 1090,
      "##ause": 1091,
      "##bo": 1092,
      "##ip": 1093,
      "##iv": 1094,
      ".\"": 1095,
      "lea": 1096,
      "illustration": 1097,
      "##nder": 1098,
      "##hic": 1099,
      "green": 1100,
      "bec": 1101,
      "tow": 1102,
      "boy": 1103,
      "##idd": 1104,
      "fir": 1105,
      "too": 1106,
      "old": 1107,
      "##ks": 1108,
      "##qu": 1109,
      "##urn": 1110,
      "##ial": 1111,
      "sur": 1112,
      "exp": 1113,
      "##ng": 1114,
      "20": 1115,
      "per": 1116,
      "floor": 1117,
      "mus": 1118,
      "##up": 1119,
      "##str": 1120,
      "room": 1121,
      "somet": 1122,
      "##orm": 1123,
      "book": 1124,
      "child": 1125,
      "city": 1126,
      "##ans": 1127,
      "first": 1128,
      "##ary": 1129,
      "wr": 1130,
      "##ence": 1131,
      "make": 1132,
      "phot": 1133,
      "young": 1134,
      "##ty": 1135,
      "##iddle": 1136,
      "fore": 1137,
      "##ance": 1138,
      "middle": 1139,
      "er": 1140,
      "bus": 1141,
      "##rough": 1142,
      "foot": 1143,
      "text": 1144,
      "persons": 1145,
      "through": 1146,
      "way": 1147,
      "##roup": 1148,
      "##ball": 1149,
      "sw": 1150,
      "##ss": 1151,
      "center": 1152,
      "group": 1153,
      "door": 1154,
      "home": 1155,
      "clou": 1156,
      "##int": 1157,
      "night": 1158,
      "##ool": 1159,
      "vehic": 1160,
      "dis": 1161,
      "dress": 1162,
      "##cc": 1163,
      "bet": 1164,
      "stre": 1165,
      "dog": 1166,
      "##llow": 1167,
      "##ough": 1168,
      "hel": 1169,
      "another": 1170,
      "##iss": 1171,
      "##ock": 1172,
      "op": 1173,
      "##uck": 1174,
      "##iz": 1175,
      "##ull": 1176,
      "take": 1177,
      "##te": 1178,
      "happ": 1179,
      "##umm": 1180,
      "hi": 1181,
      "##ub": 1182,
      "lights": 1183,
      "why": 1184,
      "does": 1185,
      "##day": 1186,
      "wooden": 1187,
      "big": 1188,
      "show": 1189,
      "wa": 1190,
      "head": 1191,
      "our": 1192,
      "looks": 1193,
      "something": 1194,
      "uh": 1195,
      "every": 1196,
      "##ise": 1197,
      "##fore": 1198,
      "three": 1199,
      "##ful": 1200,
      "made": 1201,
      "sl": 1202,
      "food": 1203,
      "##ady": 1204,
      "##iling": 1205,
      "jo": 1206,
      "##amp": 1207,
      "##tern": 1208,
      "comp": 1209,
      "mar": 1210,
      "mu": 1211,
      "cat": 1212,
      "ma": 1213,
      "looking": 1214,
      ",\"": 1215,
      "mat": 1216,
      "pres": 1217,
      "##ile": 1218,
      "##iff": 1219,
      "--": 1220,
      "ball": 1221,
      "##aut": 1222,
      "##ector": 1223,
      "##ia": 1224,
      "call": 1225,
      "bab": 1226,
      "##sel": 1227,
      "ind": 1228,
      "##ards": 1229,
      "##ved": 1230,
      "##oon": 1231,
      "pat": 1232,
      "vector": 1233,
      "pap": 1234,
      "because": 1235,
      "hands": 1236,
      "before": 1237,
      "count": 1238,
      "##ens": 1239,
      "ele": 1240,
      "bir": 1241,
      "app": 1242,
      "cou": 1243,
      "spe": 1244,
      "long": 1245,
      "run": 1246,
      "tal": 1247,
      "bes": 1248,
      "##ating": 1249,
      "##pl": 1250,
      "need": 1251,
      "tak": 1252,
      "box": 1253,
      "##ountain": 1254,
      "tell": 1255,
      "gon": 1256,
      "around": 1257,
      "##ied": 1258,
      "flowers": 1259,
      "hu": 1260,
      "only": 1261,
      "ke": 1262,
      "##ning": 1263,
      "##ates": 1264,
      "pain": 1265,
      "beaut": 1266,
      "snow": 1267,
      "##av": 1268,
      "work": 1269,
      "air": 1270,
      "em": 1271,
      "ce": 1272,
      "gonna": 1273,
      "walking": 1274,
      "##ory": 1275,
      "##pt": 1276,
      "lau": 1277,
      "##wn": 1278,
      "should": 1279,
      "##ions": 1280,
      "plac": 1281,
      "rock": 1282,
      "under": 1283,
      "##co": 1284,
      "hor": 1285,
      "near": 1286,
      "sign": 1287,
      "##ily": 1288,
      "##fe": 1289,
      "cap": 1290,
      "##iend": 1291,
      "street": 1292,
      "rem": 1293,
      "##br": 1294,
      "##rt": 1295,
      "bed": 1296,
      "str": 1297,
      "even": 1298,
      "contain": 1299,
      "small": 1300,
      "love": 1301,
      "##form": 1302,
      "beside": 1303,
      "shirt": 1304,
      "##ord": 1305,
      "set": 1306,
      "##ange": 1307,
      "##ren": 1308,
      "mountain": 1309,
      "res": 1310,
      "window": 1311,
      "anim": 1312,
      "cre": 1313,
      "things": 1314,
      "##ious": 1315,
      "##ph": 1316,
      "poles": 1317,
      "##ave": 1318,
      "beach": 1319,
      "really": 1320,
      "surf": 1321,
      "chairs": 1322,
      "laugh": 1323,
      "##ents": 1324,
      "um": 1325,
      "artist": 1326,
      "team": 1327,
      "boat": 1328,
      "cup": 1329,
      "football": 1330,
      "##ying": 1331,
      "stage": 1332,
      "baby": 1333,
      "clouds": 1334,
      "actor": 1335,
      "diff": 1336,
      "num": 1337,
      "photo": 1338,
      "men": 1339,
      ".=": 1340,
      "friend": 1341,
      "##ered": 1342,
      "##cl": 1343,
      "mom": 1344,
      "against": 1345,
      "its": 1346,
      "beautif": 1347,
      "ser": 1348,
      "##als": 1349,
      "much": 1350,
      "ri": 1351,
      "kn": 1352,
      "fam": 1353,
      "mon": 1354,
      "##ner": 1355,
      "dad": 1356,
      "mr": 1357,
      "##be": 1358,
      "beautiful": 1359,
      "bre": 1360,
      "met": 1361,
      "##ition": 1362,
      "flag": 1363,
      "##ms": 1364,
      "##ys": 1365,
      "cur": 1366,
      "##ny": 1367,
      "ban": 1368,
      "##land": 1369,
      "turn": 1370,
      "add": 1371,
      "cont": 1372,
      "##man": 1373,
      "ear": 1374,
      "player": 1375,
      "comm": 1376,
      "world": 1377,
      "##ought": 1378,
      "chr": 1379,
      "open": 1380,
      "away": 1381,
      "cloth": 1382,
      "park": 1383,
      "##uct": 1384,
      "musical": 1385,
      "post": 1386,
      "instr": 1387,
      "train": 1388,
      "didn": 1389,
      "cut": 1390,
      "high": 1391,
      "great": 1392,
      "##ric": 1393,
      "while": 1394,
      "find": 1395,
      "##gg": 1396,
      "gi": 1397,
      "char": 1398,
      "##ons": 1399,
      "sch": 1400,
      "bas": 1401,
      "min": 1402,
      "inside": 1403,
      "par": 1404,
      "win": 1405,
      "close": 1406,
      "bel": 1407,
      "##cle": 1408,
      "placed": 1409,
      "##its": 1410,
      "##iness": 1411,
      "##thing": 1412,
      "mother": 1413,
      "vis": 1414,
      "those": 1415,
      "sil": 1416,
      "##itch": 1417,
      "che": 1418,
      "mic": 1419,
      "mod": 1420,
      "bag": 1421,
      "watch": 1422,
      "isol": 1423,
      "##self": 1424,
      "doing": 1425,
      "yellow": 1426,
      "present": 1427,
      "instrum": 1428,
      "port": 1429,
      "el": 1430,
      "##per": 1431,
      "never": 1432,
      "##anc": 1433,
      "taken": 1434,
      "isolated": 1435,
      "help": 1436,
      "most": 1437,
      "differe": 1438,
      "design": 1439,
      "start": 1440,
      "cle": 1441,
      "##less": 1442,
      "far": 1443,
      "dark": 1444,
      "along": 1445,
      "ey": 1446,
      "dra": 1447,
      "##ix": 1448,
      "christ": 1449,
      "vehicles": 1450,
      "lot": 1451,
      "smiling": 1452,
      "fin": 1453,
      "last": 1454,
      "sing": 1455,
      "mean": 1456,
      "bro": 1457,
      "##anna": 1458,
      "##ked": 1459,
      "windows": 1460,
      "leaves": 1461,
      "##ible": 1462,
      "fil": 1463,
      "##ield": 1464,
      "dec": 1465,
      "game": 1466,
      "still": 1467,
      "outside": 1468,
      "fire": 1469,
      "##we": 1470,
      "lar": 1471,
      "ple": 1472,
      "ah": 1473,
      "##--": 1474,
      "business": 1475,
      "land": 1476,
      "went": 1477,
      "sty": 1478,
      "foreground": 1479,
      "surface": 1480,
      "plate": 1481,
      "ben": 1482,
      "##ope": 1483,
      "pole": 1484,
      "##rap": 1485,
      "thing": 1486,
      "##ling": 1487,
      "give": 1488,
      "##end": 1489,
      "ev": 1490,
      "##ape": 1491,
      "##ert": 1492,
      "sea": 1493,
      "##ump": 1494,
      "four": 1495,
      "dri": 1496,
      "##ross": 1497,
      "rec": 1498,
      "##az": 1499,
      "bi": 1500,
      "corn": 1501,
      "fun": 1502,
      "might": 1503,
      "place": 1504,
      "wanna": 1505,
      "ac": 1506,
      "different": 1507,
      "sho": 1508,
      "rep": 1509,
      "##akes": 1510,
      "##idge": 1511,
      "cam": 1512,
      "##room": 1513,
      "number": 1514,
      "found": 1515,
      "having": 1516,
      "##ets": 1517,
      "bow": 1518,
      "flower": 1519,
      "cons": 1520,
      "thought": 1521,
      "must": 1522,
      "##board": 1523,
      "paper": 1524,
      "name": 1525,
      "aut": 1526,
      "##ables": 1527,
      "##ult": 1528,
      "blur": 1529,
      "face": 1530,
      "##ins": 1531,
      "brown": 1532,
      "river": 1533,
      "##ne": 1534,
      "end": 1535,
      "spec": 1536,
      "##row": 1537,
      "##enc": 1538,
      "next": 1539,
      "bar": 1540,
      "wee": 1541,
      "school": 1542,
      "sy": 1543,
      "form": 1544,
      "aw": 1545,
      "came": 1546,
      "being": 1547,
      "##itten": 1548,
      "la": 1549,
      "?\"": 1550,
      "morn": 1551,
      "women": 1552,
      "film": 1553,
      "ref": 1554,
      "ste": 1555,
      "fall": 1556,
      "eng": 1557,
      "##ited": 1558,
      "seen": 1559,
      "life": 1560,
      "field": 1561,
      "instrument": 1562,
      "scre": 1563,
      "jack": 1564,
      "##ane": 1565,
      "cour": 1566,
      "morning": 1567,
      "family": 1568,
      "##led": 1569,
      "war": 1570,
      "pop": 1571,
      "read": 1572,
      "own": 1573,
      "ed": 1574,
      "##gan": 1575,
      "id": 1576,
      "##sp": 1577,
      "cars": 1578,
      "year": 1579,
      "fence": 1580,
      "##ale": 1581,
      "miss": 1582,
      "##sc": 1583,
      "lap": 1584,
      "keep": 1585,
      "pass": 1586,
      "##ove": 1587,
      "hair": 1588,
      "##ches": 1589,
      "country": 1590,
      "##ors": 1591,
      "happy": 1592,
      "rest": 1593,
      "done": 1594,
      "##ps": 1595,
      "heart": 1596,
      "bit": 1597,
      "##era": 1598,
      "##ists": 1599,
      "children": 1600,
      "wait": 1601,
      "##ached": 1602,
      "##outh": 1603,
      "##ations": 1604,
      "won": 1605,
      "bottle": 1606,
      "##ee": 1607,
      "##olog": 1608,
      "ret": 1609,
      "rel": 1610,
      "called": 1611,
      "boards": 1612,
      "201": 1613,
      "used": 1614,
      "pattern": 1615,
      "couple": 1616,
      "##ames": 1617,
      "coll": 1618,
      "sure": 1619,
      "stop": 1620,
      "sand": 1621,
      "##ather": 1622,
      "style": 1623,
      "sle": 1624,
      "guit": 1625,
      "fish": 1626,
      "wi": 1627,
      "eat": 1628,
      "##my": 1629,
      "rail": 1630,
      "##ones": 1631,
      "##ank": 1632,
      "kind": 1633,
      "gold": 1634,
      "summ": 1635,
      "##oney": 1636,
      "##ines": 1637,
      "##ually": 1638,
      "##oc": 1639,
      "care": 1640,
      "horse": 1641,
      "##oof": 1642,
      "##lic": 1643,
      "##ush": 1644,
      "corner": 1645,
      "##eric": 1646,
      "pill": 1647,
      "isn": 1648,
      "mil": 1649,
      "gard": 1650,
      "##ted": 1651,
      ".]": 1652,
      "written": 1653,
      "##set": 1654,
      "kid": 1655,
      "##aff": 1656,
      "nice": 1657,
      "better": 1658,
      "acc": 1659,
      "both": 1660,
      "##ature": 1661,
      "item": 1662,
      "wed": 1663,
      "##uc": 1664,
      "sis": 1665,
      "##iding": 1666,
      "glasses": 1667,
      "guitar": 1668,
      "##ern": 1669,
      "bridge": 1670,
      "##ier": 1671,
      "feel": 1672,
      "nor": 1673,
      "vehicle": 1674,
      "imp": 1675,
      "mm": 1676,
      "##mas": 1677,
      "americ": 1678,
      "##ma": 1679,
      "gen": 1680,
      "##od": 1681,
      "huh": 1682,
      "##ational": 1683,
      "portra": 1684,
      "mark": 1685,
      "##ash": 1686,
      "supp": 1687,
      "##ater": 1688,
      "ta": 1689,
      "##ug": 1690,
      "##ways": 1691,
      "##vered": 1692,
      "tour": 1693,
      "##ummy": 1694,
      "dist": 1695,
      "thank": 1696,
      "hill": 1697,
      "##ored": 1698,
      "father": 1699,
      "each": 1700,
      "##ding": 1701,
      "##ah": 1702,
      "camera": 1703,
      "perform": 1704,
      "round": 1705,
      "##ograp": 1706,
      "cele": 1707,
      "same": 1708,
      "loc": 1709,
      "celebr": 1710,
      "##gether": 1711,
      "use": 1712,
      "years": 1713,
      "hang": 1714,
      "pie": 1715,
      "large": 1716,
      "bowl": 1717,
      "##cond": 1718,
      "hard": 1719,
      "sit": 1720,
      "fly": 1721,
      "tea": 1722,
      "christmas": 1723,
      "hold": 1724,
      "portrait": 1725,
      "please": 1726,
      "town": 1727,
      "pink": 1728,
      "second": 1729,
      "point": 1730,
      ".”": 1731,
      "##ser": 1732,
      "hey": 1733,
      "hal": 1734,
      "laughs": 1735,
      "stick": 1736,
      "hat": 1737,
      "such": 1738,
      "##rop": 1739,
      "draw": 1740,
      "##aught": 1741,
      "shot": 1742,
      "full": 1743,
      "garden": 1744,
      "elect": 1745,
      "##ened": 1746,
      "##body": 1747,
      "hot": 1748,
      "books": 1749,
      "##orts": 1750,
      "shall": 1751,
      "ty": 1752,
      "##ember": 1753,
      "##mb": 1754,
      "together": 1755,
      "spea": 1756,
      "##ci": 1757,
      "reg": 1758,
      "list": 1759,
      "##ween": 1760,
      "##hm": 1761,
      "best": 1762,
      "between": 1763,
      "##ual": 1764,
      "mountains": 1765,
      "##ped": 1766,
      "erm": 1767,
      "##00": 1768,
      "forest": 1769,
      "shop": 1770,
      "din": 1771,
      "dep": 1772,
      "##ital": 1773,
      "##ost": 1774,
      "##get": 1775,
      "fas": 1776,
      "##lect": 1777,
      "metal": 1778,
      "always": 1779,
      "##ried": 1780,
      "hol": 1781,
      "sunset": 1782,
      "real": 1783,
      "eyes": 1784,
      "roof": 1785,
      "class": 1786,
      "##ots": 1787,
      "pur": 1788,
      "##ince": 1789,
      "##con": 1790,
      "##ative": 1791,
      "stat": 1792,
      "area": 1793,
      "##iday": 1794,
      "stud": 1795,
      "summer": 1796,
      "##ired": 1797,
      "line": 1798,
      "##top": 1799,
      "talking": 1800,
      "##ses": 1801,
      "##vel": 1802,
      "ap": 1803,
      "anything": 1804,
      "##ular": 1805,
      "##ason": 1806,
      "towards": 1807,
      "##ute": 1808,
      ",”": 1809,
      "painting": 1810,
      "tom": 1811,
      "party": 1812,
      "hous": 1813,
      "mummy": 1814,
      "cart": 1815,
      "har": 1816,
      "colour": 1817,
      "wedding": 1818,
      "##ues": 1819,
      "##ium": 1820,
      "##ept": 1821,
      "##ww": 1822,
      "ter": 1823,
      "mhm": 1824,
      "attached": 1825,
      "conc": 1826,
      "lady": 1827,
      "music": 1828,
      "nothing": 1829,
      "doesn": 1830,
      "bird": 1831,
      "med": 1832,
      "##ts": 1833,
      "walk": 1834,
      "##med": 1835,
      "##bb": 1836,
      "##hion": 1837,
      "sleep": 1838,
      "pret": 1839,
      "curtain": 1840,
      "coming": 1841,
      "bask": 1842,
      "above": 1843,
      "half": 1844,
      "map": 1845,
      "saw": 1846,
      "animal": 1847,
      "else": 1848,
      "##att": 1849,
      "swe": 1850,
      "took": 1851,
      "rain": 1852,
      "##ower": 1853,
      "ge": 1854,
      "goes": 1855,
      "clothes": 1856,
      "obser": 1857,
      "##ished": 1858,
      "five": 1859,
      "winter": 1860,
      "covered": 1861,
      "american": 1862,
      "##ract": 1863,
      "running": 1864,
      "money": 1865,
      "inter": 1866,
      "leg": 1867,
      "ent": 1868,
      "match": 1869,
      "##ident": 1870,
      "bottles": 1871,
      "!\"": 1872,
      "##ides": 1873,
      "today": 1874,
      "##der": 1875,
      "eas": 1876,
      "houses": 1877,
      "screen": 1878,
      "making": 1879,
      "lead": 1880,
      "##ages": 1881,
      "unt": 1882,
      "ten": 1883,
      "squ": 1884,
      "##ger": 1885,
      "kept": 1886,
      "path": 1887,
      "laptop": 1888,
      "sn": 1889,
      "typ": 1890,
      "##ton": 1891,
      "kitch": 1892,
      "decor": 1893,
      "##ring": 1894,
      "##erial": 1895,
      "ready": 1896,
      "##irect": 1897,
      "pretty": 1898,
      "fashion": 1899,
      "makes": 1900,
      "##icy": 1901,
      "sim": 1902,
      "sor": 1903,
      "wo": 1904,
      "says": 1905,
      "cir": 1906,
      "direct": 1907,
      "##io": 1908,
      "kitchen": 1909,
      "##ict": 1910,
      "born": 1911,
      "##ness": 1912,
      "##cept": 1913,
      "told": 1914,
      "friends": 1915,
      "frame": 1916,
      "sec": 1917,
      "##airs": 1918,
      "talk": 1919,
      "log": 1920,
      "model": 1921,
      "getting": 1922,
      "phone": 1923,
      "polit": 1924,
      "orange": 1925,
      "200": 1926,
      "once": 1927,
      "grand": 1928,
      "##ife": 1929,
      "card": 1930,
      "try": 1931,
      "##ron": 1932,
      "poster": 1933,
      "##ival": 1934,
      "daddy": 1935,
      "though": 1936,
      "stay": 1937,
      "gone": 1938,
      "cause": 1939,
      "bad": 1940,
      "##ung": 1941,
      "event": 1942,
      "doll": 1943,
      "ice": 1944,
      "basket": 1945,
      "whe": 1946,
      "cake": 1947,
      "##ping": 1948,
      "##ior": 1949,
      "riding": 1950,
      "stu": 1951,
      "##mber": 1952,
      "maybe": 1953,
      "living": 1954,
      "break": 1955,
      "##ead": 1956,
      "hum": 1957,
      "##ural": 1958,
      "##ological": 1959,
      "##ever": 1960,
      "lake": 1961,
      "without": 1962,
      "enough": 1963,
      "tele": 1964,
      "##acter": 1965,
      "##ared": 1966,
      "hur": 1967,
      "##oy": 1968,
      "sat": 1969,
      "girls": 1970,
      "det": 1971,
      "sound": 1972,
      "attend": 1973,
      "known": 1974,
      "sorry": 1975,
      "##ey": 1976,
      "live": 1977,
      "##ograph": 1978,
      "drink": 1979,
      "##ries": 1980,
      "looked": 1981,
      "mag": 1982,
      "items": 1983,
      "tables": 1984,
      "##hou": 1985,
      "plan": 1986,
      "hm": 1987,
      "course": 1988,
      "##bile": 1989,
      "bran": 1990,
      "hell": 1991,
      "conf": 1992,
      "##icked": 1993,
      "je": 1994,
      "follow": 1995,
      "##unch": 1996,
      "##que": 1997,
      "prod": 1998,
      "ship": 1999,
      "clear": 2000,
      "until": 2001,
      "week": 2002,
      "fest": 2003,
      "flying": 2004,
      "cross": 2005,
      "##une": 2006,
      "mov": 2007,
      "##ivers": 2008,
      "sub": 2009,
      "remember": 2010,
      "silhou": 2011,
      "silhouet": 2012,
      "##ision": 2013,
      "##osed": 2014,
      "belie": 2015,
      "colored": 2016,
      "outd": 2017,
      "##ony": 2018,
      "character": 2019,
      "boys": 2020,
      "##aw": 2021,
      "main": 2022,
      "trans": 2023,
      "##ond": 2024,
      "quite": 2025,
      "papers": 2026,
      "outdoor": 2027,
      "god": 2028,
      "state": 2029,
      "seems": 2030,
      "cute": 2031,
      "pen": 2032,
      "##ces": 2033,
      "##clud": 2034,
      "visible": 2035,
      "##ib": 2036,
      "##ich": 2037,
      "prem": 2038,
      "pu": 2039,
      "seam": 2040,
      "shoes": 2041,
      "clock": 2042,
      "##igh": 2043,
      "bicy": 2044,
      "##ury": 2045,
      "di": 2046,
      "##hip": 2047,
      "hist": 2048,
      "18": 2049,
      "##gr": 2050,
      "holiday": 2051,
      "taking": 2052,
      "move": 2053,
      "attract": 2054,
      "kill": 2055,
      "leave": 2056,
      "yet": 2057,
      "##ants": 2058,
      "working": 2059,
      "vill": 2060,
      "birth": 2061,
      "##inking": 2062,
      "bath": 2063,
      "##vers": 2064,
      "ju": 2065,
      "fac": 2066,
      "observe": 2067,
      "biological": 2068,
      "ann": 2069,
      "inst": 2070,
      "##key": 2071,
      "star": 2072,
      "und": 2073,
      "story": 2074,
      "national": 2075,
      "colorful": 2076,
      "animals": 2077,
      "farm": 2078,
      "toy": 2079,
      "rocks": 2080,
      "##bs": 2081,
      "bear": 2082,
      "soon": 2083,
      "blurred": 2084,
      "##owing": 2085,
      "##aps": 2086,
      "prop": 2087,
      "walls": 2088,
      "free": 2089,
      "later": 2090,
      "seamless": 2091,
      "island": 2092,
      "stra": 2093,
      "##rying": 2094,
      "cook": 2095,
      "mind": 2096,
      "banner": 2097,
      "track": 2098,
      "##ician": 2099,
      "step": 2100,
      "early": 2101,
      "##li": 2102,
      "##ably": 2103,
      "pot": 2104,
      "##right": 2105,
      "##ined": 2106,
      "##ork": 2107,
      "past": 2108,
      "\".": 2109,
      "pet": 2110,
      "##ession": 2111,
      "aerial": 2112,
      "everything": 2113,
      "dear": 2114,
      "asked": 2115,
      "hour": 2116,
      "##ither": 2117,
      "jump": 2118,
      "sports": 2119,
      "tv": 2120,
      "species": 2121,
      "north": 2122,
      "fru": 2123,
      "##ats": 2124,
      "camp": 2125,
      "##ient": 2126,
      "hear": 2127,
      "pub": 2128,
      "##lish": 2129,
      "since": 2130,
      "meet": 2131,
      "organ": 2132,
      "##fect": 2133,
      "##ina": 2134,
      "actually": 2135,
      "pull": 2136,
      "##iet": 2137,
      "pri": 2138,
      "space": 2139,
      "includ": 2140,
      "cartoon": 2141,
      "thir": 2142,
      "shows": 2143,
      "##ator": 2144,
      "crow": 2145,
      "##line": 2146,
      "##fl": 2147,
      "gener": 2148,
      "vo": 2149,
      "kids": 2150,
      "tur": 2151,
      "short": 2152,
      "letter": 2153,
      "##by": 2154,
      "##fta": 2155,
      "slow": 2156,
      "##ming": 2157,
      "consists": 2158,
      "offic": 2159,
      "wheel": 2160,
      "festival": 2161,
      "mrs": 2162,
      "##ics": 2163,
      "##ised": 2164,
      "across": 2165,
      "cor": 2166,
      "shel": 2167,
      "noise": 2168,
      "##bre": 2169,
      "hafta": 2170,
      "##aur": 2171,
      "suit": 2172,
      "among": 2173,
      "##ell": 2174,
      "statue": 2175,
      "pos": 2176,
      "##ef": 2177,
      "sir": 2178,
      "arch": 2179,
      "bright": 2180,
      "clicked": 2181,
      "cand": 2182,
      "##umn": 2183,
      "premie": 2184,
      "##ror": 2185,
      "upon": 2186,
      "##ward": 2187,
      "mommy": 2188,
      "jacket": 2189,
      "bring": 2190,
      "drop": 2191,
      "bench": 2192,
      "moving": 2193,
      "pa": 2194,
      "truck": 2195,
      "##erst": 2196,
      "office": 2197,
      "##ime": 2198,
      "##roph": 2199,
      "mir": 2200,
      "modern": 2201,
      "##ments": 2202,
      "##erest": 2203,
      "ra": 2204,
      "cloudy": 2205,
      "boats": 2206,
      "premiere": 2207,
      "compan": 2208,
      "himself": 2209,
      "##scape": 2210,
      "202": 2211,
      "tem": 2212,
      "arri": 2213,
      "six": 2214,
      "##ote": 2215,
      "##uh": 2216,
      "##light": 2217,
      "sof": 2218,
      "wore": 2219,
      "tou": 2220,
      "ass": 2221,
      "south": 2222,
      "##sw": 2223,
      "microph": 2224,
      "cal": 2225,
      "mas": 2226,
      "cover": 2227,
      "contin": 2228,
      "toys": 2229,
      "dre": 2230,
      "photograph": 2231,
      "##most": 2232,
      "son": 2233,
      "trying": 2234,
      "days": 2235,
      "trad": 2236,
      "coast": 2237,
      "return": 2238,
      "interest": 2239,
      "##dd": 2240,
      "sal": 2241,
      "stone": 2242,
      "birthday": 2243,
      "base": 2244,
      "eating": 2245,
      "lamp": 2246,
      "beg": 2247,
      "coff": 2248,
      "movie": 2249,
      "idea": 2250,
      "cream": 2251,
      "haven": 2252,
      "using": 2253,
      "##ities": 2254,
      "ext": 2255,
      "heard": 2256,
      "ceiling": 2257,
      "speak": 2258,
      "wanted": 2259,
      "##hn": 2260,
      "song": 2261,
      "##enty": 2262,
      "##wh": 2263,
      "ca": 2264,
      "politician": 2265,
      "dou": 2266,
      "prof": 2267,
      "exc": 2268,
      "cost": 2269,
      "trou": 2270,
      "swim": 2271,
      "parked": 2272,
      "silhouette": 2273,
      "##ased": 2274,
      "lad": 2275,
      "wonder": 2276,
      "lay": 2277,
      "lying": 2278,
      "prot": 2279,
      "stock": 2280,
      "##ilt": 2281,
      "199": 2282,
      "piece": 2283,
      "singing": 2284,
      "stones": 2285,
      "alright": 2286,
      "listen": 2287,
      "hanging": 2288,
      "enj": 2289,
      "late": 2290,
      "##ipp": 2291,
      "happened": 2292,
      "coffee": 2293,
      "chur": 2294,
      "king": 2295,
      "sen": 2296,
      "##arent": 2297,
      "expl": 2298,
      "##lly": 2299,
      "market": 2300,
      "##ize": 2301,
      "gar": 2302,
      "##uss": 2303,
      "##uction": 2304,
      "mach": 2305,
      "wild": 2306,
      "john": 2307,
      "comple": 2308,
      "funny": 2309,
      "moment": 2310,
      "sold": 2311,
      "smo": 2312,
      "whole": 2313,
      "body": 2314,
      "comes": 2315,
      "mch": 2316,
      "almost": 2317,
      "pictures": 2318,
      "##ises": 2319,
      "spoon": 2320,
      "reflect": 2321,
      "spring": 2322,
      "##ering": 2323,
      "abstr": 2324,
      "abstract": 2325,
      "traff": 2326,
      "prob": 2327,
      "##amed": 2328,
      "logo": 2329,
      "dig": 2330,
      "inc": 2331,
      "doct": 2332,
      "united": 2333,
      "##play": 2334,
      "visit": 2335,
      "traffic": 2336,
      "##raft": 2337,
      "answ": 2338,
      "##ned": 2339,
      "##uary": 2340,
      "helm": 2341,
      "gave": 2342,
      "exam": 2343,
      "##ized": 2344,
      "hello": 2345,
      "evening": 2346,
      "roll": 2347,
      "sunny": 2348,
      "sofa": 2349,
      "cer": 2350,
      "adv": 2351,
      "##ention": 2352,
      "pan": 2353,
      "autumn": 2354,
      "##arch": 2355,
      "word": 2356,
      "##ten": 2357,
      "emp": 2358,
      "dead": 2359,
      "doors": 2360,
      "fact": 2361,
      "mouth": 2362,
      "bur": 2363,
      "states": 2364,
      "store": 2365,
      "underst": 2366,
      "##resh": 2367,
      "##ising": 2368,
      "fight": 2369,
      "month": 2370,
      "sort": 2371,
      "glo": 2372,
      "knew": 2373,
      "feet": 2374,
      "takes": 2375,
      "hills": 2376,
      "##vern": 2377,
      "fenc": 2378,
      "##----": 2379,
      "started": 2380,
      "##itional": 2381,
      "church": 2382,
      "believe": 2383,
      "icon": 2384,
      "poss": 2385,
      "##nce": 2386,
      "station": 2387,
      "brick": 2388,
      "tower": 2389,
      "brother": 2390,
      "plat": 2391,
      "quest": 2392,
      "microphone": 2393,
      "either": 2394,
      "##ken": 2395,
      "ger": 2396,
      "##sh": 2397,
      "village": 2398,
      "hall": 2399,
      "nat": 2400,
      "##ipe": 2401,
      "quick": 2402,
      "tourist": 2403,
      "bicycle": 2404,
      "colors": 2405,
      "prom": 2406,
      "touch": 2407,
      "railing": 2408,
      "dry": 2409,
      "low": 2410,
      "season": 2411,
      "wires": 2412,
      "ask": 2413,
      "fine": 2414,
      "##ices": 2415,
      "fill": 2416,
      "lear": 2417,
      "wasn": 2418,
      "##brell": 2419,
      "umbrell": 2420,
      "vint": 2421,
      "lou": 2422,
      "mobile": 2423,
      "probably": 2424,
      "vintage": 2425,
      "trave": 2426,
      "soft": 2427,
      "##ze": 2428,
      "rack": 2429,
      "died": 2430,
      "prov": 2431,
      "##cess": 2432,
      "dem": 2433,
      "birds": 2434,
      "times": 2435,
      "display": 2436,
      "concert": 2437,
      "coun": 2438,
      "##unt": 2439,
      "),": 2440,
      "govern": 2441,
      "##ster": 2442,
      "##ider": 2443,
      "tex": 2444,
      "power": 2445,
      "##imes": 2446,
      "##ret": 2447,
      "super": 2448,
      "stri": 2449,
      "hope": 2450,
      "key": 2451,
      "fell": 2452,
      "##artment": 2453,
      "guy": 2454,
      "danc": 2455,
      "grey": 2456,
      "ring": 2457,
      "fem": 2458,
      "##ese": 2459,
      "police": 2460,
      "##pr": 2461,
      "pal": 2462,
      "daught": 2463,
      "matter": 2464,
      "paint": 2465,
      "##mark": 2466,
      "resp": 2467,
      "##unk": 2468,
      "##ready": 2469,
      "var": 2470,
      "fresh": 2471,
      "pay": 2472,
      "poor": 2473,
      "already": 2474,
      "human": 2475,
      "telev": 2476,
      "words": 2477,
      "sweet": 2478,
      "##ama": 2479,
      "eff": 2480,
      "cold": 2481,
      "crowd": 2482,
      "##ully": 2483,
      "eye": 2484,
      "lost": 2485,
      "gma": 2486,
      "gott": 2487,
      "cast": 2488,
      "egg": 2489,
      "comput": 2490,
      "fair": 2491,
      "veget": 2492,
      "fav": 2493,
      "##ience": 2494,
      "##oh": 2495,
      "indust": 2496,
      "saying": 2497,
      "net": 2498,
      "oth": 2499,
      "##gy": 2500,
      "sol": 2501,
      "plates": 2502,
      ").": 2503,
      "rom": 2504,
      "##avy": 2505,
      "stuff": 2506,
      "able": 2507,
      "vide": 2508,
      "##ccer": 2509,
      "soccer": 2510,
      "oce": 2511,
      "stairs": 2512,
      "eight": 2513,
      "flags": 2514,
      "motor": 2515,
      "##rib": 2516,
      "?”": 2517,
      "gun": 2518,
      "##adow": 2519,
      "##anged": 2520,
      "drawing": 2521,
      "gas": 2522,
      "mirror": 2523,
      "walks": 2524,
      "##ided": 2525,
      "##rought": 2526,
      "butter": 2527,
      "doctor": 2528,
      "boxes": 2529,
      "##iting": 2530,
      "moon": 2531,
      "lab": 2532,
      "##zz": 2533,
      "shape": 2534,
      "fing": 2535,
      "check": 2536,
      "television": 2537,
      "##eng": 2538,
      "198": 2539,
      "page": 2540,
      "clim": 2541,
      "mess": 2542,
      "\",": 2543,
      "fig": 2544,
      "showing": 2545,
      "##kes": 2546,
      "bill": 2547,
      "held": 2548,
      "wrong": 2549,
      "serv": 2550,
      "spect": 2551,
      "univers": 2552,
      "carp": 2553,
      "##ific": 2554,
      "sou": 2555,
      "wine": 2556,
      "watching": 2557,
      "sent": 2558,
      "band": 2559,
      "collect": 2560,
      "appe": 2561,
      "##inal": 2562,
      "scul": 2563,
      "thom": 2564,
      "##me": 2565,
      "fencing": 2566,
      "understand": 2567,
      "sever": 2568,
      "turned": 2569,
      "wouldn": 2570,
      "voice": 2571,
      "series": 2572,
      "##let": 2573,
      "prep": 2574,
      "##ced": 2575,
      "project": 2576,
      "became": 2577,
      "ocean": 2578,
      "eleph": 2579,
      "##where": 2580,
      "struct": 2581,
      "certain": 2582,
      "nan": 2583,
      "someone": 2584,
      "gets": 2585,
      "sometimes": 2586,
      "feature": 2587,
      "##vi": 2588,
      "##els": 2589,
      "drawn": 2590,
      "hon": 2591,
      "minute": 2592,
      "bat": 2593,
      "bedroom": 2594,
      "march": 2595,
      "##ams": 2596,
      "indoor": 2597,
      "##ners": 2598,
      "arm": 2599,
      "landscape": 2600,
      "several": 2601,
      "played": 2602,
      "##ution": 2603,
      "traditional": 2604,
      "cy": 2605,
      "less": 2606,
      "wash": 2607,
      "wife": 2608,
      "dev": 2609,
      "began": 2610,
      "mi": 2611,
      "frames": 2612,
      "bal": 2613,
      "pack": 2614,
      "ang": 2615,
      "special": 2616,
      "video": 2617,
      "guess": 2618,
      "scen": 2619,
      "pick": 2620,
      "##nam": 2621,
      "mill": 2622,
      "structure": 2623,
      "disc": 2624,
      "##bers": 2625,
      "##astic": 2626,
      "cab": 2627,
      "ath": 2628,
      "##ha": 2629,
      "wish": 2630,
      "##port": 2631,
      "##nday": 2632,
      "import": 2633,
      "aren": 2634,
      "##to": 2635,
      "throw": 2636,
      "arr": 2637,
      "golden": 2638,
      "kiss": 2639,
      "gray": 2640,
      "company": 2641,
      "clean": 2642,
      "pool": 2643,
      "##pture": 2644,
      "points": 2645,
      "built": 2646,
      "attraction": 2647,
      "thr": 2648,
      "##ison": 2649,
      "##elt": 2650,
      "death": 2651,
      "detail": 2652,
      "def": 2653,
      "age": 2654,
      "##utes": 2655,
      "thomas": 2656,
      "orig": 2657,
      "##een": 2658,
      "platform": 2659,
      "3d": 2660,
      "iron": 2661,
      "motion": 2662,
      "empty": 2663,
      "earth": 2664,
      "gotta": 2665,
      "female": 2666,
      "##ained": 2667,
      "proble": 2668,
      "dinner": 2669,
      "brought": 2670,
      "phi": 2671,
      "##fully": 2672,
      "job": 2673,
      "often": 2674,
      "county": 2675,
      "##ters": 2676,
      "thanks": 2677,
      "##used": 2678,
      "daughter": 2679,
      "catch": 2680,
      "neck": 2681,
      "balloon": 2682,
      "mer": 2683,
      "mine": 2684,
      "computer": 2685,
      "cow": 2686,
      "equ": 2687,
      "means": 2688,
      "ran": 2689,
      "sculpture": 2690,
      "trop": 2691,
      "law": 2692,
      "mad": 2693,
      "electric": 2694,
      "block": 2695,
      "silver": 2696,
      "ur": 2697,
      "desk": 2698,
      "horses": 2699,
      "##case": 2700,
      "strong": 2701,
      "bye": 2702,
      "symb": 2703,
      "occ": 2704,
      "champ": 2705,
      "10": 2706,
      "##ected": 2707,
      "##cy": 2708,
      "nin": 2709,
      "197": 2710,
      "yourself": 2711,
      "waiting": 2712,
      "##ls": 2713,
      "dogs": 2714,
      "symbol": 2715,
      "repl": 2716,
      "cond": 2717,
      "players": 2718,
      "change": 2719,
      "ru": 2720,
      "##mp": 2721,
      "##nis": 2722,
      "##stem": 2723,
      "seemed": 2724,
      "duck": 2725,
      "##app": 2726,
      "##iny": 2727,
      "##ney": 2728,
      "purple": 2729,
      "##tle": 2730,
      "pillars": 2731,
      "fi": 2732,
      "figure": 2733,
      "adm": 2734,
      "milk": 2735,
      "cool": 2736,
      "wear": 2737,
      "warm": 2738,
      "##craft": 2739,
      "rele": 2740,
      "bags": 2741,
      "wants": 2742,
      "given": 2743,
      "##orrow": 2744,
      "fast": 2745,
      "##use": 2746,
      "##��": 2747,
      "##ched": 2748,
      "##iles": 2749,
      "type": 2750,
      "record": 2751,
      "captain": 2752,
      "##bit": 2753,
      "##eth": 2754,
      "machine": 2755,
      "flat": 2756,
      "est": 2757,
      "carpet": 2758,
      "order": 2759,
      "partic": 2760,
      "circle": 2761,
      "painted": 2762,
      "##haps": 2763,
      "perhaps": 2764,
      "hund": 2765,
      "##itary": 2766,
      "public": 2767,
      "easy": 2768,
      "hundred": 2769,
      "ones": 2770,
      "##cles": 2771,
      "perfect": 2772,
      "restaur": 2773,
      "##iter": 2774,
      "##ato": 2775,
      "intern": 2776,
      "system": 2777,
      "##phone": 2778,
      "branch": 2779,
      "commun": 2780,
      "##lling": 2781,
      "hit": 2782,
      "legs": 2783,
      "helmet": 2784,
      "##atic": 2785,
      "english": 2786,
      "da": 2787,
      "##ism": 2788,
      "##ral": 2789,
      "pupp": 2790,
      "true": 2791,
      "baseball": 2792,
      "##ently": 2793,
      "alone": 2794,
      "mum": 2795,
      "reach": 2796,
      "performs": 2797,
      "##0s": 2798,
      "west": 2799,
      "##alth": 2800,
      "##elf": 2801,
      "##ged": 2802,
      "##ax": 2803,
      "swimming": 2804,
      "##sy": 2805,
      "rece": 2806,
      "ago": 2807,
      "shore": 2808,
      "sus": 2809,
      "texture": 2810,
      "flor": 2811,
      "spectac": 2812,
      "##izz": 2813,
      "rather": 2814,
      "coat": 2815,
      "stars": 2816,
      "##www": 2817,
      "case": 2818,
      "example": 2819,
      "##bor": 2820,
      "press": 2821,
      "stands": 2822,
      "hers": 2823,
      "##ction": 2824,
      "##tend": 2825,
      "lu": 2826,
      "smile": 2827,
      "lines": 2828,
      "outdoors": 2829,
      "##aim": 2830,
      "opp": 2831,
      "storm": 2832,
      "driving": 2833,
      "buy": 2834,
      "blank": 2835,
      "engine": 2836,
      "childes": 2837,
      "shed": 2838,
      "seat": 2839,
      "fishing": 2840,
      "fch": 2841,
      "##ume": 2842,
      "push": 2843,
      "##selves": 2844,
      "however": 2845,
      "pair": 2846,
      "##cket": 2847,
      "bride": 2848,
      "leaf": 2849,
      "others": 2850,
      "couldn": 2851,
      "deep": 2852,
      "important": 2853,
      "general": 2854,
      "tent": 2855,
      "##rench": 2856,
      "!”": 2857,
      "felt": 2858,
      "proper": 2859,
      "wes": 2860,
      "chick": 2861,
      "div": 2862,
      "##aged": 2863,
      "ant": 2864,
      "196": 2865,
      "dam": 2866,
      "print": 2867,
      "##uce": 2868,
      "fur": 2869,
      "##hy": 2870,
      "cra": 2871,
      "laughing": 2872,
      "sister": 2873,
      "surround": 2874,
      "maj": 2875,
      "history": 2876,
      "whis": 2877,
      "myself": 2878,
      "jan": 2879,
      "giving": 2880,
      "compet": 2881,
      "square": 2882,
      "award": 2883,
      "happen": 2884,
      "region": 2885,
      "##iously": 2886,
      "lang": 2887,
      "reading": 2888,
      "deal": 2889,
      "smart": 2890,
      "av": 2891,
      "minutes": 2892,
      "single": 2893,
      "bou": 2894,
      "june": 2895,
      "##anger": 2896,
      "##ils": 2897,
      "blurry": 2898,
      "fix": 2899,
      "burn": 2900,
      "##iction": 2901,
      "pig": 2902,
      "mix": 2903,
      "carrying": 2904,
      "memb": 2905,
      "members": 2906,
      "voc": 2907,
      "mist": 2908,
      "frog": 2909,
      "tennis": 2910,
      "airpl": 2911,
      "build": 2912,
      "den": 2913,
      "umbrella": 2914,
      "government": 2915,
      "##aper": 2916,
      "arms": 2917,
      "##ler": 2918,
      "shut": 2919,
      "president": 2920,
      "couch": 2921,
      "dar": 2922,
      "que": 2923,
      "tall": 2924,
      "students": 2925,
      "##men": 2926,
      "streets": 2927,
      "twenty": 2928,
      "pieces": 2929,
      "digital": 2930,
      "railway": 2931,
      "military": 2932,
      "curtains": 2933,
      "desc": 2934,
      "##hor": 2935,
      "constr": 2936,
      "autom": 2937,
      "cos": 2938,
      "heavy": 2939,
      "dish": 2940,
      "rich": 2941,
      "favor": 2942,
      "sale": 2943,
      "thinking": 2944,
      "fuck": 2945,
      "numbers": 2946,
      "cere": 2947,
      "##itor": 2948,
      "insp": 2949,
      "bike": 2950,
      "##iger": 2951,
      "##urs": 2952,
      "quiet": 2953,
      "century": 2954,
      "basketball": 2955,
      "training": 2956,
      "hung": 2957,
      "contr": 2958,
      "waves": 2959,
      "french": 2960,
      "sad": 2961,
      "grap": 2962,
      "club": 2963,
      "select": 2964,
      "phil": 2965,
      "race": 2966,
      "restaurant": 2967,
      "##lls": 2968,
      "blood": 2969,
      "goal": 2970,
      "bathroom": 2971,
      "##ister": 2972,
      "##fort": 2973,
      "begin": 2974,
      "third": 2975,
      "##itect": 2976,
      "choo": 2977,
      "command": 2978,
      "finished": 2979,
      "aircraft": 2980,
      "ham": 2981,
      "gift": 2982,
      "architect": 2983,
      "fre": 2984,
      "##ances": 2985,
      "clos": 2986,
      "12": 2987,
      "surpr": 2988,
      "branches": 2989,
      "cas": 2990,
      "fit": 2991,
      "broken": 2992,
      "question": 2993,
      "finish": 2994,
      "##ality": 2995,
      "##rent": 2996,
      "##asure": 2997,
      "natural": 2998,
      "industry": 2999,
      "##ility": 3000,
      "##noon": 3001,
      "lots": 3002,
      "seven": 3003,
      "steps": 3004,
      "hop": 3005,
      "trail": 3006,
      "final": 3007,
      "western": 3008,
      "##olf": 3009,
      "thre": 3010,
      "cop": 3011,
      "ow": 3012,
      "val": 3013,
      "posters": 3014,
      "afternoon": 3015,
      "spo": 3016,
      "##umb": 3017,
      "uhh": 3018,
      "##ley": 3019,
      "support": 3020,
      "##erry": 3021,
      "neigh": 3022,
      "below": 3023,
      "hurt": 3024,
      "shap": 3025,
      "enjoy": 3026,
      "##lete": 3027,
      "simple": 3028,
      "##ately": 3029,
      "##eas": 3030,
      "wel": 3031,
      "university": 3032,
      "lovely": 3033,
      "till": 3034,
      "shopping": 3035,
      "least": 3036,
      "rad": 3037,
      "##icket": 3038,
      "##aking": 3039,
      "somebody": 3040,
      "##band": 3041,
      "15": 3042,
      "histor": 3043,
      "herself": 3044,
      "sleeping": 3045,
      "##cial": 3046,
      "succ": 3047,
      "##velop": 3048,
      "##ued": 3049,
      "##iers": 3050,
      "hy": 3051,
      "straight": 3052,
      "bull": 3053,
      "##ana": 3054,
      "hotel": 3055,
      "works": 3056,
      "forg": 3057,
      "german": 3058,
      "##eared": 3059,
      "sticks": 3060,
      "distric": 3061,
      "enter": 3062,
      "##gest": 3063,
      "##ety": 3064,
      "appro": 3065,
      "putting": 3066,
      "langu": 3067,
      "guys": 3068,
      "fruit": 3069,
      "classic": 3070,
      "jeans": 3071,
      "##irt": 3072,
      "sides": 3073,
      "places": 3074,
      "cupboard": 3075,
      "local": 3076,
      "fruits": 3077,
      "##und": 3078,
      "hosp": 3079,
      "vegetables": 3080,
      "oct": 3081,
      "athlete": 3082,
      "elephant": 3083,
      "17": 3084,
      "##fast": 3085,
      "##ek": 3086,
      "male": 3087,
      "complete": 3088,
      "bank": 3089,
      "sheep": 3090,
      "parent": 3091,
      "nose": 3092,
      "hus": 3093,
      "plastic": 3094,
      "become": 3095,
      "chap": 3096,
      "location": 3097,
      "holds": 3098,
      "send": 3099,
      "drive": 3100,
      "fort": 3101,
      "##por": 3102,
      "wide": 3103,
      "east": 3104,
      "ahead": 3105,
      "000": 3106,
      "conn": 3107,
      "author": 3108,
      "tatt": 3109,
      "uhhuh": 3110,
      "##house": 3111,
      "##fly": 3112,
      "bread": 3113,
      "climb": 3114,
      "ride": 3115,
      "rods": 3116,
      "progr": 3117,
      "cabin": 3118,
      "const": 3119,
      "former": 3120,
      "health": 3121,
      "circ": 3122,
      "within": 3123,
      "prin": 3124,
      "##ains": 3125,
      "rod": 3126,
      "court": 3127,
      "grow": 3128,
      "puts": 3129,
      "attends": 3130,
      "master": 3131,
      "##ustom": 3132,
      "##ining": 3133,
      "straw": 3134,
      "##orge": 3135,
      "airplane": 3136,
      "tie": 3137,
      "195": 3138,
      "christian": 3139,
      "##ov": 3140,
      "fa": 3141,
      "##azing": 3142,
      "oper": 3143,
      "fans": 3144,
      "tray": 3145,
      "alb": 3146,
      "choc": 3147,
      "##gue": 3148,
      "##ique": 3149,
      "following": 3150,
      "##ories": 3151,
      "watermark": 3152,
      "tattoo": 3153,
      "##ges": 3154,
      "chance": 3155,
      "priv": 3156,
      "growing": 3157,
      "brit": 3158,
      "dressed": 3159,
      "inform": 3160,
      "breakfast": 3161,
      "pract": 3162,
      "##rest": 3163,
      "dining": 3164,
      "cried": 3165,
      "shout": 3166,
      "##wor": 3167,
      "jim": 3168,
      "flo": 3169,
      "attack": 3170,
      "##alk": 3171,
      "##uts": 3172,
      "interior": 3173,
      "nature": 3174,
      "vict": 3175,
      "##ann": 3176,
      "relig": 3177,
      "plays": 3178,
      "ut": 3179,
      "famous": 3180,
      "apple": 3181,
      "jap": 3182,
      "busy": 3183,
      "ted": 3184,
      "##ager": 3185,
      "develop": 3186,
      "wow": 3187,
      "centre": 3188,
      "shoot": 3189,
      "##ta": 3190,
      "knife": 3191,
      "||": 3192,
      "member": 3193,
      "##he": 3194,
      "site": 3195,
      "##fr": 3196,
      "##dden": 3197,
      "tropical": 3198,
      "##oring": 3199,
      "reason": 3200,
      "named": 3201,
      "sits": 3202,
      "success": 3203,
      "tried": 3204,
      "##ips": 3205,
      "dest": 3206,
      "##ums": 3207,
      "profession": 3208,
      "dancing": 3209,
      "tap": 3210,
      "hospital": 3211,
      "aud": 3212,
      "pitch": 3213,
      "ton": 3214,
      "huge": 3215,
      "runway": 3216,
      "mouse": 3217,
      "mur": 3218,
      "sudden": 3219,
      "##mon": 3220,
      "##isc": 3221,
      "france": 3222,
      "##iled": 3223,
      "ze": 3224,
      "lat": 3225,
      "##ril": 3226,
      "glad": 3227,
      "hours": 3228,
      "##thern": 3229,
      "flight": 3230,
      "##ousand": 3231,
      "forward": 3232,
      "eur": 3233,
      "dresses": 3234,
      "thousand": 3235,
      "van": 3236,
      "##rance": 3237,
      "gate": 3238,
      "instruments": 3239,
      "##fall": 3240,
      "ins": 3241,
      "usually": 3242,
      "gent": 3243,
      "lie": 3244,
      "spectacles": 3245,
      "frank": 3246,
      "action": 3247,
      "exper": 3248,
      "meeting": 3249,
      "allow": 3250,
      "vers": 3251,
      "including": 3252,
      "]?": 3253,
      "everybody": 3254,
      "juice": 3255,
      "mass": 3256,
      "##cient": 3257,
      "district": 3258,
      "drinking": 3259,
      "##ades": 3260,
      "vol": 3261,
      "##ara": 3262,
      "disco": 3263,
      "cann": 3264,
      "filled": 3265,
      "##ests": 3266,
      "husband": 3267,
      "pond": 3268,
      "##ya": 3269,
      "current": 3270,
      "married": 3271,
      "write": 3272,
      "distance": 3273,
      "lived": 3274,
      "businessman": 3275,
      "mart": 3276,
      "secret": 3277,
      "sam": 3278,
      "games": 3279,
      "japan": 3280,
      "ange": 3281,
      "ir": 3282,
      "chocol": 3283,
      "uncle": 3284,
      "turns": 3285,
      "opening": 3286,
      "common": 3287,
      "major": 3288,
      "images": 3289,
      "rab": 3290,
      "##oom": 3291,
      "rac": 3292,
      "bord": 3293,
      "16": 3294,
      "rob": 3295,
      "stem": 3296,
      "vocal": 3297,
      "tit": 3298,
      "lift": 3299,
      "fan": 3300,
      "pizz": 3301,
      "##work": 3302,
      "feed": 3303,
      "ancient": 3304,
      "dav": 3305,
      "everyone": 3306,
      "##bert": 3307,
      "##ives": 3308,
      "##agon": 3309,
      "lunch": 3310,
      "##gl": 3311,
      "produc": 3312,
      "custom": 3313,
      "news": 3314,
      "##rise": 3315,
      "##ether": 3316,
      "tired": 3317,
      "photos": 3318,
      "exact": 3319,
      "dust": 3320,
      "welc": 3321,
      "##acher": 3322,
      "##mony": 3323,
      "spir": 3324,
      "abs": 3325,
      "program": 3326,
      "level": 3327,
      "##omes": 3328,
      "##boards": 3329,
      "counter": 3330,
      "tot": 3331,
      "scene": 3332,
      "luck": 3333,
      "whether": 3334,
      "rub": 3335,
      "##lymp": 3336,
      "january": 3337,
      "##ived": 3338,
      "opened": 3339,
      "##ians": 3340,
      "olymp": 3341,
      "smoke": 3342,
      "colle": 3343,
      "scar": 3344,
      "##yal": 3345,
      "mike": 3346,
      "hole": 3347,
      "greet": 3348,
      "position": 3349,
      "problem": 3350,
      "batt": 3351,
      "##ination": 3352,
      "killed": 3353,
      "##ude": 3354,
      "deck": 3355,
      "nar": 3356,
      "awards": 3357,
      "floral": 3358,
      "..": 3359,
      "##zy": 3360,
      "spl": 3361,
      "sunrise": 3362,
      "cry": 3363,
      "mid": 3364,
      "leader": 3365,
      "construction": 3366,
      "ord": 3367,
      "stood": 3368,
      "bob": 3369,
      "entrance": 3370,
      "lock": 3371,
      "instead": 3372,
      "effect": 3373,
      "original": 3374,
      "concept": 3375,
      "shelf": 3376,
      "lives": 3377,
      "quar": 3378,
      "pump": 3379,
      "susp": 3380,
      "194": 3381,
      "desert": 3382,
      "dance": 3383,
      "dece": 3384,
      "falling": 3385,
      "##oss": 3386,
      "beauty": 3387,
      "##nic": 3388,
      "april": 3389,
      "##etch": 3390,
      "tiss": 3391,
      "pretend": 3392,
      "row": 3393,
      "spr": 3394,
      "gra": 3395,
      "celebrates": 3396,
      "##val": 3397,
      "collection": 3398,
      "##uth": 3399,
      "capital": 3400,
      "trouble": 3401,
      "popular": 3402,
      "gentle": 3403,
      "nine": 3404,
      "tomorrow": 3405,
      "released": 3406,
      "bell": 3407,
      "##aser": 3408,
      "dat": 3409,
      "report": 3410,
      "banners": 3411,
      "##nes": 3412,
      "rope": 3413,
      "die": 3414,
      "speaking": 3415,
      "leaving": 3416,
      "fift": 3417,
      "themselves": 3418,
      "jumping": 3419,
      "ya": 3420,
      "aug": 3421,
      "11": 3422,
      "sept": 3423,
      "forget": 3424,
      "knock": 3425,
      "favorite": 3426,
      "comb": 3427,
      "product": 3428,
      "months": 3429,
      "york": 3430,
      "led": 3431,
      "cha": 3432,
      "pillar": 3433,
      "sounds": 3434,
      "pod": 3435,
      "##aming": 3436,
      "express": 3437,
      "2020": 3438,
      "service": 3439,
      "toward": 3440,
      "caught": 3441,
      "trip": 3442,
      "cups": 3443,
      "del": 3444,
      "##illy": 3445,
      "repres": 3446,
      "writing": 3447,
      "##ging": 3448,
      "grill": 3449,
      "satur": 3450,
      "anyway": 3451,
      "safe": 3452,
      "peter": 3453,
      "ceremony": 3454,
      "##ole": 3455,
      "brush": 3456,
      "chicken": 3457,
      "inde": 3458,
      "##ky": 3459,
      "##view": 3460,
      "learn": 3461,
      "mem": 3462,
      "danger": 3463,
      "honey": 3464,
      "ski": 3465,
      "save": 3466,
      "excl": 3467,
      "pizza": 3468,
      "million": 3469,
      "whatever": 3470,
      "picks": 3471,
      "speed": 3472,
      "created": 3473,
      "double": 3474,
      "sight": 3475,
      "##hood": 3476,
      "##raid": 3477,
      "##bour": 3478,
      "##ency": 3479,
      "sel": 3480,
      "##nament": 3481,
      "college": 3482,
      "sink": 3483,
      "based": 3484,
      "eggs": 3485,
      "##ober": 3486,
      "finger": 3487,
      "gall": 3488,
      "waving": 3489,
      "afraid": 3490,
      "october": 3491,
      "fut": 3492,
      "##omb": 3493,
      "##ief": 3494,
      "tail": 3495,
      "suppose": 3496,
      "august": 3497,
      "toile": 3498,
      "feeling": 3499,
      "doub": 3500,
      "##oun": 3501,
      "pad": 3502,
      "sunday": 3503,
      "teddy": 3504,
      "yours": 3505,
      "september": 3506,
      "saturday": 3507,
      "appear": 3508,
      "cheese": 3509,
      "test": 3510,
      "possible": 3511,
      "edge": 3512,
      "bush": 3513,
      "study": 3514,
      "located": 3515,
      "wet": 3516,
      "ooh": 3517,
      "parents": 3518,
      "##net": 3519,
      "answer": 3520,
      "ii": 3521,
      "needs": 3522,
      "cott": 3523,
      "department": 3524,
      "prev": 3525,
      "darling": 3526,
      "reflection": 3527,
      "teach": 3528,
      "miles": 3529,
      "alth": 3530,
      "plane": 3531,
      "chocolate": 3532,
      "##ically": 3533,
      "closed": 3534,
      "##ford": 3535,
      "si": 3536,
      "although": 3537,
      "runs": 3538,
      "diffic": 3539,
      "##ops": 3540,
      "league": 3541,
      "tape": 3542,
      "fle": 3543,
      "##gu": 3544,
      "pound": 3545,
      "shr": 3546,
      "champions": 3547,
      "various": 3548,
      "castle": 3549,
      "quickly": 3550,
      "trunk": 3551,
      "##gn": 3552,
      "14": 3553,
      "knows": 3554,
      "shadow": 3555,
      "##pped": 3556,
      "filming": 3557,
      "moved": 3558,
      "onto": 3559,
      "nove": 3560,
      "##--------": 3561,
      "teacher": 3562,
      "##ization": 3563,
      "vase": 3564,
      "skin": 3565,
      "13": 3566,
      "candles": 3567,
      "international": 3568,
      "mel": 3569,
      "eh": 3570,
      "giraff": 3571,
      "##aimed": 3572,
      "##alian": 3573,
      "##obile": 3574,
      "carry": 3575,
      "sick": 3576,
      "193": 3577,
      "worked": 3578,
      "dut": 3579,
      "november": 3580,
      "spot": 3581,
      "bowls": 3582,
      "podium": 3583,
      "wire": 3584,
      "career": 3585,
      "##ured": 3586,
      "meat": 3587,
      "stad": 3588,
      "vall": 3589,
      "gives": 3590,
      "##amb": 3591,
      "##itted": 3592,
      "rust": 3593,
      "##kin": 3594,
      "british": 3595,
      "language": 3596,
      "foc": 3597,
      "control": 3598,
      "suff": 3599,
      "overl": 3600,
      "ou": 3601,
      "sail": 3602,
      "lapse": 3603,
      "aunt": 3604,
      "peri": 3605,
      "##antic": 3606,
      "##ength": 3607,
      "enjo": 3608,
      "friday": 3609,
      "##go": 3610,
      "##gar": 3611,
      "longer": 3612,
      "##ology": 3613,
      "mult": 3614,
      "amy": 3615,
      "boots": 3616,
      "lim": 3617,
      "tast": 3618,
      "stadium": 3619,
      "nearly": 3620,
      "##quet": 3621,
      "studio": 3622,
      "containing": 3623,
      "toilet": 3624,
      "designed": 3625,
      "fork": 3626,
      "##rod": 3627,
      "loo": 3628,
      "noises": 3629,
      "cray": 3630,
      "relax": 3631,
      "furn": 3632,
      "passed": 3633,
      "careful": 3634,
      "lion": 3635,
      "##son": 3636,
      "december": 3637,
      "jour": 3638,
      "##aint": 3639,
      "fraser": 3640,
      "ideas": 3641,
      "##vert": 3642,
      "joe": 3643,
      "length": 3644,
      "added": 3645,
      "##apped": 3646,
      "##ula": 3647,
      "##erv": 3648,
      "rev": 3649,
      "exactly": 3650,
      "period": 3651,
      "jud": 3652,
      "yester": 3653,
      "host": 3654,
      "##ka": 3655,
      "tri": 3656,
      "stair": 3657,
      "guard": 3658,
      "automobile": 3659,
      "repub": 3660,
      "july": 3661,
      "yesterday": 3662,
      "force": 3663,
      "whose": 3664,
      "##ense": 3665,
      "director": 3666,
      "session": 3667,
      "poin": 3668,
      "et": 3669,
      "trun": 3670,
      "cho": 3671,
      "cricket": 3672,
      "republic": 3673,
      "hoard": 3674,
      "##ulation": 3675,
      "butterfly": 3676,
      "apartment": 3677,
      "bun": 3678,
      "coach": 3679,
      "balloons": 3680,
      "##ald": 3681,
      "tiny": 3682,
      "royal": 3683,
      "indeed": 3684,
      "protect": 3685,
      "leather": 3686,
      "##old": 3687,
      "austr": 3688,
      "silly": 3689,
      "grad": 3690,
      "private": 3691,
      "search": 3692,
      "washing": 3693,
      "inse": 3694,
      "shar": 3695,
      "##bruary": 3696,
      "##place": 3697,
      "europe": 3698,
      "##pers": 3699,
      "february": 3700,
      "bay": 3701,
      "crying": 3702,
      "range": 3703,
      "##riage": 3704,
      "shoe": 3705,
      "tub": 3706,
      "army": 3707,
      "fiction": 3708,
      "palm": 3709,
      "represent": 3710,
      "cards": 3711,
      "letters": 3712,
      "weather": 3713,
      "result": 3714,
      "imag": 3715,
      "tourists": 3716,
      "civ": 3717,
      "ren": 3718,
      "replied": 3719,
      "magaz": 3720,
      "stuck": 3721,
      "feat": 3722,
      "educ": 3723,
      "strange": 3724,
      "teen": 3725,
      "except": 3726,
      "david": 3727,
      "##ript": 3728,
      "terr": 3729,
      "pray": 3730,
      "anyone": 3731,
      "spend": 3732,
      "stro": 3733,
      "##stairs": 3734,
      "tech": 3735,
      "monkey": 3736,
      "bought": 3737,
      "##path": 3738,
      "dan": 3739,
      "welcome": 3740,
      "soldiers": 3741,
      "album": 3742,
      "cheer": 3743,
      "mary": 3744,
      "pin": 3745,
      "disapp": 3746,
      "##aded": 3747,
      "groom": 3748,
      "parts": 3749,
      "puppy": 3750,
      "##oint": 3751,
      "bon": 3752,
      "##eds": 3753,
      "##spe": 3754,
      "skate": 3755,
      "self": 3756,
      "##ym": 3757,
      "cliff": 3758,
      "lord": 3759,
      "##ites": 3760,
      "##inated": 3761,
      "decorated": 3762,
      "size": 3763,
      "sheet": 3764,
      "a3": 3765,
      "30": 3766,
      "mac": 3767,
      "defe": 3768,
      "organis": 3769,
      "certainly": 3770,
      "##idence": 3771,
      "##yn": 3772,
      "chief": 3773,
      "hungry": 3774,
      "ash": 3775,
      "sings": 3776,
      "fol": 3777,
      "stopped": 3778,
      "rising": 3779,
      "##istic": 3780,
      "selected": 3781,
      "seem": 3782,
      "excuse": 3783,
      "cath": 3784,
      "quarter": 3785,
      "ep": 3786,
      "cell": 3787,
      "keyboard": 3788,
      "woods": 3789,
      "rap": 3790,
      "changed": 3791,
      "returned": 3792,
      "beat": 3793,
      "meadow": 3794,
      "steel": 3795,
      "requ": 3796,
      "invol": 3797,
      "##erence": 3798,
      "oil": 3799,
      "skyline": 3800,
      "singer": 3801,
      "information": 3802,
      "norm": 3803,
      "dom": 3804,
      "seeing": 3805,
      "cannot": 3806,
      "##chi": 3807,
      "pier": 3808,
      "convers": 3809,
      "footpath": 3810,
      "jen": 3811,
      "insect": 3812,
      "##bur": 3813,
      "comed": 3814,
      "featuring": 3815,
      "comfort": 3816,
      "future": 3817,
      "mor": 3818,
      "interesting": 3819,
      "decorative": 3820,
      "##ement": 3821,
      "##iform": 3822,
      "extra": 3823,
      "##ai": 3824,
      "ay": 3825,
      "bang": 3826,
      "surrounded": 3827,
      "##ndon": 3828,
      "temple": 3829,
      "property": 3830,
      "gloves": 3831,
      "##drop": 3832,
      "accom": 3833,
      "##mer": 3834,
      "pine": 3835,
      "decided": 3836,
      "answered": 3837,
      "du": 3838,
      "##ensive": 3839,
      "cloud": 3840,
      "terri": 3841,
      "brand": 3842,
      "tonight": 3843,
      "##ified": 3844,
      "##lin": 3845,
      "costume": 3846,
      "chang": 3847,
      "##ancy": 3848,
      "##ech": 3849,
      "followed": 3850,
      "ber": 3851,
      "muse": 3852,
      "neighbor": 3853,
      "senior": 3854,
      "broke": 3855,
      "##col": 3856,
      "civil": 3857,
      "celebrity": 3858,
      "worth": 3859,
      "pose": 3860,
      "term": 3861,
      "pour": 3862,
      "seated": 3863,
      "queen": 3864,
      "ain": 3865,
      "belong": 3866,
      "particular": 3867,
      "scr": 3868,
      "##ham": 3869,
      "##ardon": 3870,
      "stamp": 3871,
      "##wards": 3872,
      "rose": 3873,
      "expect": 3874,
      "##cer": 3875,
      "valley": 3876,
      "heads": 3877,
      "viol": 3878,
      "finally": 3879,
      "signal": 3880,
      "create": 3881,
      "jar": 3882,
      "ribb": 3883,
      "sugg": 3884,
      "activ": 3885,
      "faces": 3886,
      "mud": 3887,
      "##gress": 3888,
      "telling": 3889,
      "pillows": 3890,
      "##gie": 3891,
      "london": 3892,
      "blanket": 3893,
      "gro": 3894,
      "fountain": 3895,
      "central": 3896,
      "pointing": 3897,
      "celebrate": 3898,
      "setting": 3899,
      "##par": 3900,
      "##cks": 3901,
      "uniform": 3902,
      "community": 3903,
      "sport": 3904,
      "##rel": 3905,
      "joy": 3906,
      "passing": 3907,
      "##ads": 3908,
      "england": 3909,
      "bouquet": 3910,
      "pipe": 3911,
      "nobody": 3912,
      "##oe": 3913,
      "##ilar": 3914,
      "##ument": 3915,
      "arranged": 3916,
      "##oned": 3917,
      "beer": 3918,
      "##enture": 3919,
      "##uation": 3920,
      "appeared": 3921,
      "roman": 3922,
      "##zen": 3923,
      "pardon": 3924,
      "teeth": 3925,
      "prison": 3926,
      "entire": 3927,
      "##aster": 3928,
      "dream": 3929,
      "rabbit": 3930,
      "puzz": 3931,
      "##osaur": 3932,
      "somewhere": 3933,
      "fear": 3934,
      "lower": 3935,
      "pian": 3936,
      "hun": 3937,
      "##unn": 3938,
      "##rup": 3939,
      "officer": 3940,
      "penc": 3941,
      "moo": 3942,
      "##lder": 3943,
      "fail": 3944,
      "airport": 3945,
      "ves": 3946,
      "deb": 3947,
      "span": 3948,
      "##ateg": 3949,
      "indian": 3950,
      "skating": 3951,
      "cables": 3952,
      "broad": 3953,
      "religious": 3954,
      "##emy": 3955,
      "ped": 3956,
      "benches": 3957,
      "helen": 3958,
      "##ggles": 3959,
      "swing": 3960,
      "peace": 3961,
      "sketch": 3962,
      "##oops": 3963,
      "tissue": 3964,
      "webs": 3965,
      "invest": 3966,
      "bud": 3967,
      "accord": 3968,
      "##oured": 3969,
      "showed": 3970,
      "suddenly": 3971,
      "starts": 3972,
      "##eak": 3973,
      "##empt": 3974,
      "sar": 3975,
      "stret": 3976,
      "192": 3977,
      "paul": 3978,
      "kitt": 3979,
      "beginning": 3980,
      "##oming": 3981,
      "breath": 3982,
      "silence": 3983,
      "reached": 3984,
      "weeks": 3985,
      "shaped": 3986,
      "slowly": 3987,
      "chapter": 3988,
      "waterfall": 3989,
      "pant": 3990,
      "repe": 3991,
      "note": 3992,
      "tract": 3993,
      "treat": 3994,
      "ways": 3995,
      "fingers": 3996,
      "ic": 3997,
      "social": 3998,
      "rug": 3999,
      "##ids": 4000,
      "enjoying": 4001,
      "yep": 4002,
      "meant": 4003,
      "dried": 4004,
      "lux": 4005,
      "date": 4006,
      "##iced": 4007,
      "phys": 4008,
      "balls": 4009,
      "25": 4010,
      "driver": 4011,
      "ships": 4012,
      "ladies": 4013,
      "tomato": 4014,
      "unk": 4015,
      "actors": 4016,
      "##ension": 4017,
      "russ": 4018,
      "##more": 4019,
      "professional": 4020,
      "slight": 4021,
      "eth": 4022,
      "leading": 4023,
      "inf": 4024,
      "mal": 4025,
      "fellow": 4026,
      "doubt": 4027,
      "##ipping": 4028,
      "shoulder": 4029,
      "rough": 4030,
      "stall": 4031,
      "deer": 4032,
      "##icking": 4033,
      "##ometric": 4034,
      "trust": 4035,
      "attention": 4036,
      "served": 4037,
      "cock": 4038,
      "rul": 4039,
      "##itions": 4040,
      "loud": 4041,
      "##ares": 4042,
      "hen": 4043,
      "##lo": 4044,
      "##ushing": 4045,
      "happens": 4046,
      "wonderful": 4047,
      "##aces": 4048,
      "museum": 4049,
      "jew": 4050,
      "##ators": 4051,
      "##ban": 4052,
      "official": 4053,
      "magazine": 4054,
      "stove": 4055,
      "tracks": 4056,
      "nail": 4057,
      "sense": 4058,
      "fields": 4059,
      "cutting": 4060,
      "decl": 4061,
      "due": 4062,
      "nic": 4063,
      "electron": 4064,
      "direction": 4065,
      "pip": 4066,
      "difficult": 4067,
      "##cially": 4068,
      "crossing": 4069,
      "bound": 4070,
      "vessel": 4071,
      "pow": 4072,
      "performance": 4073,
      "##ino": 4074,
      "ray": 4075,
      "dir": 4076,
      "received": 4077,
      "tents": 4078,
      "walked": 4079,
      "##read": 4080,
      "##ston": 4081,
      "##icks": 4082,
      "##hie": 4083,
      "pictured": 4084,
      "battle": 4085,
      "##ode": 4086,
      "helic": 4087,
      "truth": 4088,
      "golf": 4089,
      "crown": 4090,
      "iss": 4091,
      "adult": 4092,
      "turning": 4093,
      "floating": 4094,
      "childes_": 4095,
      "infl": 4096,
      "counc": 4097,
      "architecture": 4098,
      "oven": 4099,
      "supposed": 4100,
      "vac": 4101,
      "largest": 4102,
      "helicop": 4103,
      "olympic": 4104,
      "##bbles": 4105,
      "san": 4106,
      "##itive": 4107,
      "cub": 4108,
      "##ashed": 4109,
      "cats": 4110,
      "##tes": 4111,
      "##ially": 4112,
      "bicycles": 4113,
      "share": 4114,
      "focus": 4115,
      "##asses": 4116,
      "wave": 4117,
      "ell": 4118,
      "suggest": 4119,
      "signs": 4120,
      "mama": 4121,
      "espe": 4122,
      "whom": 4123,
      "serious": 4124,
      "sharp": 4125,
      "worry": 4126,
      "monitor": 4127,
      "##uff": 4128,
      "##ogn": 4129,
      "shelves": 4130,
      "emb": 4131,
      "\")": 4132,
      "ener": 4133,
      "techn": 4134,
      "tied": 4135,
      "carried": 4136,
      "similar": 4137,
      "gown": 4138,
      "newsp": 4139,
      "further": 4140,
      "backdrop": 4141,
      "##aly": 4142,
      "cro": 4143,
      "##ec": 4144,
      "telephone": 4145,
      "##wood": 4146,
      "crack": 4147,
      "par1": 4148,
      "##uel": 4149,
      "##ik": 4150,
      "giant": 4151,
      "ears": 4152,
      "pots": 4153,
      "##ckey": 4154,
      "wears": 4155,
      "upper": 4156,
      "fed": 4157,
      "motorcy": 4158,
      "env": 4159,
      "piano": 4160,
      "'.": 4161,
      "sigh": 4162,
      "travel": 4163,
      "##bles": 4164,
      "stream": 4165,
      "##otted": 4166,
      "noble": 4167,
      "website": 4168,
      "earl": 4169,
      "##erm": 4170,
      "famil": 4171,
      "crazy": 4172,
      "##works": 4173,
      "##ob": 4174,
      "liqu": 4175,
      "jes": 4176,
      "caps": 4177,
      "libr": 4178,
      "##iture": 4179,
      "cupboards": 4180,
      "##ographic": 4181,
      "george": 4182,
      "protest": 4183,
      "categ": 4184,
      "compos": 4185,
      "material": 4186,
      "container": 4187,
      "greeting": 4188,
      "tiger": 4189,
      "especially": 4190,
      "##ploy": 4191,
      "personal": 4192,
      "monday": 4193,
      "poses": 4194,
      "animated": 4195,
      "commander": 4196,
      "historic": 4197,
      "##erc": 4198,
      "barn": 4199,
      "##uit": 4200,
      "separ": 4201,
      "version": 4202,
      "##lled": 4203,
      "button": 4204,
      "ba": 4205,
      "##bby": 4206,
      "describ": 4207,
      "diam": 4208,
      "##ker": 4209,
      "chuck": 4210,
      "anybody": 4211,
      "hasn": 4212,
      "tax": 4213,
      "por": 4214,
      "goggles": 4215,
      "yard": 4216,
      "countries": 4217,
      "tablet": 4218,
      "lone": 4219,
      "thirty": 4220,
      "discuss": 4221,
      "##igg": 4222,
      "pillow": 4223,
      "##ram": 4224,
      "chain": 4225,
      "score": 4226,
      "##ressed": 4227,
      "graphic": 4228,
      "##dom": 4229,
      "blocks": 4230,
      "approach": 4231,
      "##dle": 4232,
      "##ases": 4233,
      "21": 4234,
      "angry": 4235,
      "capture": 4236,
      "listening": 4237,
      "strawber": 4238,
      "##esh": 4239,
      "attractive": 4240,
      "##uk": 4241,
      "bin": 4242,
      "fallen": 4243,
      "hearts": 4244,
      "##ceed": 4245,
      "calm": 4246,
      "mis": 4247,
      "wrote": 4248,
      "##ugg": 4249,
      "features": 4250,
      "##kend": 4251,
      "drops": 4252,
      "emer": 4253,
      "smell": 4254,
      "handle": 4255,
      "fireplace": 4256,
      "tool": 4257,
      "apart": 4258,
      "colon": 4259,
      "##liver": 4260,
      "##antly": 4261,
      "jul": 4262,
      "tick": 4263,
      "moves": 4264,
      "speech": 4265,
      "ale": 4266,
      "recogn": 4267,
      "oppos": 4268,
      "spider": 4269,
      "according": 4270,
      "##de": 4271,
      "continued": 4272,
      "weekend": 4273,
      "loved": 4274,
      "exerc": 4275,
      "blind": 4276,
      "narrow": 4277,
      "ble": 4278,
      "contains": 4279,
      "##opes": 4280,
      "names": 4281,
      "canad": 4282,
      "##bow": 4283,
      "##oop": 4284,
      "##glasses": 4285,
      "advert": 4286,
      "attempt": 4287,
      "shower": 4288,
      "furniture": 4289,
      "pocket": 4290,
      "staircase": 4291,
      "tank": 4292,
      "itself": 4293,
      "blow": 4294,
      ",--": 4295,
      "dinosaur": 4296,
      "wheels": 4297,
      "esc": 4298,
      "allowed": 4299,
      "exclaimed": 4300,
      "react": 4301,
      "rear": 4302,
      "reve": 4303,
      "chat": 4304,
      "performing": 4305,
      "starting": 4306,
      "stool": 4307,
      "backside": 4308,
      "speaker": 4309,
      "nap": 4310,
      "##time": 4311,
      "betty": 4312,
      "##acy": 4313,
      "##lished": 4314,
      "belt": 4315,
      "blowing": 4316,
      "kay": 4317,
      "planet": 4318,
      "besides": 4319,
      "##olute": 4320,
      "helicopter": 4321,
      "nest": 4322,
      "##eral": 4323,
      "##arm": 4324,
      "beard": 4325,
      "candle": 4326,
      "bloom": 4327,
      "radio": 4328,
      "blaz": 4329,
      "carl": 4330,
      "##umes": 4331,
      "older": 4332,
      "cru": 4333,
      "rid": 4334,
      "consider": 4335,
      "tractor": 4336,
      "raised": 4337,
      "incre": 4338,
      "gasps": 4339,
      "##friend": 4340,
      "subject": 4341,
      "wre": 4342,
      "##fer": 4343,
      "sailing": 4344,
      "scient": 4345,
      "mun": 4346,
      "ought": 4347,
      "none": 4348,
      "##olution": 4349,
      "mos": 4350,
      "2018": 4351,
      "burning": 4352,
      "##ament": 4353,
      "category": 4354,
      "political": 4355,
      "shown": 4356,
      "conv": 4357,
      "##itation": 4358,
      "spent": 4359,
      "connect": 4360,
      "thick": 4361,
      "minister": 4362,
      "hockey": 4363,
      "continues": 4364,
      "##icip": 4365,
      "anymore": 4366,
      "##ashing": 4367,
      "fab": 4368,
      "homes": 4369,
      "elements": 4370,
      "arrived": 4371,
      "##oll": 4372,
      "spoke": 4373,
      "##ords": 4374,
      "completely": 4375,
      "border": 4376,
      "organisation": 4377,
      "cows": 4378,
      "romantic": 4379,
      "##iti": 4380,
      "meal": 4381,
      "##ching": 4382,
      "##cated": 4383,
      "chop": 4384,
      "##ees": 4385,
      "fad": 4386,
      "tor": 4387,
      "##ounced": 4388,
      "conversation": 4389,
      "##hib": 4390,
      "keeping": 4391,
      "hide": 4392,
      "winning": 4393,
      "avail": 4394,
      "inspired": 4395,
      "dropped": 4396,
      "##izes": 4397,
      "giraffe": 4398,
      "##aining": 4399,
      "spread": 4400,
      "carr": 4401,
      "library": 4402,
      "fox": 4403,
      "stems": 4404,
      "plenty": 4405,
      "hast": 4406,
      "fog": 4407,
      "destro": 4408,
      "##asion": 4409,
      "horiz": 4410,
      "dirty": 4411,
      "likes": 4412,
      "tight": 4413,
      "##bed": 4414,
      "joined": 4415,
      "equip": 4416,
      "sunglasses": 4417,
      "watches": 4418,
      "inn": 4419,
      "render": 4420,
      "roads": 4421,
      "truncated": 4422,
      "bod": 4423,
      "##isted": 4424,
      "##uted": 4425,
      "##soci": 4426,
      "##field": 4427,
      "##rect": 4428,
      "launch": 4429,
      "defin": 4430,
      "lean": 4431,
      "##yard": 4432,
      "lose": 4433,
      "population": 4434,
      "delight": 4435,
      "snake": 4436,
      "max": 4437,
      "pil": 4438,
      "100": 4439,
      "web": 4440,
      "retro": 4441,
      "##iment": 4442,
      "pave": 4443,
      "crew": 4444,
      "diamond": 4445,
      "aband": 4446,
      "scared": 4447,
      "paintings": 4448,
      "energy": 4449,
      "bey": 4450,
      "laying": 4451,
      "price": 4452,
      "4k": 4453,
      "##die": 4454,
      "message": 4455,
      "gal": 4456,
      "##wich": 4457,
      "sex": 4458,
      "novel": 4459,
      "##amic": 4460,
      "sugar": 4461,
      "roses": 4462,
      "associ": 4463,
      "edited": 4464,
      "rya": 4465,
      "willi": 4466,
      "charge": 4467,
      "##asing": 4468,
      "##iety": 4469,
      "weren": 4470,
      "access": 4471,
      "rush": 4472,
      "##ission": 4473,
      "##cent": 4474,
      "bomb": 4475,
      "gym": 4476,
      "##ients": 4477,
      "electronic": 4478,
      "##aret": 4479,
      "##inary": 4480,
      "##andel": 4481,
      "##cul": 4482,
      "##ae": 4483,
      "bee": 4484,
      "switch": 4485,
      "bare": 4486,
      "account": 4487,
      "absolute": 4488,
      "wings": 4489,
      "remo": 4490,
      "lawn": 4491,
      "skateboard": 4492,
      "questions": 4493,
      "drums": 4494,
      "24": 4495,
      "remark": 4496,
      "rice": 4497,
      "celebration": 4498,
      "##lie": 4499,
      "accept": 4500,
      "##aced": 4501,
      "chic": 4502,
      "steam": 4503,
      "##walk": 4504,
      "elder": 4505,
      "spirit": 4506,
      "sell": 4507,
      "tries": 4508,
      "northern": 4509,
      "bunch": 4510,
      "falls": 4511,
      "soil": 4512,
      "boo": 4513,
      "stack": 4514,
      "nur": 4515,
      "student": 4516,
      "##rove": 4517,
      "needed": 4518,
      "section": 4519,
      "aged": 4520,
      "##cast": 4521,
      "america": 4522,
      "types": 4523,
      "covers": 4524,
      "fighting": 4525,
      "grave": 4526,
      "dollars": 4527,
      "bigger": 4528,
      "enc": 4529,
      "##reme": 4530,
      "introd": 4531,
      "hate": 4532,
      "kar": 4533,
      "ladder": 4534,
      "necess": 4535,
      "council": 4536,
      "loi": 4537,
      "##ship": 4538,
      "kat": 4539,
      "mixed": 4540,
      "fifty": 4541,
      "process": 4542,
      "agre": 4543,
      "##roud": 4544,
      "aff": 4545,
      "lit": 4546,
      "spoons": 4547,
      "arrives": 4548,
      "##isher": 4549,
      "mini": 4550,
      "##ille": 4551,
      "amazing": 4552,
      "gather": 4553,
      "james": 4554,
      "##ird": 4555,
      "label": 4556,
      "organization": 4557,
      "role": 4558,
      "afric": 4559,
      "transport": 4560,
      "lamps": 4561,
      "inj": 4562,
      "plain": 4563,
      "ornament": 4564,
      "available": 4565,
      "surprise": 4566,
      "##pack": 4567,
      "device": 4568,
      "sandy": 4569,
      "spark": 4570,
      "wallp": 4571,
      "footballer": 4572,
      "constit": 4573,
      "butt": 4574,
      "grun": 4575,
      "grew": 4576,
      "towel": 4577,
      "beyond": 4578,
      "angle": 4579,
      "icons": 4580,
      "possib": 4581,
      "mc": 4582,
      "medical": 4583,
      "pavement": 4584,
      "media": 4585,
      "chem": 4586,
      "##kins": 4587,
      "ate": 4588,
      "iv": 4589,
      "views": 4590,
      "province": 4591,
      "mask": 4592,
      "zoo": 4593,
      "equipment": 4594,
      "respect": 4595,
      "##anes": 4596,
      "doc": 4597,
      "##porary": 4598,
      "##ett": 4599,
      "desp": 4600,
      "lin": 4601,
      "waters": 4602,
      "seas": 4603,
      "kitty": 4604,
      "##onstr": 4605,
      "racks": 4606,
      "##nie": 4607,
      "fourth": 4608,
      "los": 4609,
      "earlier": 4610,
      "refer": 4611,
      "bushes": 4612,
      "jwww": 4613,
      "farmer": 4614,
      "statues": 4615,
      "angel": 4616,
      "amb": 4617,
      "groups": 4618,
      "cooking": 4619,
      "audience": 4620,
      "brid": 4621,
      "crayon": 4622,
      "##ented": 4623,
      "designer": 4624,
      "total": 4625,
      "problems": 4626,
      "rocky": 4627,
      "amount": 4628,
      "hurry": 4629,
      "##idden": 4630,
      "font": 4631,
      "clever": 4632,
      "sev": 4633,
      "dram": 4634,
      "adventure": 4635,
      "paid": 4636,
      "climbing": 4637,
      "tues": 4638,
      "friendly": 4639,
      "medic": 4640,
      "liquid": 4641,
      "##bra": 4642,
      "globe": 4643,
      "##iron": 4644,
      "grab": 4645,
      "tuesday": 4646,
      "wing": 4647,
      "##rete": 4648,
      ".'": 4649,
      "mention": 4650,
      "sant": 4651,
      "employ": 4652,
      "fireworks": 4653,
      "##hael": 4654,
      "commune": 4655,
      "neighborhood": 4656,
      "##inist": 4657,
      "projector": 4658,
      "printed": 4659,
      "umbrellas": 4660,
      "purp": 4661,
      "22": 4662,
      "vir": 4663,
      "officers": 4664,
      "alive": 4665,
      "potato": 4666,
      "##illa": 4667,
      "areas": 4668,
      "anx": 4669,
      "genus": 4670,
      "shit": 4671,
      "parking": 4672,
      "pencil": 4673,
      "stun": 4674,
      "soldier": 4675,
      "facing": 4676,
      "##rical": 4677,
      "##ening": 4678,
      "title": 4679,
      "asking": 4680,
      "##aker": 4681,
      "puzzle": 4682,
      "tar": 4683,
      "shouldn": 4684,
      "grandma": 4685,
      "skirt": 4686,
      "practice": 4687,
      "dustb": 4688,
      "ol": 4689,
      "picked": 4690,
      "championship": 4691,
      "rings": 4692,
      "conference": 4693,
      "##ences": 4694,
      "interested": 4695,
      "abandoned": 4696,
      "missing": 4697,
      "mount": 4698,
      "##oot": 4699,
      "##athered": 4700,
      "rese": 4701,
      "##head": 4702,
      "bricks": 4703,
      "environ": 4704,
      "##nding": 4705,
      "fixed": 4706,
      "destroy": 4707,
      "relations": 4708,
      "watercol": 4709,
      "wednes": 4710,
      "luxury": 4711,
      "blues": 4712,
      "winner": 4713,
      "posing": 4714,
      "wednesday": 4715,
      "##ii": 4716,
      "##sty": 4717,
      "##leep": 4718,
      "##tering": 4719,
      "smiles": 4720,
      "2017": 4721,
      "pale": 4722,
      "ox": 4723,
      "poo": 4724,
      "thin": 4725,
      "ident": 4726,
      "shops": 4727,
      "hiding": 4728,
      "concrete": 4729,
      "stories": 4730,
      "begins": 4731,
      "##medi": 4732,
      "weight": 4733,
      "thurs": 4734,
      "strip": 4735,
      "gh": 4736,
      "backpack": 4737,
      "file": 4738,
      "dim": 4739,
      "asleep": 4740,
      "michael": 4741,
      "quality": 4742,
      "fucking": 4743,
      "thursday": 4744,
      "ribbon": 4745,
      "roo": 4746,
      "liked": 4747,
      "hero": 4748,
      "robert": 4749,
      "sixt": 4750,
      "wallpaper": 4751,
      "ken": 4752,
      "actress": 4753,
      "sandwich": 4754,
      "balcon": 4755,
      "##sie": 4756,
      "newspaper": 4757,
      "##arters": 4758,
      "offer": 4759,
      "research": 4760,
      "uses": 4761,
      "union": 4762,
      "pause": 4763,
      "eve": 4764,
      "ris": 4765,
      "rainbow": 4766,
      "##ipped": 4767,
      "proud": 4768,
      "skull": 4769,
      "##ige": 4770,
      "terrible": 4771,
      "refr": 4772,
      "unless": 4773,
      "##ended": 4774,
      "collage": 4775,
      "##xic": 4776,
      "laid": 4777,
      "prec": 4778,
      "bucket": 4779,
      "soci": 4780,
      "urs": 4781,
      "##rian": 4782,
      "scoring": 4783,
      "##ggy": 4784,
      "cens": 4785,
      "sour": 4786,
      "##ires": 4787,
      "trend": 4788,
      "surprised": 4789,
      "nina": 4790,
      "##bye": 4791,
      "wake": 4792,
      "##ulture": 4793,
      "notice": 4794,
      "join": 4795,
      "helped": 4796,
      "dolly": 4797,
      "flowing": 4798,
      "healthy": 4799,
      "aer": 4800,
      "cries": 4801,
      "footage": 4802,
      "saf": 4803,
      "cig": 4804,
      "horn": 4805,
      "geometric": 4806,
      "23": 4807,
      "ing": 4808,
      "##iel": 4809,
      "ver": 4810,
      "##epend": 4811,
      "shirts": 4812,
      "cottage": 4813,
      "##itude": 4814,
      "temper": 4815,
      "motorcycle": 4816,
      "non": 4817,
      "include": 4818,
      "cycl": 4819,
      "cafe": 4820,
      "faith": 4821,
      "50": 4822,
      "designs": 4823,
      "sens": 4824,
      "likely": 4825,
      "mam": 4826,
      "hea": 4827,
      "brain": 4828,
      "calling": 4829,
      "movement": 4830,
      "smartphone": 4831,
      "walkway": 4832,
      "2021": 4833,
      "##ica": 4834,
      "rout": 4835,
      "wheat": 4836,
      "uk": 4837,
      "resting": 4838,
      "princess": 4839,
      "##isf": 4840,
      "##anda": 4841,
      "##iving": 4842,
      "independ": 4843,
      "bold": 4844,
      "harbour": 4845,
      "stup": 4846,
      "cous": 4847,
      "drinks": 4848,
      "fool": 4849,
      "environment": 4850,
      "twel": 4851,
      "immedi": 4852,
      "selling": 4853,
      "neg": 4854,
      "soul": 4855,
      "surfing": 4856,
      "##otion": 4857,
      "comic": 4858,
      "excited": 4859,
      "competition": 4860,
      "investig": 4861,
      "forgot": 4862,
      "nurs": 4863,
      "##ura": 4864,
      "affect": 4865,
      "throws": 4866,
      "##pping": 4867,
      "whoa": 4868,
      "##asant": 4869,
      "speaks": 4870,
      "remote": 4871,
      "aqu": 4872,
      "worn": 4873,
      "craw": 4874,
      "cities": 4875,
      "##otes": 4876,
      "guests": 4877,
      "pants": 4878,
      "fro": 4879,
      "taste": 4880,
      "squir": 4881,
      "pulled": 4882,
      "ven": 4883,
      "twelve": 4884,
      "choose": 4885,
      "spin": 4886,
      "caused": 4887,
      "laughed": 4888,
      "japanese": 4889,
      "snowy": 4890,
      "rooms": 4891,
      "visual": 4892,
      "##iant": 4893,
      "weap": 4894,
      "alph": 4895,
      "movies": 4896,
      "##rant": 4897,
      "tony": 4898,
      "delic": 4899,
      "jam": 4900,
      "##inct": 4901,
      "cookies": 4902,
      "honor": 4903,
      "heat": 4904,
      "ali": 4905,
      "patient": 4906,
      "uhoh": 4907,
      "countryside": 4908,
      "occasion": 4909,
      "pile": 4910,
      "prim": 4911,
      "profess": 4912,
      "luc": 4913,
      "bul": 4914,
      "regular": 4915,
      "##ographical": 4916,
      "fif": 4917,
      "cardboard": 4918,
      "'?": 4919,
      "##ius": 4920,
      "dragon": 4921,
      "##phones": 4922,
      "2022": 4923,
      "etc": 4924,
      "hoarding": 4925,
      "elephants": 4926,
      "pas": 4927,
      "copy": 4928,
      "census": 4929,
      "concern": 4930,
      "##anas": 4931,
      "highway": 4932,
      "rare": 4933,
      "experience": 4934,
      "grassland": 4935,
      "lips": 4936,
      "kick": 4937,
      "bert": 4938,
      "##verage": 4939,
      "##anced": 4940,
      "##can": 4941,
      "overlook": 4942,
      "southern": 4943,
      "railings": 4944,
      "##parent": 4945,
      "meaning": 4946,
      "pedest": 4947,
      "sunlight": 4948,
      "tiles": 4949,
      "exter": 4950,
      "accident": 4951,
      "##agement": 4952,
      "cough": 4953,
      "municip": 4954,
      "typical": 4955,
      "##otive": 4956,
      "italian": 4957,
      "py": 4958,
      "refriger": 4959,
      "ethnic": 4960,
      "calif": 4961,
      "throwing": 4962,
      "anne": 4963,
      "sauc": 4964,
      "remind": 4965,
      "##aled": 4966,
      "science": 4967,
      "opposite": 4968,
      "tong": 4969,
      "californ": 4970,
      "hut": 4971,
      "##alia": 4972,
      "contem": 4973,
      "rh": 4974,
      "tag": 4975,
      "simp": 4976,
      "pipes": 4977,
      "babies": 4978,
      "difference": 4979,
      "##engers": 4980,
      "garage": 4981,
      "promise": 4982,
      "lucky": 4983,
      "sque": 4984,
      "hood": 4985,
      "##chair": 4986,
      "discovered": 4987,
      "crit": 4988,
      "canal": 4989,
      "eag": 4990,
      "resc": 4991,
      "laptops": 4992,
      "bodies": 4993,
      "monarch": 4994,
      "##oms": 4995,
      "appl": 4996,
      "##lv": 4997,
      "grown": 4998,
      "##ez": 4999,
      "guns": 5000,
      "impress": 5001,
      "hyd": 5002,
      "tunn": 5003,
      "kitten": 5004,
      "education": 5005,
      "carol": 5006,
      "administ": 5007,
      "journey": 5008,
      "speakers": 5009,
      "notes": 5010,
      "aye": 5011,
      "pun": 5012,
      "##conom": 5013,
      "obv": 5014,
      "apples": 5015,
      "fairy": 5016,
      "##igs": 5017,
      "cable": 5018,
      "##book": 5019,
      "##...": 5020,
      "##ously": 5021,
      "elev": 5022,
      "kingdom": 5023,
      "banana": 5024,
      "satisf": 5025,
      "watercolor": 5026,
      "bite": 5027,
      "##wise": 5028,
      "rural": 5029,
      "craft": 5030,
      "acad": 5031,
      "chann": 5032,
      "knee": 5033,
      "mission": 5034,
      "##ription": 5035,
      "estab": 5036,
      "wound": 5037,
      "##oles": 5038,
      "helmets": 5039,
      "clipping": 5040,
      "bron": 5041,
      "heaven": 5042,
      "learned": 5043,
      "produced": 5044,
      "rise": 5045,
      "occup": 5046,
      "##bi": 5047,
      "##oph": 5048,
      "hip": 5049,
      "mug": 5050,
      "hardly": 5051,
      "deg": 5052,
      "##����": 5053,
      "appearance": 5054,
      "california": 5055,
      "entertain": 5056,
      "pounds": 5057,
      "##uses": 5058,
      "outf": 5059,
      "exterior": 5060,
      "workers": 5061,
      "teams": 5062,
      "absolutely": 5063,
      "alex": 5064,
      "wand": 5065,
      "tin": 5066,
      "##itely": 5067,
      "discover": 5068,
      "##atory": 5069,
      "econom": 5070,
      "indiv": 5071,
      "formed": 5072,
      "easily": 5073,
      "function": 5074,
      "imagine": 5075,
      "##urity": 5076,
      "chess": 5077,
      "pulling": 5078,
      "handsome": 5079,
      "scarf": 5080,
      "measure": 5081,
      "dick": 5082,
      "therefore": 5083,
      "##cell": 5084,
      "details": 5085,
      "situation": 5086,
      "tone": 5087,
      "hay": 5088,
      "directed": 5089,
      "dock": 5090,
      "individ": 5091,
      "##rial": 5092,
      "bless": 5093,
      "trib": 5094,
      "entered": 5095,
      "##iar": 5096,
      "stupid": 5097,
      "germany": 5098,
      "triang": 5099,
      "##isy": 5100,
      "costumes": 5101,
      "##aked": 5102,
      "prince": 5103,
      "events": 5104,
      "india": 5105,
      "particip": 5106,
      "passengers": 5107,
      "sculptures": 5108,
      "nurse": 5109,
      "pir": 5110,
      "carriage": 5111,
      "opport": 5112,
      "##back": 5113,
      "cale": 5114,
      "drew": 5115,
      "casual": 5116,
      "escape": 5117,
      "monster": 5118,
      "epis": 5119,
      "dol": 5120,
      "honest": 5121,
      "##pan": 5122,
      "extreme": 5123,
      "owl": 5124,
      "##fish": 5125,
      "ruins": 5126,
      "trains": 5127,
      "reaches": 5128,
      "stylish": 5129,
      "origin": 5130,
      "recently": 5131,
      "forty": 5132,
      "##boy": 5133,
      "theme": 5134,
      "##mod": 5135,
      "dustbin": 5136,
      "choice": 5137,
      "comedy": 5138,
      "##ware": 5139,
      "pregn": 5140,
      "liter": 5141,
      "influ": 5142,
      "condition": 5143,
      "slee": 5144,
      "demonstr": 5145,
      "wolf": 5146,
      "neckl": 5147,
      "dor": 5148,
      "palace": 5149,
      "pleasure": 5150,
      "mars": 5151,
      "manager": 5152,
      "shapes": 5153,
      "##othing": 5154,
      "multi": 5155,
      "upstairs": 5156,
      "crash": 5157,
      "simply": 5158,
      "harry": 5159,
      "fright": 5160,
      "opportun": 5161,
      "##uten": 5162,
      "rolling": 5163,
      "jun": 5164,
      "lid": 5165,
      "##otten": 5166,
      "##ita": 5167,
      "watched": 5168,
      "dun": 5169,
      "drama": 5170,
      "expected": 5171,
      "##ask": 5172,
      "illustrations": 5173,
      "racket": 5174,
      "##pered": 5175,
      "streng": 5176,
      "parade": 5177,
      "announced": 5178,
      "islands": 5179,
      "strength": 5180,
      "respons": 5181,
      "##ception": 5182,
      "indoors": 5183,
      "##ography": 5184,
      "unique": 5185,
      "sunsh": 5186,
      "mush": 5187,
      "sett": 5188,
      "textured": 5189,
      "arrive": 5190,
      "guest": 5191,
      "##inese": 5192,
      "determ": 5193,
      "toast": 5194,
      "zebra": 5195,
      "buttons": 5196,
      "##water": 5197,
      "thus": 5198,
      "picking": 5199,
      "gaz": 5200,
      "worse": 5201,
      "conduct": 5202,
      "administr": 5203,
      "dangerous": 5204,
      "##ocr": 5205,
      "deliver": 5206,
      "socks": 5207,
      "##zer": 5208,
      "metall": 5209,
      "naught": 5210,
      "successful": 5211,
      "dramatic": 5212,
      "slide": 5213,
      "fancy": 5214,
      "shining": 5215,
      "forth": 5216,
      "native": 5217,
      "staff": 5218,
      "dollar": 5219,
      "camer": 5220,
      "rugby": 5221,
      "plans": 5222,
      "disp": 5223,
      "assist": 5224,
      "bunny": 5225,
      "magn": 5226,
      "dus": 5227,
      "##sidered": 5228,
      "commer": 5229,
      "flock": 5230,
      "duty": 5231,
      "chinese": 5232,
      "professor": 5233,
      "chest": 5234,
      "##tion": 5235,
      "##gen": 5236,
      "considered": 5237,
      "oops": 5238,
      "chef": 5239,
      "talks": 5240,
      "tips": 5241,
      "sweater": 5242,
      "blazer": 5243,
      "refrigerator": 5244,
      "bananas": 5245,
      "correct": 5246,
      "sunshine": 5247,
      "aft": 5248,
      "paris": 5249,
      "pumpkin": 5250,
      "##tail": 5251,
      "sets": 5252,
      "##etic": 5253,
      "2010": 5254,
      "security": 5255,
      "visitors": 5256,
      "demand": 5257,
      "sha": 5258,
      "##erve": 5259,
      "##how": 5260,
      "cupc": 5261,
      "ropes": 5262,
      "tooth": 5263,
      "eleg": 5264,
      "talked": 5265,
      "##tered": 5266,
      "seats": 5267,
      "biggest": 5268,
      "address": 5269,
      "childes_na": 5270,
      "feeding": 5271,
      "magic": 5272,
      "26": 5273,
      "shiny": 5274,
      "facade": 5275,
      "lonely": 5276,
      "rot": 5277,
      "prepared": 5278,
      "spanish": 5279,
      "jesus": 5280,
      "2011": 5281,
      "fer": 5282,
      "skysc": 5283,
      "skyscrap": 5284,
      "metallic": 5285,
      "agree": 5286,
      "guide": 5287,
      "racing": 5288,
      "balcony": 5289,
      "lan": 5290,
      "##acters": 5291,
      "higher": 5292,
      "keys": 5293,
      "som": 5294,
      "missed": 5295,
      "##usion": 5296,
      "characters": 5297,
      "parish": 5298,
      "mesh": 5299,
      "##orial": 5300,
      "cherry": 5301,
      "2019": 5302,
      "shooting": 5303,
      "bene": 5304,
      "songs": 5305,
      "gorge": 5306,
      "division": 5307,
      "##chan": 5308,
      "includes": 5309,
      "oak": 5310,
      "ward": 5311,
      "##apping": 5312,
      "clown": 5313,
      "opens": 5314,
      "nom": 5315,
      "##aling": 5316,
      "##ville": 5317,
      "bloss": 5318,
      "beck": 5319,
      "sarah": 5320,
      "gab": 5321,
      "##alist": 5322,
      "variety": 5323,
      "##enger": 5324,
      "elderly": 5325,
      "bark": 5326,
      "jet": 5327,
      "illum": 5328,
      "manner": 5329,
      "resident": 5330,
      "coins": 5331,
      "smaller": 5332,
      "benef": 5333,
      "lemon": 5334,
      "27": 5335,
      "scott": 5336,
      "throughout": 5337,
      "regard": 5338,
      "fabric": 5339,
      "mostly": 5340,
      "development": 5341,
      "ducks": 5342,
      "arg": 5343,
      "bump": 5344,
      "sac": 5345,
      "youth": 5346,
      "amp": 5347,
      "goodness": 5348,
      "enemy": 5349,
      "relaxing": 5350,
      "fund": 5351,
      "##uced": 5352,
      "arrange": 5353,
      "exist": 5354,
      "grapes": 5355,
      "drug": 5356,
      "191": 5357,
      "silhouettes": 5358,
      "cycle": 5359,
      "fully": 5360,
      "eastern": 5361,
      ".,": 5362,
      "liber": 5363,
      "tan": 5364,
      "##ultural": 5365,
      "##orough": 5366,
      "tunnel": 5367,
      "declared": 5368,
      "thinks": 5369,
      "purpose": 5370,
      "parli": 5371,
      "28": 5372,
      "##ading": 5373,
      "interrup": 5374,
      "anywhere": 5375,
      "(\"": 5376,
      "frozen": 5377,
      "astr": 5378,
      "mont": 5379,
      "lies": 5380,
      "happening": 5381,
      "antique": 5382,
      "exhib": 5383,
      "exec": 5384,
      "screens": 5385,
      "urban": 5386,
      "salad": 5387,
      "reco": 5388,
      "sav": 5389,
      "geographical": 5390,
      "##ola": 5391,
      "jung": 5392,
      "closer": 5393,
      "soup": 5394,
      "threw": 5395,
      "safety": 5396,
      "chart": 5397,
      "society": 5398,
      "pear": 5399,
      "shoulders": 5400,
      "shelter": 5401,
      "parliament": 5402,
      "compl": 5403,
      "mushroom": 5404,
      "arrest": 5405,
      "towers": 5406,
      "bart": 5407,
      "##oted": 5408,
      "sem": 5409,
      "victory": 5410,
      "cave": 5411,
      "depend": 5412,
      "slightly": 5413,
      "##don": 5414,
      "##ache": 5415,
      "apparent": 5416,
      "##hire": 5417,
      "complex": 5418,
      "naughty": 5419,
      "products": 5420,
      "basin": 5421,
      "yach": 5422,
      "nick": 5423,
      "##adows": 5424,
      "harv": 5425,
      "necklace": 5426,
      "preparing": 5427,
      "##hips": 5428,
      "##che": 5429,
      "ended": 5430,
      "##opl": 5431,
      "prime": 5432,
      "whispered": 5433,
      "kinds": 5434,
      "cruise": 5435,
      "bears": 5436,
      "pouring": 5437,
      "gallery": 5438,
      "european": 5439,
      "families": 5440,
      "jose": 5441,
      "##off": 5442,
      "industrial": 5443,
      "immediately": 5444,
      "29": 5445,
      "##urb": 5446,
      "##lands": 5447,
      "winds": 5448,
      "picnic": 5449,
      "owner": 5450,
      "drum": 5451,
      "##wear": 5452,
      "##enth": 5453,
      "twice": 5454,
      "hook": 5455,
      "hats": 5456,
      "machines": 5457,
      "##sers": 5458,
      "helping": 5459,
      "install": 5460,
      "writer": 5461,
      "aust": 5462,
      "recipe": 5463,
      "cage": 5464,
      "##uf": 5465,
      "shorts": 5466,
      "sciss": 5467,
      "screw": 5468,
      "rent": 5469,
      "australia": 5470,
      "##athers": 5471,
      "expression": 5472,
      "##ray": 5473,
      "bronze": 5474,
      "##otic": 5475,
      "channel": 5476,
      "cus": 5477,
      "cred": 5478,
      "##eter": 5479,
      "estate": 5480,
      "believed": 5481,
      "##bag": 5482,
      "goin": 5483,
      "dere": 5484,
      "##aud": 5485,
      "william": 5486,
      "beneath": 5487,
      "presents": 5488,
      "solar": 5489,
      "contemporary": 5490,
      "mexic": 5491,
      "struck": 5492,
      "batter": 5493,
      "patterns": 5494,
      "richard": 5495,
      "graff": 5496,
      "sunfl": 5497,
      "creature": 5498,
      "##born": 5499,
      "yo": 5500,
      "brill": 5501,
      "saved": 5502,
      "trousers": 5503,
      "cousin": 5504,
      "]!": 5505,
      "armed": 5506,
      "brave": 5507,
      "everywhere": 5508,
      "##mos": 5509,
      "##ida": 5510,
      "##ndered": 5511,
      "arrow": 5512,
      "##esty": 5513,
      "##ala": 5514,
      "china": 5515,
      "bubbles": 5516,
      "minim": 5517,
      "##mother": 5518,
      "crime": 5519,
      "coral": 5520,
      "reef": 5521,
      "boss": 5522,
      "crane": 5523,
      "breaking": 5524,
      "##aging": 5525,
      "pengu": 5526,
      "vacation": 5527,
      "santa": 5528,
      "link": 5529,
      "interview": 5530,
      "drag": 5531,
      "unc": 5532,
      "mail": 5533,
      "knight": 5534,
      "calls": 5535,
      "##va": 5536,
      "##abel": 5537,
      "progress": 5538,
      "qual": 5539,
      "depic": 5540,
      "chalk": 5541,
      "##tub": 5542,
      "surv": 5543,
      "annual": 5544,
      "scale": 5545,
      "graffiti": 5546,
      "##ective": 5547,
      "gathered": 5548,
      "poll": 5549,
      "##down": 5550,
      "lee": 5551,
      "poet": 5552,
      "harbor": 5553,
      "carefully": 5554,
      "mans": 5555,
      "string": 5556,
      "production": 5557,
      "threat": 5558,
      "##ential": 5559,
      "yog": 5560,
      "utter": 5561,
      "possibly": 5562,
      "sharing": 5563,
      "election": 5564,
      "pregnant": 5565,
      "finding": 5566,
      "lighting": 5567,
      "involved": 5568,
      "##ales": 5569,
      "squirrel": 5570,
      "dusk": 5571,
      "shake": 5572,
      "transparent": 5573,
      "indic": 5574,
      "ingred": 5575,
      "trouser": 5576,
      "australian": 5577,
      "##here": 5578,
      "grain": 5579,
      "bisc": 5580,
      "fictional": 5581,
      "aside": 5582,
      "russian": 5583,
      "##oise": 5584,
      "##----------------": 5585,
      "henry": 5586,
      "dough": 5587,
      "trick": 5588,
      "online": 5589,
      "chandel": 5590,
      "marg": 5591,
      "connected": 5592,
      "necessary": 5593,
      "clothing": 5594,
      "settle": 5595,
      "shock": 5596,
      "charles": 5597,
      "rhy": 5598,
      "deity": 5599,
      "factory": 5600,
      "##yer": 5601,
      "keeps": 5602,
      "salt": 5603,
      "mechan": 5604,
      "troll": 5605,
      "##wr": 5606,
      "neither": 5607,
      "2016": 5608,
      "##over": 5609,
      "gardens": 5610,
      "perfectly": 5611,
      "nursery": 5612,
      "changes": 5613,
      "##aped": 5614,
      "needta": 5615,
      "##onde": 5616,
      "kissing": 5617,
      "usual": 5618,
      "strugg": 5619,
      "definitely": 5620,
      "tongue": 5621,
      "trucks": 5622,
      "normal": 5623,
      "claim": 5624,
      "broth": 5625,
      "viewed": 5626,
      "gran": 5627,
      "cigaret": 5628,
      "beds": 5629,
      "rendering": 5630,
      "##ene": 5631,
      "hadn": 5632,
      "whisper": 5633,
      "jane": 5634,
      "cookie": 5635,
      "##aign": 5636,
      "prior": 5637,
      "warning": 5638,
      "crowds": 5639,
      "stunning": 5640,
      "photograp": 5641,
      "##anor": 5642,
      "instit": 5643,
      "artic": 5644,
      "wreath": 5645,
      "agreed": 5646,
      "##idents": 5647,
      "louis": 5648,
      "grace": 5649,
      "##the": 5650,
      "##eping": 5651,
      "explain": 5652,
      "governor": 5653,
      "na": 5654,
      "services": 5655,
      "tools": 5656,
      "exercise": 5657,
      "chall": 5658,
      "tomatoes": 5659,
      "greenery": 5660,
      "animation": 5661,
      "charlie": 5662,
      "kite": 5663,
      "rules": 5664,
      "favour": 5665,
      "shark": 5666,
      "goat": 5667,
      "##izing": 5668,
      "highest": 5669,
      "martin": 5670,
      "##rey": 5671,
      "##mond": 5672,
      "buck": 5673,
      "rapid": 5674,
      "ripe": 5675,
      "##vey": 5676,
      "fisher": 5677,
      "tears": 5678,
      "cit": 5679,
      "##gging": 5680,
      "steven": 5681,
      "gentleman": 5682,
      "softly": 5683,
      "leaning": 5684,
      "unus": 5685,
      "pulls": 5686,
      "roz": 5687,
      "clip": 5688,
      "plus": 5689,
      "frost": 5690,
      "arab": 5691,
      "splash": 5692,
      "ross": 5693,
      "commercial": 5694,
      "published": 5695,
      "##oid": 5696,
      "##ago": 5697,
      "banks": 5698,
      "stores": 5699,
      "psy": 5700,
      "imm": 5701,
      "managed": 5702,
      "serving": 5703,
      "sauce": 5704,
      "##berg": 5705,
      "catching": 5706,
      "passes": 5707,
      "ess": 5708,
      "todd": 5709,
      "photography": 5710,
      "##eme": 5711,
      "sidewalk": 5712,
      "garment": 5713,
      "founded": 5714,
      "campaign": 5715,
      "traveling": 5716,
      "skiing": 5717,
      "##burg": 5718,
      "bonnet": 5719,
      "soap": 5720,
      "pleased": 5721,
      "cabinet": 5722,
      "##hol": 5723,
      "photographed": 5724,
      "grazing": 5725,
      "2014": 5726,
      "symbols": 5727,
      "expensive": 5728,
      "porch": 5729,
      "outfit": 5730,
      "thousands": 5731,
      "eager": 5732,
      "tournament": 5733,
      "sighs": 5734,
      "cris": 5735,
      "micro": 5736,
      "##oli": 5737,
      "coin": 5738,
      "extend": 5739,
      "tide": 5740,
      "aeropl": 5741,
      "##night": 5742,
      "whoops": 5743,
      "historical": 5744,
      "wrapped": 5745,
      "##flies": 5746,
      "##af": 5747,
      "stained": 5748,
      "les": 5749,
      "medicine": 5750,
      "contro": 5751,
      "texas": 5752,
      "shaking": 5753,
      "mall": 5754,
      "resort": 5755,
      "hidden": 5756,
      "saus": 5757,
      "##istan": 5758,
      "theat": 5759,
      "playground": 5760,
      "ghost": 5761,
      "creative": 5762,
      "barb": 5763,
      "hmm": 5764,
      "##ller": 5765,
      "2015": 5766,
      "damn": 5767,
      "ric": 5768,
      "wit": 5769,
      "darkness": 5770,
      "reflected": 5771,
      "##ribe": 5772,
      "respond": 5773,
      "##stage": 5774,
      "dy": 5775,
      "jers": 5776,
      "baskets": 5777,
      "eagle": 5778,
      "##aily": 5779,
      "dolph": 5780,
      "larger": 5781,
      "lantern": 5782,
      "height": 5783,
      "totally": 5784,
      "dirt": 5785,
      "buds": 5786,
      "chuckles": 5787,
      "flood": 5788,
      "tip": 5789,
      "##emb": 5790,
      "firm": 5791,
      "remain": 5792,
      "turtle": 5793,
      "candy": 5794,
      "continue": 5795,
      "eleanor": 5796,
      "directly": 5797,
      "##anges": 5798,
      "##rid": 5799,
      "##ify": 5800,
      "worried": 5801,
      "vegetable": 5802,
      "gradu": 5803,
      "network": 5804,
      "reception": 5805,
      "otherwise": 5806,
      "democr": 5807,
      "shade": 5808,
      "##well": 5809,
      "medal": 5810,
      "nav": 5811,
      "##box": 5812,
      "chris": 5813,
      "()": 5814,
      "captured": 5815,
      "thro": 5816,
      "gorgeous": 5817,
      "##abet": 5818,
      "holy": 5819,
      "opportunity": 5820,
      "mile": 5821,
      "flash": 5822,
      "##estic": 5823,
      "prize": 5824,
      "weak": 5825,
      "adj": 5826,
      "smooth": 5827,
      "whist": 5828,
      "##using": 5829,
      "imposs": 5830,
      "containers": 5831,
      "##iring": 5832,
      "scrat": 5833,
      "lighthouse": 5834,
      "marriage": 5835,
      "element": 5836,
      "appears": 5837,
      "mut": 5838,
      "##teen": 5839,
      "##eld": 5840,
      "judge": 5841,
      "culture": 5842,
      "##isters": 5843,
      "sword": 5844,
      "calend": 5845,
      "navy": 5846,
      "zoom": 5847,
      "shell": 5848,
      "included": 5849,
      "lor": 5850,
      "gifts": 5851,
      "##iest": 5852,
      "wrest": 5853,
      "asse": 5854,
      "evidence": 5855,
      "chemical": 5856,
      "loose": 5857,
      "buff": 5858,
      "tells": 5859,
      "decorations": 5860,
      "lace": 5861,
      "dip": 5862,
      "headqu": 5863,
      "internet": 5864,
      "flies": 5865,
      "brings": 5866,
      "surrounding": 5867,
      "tack": 5868,
      "2012": 5869,
      "rustic": 5870,
      "bra": 5871,
      "pepp": 5872,
      "shakes": 5873,
      "photographs": 5874,
      "math": 5875,
      "earn": 5876,
      "dishes": 5877,
      "fold": 5878,
      "hug": 5879,
      "figures": 5880,
      "rainy": 5881,
      "polic": 5882,
      "##ively": 5883,
      "##enced": 5884,
      "diag": 5885,
      "##han": 5886,
      "##ieval": 5887,
      "loss": 5888,
      "pleasant": 5889,
      "lieuten": 5890,
      "oo": 5891,
      "excell": 5892,
      "stir": 5893,
      "carved": 5894,
      "highlight": 5895,
      "appre": 5896,
      "herd": 5897,
      "standard": 5898,
      "burst": 5899,
      "teenage": 5900,
      "pages": 5901,
      "reb": 5902,
      "##ulous": 5903,
      "dise": 5904,
      "elegant": 5905,
      "electrical": 5906,
      "##bell": 5907,
      "builder": 5908,
      "fault": 5909,
      "obviously": 5910,
      "##ki": 5911,
      "##den": 5912,
      "brief": 5913,
      "scot": 5914,
      "fifteen": 5915,
      "ske": 5916,
      "##oman": 5917,
      "medieval": 5918,
      "chim": 5919,
      "comfortable": 5920,
      "downstairs": 5921,
      "##ointed": 5922,
      "fred": 5923,
      "evident": 5924,
      "evil": 5925,
      "seconds": 5926,
      "hits": 5927,
      "sticker": 5928,
      "brilliant": 5929,
      "overlooking": 5930,
      "pressure": 5931,
      "spotted": 5932,
      "##ledge": 5933,
      "puppet": 5934,
      "suitcase": 5935,
      "thou": 5936,
      "rights": 5937,
      "terms": 5938,
      "40": 5939,
      "peas": 5940,
      "trade": 5941,
      "enjoyed": 5942,
      "##vere": 5943,
      "gently": 5944,
      "forever": 5945,
      "issue": 5946,
      "##ule": 5947,
      "colourful": 5948,
      "goo": 5949,
      "grandmother": 5950,
      "##for": 5951,
      "haha": 5952,
      "clearly": 5953,
      "hallow": 5954,
      "journ": 5955,
      "##inger": 5956,
      "anch": 5957,
      "inner": 5958,
      "##phere": 5959,
      "impossible": 5960,
      "##aws": 5961,
      "loves": 5962,
      "dreams": 5963,
      "gigg": 5964,
      "unit": 5965,
      "brothers": 5966,
      "der": 5967,
      "disease": 5968,
      "##mill": 5969,
      "retired": 5970,
      "related": 5971,
      "meth": 5972,
      "basic": 5973,
      "positive": 5974,
      "##ex": 5975,
      "jars": 5976,
      "association": 5977,
      "awful": 5978,
      "pure": 5979,
      "summit": 5980,
      "classroom": 5981,
      ":=": 5982,
      "##py": 5983,
      "changing": 5984,
      "sew": 5985,
      "adam": 5986,
      "percent": 5987,
      "jungle": 5988,
      "blonde": 5989,
      "decoration": 5990,
      "2008": 5991,
      "contract": 5992,
      "rule": 5993,
      "strawberries": 5994,
      "##pe": 5995,
      "lieutenant": 5996,
      "shared": 5997,
      "supper": 5998,
      "bringing": 5999,
      "rate": 6000,
      "##name": 6001,
      "blog": 6002,
      "##rier": 6003,
      "calendar": 6004,
      "mumm": 6005,
      "hanged": 6006,
      "cases": 6007,
      "episode": 6008,
      "lined": 6009,
      "currently": 6010,
      "rides": 6011,
      "surfboard": 6012,
      "hoardings": 6013,
      "##pa": 6014,
      "##ims": 6015,
      "##nds": 6016,
      "bug": 6017,
      "noticed": 6018,
      "##lict": 6019,
      "ninet": 6020,
      "stayed": 6021,
      "##sters": 6022,
      "astron": 6023,
      "fant": 6024,
      "freed": 6025,
      "schools": 6026,
      "buying": 6027,
      "serve": 6028,
      "greatest": 6029,
      "bloody": 6030,
      "inqu": 6031,
      "grant": 6032,
      "helps": 6033,
      "portion": 6034,
      "##vin": 6035,
      "worship": 6036,
      "nut": 6037,
      "##road": 6038,
      "activity": 6039,
      "saucer": 6040,
      "lem": 6041,
      "instruct": 6042,
      "butterflies": 6043,
      "daily": 6044,
      "nons": 6045,
      "contact": 6046,
      "panor": 6047,
      "##bble": 6048,
      "##keys": 6049,
      "bout": 6050,
      "spoken": 6051,
      "borders": 6052,
      "shadows": 6053,
      "invitation": 6054,
      "2009": 6055,
      "pens": 6056,
      "nea": 6057,
      "yup": 6058,
      "seeds": 6059,
      "hairsty": 6060,
      "##father": 6061,
      "2007": 6062,
      "dump": 6063,
      "owned": 6064,
      "ign": 6065,
      "apparently": 6066,
      "folk": 6067,
      "boxer": 6068,
      "learning": 6069,
      "...?": 6070,
      "dolls": 6071,
      "cameras": 6072,
      "franc": 6073,
      "effort": 6074,
      "els": 6075,
      "quietly": 6076,
      "cathed": 6077,
      "residential": 6078,
      "beans": 6079,
      "00": 6080,
      "drone": 6081,
      "##ero": 6082,
      "handbag": 6083,
      "slice": 6084,
      "patr": 6085,
      "smoking": 6086,
      "##tim": 6087,
      "julia": 6088,
      "##gged": 6089,
      "federal": 6090,
      "occur": 6091,
      "headquarters": 6092,
      "##vas": 6093,
      "congr": 6094,
      "communic": 6095,
      "nu": 6096,
      "buses": 6097,
      "headphones": 6098,
      "artists": 6099,
      "solid": 6100,
      "##etti": 6101,
      "##lers": 6102,
      "2013": 6103,
      "powerful": 6104,
      "##bage": 6105,
      "ais": 6106,
      "sib": 6107,
      "holidays": 6108,
      ",'": 6109,
      "cakes": 6110,
      "ras": 6111,
      "easter": 6112,
      "smith": 6113,
      "sym": 6114,
      "31": 6115,
      "taught": 6116,
      "easier": 6117,
      "forces": 6118,
      "campus": 6119,
      "fridge": 6120,
      "displayed": 6121,
      "trophy": 6122,
      "mate": 6123,
      "nails": 6124,
      "younger": 6125,
      "##da": 6126,
      "striped": 6127,
      "fellows": 6128,
      "lane": 6129,
      "pushing": 6130,
      "eleven": 6131,
      "bikes": 6132,
      "describe": 6133,
      "knees": 6134,
      "wheelchair": 6135,
      "temperature": 6136,
      "scary": 6137,
      "feels": 6138,
      "##bal": 6139,
      "signed": 6140,
      "alongside": 6141,
      "2006": 6142,
      "##olet": 6143,
      "underne": 6144,
      "corpor": 6145,
      "chips": 6146,
      "##nown": 6147,
      "##itors": 6148,
      "skill": 6149,
      "canada": 6150,
      "underneath": 6151,
      "halloween": 6152,
      "forgotten": 6153,
      "##onse": 6154,
      "relationship": 6155,
      "weird": 6156,
      "##ulated": 6157,
      "perm": 6158,
      "athlet": 6159,
      "##ios": 6160,
      "rat": 6161,
      "##och": 6162,
      "scrap": 6163,
      "##la": 6164,
      "##igr": 6165,
      "committ": 6166,
      "##ental": 6167,
      "atmos": 6168,
      "via": 6169,
      "##agne": 6170,
      "orders": 6171,
      "cheerful": 6172,
      "capt": 6173,
      "acqu": 6174,
      "##itter": 6175,
      "victor": 6176,
      "kf": 6177,
      "mistake": 6178,
      "##eman": 6179,
      "memory": 6180,
      "assemb": 6181,
      "purch": 6182,
      "exhibition": 6183,
      "duh": 6184,
      "manuf": 6185,
      "##bras": 6186,
      "rand": 6187,
      "cancer": 6188,
      "newly": 6189,
      "accommod": 6190,
      "witch": 6191,
      "lt": 6192,
      "blackboard": 6193,
      "scoot": 6194,
      "promised": 6195,
      "soa": 6196,
      "##istics": 6197,
      "unknown": 6198,
      "featured": 6199,
      "foreign": 6200,
      "column": 6201,
      "recent": 6202,
      "##atives": 6203,
      "cathedral": 6204,
      "##rer": 6205,
      "##lyn": 6206,
      "##like": 6207,
      "coo": 6208,
      "invention": 6209,
      "fishes": 6210,
      "fifth": 6211,
      "##rie": 6212,
      "photographer": 6213,
      "bits": 6214,
      "monument": 6215,
      "describes": 6216,
      "ferry": 6217,
      "##ream": 6218,
      "tough": 6219,
      "##eer": 6220,
      "princ": 6221,
      "trolley": 6222,
      "circular": 6223,
      "genre": 6224,
      "heading": 6225,
      "##acks": 6226,
      "prepare": 6227,
      "waste": 6228,
      "explore": 6229,
      "cash": 6230,
      "##jo": 6231,
      "microphones": 6232,
      "coastal": 6233,
      "ug": 6234,
      "ordered": 6235,
      "harvest": 6236,
      "inning": 6237,
      "##cher": 6238,
      "violet": 6239,
      "lip": 6240,
      "murder": 6241,
      "wise": 6242,
      "moss": 6243,
      "##auc": 6244,
      "girlfriend": 6245,
      "financ": 6246,
      "annivers": 6247,
      "sin": 6248,
      "##mo": 6249,
      "realistic": 6250,
      "leads": 6251,
      "headed": 6252,
      "unusual": 6253,
      "incred": 6254,
      "neat": 6255,
      "thrill": 6256,
      "kim": 6257,
      "ry": 6258,
      "transform": 6259,
      "aeroplane": 6260,
      "##rew": 6261,
      "tile": 6262,
      "##vid": 6263,
      "italy": 6264,
      "gothic": 6265,
      "dare": 6266,
      "particularly": 6267,
      "lod": 6268,
      "covering": 6269,
      "##ado": 6270,
      "developed": 6271,
      "individual": 6272,
      "bol": 6273,
      "ly": 6274,
      "purdie": 6275,
      "anniversary": 6276,
      "pred": 6277,
      "tu": 6278,
      "review": 6279,
      "devices": 6280,
      "##ris": 6281,
      "opin": 6282,
      "landing": 6283,
      "passenger": 6284,
      "release": 6285,
      "intell": 6286,
      "##apt": 6287,
      "cattle": 6288,
      "statement": 6289,
      "bern": 6290,
      "##erp": 6291,
      "jumped": 6292,
      "stickers": 6293,
      "sung": 6294,
      "honour": 6295,
      "upset": 6296,
      "lyn": 6297,
      "sees": 6298,
      "detailed": 6299,
      "alphabet": 6300,
      "congrat": 6301,
      "[?": 6302,
      "spray": 6303,
      "despite": 6304,
      "jer": 6305,
      "loving": 6306,
      "##essie": 6307,
      "forced": 6308,
      "response": 6309,
      "gang": 6310,
      "##ulf": 6311,
      "steering": 6312,
      "horizon": 6313,
      "500": 6314,
      "wan": 6315,
      "##opher": 6316,
      "--\"": 6317,
      "remains": 6318,
      "feathers": 6319,
      ":)": 6320,
      "decision": 6321,
      "cliffs": 6322,
      "route": 6323,
      "formal": 6324,
      "circles": 6325,
      "tid": 6326,
      "formula": 6327,
      "advant": 6328,
      "tru": 6329,
      "willing": 6330,
      "celebrating": 6331,
      "jersey": 6332,
      "##worth": 6333,
      "##gin": 6334,
      "yoga": 6335,
      "mere": 6336,
      "treasure": 6337,
      "alarm": 6338,
      "brace": 6339,
      "previous": 6340,
      "##lla": 6341,
      "a2": 6342,
      "altern": 6343,
      "##cod": 6344,
      "##market": 6345,
      "reported": 6346,
      "ul": 6347,
      "es": 6348,
      "##eg": 6349,
      "haw": 6350,
      "distrib": 6351,
      "rays": 6352,
      "cocktail": 6353,
      "relief": 6354,
      "shades": 6355,
      "goodbye": 6356,
      "shield": 6357,
      "religion": 6358,
      "tul": 6359,
      "peoples": 6360,
      "ends": 6361,
      "confir": 6362,
      "chandelier": 6363,
      "##iance": 6364,
      "##ini": 6365,
      "consist": 6366,
      "gay": 6367,
      "ram": 6368,
      "recording": 6369,
      "risk": 6370,
      "presented": 6371,
      "##ari": 6372,
      "desce": 6373,
      "magnet": 6374,
      "reas": 6375,
      "peek": 6376,
      "offered": 6377,
      "##ca": 6378,
      "founder": 6379,
      "##front": 6380,
      "pony": 6381,
      "pud": 6382,
      "vine": 6383,
      "remained": 6384,
      "flore": 6385,
      "strike": 6386,
      "rubber": 6387,
      "##icing": 6388,
      "##iana": 6389,
      "generally": 6390,
      "removed": 6391,
      "source": 6392,
      "themed": 6393,
      "dow": 6394,
      "grassy": 6395,
      "active": 6396,
      "stamps": 6397,
      "olive": 6398,
      "yacht": 6399,
      "rivers": 6400,
      "washed": 6401,
      "depart": 6402,
      "saint": 6403,
      "physical": 6404,
      "2000": 6405,
      "fal": 6406,
      "##ette": 6407,
      "cone": 6408,
      "##what": 6409,
      "emerg": 6410,
      "hind": 6411,
      "roots": 6412,
      "##athan": 6413,
      "pilot": 6414,
      "##azz": 6415,
      "latest": 6416,
      "breed": 6417,
      "crossed": 6418,
      "appreci": 6419,
      "gentlemen": 6420,
      "oldest": 6421,
      "##plate": 6422,
      "seriously": 6423,
      "technology": 6424,
      "hed": 6425,
      "##eper": 6426,
      "sylv": 6427,
      "##hab": 6428,
      "##hile": 6429,
      "secretary": 6430,
      "nation": 6431,
      "##umber": 6432,
      "stops": 6433,
      "reaching": 6434,
      "greater": 6435,
      "shouts": 6436,
      "##ria": 6437,
      "thrown": 6438,
      "ot": 6439,
      "##reg": 6440,
      "separate": 6441,
      "##erson": 6442,
      "attended": 6443,
      "##jam": 6444,
      "signals": 6445,
      "excellent": 6446,
      "morrow": 6447,
      "##aries": 6448,
      "tube": 6449,
      "yum": 6450,
      "##igned": 6451,
      "trendy": 6452,
      "average": 6453,
      "mood": 6454,
      "##iot": 6455,
      "colours": 6456,
      "##attered": 6457,
      "producer": 6458,
      "stripes": 6459,
      "ratt": 6460,
      "broadcast": 6461,
      "raising": 6462,
      "destroyed": 6463,
      "jackets": 6464,
      "ax": 6465,
      "comedian": 6466,
      "hundreds": 6467,
      "thoughts": 6468,
      "reck": 6469,
      "kore": 6470,
      "canvas": 6471,
      "##olic": 6472,
      "staying": 6473,
      "egy": 6474,
      "packed": 6475,
      "scissors": 6476,
      "lugg": 6477,
      "anth": 6478,
      "adop": 6479,
      "strawberry": 6480,
      "surely": 6481,
      "tab": 6482,
      "##lets": 6483,
      "contest": 6484,
      "reasons": 6485,
      "##iration": 6486,
      "backyard": 6487,
      "crab": 6488,
      "suggested": 6489,
      "lil": 6490,
      "##west": 6491,
      "##ulty": 6492,
      "ourselves": 6493,
      "boot": 6494,
      "coloured": 6495,
      "snowman": 6496,
      "dancer": 6497,
      "champagne": 6498,
      "egypt": 6499,
      "dess": 6500,
      "committee": 6501,
      "##arian": 6502,
      "prefer": 6503,
      "worker": 6504,
      "dutch": 6505,
      "greek": 6506,
      "acting": 6507,
      "”.": 6508,
      "violin": 6509,
      "a1": 6510,
      "##cing": 6511,
      "slices": 6512,
      "bees": 6513,
      "knowledge": 6514,
      "glowing": 6515,
      "grandfather": 6516,
      "document": 6517,
      "##made": 6518,
      "billy": 6519,
      "washington": 6520,
      "becky": 6521,
      "babbles": 6522,
      "addition": 6523,
      "throat": 6524,
      "stepped": 6525,
      "freedom": 6526,
      "##ander": 6527,
      "becoming": 6528,
      "slope": 6529,
      "##hin": 6530,
      "fran": 6531,
      "arts": 6532,
      "brook": 6533,
      "artwork": 6534,
      "partner": 6535,
      "geor": 6536,
      "##umer": 6537,
      "2005": 6538,
      "supermarket": 6539,
      "potatoes": 6540,
      "provide": 6541,
      "##naments": 6542,
      "rolls": 6543,
      "anxious": 6544,
      "pit": 6545,
      "decide": 6546,
      "damage": 6547,
      "hunt": 6548,
      "kang": 6549,
      "cigarette": 6550,
      "mort": 6551,
      "cla": 6552,
      "rect": 6553,
      "##ifying": 6554,
      "##erpill": 6555,
      "bobby": 6556,
      "reality": 6557,
      "##iece": 6558,
      "smiled": 6559,
      "value": 6560,
      "vocalises": 6561,
      "mast": 6562,
      "beep": 6563,
      "eaten": 6564,
      "latin": 6565,
      "##rs": 6566,
      "##cious": 6567,
      "shrub": 6568,
      "credit": 6569,
      "sna": 6570,
      "##arily": 6571,
      "marry": 6572,
      "marks": 6573,
      "myst": 6574,
      "pitcher": 6575,
      "academy": 6576,
      "hitting": 6577,
      "knowing": 6578,
      "refere": 6579,
      "crocod": 6580,
      "##rud": 6581,
      "##aine": 6582,
      "records": 6583,
      "produce": 6584,
      "princip": 6585,
      "curious": 6586,
      "harm": 6587,
      "nuts": 6588,
      "closet": 6589,
      "##atell": 6590,
      "dism": 6591,
      "cleaning": 6592,
      "dessert": 6593,
      "##icient": 6594,
      "habit": 6595,
      "lightning": 6596,
      "snowfl": 6597,
      "mister": 6598,
      "forms": 6599,
      "caterpill": 6600,
      "empire": 6601,
      "190": 6602,
      "braz": 6603,
      "##owers": 6604,
      "atmosphere": 6605,
      "##nded": 6606,
      "asp": 6607,
      "operating": 6608,
      "##ded": 6609,
      "orch": 6610,
      "silent": 6611,
      "hunting": 6612,
      "travelling": 6613,
      "mummie": 6614,
      "##ilities": 6615,
      "subst": 6616,
      "##boat": 6617,
      "makeup": 6618,
      "moored": 6619,
      "depiction": 6620,
      "lawyer": 6621,
      "bund": 6622,
      "ges": 6623,
      "worst": 6624,
      "purs": 6625,
      "shouting": 6626,
      "theater": 6627,
      "##orous": 6628,
      "##achel": 6629,
      "merry": 6630,
      "nerv": 6631,
      "##uits": 6632,
      "clay": 6633,
      "tuck": 6634,
      "##ault": 6635,
      "##alo": 6636,
      "spa": 6637,
      "pasture": 6638,
      "bum": 6639,
      "jon": 6640,
      "staring": 6641,
      "hamm": 6642,
      "entry": 6643,
      "constitution": 6644,
      "beast": 6645,
      "##thm": 6646,
      "suc": 6647,
      "bridal": 6648,
      "financial": 6649,
      "aware": 6650,
      "fired": 6651,
      "alt": 6652,
      "matt": 6653,
      "posts": 6654,
      "mentioned": 6655,
      "rescue": 6656,
      "snap": 6657,
      "accompan": 6658,
      "sake": 6659,
      "##giving": 6660,
      "eats": 6661,
      "conditions": 6662,
      "steep": 6663,
      "completed": 6664,
      "ingredients": 6665,
      "stor": 6666,
      "neut": 6667,
      "underwater": 6668,
      "witness": 6669,
      "luggage": 6670,
      "imit": 6671,
      "somewhat": 6672,
      "obl": 6673,
      "giraffes": 6674,
      "ink": 6675,
      "holes": 6676,
      "prove": 6677,
      "creating": 6678,
      "penny": 6679,
      "whispers": 6680,
      "##lines": 6681,
      "agent": 6682,
      "afford": 6683,
      "joke": 6684,
      "fairly": 6685,
      "poly": 6686,
      "desper": 6687,
      "penn": 6688,
      "glam": 6689,
      "proceed": 6690,
      "cheek": 6691,
      "stroke": 6692,
      "failed": 6693,
      "agric": 6694,
      "crim": 6695,
      "performed": 6696,
      "visiting": 6697,
      "##isions": 6698,
      "lif": 6699,
      "horri": 6700,
      "planning": 6701,
      "pee": 6702,
      "achie": 6703,
      "laura": 6704,
      "trial": 6705,
      "grounds": 6706,
      "languages": 6707,
      "described": 6708,
      "africa": 6709,
      "cocon": 6710,
      "emergency": 6711,
      "lara": 6712,
      "bathtub": 6713,
      "locked": 6714,
      "##mar": 6715,
      "##ples": 6716,
      "2004": 6717,
      "crayons": 6718,
      "lily": 6719,
      "odd": 6720,
      "heav": 6721,
      "novelist": 6722,
      "ninety": 6723,
      "domin": 6724,
      "reads": 6725,
      "189": 6726,
      "jelly": 6727,
      "drives": 6728,
      "##__": 6729,
      "operation": 6730,
      "atl": 6731,
      "2001": 6732,
      "goods": 6733,
      "pushed": 6734,
      "cones": 6735,
      "originally": 6736,
      "depicting": 6737,
      "maple": 6738,
      "purse": 6739,
      "cowboy": 6740,
      "shouted": 6741,
      "troops": 6742,
      "hammer": 6743,
      "horizont": 6744,
      "##omm": 6745,
      "grunge": 6746,
      "code": 6747,
      "sneak": 6748,
      "##ification": 6749,
      "marble": 6750,
      "engagement": 6751,
      "advertis": 6752,
      "stom": 6753,
      "bent": 6754,
      "hes": 6755,
      "entirely": 6756,
      "leaders": 6757,
      "raise": 6758,
      "equal": 6759,
      "spain": 6760,
      "....": 6761,
      "profile": 6762,
      "mounted": 6763,
      "wondering": 6764,
      "reflections": 6765,
      "afterwards": 6766,
      "musician": 6767,
      "explos": 6768,
      "##ga": 6769,
      "comment": 6770,
      "##uous": 6771,
      "split": 6772,
      "##under": 6773,
      "cotton": 6774,
      "##lend": 6775,
      "dozen": 6776,
      "vocalizes": 6777,
      "canadian": 6778,
      "touching": 6779,
      "##alt": 6780,
      "flames": 6781,
      "cabinets": 6782,
      "template": 6783,
      "##cely": 6784,
      "perched": 6785,
      "parr": 6786,
      "flew": 6787,
      "satell": 6788,
      "##ji": 6789,
      "##rings": 6790,
      "##lock": 6791,
      "##bee": 6792,
      "vote": 6793,
      "##oard": 6794,
      "##bon": 6795,
      "188": 6796,
      "##imp": 6797,
      "coal": 6798,
      "jumps": 6799,
      "repeated": 6800,
      "pup": 6801,
      "florence": 6802,
      "joseph": 6803,
      "gesture": 6804,
      "dying": 6805,
      "liz": 6806,
      "crop": 6807,
      "alco": 6808,
      "rhythm": 6809,
      "justice": 6810,
      "studied": 6811,
      "jimmy": 6812,
      "concerned": 6813,
      "pean": 6814,
      "load": 6815,
      "feelings": 6816,
      "##ena": 6817,
      "##ays": 6818,
      "olympics": 6819,
      "nope": 6820,
      "knocked": 6821,
      "sixty": 6822,
      "illuminated": 6823,
      "sylvia": 6824,
      "##ordon": 6825,
      "pushes": 6826,
      "bother": 6827,
      "chew": 6828,
      "weapons": 6829,
      "philos": 6830,
      "truly": 6831,
      "##cope": 6832,
      "##itan": 6833,
      "mates": 6834,
      "data": 6835,
      "encour": 6836,
      "##owed": 6837,
      "specs": 6838,
      "advice": 6839,
      "nineteen": 6840,
      "bone": 6841,
      "##ador": 6842,
      "jeff": 6843,
      "powder": 6844,
      "trim": 6845,
      "waited": 6846,
      "properly": 6847,
      "coloring": 6848,
      "##aken": 6849,
      "ugly": 6850,
      "bars": 6851,
      "nods": 6852,
      "exch": 6853,
      "pointed": 6854,
      "multiple": 6855,
      "theatre": 6856,
      "engaged": 6857,
      "receive": 6858,
      "##fire": 6859,
      "arriving": 6860,
      "african": 6861,
      "turkey": 6862,
      "paying": 6863,
      "angeles": 6864,
      "administrative": 6865,
      "##ox": 6866,
      "##fight": 6867,
      "labor": 6868,
      "titled": 6869,
      "taxi": 6870,
      "##lor": 6871,
      "aboard": 6872,
      "scenes": 6873,
      "martine": 6874,
      "sisters": 6875,
      "explained": 6876,
      "bones": 6877,
      "neighbour": 6878,
      "massive": 6879,
      "dressing": 6880,
      "excite": 6881,
      "budget": 6882,
      "municipality": 6883,
      "uhuh": 6884,
      "##acing": 6885,
      "ros": 6886,
      "elected": 6887,
      "##acture": 6888,
      "##ami": 6889,
      "virgin": 6890,
      "hom": 6891,
      "suits": 6892,
      "aim": 6893,
      "whale": 6894,
      "turb": 6895,
      "raw": 6896,
      "##ints": 6897,
      "cupcakes": 6898,
      "frag": 6899,
      "touches": 6900,
      "carrots": 6901,
      "cree": 6902,
      "ginger": 6903,
      "colonel": 6904,
      "earrings": 6905,
      "##action": 6906,
      "distant": 6907,
      "insc": 6908,
      "patio": 6909,
      "##ulations": 6910,
      "19th": 6911,
      "transl": 6912,
      "motorbi": 6913,
      "jigs": 6914,
      "##ingu": 6915,
      "##very": 6916,
      "frightened": 6917,
      "emper": 6918,
      "dood": 6919,
      "ornaments": 6920,
      "thanksgiving": 6921,
      "##orable": 6922,
      "rocket": 6923,
      "succeed": 6924,
      "##cel": 6925,
      "arth": 6926,
      "curly": 6927,
      "##kers": 6928,
      "blows": 6929,
      "##igrap": 6930,
      "papa": 6931,
      "contrast": 6932,
      "calcul": 6933,
      "settled": 6934,
      "km": 6935,
      "fortune": 6936,
      "suspension": 6937,
      "ko": 6938,
      "##esome": 6939,
      "commission": 6940,
      "accommodation": 6941,
      "chimney": 6942,
      "##hers": 6943,
      "composition": 6944,
      "matters": 6945,
      "mics": 6946,
      "marsh": 6947,
      "opinion": 6948,
      "drove": 6949,
      "vert": 6950,
      "##ota": 6951,
      "maggie": 6952,
      "##mel": 6953,
      "flush": 6954,
      "format": 6955,
      "mainly": 6956,
      "##ection": 6957,
      "screaming": 6958,
      "universe": 6959,
      "berries": 6960,
      "pea": 6961,
      "spill": 6962,
      "pumpkins": 6963,
      "revolution": 6964,
      "scientists": 6965,
      "blooming": 6966,
      "reply": 6967,
      "degree": 6968,
      "torn": 6969,
      "cheap": 6970,
      "memorial": 6971,
      "pra": 6972,
      "kinda": 6973,
      "rooft": 6974,
      "triangle": 6975,
      "rome": 6976,
      "##fortun": 6977,
      "brazil": 6978,
      "##bits": 6979,
      "##chester": 6980,
      "damaged": 6981,
      "zebras": 6982,
      "unf": 6983,
      "becomes": 6984,
      "refers": 6985,
      "automotive": 6986,
      "conserv": 6987,
      "##uries": 6988,
      "chin": 6989,
      "polish": 6990,
      "myster": 6991,
      "bald": 6992,
      "fond": 6993,
      "narr": 6994,
      "overs": 6995,
      "##20": 6996,
      "weigh": 6997,
      "toes": 6998,
      "slipp": 6999,
      "francis": 7000,
      "aid": 7001,
      "instant": 7002,
      "##heart": 7003,
      "terrace": 7004,
      "shook": 7005,
      "approaching": 7006,
      "determined": 7007,
      "wrist": 7008,
      "presence": 7009,
      "calligrap": 7010,
      "nearby": 7011,
      "bree": 7012,
      "##ja": 7013,
      "andy": 7014,
      "doin": 7015,
      "murd": 7016,
      "caterpillar": 7017,
      "tire": 7018,
      "gates": 7019,
      "oranges": 7020,
      "##ba": 7021,
      "carving": 7022,
      "chairman": 7023,
      "iii": 7024,
      "awesome": 7025,
      "denim": 7026,
      "##urt": 7027,
      "models": 7028,
      "##elle": 7029,
      "rubb": 7030,
      "champion": 7031,
      "candid": 7032,
      "domestic": 7033,
      "##inson": 7034,
      "climate": 7035,
      "aun": 7036,
      "ned": 7037,
      "hearing": 7038,
      "##idding": 7039,
      "organic": 7040,
      "robot": 7041,
      "polar": 7042,
      "faster": 7043,
      "##itory": 7044,
      "personality": 7045,
      "resist": 7046,
      "disappeared": 7047,
      "maid": 7048,
      "padd": 7049,
      "##osta": 7050,
      "scooter": 7051,
      "panel": 7052,
      "target": 7053,
      "provided": 7054,
      "experi": 7055,
      "tut": 7056,
      "specific": 7057,
      "cham": 7058,
      "flows": 7059,
      "60": 7060,
      "##ora": 7061,
      "realize": 7062,
      "roofs": 7063,
      "wid": 7064,
      "##rels": 7065,
      "results": 7066,
      "mushrooms": 7067,
      "doo": 7068,
      "caut": 7069,
      "##cho": 7070,
      "useful": 7071,
      "buried": 7072,
      "tummy": 7073,
      "amongst": 7074,
      "valent": 7075,
      "opera": 7076,
      "hugging": 7077,
      "##oke": 7078,
      "ambul": 7079,
      "draws": 7080,
      "familiar": 7081,
      "alcohol": 7082,
      "eventually": 7083,
      "volcan": 7084,
      "zzz": 7085,
      "sid": 7086,
      "##berries": 7087,
      "independent": 7088,
      "hipp": 7089,
      "drift": 7090,
      "syn": 7091,
      "scores": 7092,
      "skyscrapers": 7093,
      "somehow": 7094,
      "humans": 7095,
      "latter": 7096,
      "##osure": 7097,
      "combination": 7098,
      "jewel": 7099,
      "ron": 7100,
      "##hop": 7101,
      "##ko": 7102,
      "vessels": 7103,
      "sheds": 7104,
      "medium": 7105,
      "downt": 7106,
      "ky": 7107,
      "poured": 7108,
      "yay": 7109,
      "boyfriend": 7110,
      "polly": 7111,
      "stump": 7112,
      "manage": 7113,
      "adding": 7114,
      "treatment": 7115,
      "saving": 7116,
      "horsie": 7117,
      "companion": 7118,
      "dread": 7119,
      "effects": 7120,
      "tissues": 7121,
      "courty": 7122,
      "construct": 7123,
      "stomach": 7124,
      "unh": 7125,
      "##ibility": 7126,
      "citiz": 7127,
      "foggy": 7128,
      "embr": 7129,
      "horizontal": 7130,
      "##nces": 7131,
      "##met": 7132,
      "logs": 7133,
      "vs": 7134,
      "boom": 7135,
      "madam": 7136,
      "##yy": 7137,
      "surg": 7138,
      "awa": 7139,
      "arrival": 7140,
      "irish": 7141,
      "shame": 7142,
      ".’": 7143,
      "grandd": 7144,
      "thy": 7145,
      "handed": 7146,
      "wrap": 7147,
      "courage": 7148,
      "2002": 7149,
      "rif": 7150,
      "emotion": 7151,
      "advantage": 7152,
      "materials": 7153,
      "bomba": 7154,
      "bot": 7155,
      "terror": 7156,
      "pac": 7157,
      "##essed": 7158,
      "returns": 7159,
      "sposta": 7160,
      "surfer": 7161,
      "creek": 7162,
      "yards": 7163,
      "beads": 7164,
      "retail": 7165,
      "rang": 7166,
      "lind": 7167,
      "loft": 7168,
      "circum": 7169,
      "trump": 7170,
      "##berry": 7171,
      "moments": 7172,
      "daughters": 7173,
      "toddler": 7174,
      "era": 7175,
      "##sequ": 7176,
      "bust": 7177,
      "dw": 7178,
      "lack": 7179,
      "marine": 7180,
      "pak": 7181,
      "facility": 7182,
      "ire": 7183,
      "unfortun": 7184,
      "carrot": 7185,
      "##cut": 7186,
      "prepar": 7187,
      "introduced": 7188,
      "##orter": 7189,
      "illustrated": 7190,
      "nucle": 7191,
      "peach": 7192,
      "customers": 7193,
      "##embered": 7194,
      "##lim": 7195,
      "##ishment": 7196,
      "ages": 7197,
      "exciting": 7198,
      "##keeper": 7199,
      "##arium": 7200,
      "##stick": 7201,
      "spots": 7202,
      "listed": 7203,
      "trash": 7204,
      "scored": 7205,
      "whenever": 7206,
      "remarked": 7207,
      "tale": 7208,
      "##uments": 7209,
      "##rael": 7210,
      "systems": 7211,
      "chicago": 7212,
      "excitement": 7213,
      "budd": 7214,
      "sect": 7215,
      "jug": 7216,
      "isl": 7217,
      "outline": 7218,
      "remembered": 7219,
      "prevent": 7220,
      "presently": 7221,
      "frequ": 7222,
      "mand": 7223,
      "2003": 7224,
      "cord": 7225,
      "finds": 7226,
      "galax": 7227,
      "lis": 7228,
      "##eau": 7229,
      "slip": 7230,
      "remove": 7231,
      "upside": 7232,
      "ded": 7233,
      "gosh": 7234,
      "lege": 7235,
      "dome": 7236,
      "anna": 7237,
      "swed": 7238,
      "underground": 7239,
      "execut": 7240,
      "cad": 7241,
      "wagon": 7242,
      "request": 7243,
      "flav": 7244,
      "##orted": 7245,
      "##athing": 7246,
      "shh": 7247,
      "rusty": 7248,
      "reacts": 7249,
      "mosque": 7250,
      "laught": 7251,
      "balance": 7252,
      "jigsaw": 7253,
      "rally": 7254,
      "##do": 7255,
      "shells": 7256,
      "highly": 7257,
      "matches": 7258,
      "jean": 7259,
      "anti": 7260,
      "programme": 7261,
      "normally": 7262,
      "courtyard": 7263,
      "##erved": 7264,
      "packet": 7265,
      "wool": 7266,
      "ahh": 7267,
      "teaching": 7268,
      "35": 7269,
      "stranger": 7270,
      "trunks": 7271,
      "constitu": 7272,
      "mayor": 7273,
      "spell": 7274,
      "amuse": 7275,
      "camel": 7276,
      "task": 7277,
      "thorough": 7278,
      "israel": 7279,
      "foods": 7280,
      "##ata": 7281,
      "cher": 7282,
      "doctors": 7283,
      "avoid": 7284,
      "##east": 7285,
      "observ": 7286,
      "teachers": 7287,
      "downtown": 7288,
      "skies": 7289,
      "lorry": 7290,
      "beth": 7291,
      "killing": 7292,
      "sorts": 7293,
      "##sing": 7294,
      "##llows": 7295,
      "jac": 7296,
      "ethnicity": 7297,
      "suppl": 7298,
      "content": 7299,
      "improve": 7300,
      "\"]": 7301,
      "canoe": 7302,
      "##amples": 7303,
      "hurried": 7304,
      "mural": 7305,
      "entering": 7306,
      "scotland": 7307,
      "gordon": 7308,
      "horror": 7309,
      "rolled": 7310,
      "laughter": 7311,
      "spare": 7312,
      "laz": 7313,
      "storage": 7314,
      "emperor": 7315,
      "villa": 7316,
      "touched": 7317,
      "childes_uk": 7318,
      "lamb": 7319,
      "striking": 7320,
      "##rison": 7321,
      "client": 7322,
      "driven": 7323,
      "stretch": 7324,
      "brian": 7325,
      "catholic": 7326,
      "stalls": 7327,
      "establish": 7328,
      "##asty": 7329,
      "realized": 7330,
      "lesson": 7331,
      "influence": 7332,
      "sne": 7333,
      "##aves": 7334,
      "##ift": 7335,
      "thee": 7336,
      "doggie": 7337,
      "charming": 7338,
      "studying": 7339,
      "innoc": 7340,
      "nervous": 7341,
      "bitch": 7342,
      "fought": 7343,
      "farmers": 7344,
      "ere": 7345,
      "sup": 7346,
      "edward": 7347,
      "folks": 7348,
      "##eys": 7349,
      "buzz": 7350,
      "donkey": 7351,
      "lifted": 7352,
      "indians": 7353,
      "eliz": 7354,
      "——": 7355,
      "chase": 7356,
      "wished": 7357,
      "checking": 7358,
      "jenny": 7359,
      "intellig": 7360,
      "carries": 7361,
      "##pher": 7362,
      "seal": 7363,
      "horrible": 7364,
      "ireland": 7365,
      "##ania": 7366,
      "manne": 7367,
      "twin": 7368,
      "##omy": 7369,
      "sang": 7370,
      "dot": 7371,
      "##eta": 7372,
      "dunn": 7373,
      "theory": 7374,
      "##abeth": 7375,
      "touchdown": 7376,
      "sweetheart": 7377,
      "limited": 7378,
      "##urally": 7379,
      "buffalo": 7380,
      "giggles": 7381,
      "mannequ": 7382,
      "ridge": 7383,
      "proved": 7384,
      "shift": 7385,
      "relative": 7386,
      "shallow": 7387,
      "volume": 7388,
      "calligraphy": 7389,
      "lam": 7390,
      "##apers": 7391,
      "firefight": 7392,
      "occupied": 7393,
      "##ability": 7394,
      "article": 7395,
      "steady": 7396,
      "coughs": 7397,
      "',": 7398,
      "187": 7399,
      "ordinary": 7400,
      "referring": 7401,
      "cauc": 7402,
      "init": 7403,
      "vocalize": 7404,
      "applic": 7405,
      "voices": 7406,
      "toss": 7407,
      "actual": 7408,
      "supply": 7409,
      "understood": 7410,
      "##emic": 7411,
      "divers": 7412,
      "satellite": 7413,
      "##lings": 7414,
      "conver": 7415,
      "recorded": 7416,
      "##itage": 7417,
      "fried": 7418,
      "hiking": 7419,
      "pend": 7420,
      "severe": 7421,
      "crocodile": 7422,
      "##robe": 7423,
      "artific": 7424,
      "observed": 7425,
      "edition": 7426,
      "experiment": 7427,
      "suspic": 7428,
      "sleeve": 7429,
      "##uing": 7430,
      "splend": 7431,
      "florida": 7432,
      "woo": 7433,
      "conflict": 7434,
      "dots": 7435,
      "editor": 7436,
      "repeat": 7437,
      "alice": 7438,
      "##inder": 7439,
      "concent": 7440,
      "losing": 7441,
      "sum": 7442,
      "remaining": 7443,
      "hanger": 7444,
      "ambulance": 7445,
      "cact": 7446,
      "yyy": 7447,
      "##hole": 7448,
      "festive": 7449,
      "whispering": 7450,
      "manufacture": 7451,
      "chains": 7452,
      "treated": 7453,
      "amaz": 7454,
      "windmill": 7455,
      "lands": 7456,
      "renov": 7457,
      "bom": 7458,
      "##leton": 7459,
      "forks": 7460,
      "agency": 7461,
      "debut": 7462,
      "established": 7463,
      "rapidly": 7464,
      "rises": 7465,
      "##aid": 7466,
      "congress": 7467,
      "evidently": 7468,
      "seed": 7469,
      "locom": 7470,
      "residents": 7471,
      "visited": 7472,
      "steve": 7473,
      "##lley": 7474,
      "##hions": 7475,
      "1st": 7476,
      "humm": 7477,
      "onstage": 7478,
      "carn": 7479,
      "happiness": 7480,
      "##car": 7481,
      "186": 7482,
      "replaced": 7483,
      "punch": 7484,
      "##ivity": 7485,
      "uns": 7486,
      "##vy": 7487,
      "##rians": 7488,
      "planets": 7489,
      "breast": 7490,
      "insects": 7491,
      "glance": 7492,
      "ec": 7493,
      "alp": 7494,
      "tender": 7495,
      "##mn": 7496,
      "chos": 7497,
      "patch": 7498,
      "sons": 7499,
      "##rors": 7500,
      "roast": 7501,
      "parties": 7502,
      "tun": 7503,
      "tires": 7504,
      "sole": 7505,
      "proposed": 7506,
      "trailer": 7507,
      "##asian": 7508,
      "hoping": 7509,
      "scout": 7510,
      "styl": 7511,
      "wol": 7512,
      "heels": 7513,
      "jerry": 7514,
      "leop": 7515,
      "##othy": 7516,
      "passage": 7517,
      "##bird": 7518,
      "##cream": 7519,
      "##mates": 7520,
      "outer": 7521,
      "pigs": 7522,
      "pooh": 7523,
      "od": 7524,
      "##vering": 7525,
      "spectacle": 7526,
      "ellie": 7527,
      "glac": 7528,
      "wipe": 7529,
      "##rome": 7530,
      "situ": 7531,
      "behav": 7532,
      "##istry": 7533,
      "cuts": 7534,
      "fortun": 7535,
      "##hold": 7536,
      "sticking": 7537,
      "##unte": 7538,
      "##usted": 7539,
      "phones": 7540,
      "duke": 7541,
      "##ures": 7542,
      "sheets": 7543,
      "holly": 7544,
      "drill": 7545,
      "extremely": 7546,
      "##ear": 7547,
      "##rif": 7548,
      "confident": 7549,
      "stormy": 7550,
      "incredible": 7551,
      "overlay": 7552,
      "scare": 7553,
      "mamma": 7554,
      "vel": 7555,
      "##eks": 7556,
      "divided": 7557,
      "burned": 7558,
      "offers": 7559,
      "electricity": 7560,
      "volunte": 7561,
      "kil": 7562,
      "##tha": 7563,
      "graphics": 7564,
      "cine": 7565,
      "kh": 7566,
      "##ais": 7567,
      "selection": 7568,
      "##erous": 7569,
      "fluff": 7570,
      "drawers": 7571,
      "tommy": 7572,
      "closing": 7573,
      "spending": 7574,
      "miniature": 7575,
      "mexico": 7576,
      "planned": 7577,
      "sax": 7578,
      "mansion": 7579,
      "inch": 7580,
      "flame": 7581,
      "daisy": 7582,
      "coconut": 7583,
      "flour": 7584,
      "tops": 7585,
      "chose": 7586,
      "obtain": 7587,
      "susan": 7588,
      "piggy": 7589,
      "policeman": 7590,
      "waist": 7591,
      "##omed": 7592,
      "ens": 7593,
      "weapon": 7594,
      "delicious": 7595,
      "artificial": 7596,
      "glos": 7597,
      "creep": 7598,
      "propos": 7599,
      "wounded": 7600,
      "penguin": 7601,
      "##rous": 7602,
      "sov": 7603,
      "injured": 7604,
      "sunflower": 7605,
      "##woman": 7606,
      "nana": 7607,
      "forgive": 7608,
      "drown": 7609,
      "signific": 7610,
      "peak": 7611,
      "pige": 7612,
      "americans": 7613,
      "newborn": 7614,
      "crowded": 7615,
      "vertical": 7616,
      "fu": 7617,
      "whoo": 7618,
      "closely": 7619,
      "screams": 7620,
      "godd": 7621,
      "neutral": 7622,
      "til": 7623,
      "##arr": 7624,
      "##oma": 7625,
      "laws": 7626,
      "scarcely": 7627,
      "russia": 7628,
      "files": 7629,
      "puss": 7630,
      "taps": 7631,
      "legal": 7632,
      "mole": 7633,
      "jobs": 7634,
      "chosen": 7635,
      "##umed": 7636,
      "ela": 7637,
      "sue": 7638,
      "cooked": 7639,
      "thread": 7640,
      "compound": 7641,
      "arthur": 7642,
      "ket": 7643,
      "glossy": 7644,
      "##inate": 7645,
      "aquarium": 7646,
      "sher": 7647,
      "framed": 7648,
      "utens": 7649,
      "required": 7650,
      "tra": 7651,
      "prayer": 7652,
      "snowflakes": 7653,
      "##ada": 7654,
      "responsible": 7655,
      "wondered": 7656,
      "aven": 7657,
      "boston": 7658,
      "drawings": 7659,
      "ornamental": 7660,
      "##ito": 7661,
      "sending": 7662,
      "independence": 7663,
      "##olved": 7664,
      "##aping": 7665,
      "enth": 7666,
      "marked": 7667,
      "pakistan": 7668,
      "rows": 7669,
      "##ano": 7670,
      "patsy": 7671,
      "returning": 7672,
      "territory": 7673,
      "impression": 7674,
      "\"'": 7675,
      "##lessly": 7676,
      "##acon": 7677,
      "maria": 7678,
      "landed": 7679,
      "maintain": 7680,
      "lets": 7681,
      "flowering": 7682,
      "brocc": 7683,
      "decorating": 7684,
      "tattoos": 7685,
      "##ndry": 7686,
      "spirits": 7687,
      "lens": 7688,
      "lettering": 7689,
      "soviet": 7690,
      "vent": 7691,
      "##ho": 7692,
      "thunder": 7693,
      "glory": 7694,
      "##ancing": 7695,
      "protected": 7696,
      "dunno": 7697,
      "##imate": 7698,
      "quack": 7699,
      "customer": 7700,
      "pirate": 7701,
      "##writer": 7702,
      "pepper": 7703,
      "##kee": 7704,
      "kir": 7705,
      "guil": 7706,
      "cactus": 7707,
      "opt": 7708,
      "favourite": 7709,
      "wip": 7710,
      "nights": 7711,
      "menu": 7712,
      "ga": 7713,
      "poison": 7714,
      "pyram": 7715,
      "heritage": 7716,
      "scheme": 7717,
      "democratic": 7718,
      "fier": 7719,
      "invited": 7720,
      "matth": 7721,
      "1999": 7722,
      "##untary": 7723,
      "broccoli": 7724,
      "companies": 7725,
      "labour": 7726,
      "molly": 7727,
      "bills": 7728,
      "##sey": 7729,
      "##bel": 7730,
      "adults": 7731,
      "assembly": 7732,
      "ramp": 7733,
      "##urance": 7734,
      "grainy": 7735,
      "stan": 7736,
      "stol": 7737,
      "slept": 7738,
      "tradition": 7739,
      "defend": 7740,
      "forming": 7741,
      "matching": 7742,
      "pedestrian": 7743,
      "glove": 7744,
      "statistics": 7745,
      "precious": 7746,
      "faint": 7747,
      "panda": 7748,
      "##mie": 7749,
      "##ona": 7750,
      "##enge": 7751,
      "##usi": 7752,
      "recorder": 7753,
      "dais": 7754,
      "seag": 7755,
      "puff": 7756,
      "municipal": 7757,
      "concentr": 7758,
      "##enn": 7759,
      "lifting": 7760,
      "shrubs": 7761,
      "wars": 7762,
      "##gers": 7763,
      "floors": 7764,
      "##ucky": 7765,
      "----": 7766,
      "squad": 7767,
      "priest": 7768,
      "protection": 7769,
      "flu": 7770,
      "##aren": 7771,
      "towns": 7772,
      "dart": 7773,
      "virt": 7774,
      "20th": 7775,
      "steal": 7776,
      "depth": 7777,
      "inscription": 7778,
      "tort": 7779,
      "##ques": 7780,
      "##odes": 7781,
      "seash": 7782,
      "roger": 7783,
      "ceramic": 7784,
      "policy": 7785,
      "shots": 7786,
      "frogs": 7787,
      "critic": 7788,
      "jail": 7789,
      "az": 7790,
      "naturally": 7791,
      "diamonds": 7792,
      "ding": 7793,
      "click": 7794,
      "arrows": 7795,
      "passion": 7796,
      "subur": 7797,
      "mosa": 7798,
      "sore": 7799,
      "spaces": 7800,
      "##forest": 7801,
      "muff": 7802,
      "circus": 7803,
      "kisses": 7804,
      "##arf": 7805,
      "haired": 7806,
      "proof": 7807,
      "classical": 7808,
      "prisoners": 7809,
      "flip": 7810,
      "loaded": 7811,
      "rig": 7812,
      "##oul": 7813,
      "hydrant": 7814,
      "##vet": 7815,
      "tend": 7816,
      "emble": 7817,
      "macro": 7818,
      "caucasian": 7819,
      "##agged": 7820,
      "pride": 7821,
      "desire": 7822,
      "guilty": 7823,
      "secure": 7824,
      "##appy": 7825,
      "chickens": 7826,
      "fleet": 7827,
      "elizabeth": 7828,
      "matthew": 7829,
      "##ointment": 7830,
      "sniff": 7831,
      "anchor": 7832,
      "seagull": 7833,
      "ruth": 7834,
      "panoramic": 7835,
      "doggy": 7836,
      "meters": 7837,
      "rum": 7838,
      "##ua": 7839,
      "instructions": 7840,
      "thumb": 7841,
      "forb": 7842,
      "apply": 7843,
      "terrif": 7844,
      "uniforms": 7845,
      "conce": 7846,
      "contrib": 7847,
      "formation": 7848,
      "gaze": 7849,
      "gor": 7850,
      "blame": 7851,
      "expert": 7852,
      "authority": 7853,
      "sausage": 7854,
      "slipped": 7855,
      "wardrobe": 7856,
      "bats": 7857,
      "ide": 7858,
      "presidential": 7859,
      "difficulty": 7860,
      "fitted": 7861,
      "##iage": 7862,
      "icecream": 7863,
      "1996": 7864,
      "kath": 7865,
      "##any": 7866,
      "##stand": 7867,
      "suck": 7868,
      "delicate": 7869,
      "primary": 7870,
      "##rd": 7871,
      "stole": 7872,
      "recy": 7873,
      "goals": 7874,
      "sixth": 7875,
      "fences": 7876,
      "bullet": 7877,
      "cryst": 7878,
      "basically": 7879,
      "hoo": 7880,
      "bracelet": 7881,
      "software": 7882,
      "stuffed": 7883,
      "revealed": 7884,
      "studies": 7885,
      "panels": 7886,
      "dumb": 7887,
      "serge": 7888,
      "advertisement": 7889,
      "32": 7890,
      "##ishing": 7891,
      "symp": 7892,
      "woof": 7893,
      "##hen": 7894,
      "spinning": 7895,
      "kr": 7896,
      "dies": 7897,
      "spite": 7898,
      "distinct": 7899,
      "raining": 7900,
      "##while": 7901,
      "warri": 7902,
      "detective": 7903,
      "camping": 7904,
      "1998": 7905,
      "championships": 7906,
      "increase": 7907,
      "rode": 7908,
      "affair": 7909,
      "chip": 7910,
      "##exp": 7911,
      "1994": 7912,
      "incident": 7913,
      "gathering": 7914,
      "oblig": 7915,
      "vic": 7916,
      "backwards": 7917,
      "ours": 7918,
      "stern": 7919,
      "silk": 7920,
      "volley": 7921,
      "challenge": 7922,
      "yummy": 7923,
      "watering": 7924,
      "texts": 7925,
      "cells": 7926,
      "45": 7927,
      "borrow": 7928,
      "seasons": 7929,
      "gain": 7930,
      "oy": 7931,
      "mighty": 7932,
      "foliage": 7933,
      "parrot": 7934,
      "os": 7935,
      "monkeys": 7936,
      "interf": 7937,
      "##stone": 7938,
      "adorable": 7939,
      "minor": 7940,
      "parach": 7941,
      "circumst": 7942,
      "\".=": 7943,
      "whee": 7944,
      "trium": 7945,
      "sliding": 7946,
      "fireman": 7947,
      "boxing": 7948,
      "eighty": 7949,
      "galaxy": 7950,
      "lect": 7951,
      "ni": 7952,
      "##asm": 7953,
      "posted": 7954,
      "transfer": 7955,
      "byebye": 7956,
      "postman": 7957,
      "badly": 7958,
      "vast": 7959,
      "misty": 7960,
      "squat": 7961,
      "alley": 7962,
      "phr": 7963,
      "embro": 7964,
      "heavily": 7965,
      "sway": 7966,
      "locomotive": 7967,
      "meg": 7968,
      "overhead": 7969,
      "directions": 7970,
      "crosses": 7971,
      "1995": 7972,
      "checked": 7973,
      "recognized": 7974,
      "enthusi": 7975,
      "sales": 7976,
      "rushed": 7977,
      "cultural": 7978,
      "zoe": 7979,
      "inters": 7980,
      "presentation": 7981,
      "filling": 7982,
      "architectural": 7983,
      "pity": 7984,
      "##hot": 7985,
      "listened": 7986,
      "1992": 7987,
      "drawer": 7988,
      "searching": 7989,
      "cargo": 7990,
      "educational": 7991,
      "entertainment": 7992,
      "2nd": 7993,
      "##ounce": 7994,
      "kne": 7995,
      "dada": 7996,
      "competed": 7997,
      "alto": 7998,
      "kettle": 7999,
      "##ulate": 8000,
      "jeann": 8001,
      "lessons": 8002,
      "jones": 8003,
      "iran": 8004,
      "##eling": 8005,
      "recomm": 8006,
      "##itzer": 8007,
      "manchester": 8008,
      "orn": 8009,
      "buddy": 8010,
      "##umbs": 8011,
      "queer": 8012,
      "revival": 8013,
      "pedestrians": 8014,
      "motorbike": 8015,
      "goats": 8016,
      "awake": 8017,
      "activities": 8018,
      "rooftop": 8019,
      "han": 8020,
      "inhab": 8021,
      "watermel": 8022,
      "intended": 8023,
      "greatly": 8024,
      "mysterious": 8025,
      "##10": 8026,
      "pinned": 8027,
      "astronaut": 8028,
      "##ruded": 8029,
      "follows": 8030,
      "repair": 8031,
      "colonial": 8032,
      "mathem": 8033,
      "lodge": 8034,
      "engra": 8035,
      "admit": 8036,
      "##itz": 8037,
      "sock": 8038,
      "upd": 8039,
      "typing": 8040,
      "aston": 8041,
      "bamb": 8042,
      "impro": 8043,
      "pathway": 8044,
      "sparkling": 8045,
      "adventures": 8046,
      "dash": 8047,
      "recip": 8048,
      "humming": 8049,
      "##page": 8050,
      "##bec": 8051,
      "schol": 8052,
      "faced": 8053,
      "packets": 8054,
      "uppercase": 8055,
      "guitars": 8056,
      "accent": 8057,
      "cud": 8058,
      "kings": 8059,
      "imper": 8060,
      "poem": 8061,
      "lads": 8062,
      "dunes": 8063,
      "hedge": 8064,
      "(;": 8065,
      "mmm": 8066,
      "royalty": 8067,
      "##real": 8068,
      "##erves": 8069,
      "placing": 8070,
      "launched": 8071,
      "##bury": 8072,
      "biscuits": 8073,
      "bass": 8074,
      "tig": 8075,
      "##order": 8076,
      "stopping": 8077,
      "breaks": 8078,
      "martial": 8079,
      "wreck": 8080,
      "reckon": 8081,
      "beige": 8082,
      "tribe": 8083,
      "mabel": 8084,
      "composer": 8085,
      "##eze": 8086,
      "skinny": 8087,
      "homeless": 8088,
      "ringing": 8089,
      "microw": 8090,
      "belongs": 8091,
      "alternative": 8092,
      "robin": 8093,
      "##vis": 8094,
      "tram": 8095,
      "knives": 8096,
      "sewing": 8097,
      "stain": 8098,
      "collar": 8099,
      "pope": 8100,
      "inches": 8101,
      "planes": 8102,
      "fantastic": 8103,
      "rick": 8104,
      "rachel": 8105,
      "##ropol": 8106,
      "labels": 8107,
      "laundry": 8108,
      "breathing": 8109,
      "cushions": 8110,
      "triumph": 8111,
      "##inating": 8112,
      "engines": 8113,
      "annie": 8114,
      "praying": 8115,
      "zone": 8116,
      "##za": 8117,
      "##cha": 8118,
      "prisc": 8119,
      "sofas": 8120,
      "suspect": 8121,
      "previously": 8122,
      "bast": 8123,
      "prepares": 8124,
      "pencils": 8125,
      "surgery": 8126,
      "clap": 8127,
      "monitors": 8128,
      "##usive": 8129,
      "unlike": 8130,
      "36": 8131,
      "##bled": 8132,
      "mystery": 8133,
      "sop": 8134,
      "##ns": 8135,
      "fries": 8136,
      "clar": 8137,
      "arrangement": 8138,
      "confirmed": 8139,
      "##yon": 8140,
      "zeal": 8141,
      "wha": 8142,
      "dancers": 8143,
      "drugs": 8144,
      "arrested": 8145,
      "brides": 8146,
      "exit": 8147,
      "signboard": 8148,
      "impact": 8149,
      "benefit": 8150,
      "##otty": 8151,
      "##ghetti": 8152,
      "tear": 8153,
      "twist": 8154,
      "keen": 8155,
      "##bbie": 8156,
      "provin": 8157,
      "pitched": 8158,
      "cushion": 8159,
      "stew": 8160,
      "regions": 8161,
      "hurts": 8162,
      "rus": 8163,
      "##rees": 8164,
      "##aks": 8165,
      "swift": 8166,
      "snail": 8167,
      "ticket": 8168,
      "glor": 8169,
      "replace": 8170,
      "satisfied": 8171,
      "##mes": 8172,
      "fasc": 8173,
      "glow": 8174,
      "amid": 8175,
      "acry": 8176,
      "patterned": 8177,
      "climbed": 8178,
      "##acious": 8179,
      "mob": 8180,
      "apolog": 8181,
      "fashioned": 8182,
      "landmark": 8183,
      "tickle": 8184,
      "1997": 8185,
      "bubble": 8186,
      "coats": 8187,
      "cruel": 8188,
      "cranes": 8189,
      "shortly": 8190,
      "increased": 8191,
      "stolen": 8192,
      "useta": 8193,
      "extruded": 8194,
      "garbage": 8195,
      "dedic": 8196,
      "dial": 8197,
      "tramp": 8198,
      "adds": 8199,
      "woke": 8200,
      "##ipper": 8201,
      "restaurants": 8202,
      "daniel": 8203,
      "##iation": 8204,
      "divor": 8205,
      "amusement": 8206,
      "kites": 8207,
      "owners": 8208,
      "##maid": 8209,
      "devil": 8210,
      "chapel": 8211,
      "nuclear": 8212,
      "brie": 8213,
      "priscilla": 8214,
      "venture": 8215,
      "swall": 8216,
      "suffering": 8217,
      "acrylic": 8218,
      "##oting": 8219,
      "hee": 8220,
      "rainforest": 8221,
      "issues": 8222,
      "railroad": 8223,
      "nearer": 8224,
      "meets": 8225,
      "1991": 8226,
      "eagerly": 8227,
      "whistle": 8228,
      "mathemat": 8229,
      "encl": 8230,
      "swinging": 8231,
      "##osh": 8232,
      "wins": 8233,
      "suffered": 8234,
      "sixteen": 8235,
      "discussing": 8236,
      "battery": 8237,
      "fate": 8238,
      "##agg": 8239,
      "housing": 8240,
      "confused": 8241,
      "microwave": 8242,
      "##nel": 8243,
      "##eps": 8244,
      "gear": 8245,
      "shepher": 8246,
      "companions": 8247,
      "golfer": 8248,
      "rasp": 8249,
      "##chant": 8250,
      "exposed": 8251,
      "eric": 8252,
      "delay": 8253,
      "involuntary": 8254,
      "junior": 8255,
      "jewelry": 8256,
      "splendid": 8257,
      "global": 8258,
      "liberty": 8259,
      "##sticks": 8260,
      "##aki": 8261,
      "posed": 8262,
      "wil": 8263,
      "##nuts": 8264,
      "seek": 8265,
      "##abor": 8266,
      "##ores": 8267,
      "grandpa": 8268,
      "ivy": 8269,
      "skeleton": 8270,
      "fits": 8271,
      "comr": 8272,
      "madame": 8273,
      "attempts": 8274,
      "escaped": 8275,
      "missus": 8276,
      "engineer": 8277,
      "nood": 8278,
      "infect": 8279,
      "toe": 8280,
      "grade": 8281,
      "counting": 8282,
      "iconic": 8283,
      "feather": 8284,
      "publish": 8285,
      "##yl": 8286,
      "incl": 8287,
      "method": 8288,
      "##bar": 8289,
      "##umin": 8290,
      "gram": 8291,
      "##bridge": 8292,
      "reserv": 8293,
      "starring": 8294,
      "www": 8295,
      "##dog": 8296,
      "swan": 8297,
      "advertising": 8298,
      "barric": 8299,
      "continent": 8300,
      "growth": 8301,
      "trays": 8302,
      "roles": 8303,
      "jimmie": 8304,
      "highlighted": 8305,
      "legend": 8306,
      "oliver": 8307,
      "clut": 8308,
      "pron": 8309,
      "holder": 8310,
      "constant": 8311,
      "powers": 8312,
      "spaghetti": 8313,
      "utensils": 8314,
      "ee": 8315,
      "##tin": 8316,
      "letting": 8317,
      "leopard": 8318,
      "nations": 8319,
      "interp": 8320,
      "##lights": 8321,
      "dude": 8322,
      "##hia": 8323,
      "belly": 8324,
      "goose": 8325,
      "ald": 8326,
      "jog": 8327,
      "##bling": 8328,
      "##mble": 8329,
      "quit": 8330,
      "2023": 8331,
      "victim": 8332,
      "bunk": 8333,
      "nah": 8334,
      "vest": 8335,
      "##ani": 8336,
      "scientific": 8337,
      "bridges": 8338,
      "80": 8339,
      "bid": 8340,
      "marc": 8341,
      "hurric": 8342,
      "answers": 8343,
      "grills": 8344,
      "agricultural": 8345,
      "##ila": 8346,
      "compass": 8347,
      "refused": 8348,
      "snack": 8349,
      "kate": 8350,
      "peanut": 8351,
      "altogether": 8352,
      "conqu": 8353,
      "creation": 8354,
      "retire": 8355,
      "auntie": 8356,
      "identity": 8357,
      "bible": 8358,
      "trap": 8359,
      "vision": 8360,
      "prints": 8361,
      "##ste": 8362,
      "clare": 8363,
      "##ricate": 8364,
      "stretching": 8365,
      "windy": 8366,
      "crush": 8367,
      "reflecting": 8368,
      "delivery": 8369,
      "kidding": 8370,
      "persp": 8371,
      "barrel": 8372,
      "pressing": 8373,
      "belle": 8374,
      "lic": 8375,
      "##com": 8376,
      "##itations": 8377,
      "lotus": 8378,
      "1993": 8379,
      "##abled": 8380,
      "appointed": 8381,
      "fluffy": 8382,
      "\"?": 8383,
      "tang": 8384,
      "##ild": 8385,
      "##pting": 8386,
      "frances": 8387,
      "grows": 8388,
      "disney": 8389,
      "complic": 8390,
      "psych": 8391,
      "emblem": 8392,
      "bessie": 8393,
      "1990": 8394,
      "exha": 8395,
      "##velope": 8396,
      "kicking": 8397,
      "##iders": 8398,
      "envelope": 8399,
      "hike": 8400,
      "examples": 8401,
      "britain": 8402,
      "planted": 8403,
      "closeup": 8404,
      "generation": 8405,
      "breeze": 8406,
      "ability": 8407,
      "sched": 8408,
      "cheers": 8409,
      "accepted": 8410,
      "mosaic": 8411,
      "90": 8412,
      "##acle": 8413,
      "reind": 8414,
      "metropol": 8415,
      "earnest": 8416,
      "dent": 8417,
      "dew": 8418,
      "sweetie": 8419,
      "cd": 8420,
      "wealth": 8421,
      "prisoner": 8422,
      "briefly": 8423,
      "cult": 8424,
      "lav": 8425,
      "deserted": 8426,
      "pets": 8427,
      "advance": 8428,
      "fel": 8429,
      "harder": 8430,
      "displaying": 8431,
      "diagram": 8432,
      "##ctic": 8433,
      "layer": 8434,
      "portug": 8435,
      "sleepy": 8436,
      "constitutional": 8437,
      "beef": 8438,
      "wales": 8439,
      "defense": 8440,
      "attacked": 8441,
      "##nut": 8442,
      "everyday": 8443,
      "farther": 8444,
      "organism": 8445,
      "murm": 8446,
      "poetry": 8447,
      "struggle": 8448,
      "principal": 8449,
      "cu": 8450,
      "bend": 8451,
      "stable": 8452,
      "mickey": 8453,
      "wrestling": 8454,
      "exchange": 8455,
      "nancy": 8456,
      "panc": 8457,
      "footwear": 8458,
      "causes": 8459,
      "sed": 8460,
      "sized": 8461,
      "##isl": 8462,
      "isometric": 8463,
      "##brush": 8464,
      "veter": 8465,
      "wis": 8466,
      "##corn": 8467,
      "ther": 8468,
      "unable": 8469,
      "eighteen": 8470,
      "gasp": 8471,
      "cass": 8472,
      "partners": 8473,
      "ballet": 8474,
      "williams": 8475,
      "appreciate": 8476,
      "##win": 8477,
      "##ague": 8478,
      "joint": 8479,
      "puppies": 8480,
      "scratch": 8481,
      "surge": 8482,
      "achieve": 8483,
      "huts": 8484,
      "##char": 8485,
      "outl": 8486,
      "##agers": 8487,
      "185": 8488,
      "18th": 8489,
      "##lipp": 8490,
      "fake": 8491,
      "cheeks": 8492,
      "ank": 8493,
      "mustn": 8494,
      "locks": 8495,
      "extended": 8496,
      "false": 8497,
      "##cular": 8498,
      "ford": 8499,
      "hadta": 8500,
      "marina": 8501,
      "1960s": 8502,
      "georg": 8503,
      "##sk": 8504,
      "offering": 8505,
      "drunk": 8506,
      "##uge": 8507,
      "levels": 8508,
      "hairstyle": 8509,
      "tumb": 8510,
      "restored": 8511,
      "ouch": 8512,
      "dinosaurs": 8513,
      "ridic": 8514,
      "delighted": 8515,
      "accessories": 8516,
      "70": 8517,
      "rehe": 8518,
      "inspiration": 8519,
      "hasta": 8520,
      "bulb": 8521,
      "##iac": 8522,
      "bea": 8523,
      "quarters": 8524,
      "executive": 8525,
      "gle": 8526,
      "orient": 8527,
      "slim": 8528,
      "attending": 8529,
      "fourteen": 8530,
      "fisherman": 8531,
      "forests": 8532,
      "turk": 8533,
      "ribbons": 8534,
      "dating": 8535,
      "meanwhile": 8536,
      "##coming": 8537,
      "##rose": 8538,
      "quote": 8539,
      "crashing": 8540,
      "classes": 8541,
      "hoped": 8542,
      "##lst": 8543,
      "sentence": 8544,
      "airplanes": 8545,
      "discovery": 8546,
      "rip": 8547,
      "##aroo": 8548,
      "##ansas": 8549,
      "sweets": 8550,
      "vig": 8551,
      "##irts": 8552,
      "reven": 8553,
      "hangs": 8554,
      "pasted": 8555,
      "lizard": 8556,
      "dub": 8557,
      "jess": 8558,
      "##nge": 8559,
      "##ishop": 8560,
      "philipp": 8561,
      "reindeer": 8562,
      "pand": 8563,
      "##rr": 8564,
      "blown": 8565,
      "badge": 8566,
      "cyl": 8567,
      "pirates": 8568,
      "biscuit": 8569,
      "innocent": 8570,
      "gained": 8571,
      "beverage": 8572,
      "fri": 8573,
      "stead": 8574,
      "diet": 8575,
      "supported": 8576,
      "##lle": 8577,
      "plot": 8578,
      "covid": 8579,
      "trained": 8580,
      "package": 8581,
      "recognize": 8582,
      "seventy": 8583,
      "rectang": 8584,
      "##asy": 8585,
      "##see": 8586,
      "require": 8587,
      "horns": 8588,
      "##emies": 8589,
      "syd": 8590,
      "turqu": 8591,
      "visitor": 8592,
      "chamber": 8593,
      "asks": 8594,
      "consequ": 8595,
      "maroon": 8596,
      "##rene": 8597,
      "notebook": 8598,
      "sunflowers": 8599,
      "circumstances": 8600,
      "dea": 8601,
      "winding": 8602,
      "##ogue": 8603,
      "wishes": 8604,
      "semi": 8605,
      "ornate": 8606,
      "ki": 8607,
      "boundary": 8608,
      "residence": 8609,
      "par2": 8610,
      "pussy": 8611,
      "pul": 8612,
      "tricks": 8613,
      "blankets": 8614,
      "majesty": 8615,
      "##person": 8616,
      "pacific": 8617,
      "##utions": 8618,
      "switzer": 8619,
      "homepage": 8620,
      "granddad": 8621,
      "volleyball": 8622,
      "turquoise": 8623,
      "charity": 8624,
      "borough": 8625,
      "nod": 8626,
      "skyscraper": 8627,
      "bearing": 8628,
      "overall": 8629,
      "disg": 8630,
      "mild": 8631,
      "transportation": 8632,
      "journalist": 8633,
      "occurred": 8634,
      "diss": 8635,
      "sevent": 8636,
      "exped": 8637,
      "coastline": 8638,
      "explosion": 8639,
      "vice": 8640,
      "##ati": 8641,
      "dropping": 8642,
      "quant": 8643,
      "compared": 8644,
      "bitter": 8645,
      "pretending": 8646,
      "affairs": 8647,
      "dorothy": 8648,
      "switzerland": 8649,
      "sally": 8650,
      "##cases": 8651,
      "shy": 8652,
      "greenhouse": 8653,
      "businesswoman": 8654,
      "closes": 8655,
      "##rets": 8656,
      "leans": 8657,
      "##ouri": 8658,
      "confidence": 8659,
      "columns": 8660,
      "charl": 8661,
      "pasta": 8662,
      "beating": 8663,
      "gras": 8664,
      "lisa": 8665,
      "kit": 8666,
      "safely": 8667,
      "##load": 8668,
      "grate": 8669,
      "edna": 8670,
      "cooper": 8671,
      "assistant": 8672,
      "watermelon": 8673,
      "tee": 8674,
      "burger": 8675,
      "creatures": 8676,
      "deput": 8677,
      "revol": 8678,
      "fc": 8679,
      "fuss": 8680,
      "##zo": 8681,
      "napkin": 8682,
      "connection": 8683,
      "fern": 8684,
      "gee": 8685,
      "sizes": 8686,
      "tam": 8687,
      "penguins": 8688,
      "spy": 8689,
      "##ropri": 8690,
      "nonsense": 8691,
      "patrol": 8692,
      "rifle": 8693,
      "happily": 8694,
      "cape": 8695,
      "mistress": 8696,
      "gabr": 8697,
      "tomb": 8698,
      "styles": 8699,
      "reports": 8700,
      "sails": 8701,
      "babble": 8702,
      "suburb": 8703,
      "petals": 8704,
      "advanced": 8705,
      "bedrooms": 8706,
      "represented": 8707,
      "gem": 8708,
      "�����": 8709,
      "##alous": 8710,
      "intense": 8711,
      "script": 8712,
      "household": 8713,
      "computers": 8714,
      "receiving": 8715,
      "escal": 8716,
      "stylized": 8717,
      "plank": 8718,
      "resour": 8719,
      "friendship": 8720,
      "instantly": 8721,
      "romance": 8722,
      "rider": 8723,
      "##oir": 8724,
      "sooner": 8725,
      "fires": 8726,
      "degrees": 8727,
      "##estyle": 8728,
      "ahhah": 8729,
      "##gues": 8730,
      "##pee": 8731,
      "##urd": 8732,
      "additional": 8733,
      "##cluded": 8734,
      "officially": 8735,
      "cathy": 8736,
      "grin": 8737,
      "patients": 8738,
      "philip": 8739,
      "recycl": 8740,
      "aah": 8741,
      "register": 8742,
      "apartments": 8743,
      "gina": 8744,
      "collea": 8745,
      "##ridge": 8746,
      "musicians": 8747,
      "sacrif": 8748,
      "vibr": 8749,
      "snowboard": 8750,
      "cheering": 8751,
      "economic": 8752,
      "kangaroo": 8753,
      "lately": 8754,
      "danny": 8755,
      "distributed": 8756,
      "baked": 8757,
      "cents": 8758,
      "affection": 8759,
      "hd": 8760,
      "partly": 8761,
      "reminds": 8762,
      "ware": 8763,
      "carbon": 8764,
      "1988": 8765,
      "description": 8766,
      "races": 8767,
      "bamboo": 8768,
      "haul": 8769,
      "demanded": 8770,
      "subway": 8771,
      "compete": 8772,
      "##ros": 8773,
      "emph": 8774,
      "films": 8775,
      "dense": 8776,
      "berry": 8777,
      "bells": 8778,
      "##aboo": 8779,
      "units": 8780,
      "negative": 8781,
      "graph": 8782,
      "300": 8783,
      "gods": 8784,
      "fever": 8785,
      "flooring": 8786,
      "transm": 8787,
      "roller": 8788,
      "zealand": 8789,
      "dandel": 8790,
      "nik": 8791,
      "ugh": 8792,
      "emily": 8793,
      "whilst": 8794,
      "swear": 8795,
      "defence": 8796,
      "sufficient": 8797,
      ",’": 8798,
      "shores": 8799,
      "boun": 8800,
      "adjust": 8801,
      "andrew": 8802,
      "promotion": 8803,
      "gotten": 8804,
      "rabbits": 8805,
      "separated": 8806,
      ".)": 8807,
      "lave": 8808,
      "wallet": 8809,
      "catches": 8810,
      "resolution": 8811,
      "rubbish": 8812,
      "hurricane": 8813,
      "mens": 8814,
      "enemies": 8815,
      "unexp": 8816,
      "lanterns": 8817,
      "misc": 8818,
      "nowhere": 8819,
      "shoots": 8820,
      "cycling": 8821,
      "gad": 8822,
      "##nda": 8823,
      "blossoms": 8824,
      "jum": 8825,
      "lakes": 8826,
      "##itable": 8827,
      "fris": 8828,
      "solo": 8829,
      "hesit": 8830,
      "mirrors": 8831,
      "1989": 8832,
      "accompl": 8833,
      "##inity": 8834,
      "anal": 8835,
      "clark": 8836,
      "greg": 8837,
      "belief": 8838,
      "##piece": 8839,
      "##eding": 8840,
      "strang": 8841,
      "tackle": 8842,
      "##opy": 8843,
      "interact": 8844,
      "scan": 8845,
      "draft": 8846,
      "ruined": 8847,
      "octop": 8848,
      "##otte": 8849,
      "##hist": 8850,
      "coke": 8851,
      "blossom": 8852,
      "citizens": 8853,
      "unexpected": 8854,
      "muscles": 8855,
      "settlement": 8856,
      "sneakers": 8857,
      "cans": 8858,
      "conscious": 8859,
      "poorly": 8860,
      "representing": 8861,
      "##alie": 8862,
      "exposure": 8863,
      "brightly": 8864,
      "jeannine": 8865,
      "sequ": 8866,
      "killer": 8867,
      "gy": 8868,
      "##eled": 8869,
      "intricate": 8870,
      "dolphins": 8871,
      "atlantic": 8872,
      "75": 8873,
      "caroline": 8874,
      "cert": 8875,
      "bernard": 8876,
      "##mans": 8877,
      "ryan": 8878,
      "ast": 8879,
      "migr": 8880,
      "pist": 8881,
      "##ingly": 8882,
      "##ivered": 8883,
      "consult": 8884,
      "loudly": 8885,
      "fuel": 8886,
      "lions": 8887,
      "##har": 8888,
      "numerous": 8889,
      "##elled": 8890,
      "costs": 8891,
      "destination": 8892,
      "wicked": 8893,
      "##oes": 8894,
      "##cest": 8895,
      "barrier": 8896,
      "majority": 8897,
      "towels": 8898,
      "##ribed": 8899,
      "desperate": 8900,
      "dur": 8901,
      "jake": 8902,
      "clin": 8903,
      "gb": 8904,
      "strap": 8905,
      "aisle": 8906,
      "##egr": 8907,
      "##bc": 8908,
      "ripp": 8909,
      "sailor": 8910,
      "benefits": 8911,
      "orchest": 8912,
      "sydney": 8913,
      "scattered": 8914,
      "elim": 8915,
      "organisms": 8916,
      "grunts": 8917,
      "minimal": 8918,
      "albert": 8919,
      "sticky": 8920,
      "cupcake": 8921,
      "portraits": 8922,
      "anton": 8923,
      "hosted": 8924,
      "failure": 8925,
      "management": 8926,
      "depress": 8927,
      "masc": 8928,
      "sympath": 8929,
      "actions": 8930,
      "christopher": 8931,
      "stretched": 8932,
      "cler": 8933,
      "arc": 8934,
      "scream": 8935,
      "hydro": 8936,
      "ultim": 8937,
      "echo": 8938,
      "##iors": 8939,
      "1984": 8940,
      "peekaboo": 8941,
      "lavender": 8942,
      "beet": 8943,
      "spectators": 8944,
      "robinson": 8945,
      "dipl": 8946,
      "dates": 8947,
      "enters": 8948,
      "graduation": 8949,
      "jewish": 8950,
      "momma": 8951,
      "avi": 8952,
      "##onies": 8953,
      "sandals": 8954,
      "admitted": 8955,
      "estim": 8956,
      "thriller": 8957,
      "walter": 8958,
      "sled": 8959,
      "barely": 8960,
      "finishing": 8961,
      "sprang": 8962,
      "pendant": 8963,
      "##icol": 8964,
      "mock": 8965,
      "##raw": 8966,
      "feast": 8967,
      "burnt": 8968,
      "projects": 8969,
      "combined": 8970,
      "valentine": 8971,
      "33": 8972,
      "##point": 8973,
      "##oust": 8974,
      "logos": 8975,
      "dull": 8976,
      "##llip": 8977,
      "expecting": 8978,
      "sacred": 8979,
      "lush": 8980,
      "shine": 8981,
      "retre": 8982,
      "##issa": 8983,
      "##rence": 8984,
      "1950s": 8985,
      "ss": 8986,
      "##inky": 8987,
      "curren": 8988,
      "survive": 8989,
      "institute": 8990,
      "##zing": 8991,
      "stronger": 8992,
      "gil": 8993,
      "ms": 8994,
      "missouri": 8995,
      "##--------------------------------": 8996,
      "trem": 8997,
      "regret": 8998,
      "sounded": 8999,
      "miser": 9000,
      "literally": 9001,
      "##11": 9002,
      "whit": 9003,
      "possession": 9004,
      "supporters": 9005,
      "##onia": 9006,
      "patri": 9007,
      "importance": 9008,
      "fanny": 9009,
      "uncom": 9010,
      "phrase": 9011,
      "booksh": 9012,
      "efforts": 9013,
      "cereal": 9014,
      "maxim": 9015,
      "depends": 9016,
      "##inations": 9017,
      "##about": 9018,
      "awww": 9019,
      "picturesque": 9020,
      "seaside": 9021,
      "jason": 9022,
      "##itled": 9023,
      "meas": 9024,
      "poppy": 9025,
      "mexican": 9026,
      "wanting": 9027,
      "incor": 9028,
      "investigator": 9029,
      "##ike": 9030,
      "mich": 9031,
      "au": 9032,
      "pops": 9033,
      "jealous": 9034,
      "##burger": 9035,
      "##rom": 9036,
      "monoch": 9037,
      "begun": 9038,
      "sailors": 9039,
      "##pies": 9040,
      "##atch": 9041,
      "cuc": 9042,
      "rude": 9043,
      "onions": 9044,
      "myth": 9045,
      "foundation": 9046,
      "suffer": 9047,
      "wick": 9048,
      "donald": 9049,
      "reward": 9050,
      "rejo": 9051,
      "nicely": 9052,
      "1987": 9053,
      "increasing": 9054,
      "barbara": 9055,
      "adopted": 9056,
      "officials": 9057,
      "sleeves": 9058,
      "somers": 9059,
      "##uals": 9060,
      "##hibit": 9061,
      "##igan": 9062,
      "wherever": 9063,
      "voy": 9064,
      "roy": 9065,
      "recall": 9066,
      "random": 9067,
      "virginia": 9068,
      "##ev": 9069,
      "hopes": 9070,
      "gum": 9071,
      "stitch": 9072,
      "bean": 9073,
      "twins": 9074,
      "handmade": 9075,
      "evolution": 9076,
      "fitting": 9077,
      "##tery": 9078,
      "##alds": 9079,
      "jackson": 9080,
      "1970s": 9081,
      "dawn": 9082,
      "sexual": 9083,
      "sab": 9084,
      "thirteen": 9085,
      "constructed": 9086,
      "appeal": 9087,
      "injury": 9088,
      "dave": 9089,
      "inv1": 9090,
      "##awa": 9091,
      "cement": 9092,
      "##iments": 9093,
      "grasses": 9094,
      "illness": 9095,
      "monaster": 9096,
      "starry": 9097,
      "farmhouse": 9098,
      "tickets": 9099,
      "nominated": 9100,
      "knights": 9101,
      "terminal": 9102,
      "brad": 9103,
      "abe": 9104,
      "whoever": 9105,
      "collecting": 9106,
      "commonly": 9107,
      "controls": 9108,
      "mcdon": 9109,
      "sara": 9110,
      "revers": 9111,
      "composed": 9112,
      "earned": 9113,
      "magical": 9114,
      "potential": 9115,
      "sausages": 9116,
      "folded": 9117,
      "lag": 9118,
      "##rit": 9119,
      "mothers": 9120,
      "##annah": 9121,
      "anger": 9122,
      "noisy": 9123,
      "crawling": 9124,
      "metropolitan": 9125,
      "ak": 9126,
      "asia": 9127,
      "##aham": 9128,
      "apron": 9129,
      "salon": 9130,
      "solution": 9131,
      "defeat": 9132,
      "cracked": 9133,
      "ack": 9134,
      "tulips": 9135,
      "initial": 9136,
      "##peech": 9137,
      "auction": 9138,
      "jas": 9139,
      "##aph": 9140,
      "roar": 9141,
      "columb": 9142,
      "teap": 9143,
      "err": 9144,
      "nonspeech": 9145,
      "baker": 9146,
      "dum": 9147,
      "stress": 9148,
      "##eway": 9149,
      "pressed": 9150,
      "1980": 9151,
      "merc": 9152,
      "choosing": 9153,
      "responded": 9154,
      "cj": 9155,
      "atop": 9156,
      "glitter": 9157,
      "scientist": 9158,
      "gim": 9159,
      "ranch": 9160,
      "##atable": 9161,
      "invitations": 9162,
      "swept": 9163,
      "kindly": 9164,
      "kissed": 9165,
      "##come": 9166,
      "timber": 9167,
      "clocks": 9168,
      "shepherd": 9169,
      "\"\"": 9170,
      "ripped": 9171,
      "1986": 9172,
      "seventh": 9173,
      "responsibility": 9174,
      "sergeant": 9175,
      "lois": 9176,
      "laure": 9177,
      "popcorn": 9178,
      "marker": 9179,
      "wag": 9180,
      "chasing": 9181,
      "broom": 9182,
      "trails": 9183,
      "violence": 9184,
      "boring": 9185,
      "lew": 9186,
      "ties": 9187,
      "constell": 9188,
      "##mal": 9189,
      "snakes": 9190,
      "seized": 9191,
      "##alty": 9192,
      "clust": 9193,
      "grid": 9194,
      "snowfall": 9195,
      "pills": 9196,
      "copper": 9197,
      "bankn": 9198,
      "installed": 9199,
      "winnie": 9200,
      "destr": 9201,
      "##kel": 9202,
      "##apple": 9203,
      "fame": 9204,
      "owe": 9205,
      "##inals": 9206,
      "##ouses": 9207,
      "louise": 9208,
      "understanding": 9209,
      "convin": 9210,
      "challeng": 9211,
      "##sm": 9212,
      "diana": 9213,
      "mice": 9214,
      "seth": 9215,
      "canyon": 9216,
      "hyp": 9217,
      "rotating": 9218,
      "aspect": 9219,
      "inhabit": 9220,
      "bending": 9221,
      "##ologist": 9222,
      "economy": 9223,
      "congratulations": 9224,
      "rehears": 9225,
      "bak": 9226,
      "beak": 9227,
      "crest": 9228,
      "charm": 9229,
      "eyed": 9230,
      "celebrated": 9231,
      "cyclist": 9232,
      "perspective": 9233,
      "rit": 9234,
      "tones": 9235,
      "grape": 9236,
      "screening": 9237,
      "pretends": 9238,
      "swamp": 9239,
      "belg": 9240,
      "##mate": 9241,
      "reign": 9242,
      "##ilight": 9243,
      "perman": 9244,
      "millions": 9245,
      "oxy": 9246,
      "gt": 9247,
      "neon": 9248,
      "expand": 9249,
      "compar": 9250,
      "painter": 9251,
      "tallest": 9252,
      "converted": 9253,
      "##ok": 9254,
      "percy": 9255,
      "cityscape": 9256,
      "alpine": 9257,
      "##hio": 9258,
      "##oping": 9259,
      "blast": 9260,
      "twilight": 9261,
      "acts": 9262,
      "mant": 9263,
      "sack": 9264,
      "exting": 9265,
      "provides": 9266,
      "collected": 9267,
      "navig": 9268,
      "blackie": 9269,
      "guards": 9270,
      "prey": 9271,
      "hairstyles": 9272,
      "extingu": 9273,
      "##wide": 9274,
      "suite": 9275,
      "1972": 9276,
      "##jamas": 9277,
      "succeeded": 9278,
      "##stein": 9279,
      "rim": 9280,
      "##mm": 9281,
      "stiff": 9282,
      "senate": 9283,
      "blinds": 9284,
      "islamic": 9285,
      "##onic": 9286,
      "worm": 9287,
      "evelyn": 9288,
      "alien": 9289,
      "delivered": 9290,
      "ellen": 9291,
      "dolphin": 9292,
      "##bbed": 9293,
      "teenager": 9294,
      "newspapers": 9295,
      "bacon": 9296,
      "##tt": 9297,
      "obs": 9298,
      "disaster": 9299,
      "servant": 9300,
      "rowing": 9301,
      "##rig": 9302,
      "##ester": 9303,
      "slaves": 9304,
      "disappointed": 9305,
      "supplies": 9306,
      "integr": 9307,
      "enorm": 9308,
      "explan": 9309,
      "reaction": 9310,
      "inquired": 9311,
      "pyramid": 9312,
      "fetch": 9313,
      "bored": 9314,
      "marking": 9315,
      "1981": 9316,
      "stools": 9317,
      "sympt": 9318,
[...]
