{
  "version": "1.0",
  "truncation": null,
  "padding": null,
  "added_tokens": [
    {
      "id": 0,
      "content": "[UNK]",
      "single_word": false,
      "lstrip": false,
      "rstrip": false,
      "normalized": false,
      "special": true
    },
    {
      "id": 1,
      "content": "[CLS]",
      "single_word": false,
      "lstrip": false,
      "rstrip": false,
      "normalized": false,
      "special": true
    },
    {
      "id": 2,
      "content": "[SEP]",
      "single_word": false,
      "lstrip": false,
      "rstrip": false,
      "normalized": false,
      "special": true
    },
    {
      "id": 3,
      "content": "[PAD]",
      "single_word": false,
      "lstrip": false,
      "rstrip": false,
      "normalized": false,
      "special": true
    },
    {
      "id": 4,
      "content": "[MASK]",
      "single_word": false,
      "lstrip": false,
      "rstrip": false,
      "normalized": false,
      "special": true
    }
  ],
  "normalizer": {
    "type": "Sequence",
    "normalizers": [
      {
        "type": "NFD"
      },
      {
        "type": "Lowercase"
      },
      {
        "type": "StripAccents"
      }
    ]
  },
  "pre_tokenizer": {
    "type": "Whitespace"
  },
  "post_processor": {
    "type": "TemplateProcessing",
    "single": [
      {
        "SpecialToken": {
          "id": "[CLS]",
          "type_id": 0
        }
      },
      {
        "Sequence": {
          "id": "A",
          "type_id": 0
        }
      },
      {
        "SpecialToken": {
          "id": "[SEP]",
          "type_id": 0
        }
      }
    ],
    "pair": [
      {
        "SpecialToken": {
          "id": "[CLS]",
          "type_id": 0
        }
      },
      {
        "Sequence": {
          "id": "A",
          "type_id": 0
        }
      },
      {
        "SpecialToken": {
          "id": "[SEP]",
          "type_id": 0
        }
      },
      {
        "Sequence": {
          "id": "B",
          "type_id": 1
        }
      },
      {
        "SpecialToken": {
          "id": "[SEP]",
          "type_id": 1
        }
      }
    ],
    "special_tokens": {
      "[CLS]": {
        "id": "[CLS]",
        "ids": [
          1
        ],
        "tokens": [
          "[CLS]"
        ]
      },
      "[SEP]": {
        "id": "[SEP]",
        "ids": [
          2
        ],
        "tokens": [
          "[SEP]"
        ]
      }
    }
  },
  "decoder": null,
  "model": {
    "type": "WordPiece",
    "unk_token": "[UNK]",
    "continuing_subword_prefix": "##",
    "max_input_chars_per_word": 100,
    "vocab": {
      "[UNK]": 0,
      "[CLS]": 1,
      "[SEP]": 2,
      "[PAD]": 3,
      "[MASK]": 4,
      "!": 5,
      "\"": 6,
      "#": 7,
      "$": 8,
      "%": 9,
      "&": 10,
      "'": 11,
      "(": 12,
      ")": 13,
      "*": 14,
      "+": 15,
      ",": 16,
      "-": 17,
      ".": 18,
      "/": 19,
      "0": 20,
      "1": 21,
      "2": 22,
      "3": 23,
      "4": 24,
      "5": 25,
      "6": 26,
      "7": 27,
      "8": 28,
      "9": 29,
      ":": 30,
      ";": 31,
      "<": 32,
      "=": 33,
      ">": 34,
      "?": 35,
      "@": 36,
      "[": 37,
      "\\": 38,
      "]": 39,
      "^": 40,
      "`": 41,
      "a": 42,
      "b": 43,
      "c": 44,
      "d": 45,
      "e": 46,
      "f": 47,
      "g": 48,
      "h": 49,
      "i": 50,
      "j": 51,
      "k": 52,
      "l": 53,
      "m": 54,
      "n": 55,
      "o": 56,
      "p": 57,
      "q": 58,
      "r": 59,
      "s": 60,
      "t": 61,
      "u": 62,
      "v": 63,
      "w": 64,
      "x": 65,
      "y": 66,
      "z": 67,
      "~": 68,
      "¡": 69,
      "¢": 70,
      "£": 71,
      "¤": 72,
      "¥": 73,
      "§": 74,
      "¨": 75,
      "©": 76,
      "¬": 77,
      "®": 78,
      "°": 79,
      "±": 80,
      "´": 81,
      "¿": 82,
      "×": 83,
      "ø": 84,
      "œ": 85,
      "θ": 86,
      "π": 87,
      "σ": 88,
      "а": 89,
      "г": 90,
      "и": 91,
      "א": 92,
      "’": 93,
      "⁄": 94,
      "€": 95,
      "→": 96,
      "∅": 97,
      "√": 98,
      "∞": 99,
      "≈": 100,
      "─": 101,
      "►": 102,
      "☆": 103,
      "☉": 104,
      "♣": 105,
      "♥": 106,
      "♯": 107,
      "": 108,
      "##i": 109,
      "##l": 110,
      "##o": 111,
      "##t": 112,
      "##n": 113,
      "##g": 114,
      "##d": 115,
      "##e": 116,
      "##r": 117,
      "##a": 118,
      "##k": 119,
      "##u": 120,
      "##p": 121,
      "##s": 122,
      "##y": 123,
      "##h": 124,
      "##7": 125,
      "##5": 126,
      "##z": 127,
      "##m": 128,
      "##c": 129,
      "##b": 130,
      "##4": 131,
      "##3": 132,
      "##2": 133,
      "##8": 134,
      "##9": 135,
      "##f": 136,
      "##v": 137,
      "##0": 138,
      "##6": 139,
      "##w": 140,
      "##q": 141,
      "##x": 142,
      "##1": 143,
      "##j": 144,
      "##.": 145,
      "##,": 146,
      "##(": 147,
      "##)": 148,
      "##!": 149,
      "##?": 150,
      "##-": 151,
      "##*": 152,
      "##/": 153,
      "##;": 154,
      "##'": 155,
      "##\"": 156,
      "##¨": 157,
      "##=": 158,
      "###": 159,
      "##@": 160,
      "##\\": 161,
      "##´": 162,
      "##+": 163,
      "##`": 164,
      "##&": 165,
      "th": 166,
      "the": 167,
      "##re": 168,
      "##nd": 169,
      "##in": 170,
      "##er": 171,
      "in": 172,
      "##ing": 173,
      "##an": 174,
      "and": 175,
      "on": 176,
      "##ou": 177,
      "##it": 178,
      "##on": 179,
      "is": 180,
      "##es": 181,
      "of": 182,
      "##ee": 183,
      "##is": 184,
      "##or": 185,
      "there": 186,
      "##ac": 187,
      "##ar": 188,
      "##le": 189,
      "##at": 190,
      "see": 191,
      "can": 192,
      "##ic": 193,
      "##al": 194,
      "##ge": 195,
      "##om": 196,
      "we": 197,
      "##en": 198,
      "##age": 199,
      "##rou": 200,
      "##ack": 201,
      "this": 202,
      "im": 203,
      "##ol": 204,
      "image": 205,
      "are": 206,
      "##ed": 207,
      "##round": 208,
      "##ers": 209,
      "st": 210,
      "##ow": 211,
      "##il": 212,
      "back": 213,
      "##as": 214,
      "##id": 215,
      "##ot": 216,
      "##ith": 217,
      "with": 218,
      "##ground": 219,
      "to": 220,
      "##ig": 221,
      "background": 222,
      "wh": 223,
      "##ts": 224,
      "at": 225,
      "##and": 226,
      "##ir": 227,
      "pers": 228,
      "person": 229,
      "##all": 230,
      "##ay": 231,
      "##tu": 232,
      "pl": 233,
      "##igh": 234,
      "##et": 235,
      "##st": 236,
      "##ding": 237,
      "##op": 238,
      "##ec": 239,
      "##ide": 240,
      "##ion": 241,
      "##oo": 242,
      "##ture": 243,
      "sh": 244,
      "##ur": 245,
      "##ome": 246,
      "##ad": 247,
      "tre": 248,
      "fr": 249,
      "##ew": 250,
      "##am": 251,
      "pic": 252,
      "be": 253,
      "bu": 254,
      "picture": 255,
      "an": 256,
      "bl": 257,
      "##ight": 258,
      "col": 259,
      "##ab": 260,
      "some": 261,
      "##ain": 262,
      "##ter": 263,
      "fl": 264,
      "##ite": 265,
      "sk": 266,
      "ch": 267,
      "##el": 268,
      "##ap": 269,
      "##ass": 270,
      "white": 271,
      "ro": 272,
      "##ard": 273,
      "for": 274,
      "le": 275,
      "pe": 276,
      "trees": 277,
      "man": 278,
      "stand": 279,
      "sky": 280,
      "##ting": 281,
      "##ch": 282,
      "peop": 283,
      "it": 284,
      "color": 285,
      "people": 286,
      "bo": 287,
      "cl": 288,
      "he": 289,
      "##se": 290,
      "##ind": 291,
      "wall": 292,
      "##ve": 293,
      "side": 294,
      "standing": 295,
      "##ent": 296,
      "tab": 297,
      "buil": 298,
      "##ut": 299,
      "##ont": 300,
      "building": 301,
      "few": 302,
      "##ke": 303,
      "gr": 304,
      "al": 305,
      "table": 306,
      "##un": 307,
      "bot": 308,
      "hol": 309,
      "##ver": 310,
      "##les": 311,
      "##king": 312,
      "##ation": 313,
      "##ft": 314,
      "##um": 315,
      "tr": 316,
      "bott": 317,
      "##ore": 318,
      "##str": 319,
      "##her": 320,
      "##im": 321,
      "##ood": 322,
      "sit": 323,
      "##ect": 324,
      "wom": 325,
      "##res": 326,
      "ob": 327,
      "right": 328,
      "wat": 329,
      "##oor": 330,
      "holding": 331,
      "##air": 332,
      "te": 333,
      "car": 334,
      "##ul": 335,
      "top": 336,
      "sp": 337,
      "sitting": 338,
      "you": 339,
      "##ich": 340,
      "##ks": 341,
      "##ist": 342,
      "left": 343,
      "br": 344,
      "play": 345,
      "which": 346,
      "##og": 347,
      "black": 348,
      "##ue": 349,
      "obj": 350,
      "wear": 351,
      "po": 352,
      "##nt": 353,
      "water": 354,
      "woman": 355,
      "plan": 356,
      "##ct": 357,
      "##ag": 358,
      "ar": 359,
      "hand": 360,
      "gl": 361,
      "wearing": 362,
      "front": 363,
      "li": 364,
      "road": 365,
      "##ce": 366,
      "re": 367,
      "from": 368,
      "bottom": 369,
      "grass": 370,
      "##ll": 371,
      "##ach": 372,
      "##us": 373,
      "##ill": 374,
      "##oc": 375,
      "loo": 376,
      "##av": 377,
      "##ate": 378,
      "by": 379,
      "tw": 380,
      "##ro": 381,
      "as": 382,
      "mo": 383,
      "sm": 384,
      "##ace": 385,
      "co": 386,
      "here": 387,
      "wind": 388,
      "##ark": 389,
      "two": 390,
      "se": 391,
      "glass": 392,
      "gre": 393,
      "##ld": 394,
      "##ical": 395,
      "dr": 396,
      "##uring": 397,
      "##if": 398,
      "vi": 399,
      "##ustr": 400,
      "chair": 401,
      "##ity": 402,
      "##ds": 403,
      "flow": 404,
      "ph": 405,
      "that": 406,
      "her": 407,
      "beh": 408,
      "his": 409,
      "behind": 410,
      "##xt": 411,
      "##own": 412,
      "##ects": 413,
      "##ated": 414,
      "during": 415,
      "##ere": 416,
      "##so": 417,
      "##est": 418,
      "buildings": 419,
      "##ip": 420,
      "also": 421,
      "##our": 422,
      "board": 423,
      "ve": 424,
      "blue": 425,
      "ill": 426,
      "objects": 427,
      "plants": 428,
      "ground": 429,
      "##ther": 430,
      "view": 431,
      "up": 432,
      "##ign": 433,
      "illustr": 434,
      "one": 435,
      "window": 436,
      "or": 437,
      "##em": 438,
      "over": 439,
      "illustration": 440,
      "##ly": 441,
      "wood": 442,
      "##iv": 443,
      "##ount": 444,
      "wal": 445,
      "##art": 446,
      "##ine": 447,
      "art": 448,
      "pol": 449,
      "##iling": 450,
      "red": 451,
      "con": 452,
      "##ress": 453,
      "tree": 454,
      "sun": 455,
      "##hic": 456,
      "##ak": 457,
      "##red": 458,
      "cen": 459,
      "sc": 460,
      "hou": 461,
      "playing": 462,
      "phot": 463,
      "persons": 464,
      "other": 465,
      "##dle": 466,
      "##one": 467,
      "##ort": 468,
      "mid": 469,
      "##ess": 470,
      "##ake": 471,
      "##gh": 472,
      "gir": 473,
      "green": 474,
      "text": 475,
      "##ile": 476,
      "com": 477,
      "them": 478,
      "center": 479,
      "##ies": 480,
      "vehic": 481,
      "out": 482,
      "middle": 483,
      "##ame": 484,
      "##ights": 485,
      "##ng": 486,
      "##ry": 487,
      "clou": 488,
      "floor": 489,
      "like": 490,
      "##ear": 491,
      "##oot": 492,
      "##bo": 493,
      "girl": 494,
      "wor": 495,
      "##ast": 496,
      "wooden": 497,
      "##ple": 498,
      "fore": 499,
      "##ector": 500,
      "lights": 501,
      "##up": 502,
      "cont": 503,
      "att": 504,
      "##ong": 505,
      "##uit": 506,
      "##low": 507,
      "##irt": 508,
      "##itt": 509,
      "city": 510,
      "grou": 511,
      "group": 512,
      "des": 513,
      "sur": 514,
      "dress": 515,
      "##ball": 516,
      "many": 517,
      "mus": 518,
      "vector": 519,
      "fi": 520,
      "##ra": 521,
      "sn": 522,
      "##ner": 523,
      "foot": 524,
      "##ick": 525,
      "light": 526,
      "young": 527,
      "pat": 528,
      "##to": 529,
      "##ish": 530,
      "pr": 531,
      "act": 532,
      "photo": 533,
      "##ant": 534,
      "##ning": 535,
      "room": 536,
      "stre": 537,
      "house": 538,
      "day": 539,
      "flowers": 540,
      "was": 541,
      "show": 542,
      "##orm": 543,
      "food": 544,
      "bes": 545,
      "walking": 546,
      "##ountain": 547,
      "who": 548,
      "poles": 549,
      "bus": 550,
      "their": 551,
      "ins": 552,
      "##ave": 553,
      "door": 554,
      "cou": 555,
      "##ive": 556,
      "beside": 557,
      "snow": 558,
      "##ial": 559,
      "##tern": 560,
      "chairs": 561,
      "contain": 562,
      "so": 563,
      "clouds": 564,
      "##ff": 565,
      "surf": 566,
      "beach": 567,
      "dog": 568,
      "##act": 569,
      "##aut": 570,
      "##uc": 571,
      "object": 572,
      "stage": 573,
      "##oth": 574,
      "##th": 575,
      "mountain": 576,
      "actor": 577,
      "##other": 578,
      "##ink": 579,
      "boo": 580,
      "##aves": 581,
      "fen": 582,
      "artist": 583,
      "shirt": 584,
      "plac": 585,
      "ex": 586,
      "##ie": 587,
      "beaut": 588,
      "flag": 589,
      "pain": 590,
      "musical": 591,
      "##ble": 592,
      "these": 593,
      "cr": 594,
      "roc": 595,
      "##ail": 596,
      "##rough": 597,
      "##ying": 598,
      "pap": 599,
      "##way": 600,
      "old": 601,
      "##ock": 602,
      "looking": 603,
      "##ses": 604,
      "off": 605,
      "##ice": 606,
      "sign": 607,
      "ag": 608,
      "ce": 609,
      "##ep": 610,
      "isol": 611,
      "instr": 612,
      "football": 613,
      "isolated": 614,
      "##lect": 615,
      "hands": 616,
      "##pl": 617,
      "player": 618,
      "##ose": 619,
      "##ild": 620,
      "##nder": 621,
      "through": 622,
      "may": 623,
      "instrum": 624,
      "##mer": 625,
      "placed": 626,
      "night": 627,
      "pre": 628,
      "vehicles": 629,
      "af": 630,
      "bas": 631,
      "##board": 632,
      "boat": 633,
      "your": 634,
      "##ust": 635,
      "ab": 636,
      "##ian": 637,
      "she": 638,
      "cloth": 639,
      "foreground": 640,
      "##iful": 641,
      "tow": 642,
      "##ber": 643,
      "smiling": 644,
      "beautiful": 645,
      "looks": 646,
      "ball": 647,
      "all": 648,
      "per": 649,
      "new": 650,
      "tak": 651,
      "##ents": 652,
      "lo": 653,
      "##ree": 654,
      "##form": 655,
      "##aw": 656,
      "wr": 657,
      "pole": 658,
      "park": 659,
      "boy": 660,
      "cat": 661,
      "windows": 662,
      "again": 663,
      "design": 664,
      "anim": 665,
      "street": 666,
      "##qu": 667,
      "near": 668,
      "pres": 669,
      "cam": 670,
      "ev": 671,
      "##uts": 672,
      "surface": 673,
      "team": 674,
      "cup": 675,
      "fil": 676,
      "##te": 677,
      "air": 678,
      "ban": 679,
      "##ade": 680,
      "##old": 681,
      "cor": 682,
      "##ale": 683,
      "leaves": 684,
      "sty": 685,
      "home": 686,
      "##br": 687,
      "they": 688,
      "box": 689,
      "blur": 690,
      "plate": 691,
      "##os": 692,
      "##ating": 693,
      "post": 694,
      "small": 695,
      "port": 696,
      "into": 697,
      "against": 698,
      "##ud": 699,
      "after": 700,
      "hor": 701,
      "inside": 702,
      "##ment": 703,
      "mod": 704,
      "my": 705,
      "##ping": 706,
      "##ash": 707,
      "flower": 708,
      "##ings": 709,
      "##ous": 710,
      "another": 711,
      "pro": 712,
      "instrument": 713,
      "##eld": 714,
      "bag": 715,
      "##ellow": 716,
      "bed": 717,
      "run": 718,
      "##eat": 719,
      "has": 720,
      "##ans": 721,
      "yellow": 722,
      "cur": 723,
      "##ange": 724,
      "him": 725,
      "go": 726,
      "taken": 727,
      "ri": 728,
      "##ub": 729,
      "part": 730,
      "##ful": 731,
      "##ime": 732,
      "##ards": 733,
      "met": 734,
      "sw": 735,
      "mat": 736,
      "##aving": 737,
      "dark": 738,
      "##ving": 739,
      "vis": 740,
      "but": 741,
      "##are": 742,
      "fence": 743,
      "##een": 744,
      "have": 745,
      "present": 746,
      "op": 747,
      "dec": 748,
      "close": 749,
      "boards": 750,
      "child": 751,
      "around": 752,
      "##yc": 753,
      "bi": 754,
      "lap": 755,
      "##rap": 756,
      "mic": 757,
      "outs": 758,
      "film": 759,
      "animal": 760,
      "pattern": 761,
      "##iness": 762,
      "##ars": 763,
      "cre": 764,
      "##ang": 765,
      "bow": 766,
      "style": 767,
      "##app": 768,
      "##int": 769,
      "guit": 770,
      "ap": 771,
      "brid": 772,
      "##ates": 773,
      "business": 774,
      "##itten": 775,
      "head": 776,
      "sea": 777,
      "win": 778,
      "cap": 779,
      "outside": 780,
      "under": 781,
      "##dy": 782,
      "num": 783,
      "us": 784,
      "##rait": 785,
      "litt": 786,
      "men": 787,
      "little": 788,
      "##omet": 789,
      "de": 790,
      "sl": 791,
      "portrait": 792,
      "vehicle": 793,
      "guitar": 794,
      "str": 795,
      "##out": 796,
      "cars": 797,
      "train": 798,
      "ad": 799,
      "bottle": 800,
      "item": 801,
      "cut": 802,
      "glasses": 803,
      "##amp": 804,
      "##ition": 805,
      "sil": 806,
      "set": 807,
      "##rist": 808,
      "##ure": 809,
      "game": 810,
      "brown": 811,
      "##day": 812,
      "bir": 813,
      "##mb": 814,
      "pill": 815,
      "##iff": 816,
      "suns": 817,
      "##led": 818,
      "river": 819,
      "camer": 820,
      "along": 821,
      "christ": 822,
      "##ph": 823,
      "time": 824,
      "fam": 825,
      "##cer": 826,
      "##hou": 827,
      "ind": 828,
      "##hing": 829,
      "painting": 830,
      "corner": 831,
      "ac": 832,
      "rock": 833,
      "##iz": 834,
      "##ty": 835,
      "##oon": 836,
      "look": 837,
      "##ists": 838,
      "##ss": 839,
      "plant": 840,
      "cele": 841,
      "land": 842,
      "##tain": 843,
      "celebr": 844,
      "women": 845,
      "couple": 846,
      "wed": 847,
      "hel": 848,
      "fir": 849,
      "bowl": 850,
      "roo": 851,
      "down": 852,
      "##ary": 853,
      "##aking": 854,
      "comp": 855,
      "scre": 856,
      "three": 857,
      "bridge": 858,
      "##itch": 859,
      "written": 860,
      "##ket": 861,
      "book": 862,
      "sunset": 863,
      "paper": 864,
      "tour": 865,
      "draw": 866,
      "un": 867,
      "not": 868,
      "count": 869,
      "camera": 870,
      "ne": 871,
      "##ric": 872,
      "##ance": 873,
      "dis": 874,
      "##ath": 875,
      "##top": 876,
      "##ape": 877,
      "##ily": 878,
      "me": 879,
      "##ached": 880,
      "field": 881,
      "mountains": 882,
      "first": 883,
      "screen": 884,
      "metal": 885,
      "##end": 886,
      "ben": 887,
      "##room": 888,
      "en": 889,
      "rid": 890,
      "do": 891,
      "##ser": 892,
      "##less": 893,
      "perform": 894,
      "happ": 895,
      "##arden": 896,
      "garden": 897,
      "##ored": 898,
      "attached": 899,
      "##aff": 900,
      "##ible": 901,
      "pink": 902,
      "high": 903,
      "wedding": 904,
      "##ound": 905,
      "##ted": 906,
      "roof": 907,
      "world": 908,
      "gold": 909,
      "##au": 910,
      "ra": 911,
      "colour": 912,
      "##ograp": 913,
      "kn": 914,
      "##ones": 915,
      "sand": 916,
      "curtain": 917,
      "##eel": 918,
      "##ull": 919,
      "##ches": 920,
      "laptop": 921,
      "hill": 922,
      "##mas": 923,
      "##con": 924,
      "bottles": 925,
      "sum": 926,
      "diff": 927,
      "christmas": 928,
      "somet": 929,
      "made": 930,
      "spec": 931,
      "##ny": 932,
      "##ug": 933,
      "forest": 934,
      "##ell": 935,
      "lar": 936,
      "number": 937,
      "##ery": 938,
      "fire": 939,
      "char": 940,
      "map": 941,
      "country": 942,
      "##tum": 943,
      "horse": 944,
      "open": 945,
      "##ase": 946,
      "##ady": 947,
      "decor": 948,
      "differe": 949,
      "stat": 950,
      "its": 951,
      "cons": 952,
      "##vered": 953,
      "..": 954,
      "##olog": 955,
      "##ets": 956,
      "having": 957,
      "poster": 958,
      "frame": 959,
      "res": 960,
      "...": 961,
      "##ms": 962,
      "qu": 963,
      "hair": 964,
      "something": 965,
      "how": 966,
      "##ally": 967,
      "happy": 968,
      "fish": 969,
      "##rop": 970,
      "loc": 971,
      "shot": 972,
      "family": 973,
      "mot": 974,
      "##ren": 975,
      "##sc": 976,
      "bab": 977,
      "no": 978,
      "different": 979,
      "##ival": 980,
      "love": 981,
      "covered": 982,
      "##ross": 983,
      "##erial": 984,
      "arr": 985,
      "##ashion": 986,
      "fashion": 987,
      "ref": 988,
      "where": 989,
      "make": 990,
      "houses": 991,
      "##ire": 992,
      "##ves": 993,
      "##fore": 994,
      "##iday": 995,
      "silhou": 996,
      "silhouet": 997,
      "##acket": 998,
      "baby": 999,
      "tables": 1000,
      "obser": 1001,
      "books": 1002,
      "rec": 1003,
      "##ise": 1004,
      "match": 1005,
      "items": 1006,
      "##ograph": 1007,
      "winter": 1008,
      "##eep": 1009,
      "big": 1010,
      "towards": 1011,
      "##ological": 1012,
      "##cing": 1013,
      "##orts": 1014,
      "log": 1015,
      "##ycle": 1016,
      "summer": 1017,
      "were": 1018,
      "outd": 1019,
      "path": 1020,
      "##ould": 1021,
      "outdoor": 1022,
      "##ows": 1023,
      "##az": 1024,
      "while": 1025,
      "riding": 1026,
      "pop": 1027,
      "model": 1028,
      "hang": 1029,
      "large": 1030,
      "##able": 1031,
      "##bile": 1032,
      "about": 1033,
      "am": 1034,
      "--": 1035,
      "##land": 1036,
      "##ior": 1037,
      "cle": 1038,
      "before": 1039,
      "visible": 1040,
      "colorful": 1041,
      "##arm": 1042,
      "colored": 1043,
      "##ept": 1044,
      "abo": 1045,
      "##iend": 1046,
      "biological": 1047,
      "above": 1048,
      "bic": 1049,
      "seam": 1050,
      "shop": 1051,
      "stud": 1052,
      "kid": 1053,
      "fest": 1054,
      "observe": 1055,
      "##ied": 1056,
      "blurred": 1057,
      "par": 1058,
      "ele": 1059,
      "seamless": 1060,
      "mon": 1061,
      "things": 1062,
      "year": 1063,
      "will": 1064,
      "more": 1065,
      "##oes": 1066,
      "icon": 1067,
      "##ather": 1068,
      "click": 1069,
      "##mi": 1070,
      "##ions": 1071,
      "just": 1072,
      "seen": 1073,
      "##ins": 1074,
      "banner": 1075,
      "face": 1076,
      "ship": 1077,
      "fun": 1078,
      "attend": 1079,
      "papers": 1080,
      "cute": 1081,
      "aerial": 1082,
      "kitch": 1083,
      "kitchen": 1084,
      "clothes": 1085,
      "bar": 1086,
      "basket": 1087,
      "feat": 1088,
      "##ots": 1089,
      "##ond": 1090,
      "our": 1091,
      "railing": 1092,
      "area": 1093,
      "bran": 1094,
      "get": 1095,
      "##mp": 1096,
      "##ract": 1097,
      "premi": 1098,
      "even": 1099,
      "flying": 1100,
      "##iss": 1101,
      "##iving": 1102,
      "lake": 1103,
      "bird": 1104,
      "ever": 1105,
      "ty": 1106,
      "clicked": 1107,
      "##ory": 1108,
      "event": 1109,
      "hat": 1110,
      "##ious": 1111,
      "##ames": 1112,
      "toy": 1113,
      "what": 1114,
      "consists": 1115,
      "long": 1116,
      "##ium": 1117,
      "statue": 1118,
      "carto": 1119,
      "cartoon": 1120,
      "cloudy": 1121,
      "premiere": 1122,
      "##oll": 1123,
      "rain": 1124,
      "card": 1125,
      "children": 1126,
      "##ens": 1127,
      "friend": 1128,
      "walls": 1129,
      "festival": 1130,
      "mor": 1131,
      "##ines": 1132,
      "attract": 1133,
      "orange": 1134,
      "running": 1135,
      "rocks": 1136,
      "cake": 1137,
      "##ues": 1138,
      "holiday": 1139,
      "stair": 1140,
      "bench": 1141,
      "morning": 1142,
      "pi": 1143,
      "kept": 1144,
      "let": 1145,
      "##ital": 1146,
      "watch": 1147,
      "way": 1148,
      "class": 1149,
      "bre": 1150,
      "walk": 1151,
      "ceiling": 1152,
      "soc": 1153,
      "sy": 1154,
      "silhouette": 1155,
      "##uct": 1156,
      "sports": 1157,
      "##ern": 1158,
      "##acter": 1159,
      "sing": 1160,
      "##ey": 1161,
      "jacket": 1162,
      "##af": 1163,
      "parked": 1164,
      "fall": 1165,
      "elect": 1166,
      "suit": 1167,
      "##eet": 1168,
      "character": 1169,
      "work": 1170,
      "app": 1171,
      "town": 1172,
      "pass": 1173,
      "##ring": 1174,
      "lamp": 1175,
      "line": 1176,
      "when": 1177,
      "##ires": 1178,
      "ey": 1179,
      "bet": 1180,
      "wore": 1181,
      "aw": 1182,
      "photograph": 1183,
      "##ician": 1184,
      "tur": 1185,
      "heart": 1186,
      "sof": 1187,
      "##stract": 1188,
      "abstract": 1189,
      "boats": 1190,
      "ser": 1191,
      "logo": 1192,
      "typ": 1193,
      "##owing": 1194,
      "##ib": 1195,
      "ear": 1196,
      "##ough": 1197,
      "shel": 1198,
      "species": 1199,
      "fruit": 1200,
      "fin": 1201,
      "mar": 1202,
      "##arket": 1203,
      "##uck": 1204,
      "microp": 1205,
      "microph": 1206,
      "rest": 1207,
      "##get": 1208,
      "##ables": 1209,
      "##ron": 1210,
      "rel": 1211,
      "stones": 1212,
      "##line": 1213,
      "ed": 1214,
      "aut": 1215,
      "wee": 1216,
      "form": 1217,
      "arch": 1218,
      "##ool": 1219,
      "ho": 1220,
      "living": 1221,
      "modern": 1222,
      "##man": 1223,
      "polit": 1224,
      "##ative": 1225,
      "phone": 1226,
      "au": 1227,
      "##lection": 1228,
      "##tumn": 1229,
      "autumn": 1230,
      "sunny": 1231,
      "vint": 1232,
      "shows": 1233,
      "vintage": 1234,
      "hanging": 1235,
      "tourist": 1236,
      "id": 1237,
      "most": 1238,
      "full": 1239,
      "##ane": 1240,
      "helm": 1241,
      "hot": 1242,
      "wires": 1243,
      "##scape": 1244,
      "tal": 1245,
      "crow": 1246,
      "star": 1247,
      "##irc": 1248,
      "shoes": 1249,
      "lady": 1250,
      "##gan": 1251,
      "bicycle": 1252,
      "sofa": 1253,
      "##ror": 1254,
      "circ": 1255,
      "traff": 1256,
      "traffic": 1257,
      "##port": 1258,
      "hills": 1259,
      "sec": 1260,
      "fac": 1261,
      "##akes": 1262,
      "##icks": 1263,
      "##ading": 1264,
      "coast": 1265,
      "##ved": 1266,
      "##als": 1267,
      "##mbre": 1268,
      "comm": 1269,
      "track": 1270,
      "seems": 1271,
      "mobile": 1272,
      "mir": 1273,
      "##ational": 1274,
      "clear": 1275,
      "ice": 1276,
      "umbre": 1277,
      "umbrell": 1278,
      "##od": 1279,
      "##ush": 1280,
      "concer": 1281,
      "spe": 1282,
      "place": 1283,
      "##der": 1284,
      "rem": 1285,
      "din": 1286,
      "##vel": 1287,
      "##play": 1288,
      "stock": 1289,
      "##augh": 1290,
      "##iting": 1291,
      "cupboard": 1292,
      "tv": 1293,
      "lif": 1294,
      "every": 1295,
      "##ict": 1296,
      "##bers": 1297,
      "sa": 1298,
      "sup": 1299,
      "fencing": 1300,
      "display": 1301,
      "doors": 1302,
      "trad": 1303,
      "if": 1304,
      "market": 1305,
      "##ages": 1306,
      "flags": 1307,
      "mirror": 1308,
      "gu": 1309,
      "tex": 1310,
      "each": 1311,
      "##itional": 1312,
      "stone": 1313,
      "politician": 1314,
      "leg": 1315,
      "squ": 1316,
      "moving": 1317,
      "##ump": 1318,
      "concert": 1319,
      "lying": 1320,
      "##ulp": 1321,
      "##oom": 1322,
      "pen": 1323,
      "cream": 1324,
      "organ": 1325,
      "find": 1326,
      "##ual": 1327,
      "microphone": 1328,
      "##att": 1329,
      "sculp": 1330,
      "pan": 1331,
      "med": 1332,
      "soccer": 1333,
      "cand": 1334,
      "ent": 1335,
      "##ives": 1336,
      "frames": 1337,
      "pot": 1338,
      "##ors": 1339,
      "grey": 1340,
      "plates": 1341,
      "bright": 1342,
      "##que": 1343,
      "landscape": 1344,
      "indoor": 1345,
      "bath": 1346,
      "tower": 1347,
      "##ient": 1348,
      "plat": 1349,
      "vill": 1350,
      "##side": 1351,
      "clock": 1352,
      "space": 1353,
      "mil": 1354,
      "next": 1355,
      "##eck": 1356,
      "##ope": 1357,
      "pur": 1358,
      "3d": 1359,
      "##ason": 1360,
      "##eed": 1361,
      "inter": 1362,
      "base": 1363,
      "attraction": 1364,
      "##ations": 1365,
      "veget": 1366,
      "both": 1367,
      "than": 1368,
      "spring": 1369,
      "##ier": 1370,
      "nat": 1371,
      "party": 1372,
      "four": 1373,
      "spect": 1374,
      "exp": 1375,
      "been": 1376,
      "coff": 1377,
      "##ween": 1378,
      "between": 1379,
      "sculpture": 1380,
      "trun": 1381,
      "traditional": 1382,
      "det": 1383,
      "boxes": 1384,
      "spoon": 1385,
      "take": 1386,
      "cross": 1387,
      "using": 1388,
      "##ession": 1389,
      "##ered": 1390,
      "coffee": 1391,
      "stick": 1392,
      "pillars": 1393,
      "##ural": 1394,
      "key": 1395,
      "colors": 1396,
      "ow": 1397,
      "slow": 1398,
      "cover": 1399,
      "mi": 1400,
      "animals": 1401,
      "##ides": 1402,
      "##adow": 1403,
      "swim": 1404,
      "rep": 1405,
      "being": 1406,
      "step": 1407,
      "glo": 1408,
      "pos": 1409,
      "gen": 1410,
      "kids": 1411,
      "wine": 1412,
      "carp": 1413,
      "##aur": 1414,
      "office": 1415,
      "performs": 1416,
      "piec": 1417,
      "##cl": 1418,
      "eng": 1419,
      "would": 1420,
      "##ular": 1421,
      "struc": 1422,
      "island": 1423,
      "round": 1424,
      "showing": 1425,
      "cos": 1426,
      "working": 1427,
      "che": 1428,
      "drawn": 1429,
      "any": 1430,
      "wheel": 1431,
      "wa": 1432,
      "dig": 1433,
      "##irth": 1434,
      "##mon": 1435,
      "talking": 1436,
      "##gether": 1437,
      "stairs": 1438,
      "birth": 1439,
      "together": 1440,
      "##raft": 1441,
      "rail": 1442,
      "letter": 1443,
      "platform": 1444,
      "texture": 1445,
      "structure": 1446,
      "##ners": 1447,
      "ide": 1448,
      "lot": 1449,
      "outdoors": 1450,
      "crowd": 1451,
      "##ling": 1452,
      "##ming": 1453,
      "##jo": 1454,
      "walks": 1455,
      "industr": 1456,
      "birds": 1457,
      "##lic": 1458,
      "mach": 1459,
      "##bb": 1460,
      "trans": 1461,
      "helmet": 1462,
      "##case": 1463,
      "sch": 1464,
      "oce": 1465,
      "##enn": 1466,
      "##hle": 1467,
      "mou": 1468,
      "mother": 1469,
      "spectac": 1470,
      "had": 1471,
      "life": 1472,
      "carpet": 1473,
      "bedroom": 1474,
      "rack": 1475,
      "##resh": 1476,
      "motor": 1477,
      "##ipe": 1478,
      "free": 1479,
      "blurry": 1480,
      "pictures": 1481,
      "friends": 1482,
      "##ok": 1483,
      "symb": 1484,
      "fem": 1485,
      "##uction": 1486,
      "symbol": 1487,
      "dep": 1488,
      "enjo": 1489,
      "##ats": 1490,
      "##bs": 1491,
      "ocean": 1492,
      "bags": 1493,
      "very": 1494,
      "painted": 1495,
      "dry": 1496,
      "week": 1497,
      "athle": 1498,
      "pool": 1499,
      "##ely": 1500,
      "acc": 1501,
      "min": 1502,
      "##ley": 1503,
      "int": 1504,
      "end": 1505,
      "sim": 1506,
      "##ook": 1507,
      "##ife": 1508,
      "among": 1509,
      "fresh": 1510,
      "##uter": 1511,
      "good": 1512,
      "main": 1513,
      "tele": 1514,
      "mu": 1515,
      "eating": 1516,
      "dist": 1517,
      "##key": 1518,
      "desk": 1519,
      "taking": 1520,
      "store": 1521,
      "farm": 1522,
      "female": 1523,
      "bride": 1524,
      "motion": 1525,
      "waterm": 1526,
      "second": 1527,
      "branch": 1528,
      "gray": 1529,
      "birthday": 1530,
      "su": 1531,
      "wild": 1532,
      "emp": 1533,
      "restaur": 1534,
      "village": 1535,
      "last": 1536,
      "name": 1537,
      "golden": 1538,
      "drawing": 1539,
      "players": 1540,
      "trop": 1541,
      "##ral": 1542,
      "##ican": 1543,
      "proj": 1544,
      "carry": 1545,
      "mem": 1546,
      "past": 1547,
      "across": 1548,
      "shape": 1549,
      "prod": 1550,
      "##ence": 1551,
      "dan": 1552,
      "low": 1553,
      "##ned": 1554,
      "baseball": 1555,
      "##alf": 1556,
      "##ax": 1557,
      "hum": 1558,
      "##ries": 1559,
      "could": 1560,
      "##ert": 1561,
      "season": 1562,
      "curtains": 1563,
      "fol": 1564,
      "shed": 1565,
      "posters": 1566,
      "##ired": 1567,
      "hist": 1568,
      "digital": 1569,
      "##ons": 1570,
      "tenn": 1571,
      "tennis": 1572,
      "evening": 1573,
      "empty": 1574,
      "music": 1575,
      "chur": 1576,
      "want": 1577,
      "umbrella": 1578,
      "##ited": 1579,
      "amer": 1580,
      "##pt": 1581,
      "electric": 1582,
      "american": 1583,
      "sou": 1584,
      "je": 1585,
      "school": 1586,
      "balloon": 1587,
      "lead": 1588,
      "##io": 1589,
      "might": 1590,
      "early": 1591,
      "slee": 1592,
      "ge": 1593,
      "pair": 1594,
      "brick": 1595,
      "##ult": 1596,
      "##nam": 1597,
      "vide": 1598,
      "##ision": 1599,
      "fishing": 1600,
      "jeans": 1601,
      "##wor": 1602,
      "airc": 1603,
      "eleph": 1604,
      "church": 1605,
      "best": 1606,
      "pal": 1607,
      "attends": 1608,
      "railway": 1609,
      "ret": 1610,
      "computer": 1611,
      "cour": 1612,
      "add": 1613,
      "sat": 1614,
      "inv": 1615,
      "leaf": 1616,
      "athlete": 1617,
      "national": 1618,
      "couch": 1619,
      "used": 1620,
      "eas": 1621,
      "##els": 1622,
      "har": 1623,
      "trav": 1624,
      "station": 1625,
      "rods": 1626,
      "sale": 1627,
      "restaurant": 1628,
      "stands": 1629,
      "pret": 1630,
      "drin": 1631,
      "girls": 1632,
      "video": 1633,
      "fruits": 1634,
      "cent": 1635,
      "##astic": 1636,
      "classic": 1637,
      "iron": 1638,
      "great": 1639,
      "streets": 1640,
      "purple": 1641,
      "half": 1642,
      "##ped": 1643,
      "bur": 1644,
      "ext": 1645,
      "costum": 1646,
      "moon": 1647,
      "autom": 1648,
      "flat": 1649,
      "bear": 1650,
      "truck": 1651,
      "basketball": 1652,
      "scen": 1653,
      "##ator": 1654,
      "di": 1655,
      "##let": 1656,
      "swimming": 1657,
      "##ogg": 1658,
      "archit": 1659,
      "aircraft": 1660,
      "now": 1661,
      "bec": 1662,
      "mas": 1663,
      "branches": 1664,
      "gi": 1665,
      "##ublic": 1666,
      "airpl": 1667,
      "tatt": 1668,
      "vegetables": 1669,
      "waves": 1670,
      "should": 1671,
      "interior": 1672,
      "net": 1673,
      "##hip": 1674,
      "watermark": 1675,
      "##iles": 1676,
      "sold": 1677,
      "tattoo": 1678,
      "##lish": 1679,
      "flor": 1680,
      "surround": 1681,
      "pretty": 1682,
      "lay": 1683,
      "tent": 1684,
      "runway": 1685,
      "dogs": 1686,
      "##rise": 1687,
      "butter": 1688,
      "watching": 1689,
      "only": 1690,
      "put": 1691,
      "##phone": 1692,
      "bor": 1693,
      "##ivers": 1694,
      "carrying": 1695,
      "industry": 1696,
      "##be": 1697,
      "##ven": 1698,
      "##fl": 1699,
      "goal": 1700,
      "fans": 1701,
      "horses": 1702,
      "##anged": 1703,
      "spectacles": 1704,
      "bal": 1705,
      "real": 1706,
      "bel": 1707,
      "##elf": 1708,
      "making": 1709,
      "stra": 1710,
      "##arding": 1711,
      "far": 1712,
      "gar": 1713,
      "##lected": 1714,
      "location": 1715,
      "thr": 1716,
      "constr": 1717,
      "##ants": 1718,
      "eyes": 1719,
      "##vers": 1720,
      "##itary": 1721,
      "bathroom": 1722,
      "jo": 1723,
      "prot": 1724,
      "comple": 1725,
      "circle": 1726,
      "##its": 1727,
      "##ank": 1728,
      "cab": 1729,
      "floral": 1730,
      "think": 1731,
      "sticks": 1732,
      "away": 1733,
      "machine": 1734,
      "hard": 1735,
      "bike": 1736,
      "doll": 1737,
      "going": 1738,
      "students": 1739,
      "speak": 1740,
      "dire": 1741,
      "coat": 1742,
      "human": 1743,
      "sub": 1744,
      "dining": 1745,
      "dresses": 1746,
      "##iction": 1747,
      "lines": 1748,
      "mag": 1749,
      "##bor": 1750,
      "celebrates": 1751,
      "grap": 1752,
      "fur": 1753,
      "shore": 1754,
      "tray": 1755,
      "##ching": 1756,
      "use": 1757,
      "well": 1758,
      "##light": 1759,
      "driving": 1760,
      "type": 1761,
      "hall": 1762,
      "instruments": 1763,
      "businessman": 1764,
      "toys": 1765,
      "prop": 1766,
      "banners": 1767,
      "##ices": 1768,
      "print": 1769,
      "got": 1770,
      "prep": 1771,
      "detail": 1772,
      "sunrise": 1773,
      "##ead": 1774,
      "images": 1775,
      "##ident": 1776,
      "cere": 1777,
      "stem": 1778,
      "reg": 1779,
      "exam": 1780,
      "need": 1781,
      "direct": 1782,
      "pillar": 1783,
      "var": 1784,
      "clos": 1785,
      "short": 1786,
      "singing": 1787,
      "##avy": 1788,
      "photos": 1789,
      "##per": 1790,
      "bat": 1791,
      "still": 1792,
      "sal": 1793,
      "##ched": 1794,
      "lab": 1795,
      "telev": 1796,
      "shopping": 1797,
      "bou": 1798,
      "neck": 1799,
      "plastic": 1800,
      "##pap": 1801,
      "airplane": 1802,
      "police": 1803,
      "##cr": 1804,
      "smile": 1805,
      "training": 1806,
      "built": 1807,
      "male": 1808,
      "##ycles": 1809,
      "silver": 1810,
      "military": 1811,
      "##0s": 1812,
      "dish": 1813,
      "smart": 1814,
      "ceremon": 1815,
      "##itor": 1816,
      "pod": 1817,
      "conce": 1818,
      "live": 1819,
      "arm": 1820,
      "##ined": 1821,
      "body": 1822,
      "state": 1823,
      "insp": 1824,
      "prof": 1825,
      "##ram": 1826,
      "pup": 1827,
      "shap": 1828,
      "storm": 1829,
      "eye": 1830,
      "cal": 1831,
      "tropical": 1832,
      "smo": 1833,
      "em": 1834,
      "incl": 1835,
      "##ising": 1836,
      "##ments": 1837,
      "##ared": 1838,
      "ready": 1839,
      "apart": 1840,
      "tem": 1841,
      "hu": 1842,
      "##house": 1843,
      "shelf": 1844,
      "sides": 1845,
      "##inal": 1846,
      "television": 1847,
      "##gle": 1848,
      "numbers": 1849,
      "##ops": 1850,
      "ski": 1851,
      "break": 1852,
      "start": 1853,
      "##ote": 1854,
      "organis": 1855,
      "##fall": 1856,
      "doing": 1857,
      "podium": 1858,
      "lapse": 1859,
      "drink": 1860,
      "##eng": 1861,
      "footp": 1862,
      "pond": 1863,
      "##nday": 1864,
      "reflection": 1865,
      "##ater": 1866,
      "##izz": 1867,
      "##ns": 1868,
      "trail": 1869,
      "##ips": 1870,
      "filming": 1871,
      "##rance": 1872,
      "construction": 1873,
      "histor": 1874,
      "daugh": 1875,
      "##ique": 1876,
      "##gg": 1877,
      "##iny": 1878,
      "vase": 1879,
      "dev": 1880,
      "square": 1881,
      "ceremony": 1882,
      "drum": 1883,
      "super": 1884,
      "legs": 1885,
      "fan": 1886,
      "stars": 1887,
      "##alk": 1888,
      "site": 1889,
      "coll": 1890,
      "steps": 1891,
      "bowls": 1892,
      "##hy": 1893,
      "visit": 1894,
      "funny": 1895,
      "keyboard": 1896,
      "ter": 1897,
      "collection": 1898,
      "award": 1899,
      "hoarding": 1900,
      "entrance": 1901,
      "waving": 1902,
      "help": 1903,
      "##ged": 1904,
      "list": 1905,
      "thing": 1906,
      "pow": 1907,
      "19": 1908,
      "ste": 1909,
      "##paper": 1910,
      "found": 1911,
      "##py": 1912,
      "camp": 1913,
      "##ces": 1914,
      "tou": 1915,
      "tiss": 1916,
      "##aring": 1917,
      "greet": 1918,
      "disc": 1919,
      "conf": 1920,
      "cast": 1921,
      "paint": 1922,
      "##icket": 1923,
      "warm": 1924,
      "##estern": 1925,
      "flo": 1926,
      "simple": 1927,
      "##obile": 1928,
      "tie": 1929,
      "##ures": 1930,
      "those": 1931,
      "final": 1932,
      "sket": 1933,
      "containing": 1934,
      "example": 1935,
      "perf": 1936,
      "orig": 1937,
      "wash": 1938,
      "skyline": 1939,
      "##iled": 1940,
      "makes": 1941,
      "natural": 1942,
      "western": 1943,
      "architec": 1944,
      "hotel": 1945,
      "##ipes": 1946,
      "candles": 1947,
      "footpath": 1948,
      "growing": 1949,
      "tourists": 1950,
      "automobile": 1951,
      "soft": 1952,
      "sits": 1953,
      "lad": 1954,
      "reading": 1955,
      "held": 1956,
      "##por": 1957,
      "mov": 1958,
      "offic": 1959,
      "takes": 1960,
      "##nament": 1961,
      "carr": 1962,
      "ann": 1963,
      "clim": 1964,
      "decorative": 1965,
      "below": 1966,
      "decorated": 1967,
      "piece": 1968,
      "mix": 1969,
      "drinking": 1970,
      "equ": 1971,
      "##umping": 1972,
      "say": 1973,
      "##ost": 1974,
      "groom": 1975,
      "##quet": 1976,
      "skate": 1977,
      "travel": 1978,
      "ring": 1979,
      "session": 1980,
      "cups": 1981,
      "##ities": 1982,
      "dancing": 1983,
      "rom": 1984,
      "sen": 1985,
      "featuring": 1986,
      "balloons": 1987,
      "##ither": 1988,
      "follow": 1989,
      "##oney": 1990,
      "##ove": 1991,
      "ru": 1992,
      "sleeping": 1993,
      "awards": 1994,
      "pack": 1995,
      "egg": 1996,
      "meadow": 1997,
      "boys": 1998,
      "knife": 1999,
      "centu": 2000,
      "late": 2001,
      "##tle": 2002,
      "celebrity": 2003,
      "roll": 2004,
      "elephant": 2005,
      "jumping": 2006,
      "tap": 2007,
      "daughter": 2008,
      "either": 2009,
      "leather": 2010,
      "rope": 2011,
      "##kets": 2012,
      "bouquet": 2013,
      "##00": 2014,
      "##by": 2015,
      "##ering": 2016,
      "centre": 2017,
      "##ized": 2018,
      "##azing": 2019,
      "##place": 2020,
      "kind": 2021,
      "##adium": 2022,
      "waiting": 2023,
      "##olf": 2024,
      "overl": 2025,
      "stadium": 2026,
      "band": 2027,
      "today": 2028,
      "##fly": 2029,
      "sol": 2030,
      "##ways": 2031,
      "cust": 2032,
      "cables": 2033,
      "anc": 2034,
      "pillows": 2035,
      "trunk": 2036,
      "huge": 2037,
      "benches": 2038,
      "pizz": 2039,
      "cas": 2040,
      "concept": 2041,
      "tall": 2042,
      "beauty": 2043,
      "clip": 2044,
      "same": 2045,
      "trou": 2046,
      "##elling": 2047,
      "dressed": 2048,
      "custom": 2049,
      "pump": 2050,
      "##cy": 2051,
      "##ience": 2052,
      "##ters": 2053,
      "fork": 2054,
      "##col": 2055,
      "##atic": 2056,
      "sink": 2057,
      "enjoy": 2058,
      "##ott": 2059,
      "##ected": 2060,
      "palm": 2061,
      "champ": 2062,
      "call": 2063,
      "toile": 2064,
      "relig": 2065,
      "century": 2066,
      "def": 2067,
      "idea": 2068,
      "fountain": 2069,
      "##row": 2070,
      "tom": 2071,
      "pose": 2072,
      "sheep": 2073,
      "opening": 2074,
      "##gl": 2075,
      "wire": 2076,
      "looked": 2077,
      "ant": 2078,
      "designed": 2079,
      "cook": 2080,
      "##ometric": 2081,
      "ancient": 2082,
      "giving": 2083,
      "cool": 2084,
      "fav": 2085,
      "shadow": 2086,
      "##nic": 2087,
      "bun": 2088,
      "compet": 2089,
      "gate": 2090,
      "waterfall": 2091,
      "fig": 2092,
      "##ection": 2093,
      "stop": 2094,
      "##ugg": 2095,
      "father": 2096,
      "movie": 2097,
      "##unch": 2098,
      "straw": 2099,
      "##aid": 2100,
      "local": 2101,
      "##iers": 2102,
      "members": 2103,
      "##drop": 2104,
      "getting": 2105,
      "##oring": 2106,
      "too": 2107,
      "##orth": 2108,
      "gloves": 2109,
      "celebrate": 2110,
      "perfect": 2111,
      "teen": 2112,
      "##oss": 2113,
      "##ause": 2114,
      "own": 2115,
      "giraff": 2116,
      "filled": 2117,
      "dou": 2118,
      "inst": 2119,
      "##iger": 2120,
      "public": 2121,
      "backdrop": 2122,
      "bicycles": 2123,
      "skating": 2124,
      "pictured": 2125,
      "##len": 2126,
      "costume": 2127,
      "##head": 2128,
      "sketch": 2129,
      "dust": 2130,
      "sheet": 2131,
      "gogg": 2132,
      "scene": 2133,
      "series": 2134,
      "val": 2135,
      "much": 2136,
      "##erry": 2137,
      "cart": 2138,
      "fiction": 2139,
      "toilet": 2140,
      "feel": 2141,
      "pizza": 2142,
      "grill": 2143,
      "##ux": 2144,
      "del": 2145,
      "finish": 2146,
      "apartment": 2147,
      "##uff": 2148,
      "surrounded": 2149,
      "spot": 2150,
      "gift": 2151,
      "fu": 2152,
      "chain": 2153,
      "cricket": 2154,
      "relax": 2155,
      "##ooking": 2156,
      "rod": 2157,
      "mouth": 2158,
      "cupboards": 2159,
      "mee": 2160,
      "flight": 2161,
      "poses": 2162,
      "mom": 2163,
      "keep": 2164,
      "##ize": 2165,
      "dram": 2166,
      "christian": 2167,
      "steel": 2168,
      "expl": 2169,
      "##tes": 2170,
      "tents": 2171,
      "##oe": 2172,
      "smoke": 2173,
      "located": 2174,
      "imp": 2175,
      "shelves": 2176,
      "mike": 2177,
      "pieces": 2178,
      "hi": 2179,
      "gener": 2180,
      "selected": 2181,
      "banan": 2182,
      "actors": 2183,
      "##glass": 2184,
      "original": 2185,
      "goggles": 2186,
      "senior": 2187,
      "without": 2188,
      "butterfly": 2189,
      "nature": 2190,
      "never": 2191,
      "tablet": 2192,
      "mouse": 2193,
      "special": 2194,
      "##nce": 2195,
      "foc": 2196,
      "rust": 2197,
      "stall": 2198,
      "heavy": 2199,
      "rug": 2200,
      "setting": 2201,
      "action": 2202,
      "puppy": 2203,
      "then": 2204,
      "tea": 2205,
      "seated": 2206,
      "poin": 2207,
      "##arth": 2208,
      "##kes": 2209,
      "##ird": 2210,
      "race": 2211,
      "backside": 2212,
      "pine": 2213,
      "nice": 2214,
      "##cre": 2215,
      "webs": 2216,
      "monitor": 2217,
      "trip": 2218,
      "coming": 2219,
      "famous": 2220,
      "fing": 2221,
      "dried": 2222,
      "enjoying": 2223,
      "blan": 2224,
      "##ider": 2225,
      "greeting": 2226,
      "shaped": 2227,
      "bit": 2228,
      "cow": 2229,
      "studio": 2230,
      "proper": 2231,
      "furn": 2232,
      "took": 2233,
      "prog": 2234,
      "##oned": 2235,
      "descr": 2236,
      "architecture": 2237,
      "desert": 2238,
      "wide": 2239,
      "auth": 2240,
      "ribb": 2241,
      "ideas": 2242,
      "unif": 2243,
      "floating": 2244,
      "##ised": 2245,
      "tissue": 2246,
      "##ateg": 2247,
      "deck": 2248,
      "know": 2249,
      "temple": 2250,
      "seat": 2251,
      "##ia": 2252,
      "##cated": 2253,
      "skateboard": 2254,
      "caps": 2255,
      "hit": 2256,
      "coun": 2257,
      "##arch": 2258,
      "wears": 2259,
      "butt": 2260,
      "##alth": 2261,
      "staircase": 2262,
      "earth": 2263,
      "falling": 2264,
      "truncated": 2265,
      "##iet": 2266,
      "uniform": 2267,
      "arranged": 2268,
      "##afe": 2269,
      "website": 2270,
      "pad": 2271,
      "##fr": 2272,
      "##glasses": 2273,
      "fireplace": 2274,
      "cott": 2275,
      "double": 2276,
      "##bin": 2277,
      "terr": 2278,
      "easy": 2279,
      "##omes": 2280,
      "4k": 2281,
      "##vert": 2282,
      "contr": 2283,
      "feature": 2284,
      "crossing": 2285,
      "create": 2286,
      "pots": 2287,
      "war": 2288,
      "row": 2289,
      "cliff": 2290,
      "single": 2291,
      "grand": 2292,
      "lux": 2293,
      "beer": 2294,
      "##aks": 2295,
      "produc": 2296,
      "gown": 2297,
      "golf": 2298,
      "profession": 2299,
      "commun": 2300,
      "motorc": 2301,
      "historic": 2302,
      "shad": 2303,
      "##irts": 2304,
      "stems": 2305,
      "appear": 2306,
      "av": 2307,
      "really": 2308,
      "##iver": 2309,
      "boots": 2310,
      "leader": 2311,
      "##cil": 2312,
      "power": 2313,
      "edge": 2314,
      "##ution": 2315,
      "law": 2316,
      "##iter": 2317,
      "buc": 2318,
      "stamp": 2319,
      "prov": 2320,
      "##ord": 2321,
      "sunglasses": 2322,
      "clean": 2323,
      "south": 2324,
      "##ention": 2325,
      "##work": 2326,
      "luxur": 2327,
      "oly": 2328,
      "olymp": 2329,
      "pumpk": 2330,
      "neigh": 2331,
      "focus": 2332,
      "##opes": 2333,
      "edited": 2334,
      "ze": 2335,
      "jar": 2336,
      "##ocol": 2337,
      "mont": 2338,
      "though": 2339,
      "stove": 2340,
      "intern": 2341,
      "retro": 2342,
      "ped": 2343,
      "olympic": 2344,
      "bank": 2345,
      "performing": 2346,
      "categ": 2347,
      "organisation": 2348,
      "colle": 2349,
      "heads": 2350,
      "always": 2351,
      "attractive": 2352,
      "chocol": 2353,
      "##cess": 2354,
      "##ster": 2355,
      "north": 2356,
      "thin": 2357,
      "dre": 2358,
      "news": 2359,
      "icons": 2360,
      "castle": 2361,
      "author": 2362,
      "guy": 2363,
      "##ne": 2364,
      "##ym": 2365,
      "pipe": 2366,
      "because": 2367,
      "describ": 2368,
      "##amed": 2369,
      "cold": 2370,
      "##istic": 2371,
      "racks": 2372,
      "render": 2373,
      "runs": 2374,
      "religious": 2375,
      "words": 2376,
      "##ronic": 2377,
      "mult": 2378,
      "tomat": 2379,
      "lamps": 2380,
      "tub": 2381,
      "##elds": 2382,
      "category": 2383,
      "projector": 2384,
      "cloud": 2385,
      "bush": 2386,
      "satur": 2387,
      "son": 2388,
      "##ute": 2389,
      "plane": 2390,
      "##works": 2391,
      "property": 2392,
      "helic": 2393,
      "helicop": 2394,
      "range": 2395,
      "hear": 2396,
      "##ality": 2397,
      "tracks": 2398,
      "##ocks": 2399,
      "money": 2400,
      "month": 2401,
      "pave": 2402,
      "blaz": 2403,
      "##ger": 2404,
      "##flow": 2405,
      "graphic": 2406,
      "signal": 2407,
      "celebration": 2408,
      "##andel": 2409,
      "##ternoon": 2410,
      "afternoon": 2411,
      "umbrellas": 2412,
      "priv": 2413,
      "##rel": 2414,
      "##ince": 2415,
      "health": 2416,
      "oper": 2417,
      "##bour": 2418,
      "bad": 2419,
      "aud": 2420,
      "ass": 2421,
      "electronic": 2422,
      "onto": 2423,
      "ca": 2424,
      "insect": 2425,
      "##ific": 2426,
      "dem": 2427,
      "rac": 2428,
      "##ining": 2429,
      "watercol": 2430,
      "inspired": 2431,
      "laugh": 2432,
      "arrives": 2433,
      "stain": 2434,
      "saturday": 2435,
      "pavement": 2436,
      "pet": 2437,
      "statues": 2438,
      "touch": 2439,
      "check": 2440,
      "ornament": 2441,
      "container": 2442,
      "valley": 2443,
      "drums": 2444,
      "meeting": 2445,
      "pant": 2446,
      "bread": 2447,
      "posing": 2448,
      "animated": 2449,
      "favor": 2450,
      "climb": 2451,
      "holds": 2452,
      "prom": 2453,
      "passeng": 2454,
      "years": 2455,
      "##anes": 2456,
      "cards": 2457,
      "pian": 2458,
      "pier": 2459,
      "arms": 2460,
      "point": 2461,
      "pull": 2462,
      "passing": 2463,
      "cabin": 2464,
      "fog": 2465,
      "mist": 2466,
      "oil": 2467,
      "move": 2468,
      "capital": 2469,
      "##walk": 2470,
      "sweet": 2471,
      "sever": 2472,
      "##erest": 2473,
      "##gest": 2474,
      "##antic": 2475,
      "several": 2476,
      "collage": 2477,
      "##iage": 2478,
      "pitch": 2479,
      "##estr": 2480,
      "region": 2481,
      "stool": 2482,
      "shoot": 2483,
      "##amic": 2484,
      "##hood": 2485,
      "blanket": 2486,
      "friday": 2487,
      "##ges": 2488,
      "candle": 2489,
      "beard": 2490,
      "paintings": 2491,
      "project": 2492,
      "walkway": 2493,
      "cond": 2494,
      "geometric": 2495,
      "fly": 2496,
      "wallpaper": 2497,
      "brush": 2498,
      "eat": 2499,
      "fields": 2500,
      "smartphone": 2501,
      "##tural": 2502,
      "magaz": 2503,
      "various": 2504,
      "##tur": 2505,
      "brand": 2506,
      "wre": 2507,
      "read": 2508,
      "kiss": 2509,
      "fireworks": 2510,
      "sailing": 2511,
      "come": 2512,
      "##ucks": 2513,
      "coach": 2514,
      "designer": 2515,
      "performance": 2516,
      "distance": 2517,
      "sunday": 2518,
      "##pack": 2519,
      "##ness": 2520,
      "##gr": 2521,
      "##stem": 2522,
      "##agon": 2523,
      "##ech": 2524,
      "laying": 2525,
      "##cas": 2526,
      "dead": 2527,
      "fit": 2528,
      "##yard": 2529,
      "deep": 2530,
      "engine": 2531,
      "interest": 2532,
      "##iture": 2533,
      "plays": 2534,
      "contains": 2535,
      "mess": 2536,
      "press": 2537,
      "stream": 2538,
      "surfing": 2539,
      "sad": 2540,
      "furniture": 2541,
      "sail": 2542,
      "##apped": 2543,
      "##ening": 2544,
      "stun": 2545,
      "backpack": 2546,
      "faces": 2547,
      "compan": 2548,
      "elements": 2549,
      "compos": 2550,
      "piano": 2551,
      "conn": 2552,
      "noble": 2553,
      "vol": 2554,
      "##oken": 2555,
      "sweat": 2556,
      "apple": 2557,
      "wo": 2558,
      "trend": 2559,
      "pract": 2560,
      "cutting": 2561,
      "##read": 2562,
      "helicopter": 2563,
      "horiz": 2564,
      "signs": 2565,
      "said": 2566,
      "scoring": 2567,
      "font": 2568,
      "liqu": 2569,
      "footage": 2570,
      "fo": 2571,
      "railings": 2572,
      "pencil": 2573,
      "balcon": 2574,
      "equip": 2575,
      "##iding": 2576,
      "roses": 2577,
      "speaker": 2578,
      "luxury": 2579,
      "better": 2580,
      "##sh": 2581,
      "jump": 2582,
      "##ze": 2583,
      "##nts": 2584,
      "comed": 2585,
      "bloom": 2586,
      "mud": 2587,
      "dinner": 2588,
      "mini": 2589,
      "##ced": 2590,
      "##umin": 2591,
      "ride": 2592,
      "pillow": 2593,
      "fab": 2594,
      "tim": 2595,
      "oven": 2596,
      "deer": 2597,
      "spoons": 2598,
      "##arent": 2599,
      "counter": 2600,
      "works": 2601,
      "##estrian": 2602,
      "third": 2603,
      "meat": 2604,
      "speaking": 2605,
      "laptops": 2606,
      "##arf": 2607,
      "balls": 2608,
      "mos": 2609,
      "concre": 2610,
      "court": 2611,
      "goes": 2612,
      "grassland": 2613,
      "jun": 2614,
      "concrete": 2615,
      "hour": 2616,
      "globe": 2617,
      "##co": 2618,
      "mask": 2619,
      "contin": 2620,
      "system": 2621,
      "##dd": 2622,
      "busy": 2623,
      "known": 2624,
      "lear": 2625,
      "ships": 2626,
      "##ured": 2627,
      "chocolate": 2628,
      "tit": 2629,
      "watercolor": 2630,
      "parking": 2631,
      "vers": 2632,
      "footballer": 2633,
      "advert": 2634,
      "ju": 2635,
      "##uding": 2636,
      "gun": 2637,
      "##yal": 2638,
      "broken": 2639,
      "favorite": 2640,
      "flowing": 2641,
      "est": 2642,
      "chick": 2643,
      "spl": 2644,
      "aband": 2645,
      "##terior": 2646,
      "##nel": 2647,
      "dream": 2648,
      "liquid": 2649,
      "romantic": 2650,
      "clipping": 2651,
      "give": 2652,
      "snowy": 2653,
      "must": 2654,
      "cardboard": 2655,
      "tied": 2656,
      "el": 2657,
      "##ban": 2658,
      "enter": 2659,
      "angle": 2660,
      "dance": 2661,
      "eff": 2662,
      "exh": 2663,
      "##oured": 2664,
      "##ises": 2665,
      "quar": 2666,
      "##sing": 2667,
      "abandoned": 2668,
      "prin": 2669,
      "##ockey": 2670,
      "views": 2671,
      "exterior": 2672,
      "magazine": 2673,
      "fight": 2674,
      "weather": 2675,
      "private": 2676,
      "designs": 2677,
      "nail": 2678,
      "woods": 2679,
      "countryside": 2680,
      "muse": 2681,
      "kitten": 2682,
      "eggs": 2683,
      "##ares": 2684,
      "##eath": 2685,
      "device": 2686,
      "age": 2687,
      "tiles": 2688,
      "roads": 2689,
      "fair": 2690,
      "##rent": 2691,
      "##ension": 2692,
      "label": 2693,
      "shoe": 2694,
      "hearts": 2695,
      "##pers": 2696,
      "wave": 2697,
      "cafe": 2698,
      "popular": 2699,
      "##osp": 2700,
      "program": 2701,
      "helmets": 2702,
      "##otive": 2703,
      "beg": 2704,
      "comic": 2705,
      "##arrow": 2706,
      "drop": 2707,
      "##esh": 2708,
      "soldiers": 2709,
      "hold": 2710,
      "shirts": 2711,
      "soil": 2712,
      "ahead": 2713,
      "printed": 2714,
      "including": 2715,
      "spr": 2716,
      "support": 2717,
      "closed": 2718,
      "airport": 2719,
      "don": 2720,
      "trying": 2721,
      "museum": 2722,
      "writing": 2723,
      "bull": 2724,
      "blowing": 2725,
      "ribbon": 2726,
      "tank": 2727,
      "miss": 2728,
      "cell": 2729,
      "leading": 2730,
      "gym": 2731,
      "##ographical": 2732,
      "royal": 2733,
      "textured": 2734,
      "singer": 2735,
      "sculptures": 2736,
      "gall": 2737,
      "cats": 2738,
      "stylish": 2739,
      "lawn": 2740,
      "neighbor": 2741,
      "eth": 2742,
      "feet": 2743,
      "care": 2744,
      "gets": 2745,
      "try": 2746,
      "##self": 2747,
      "shower": 2748,
      "hip": 2749,
      "rocky": 2750,
      "##ward": 2751,
      "sunlight": 2752,
      "homes": 2753,
      "wel": 2754,
      "tiny": 2755,
      "wife": 2756,
      "blues": 2757,
      "features": 2758,
      "##erc": 2759,
      "retur": 2760,
      "current": 2761,
      "genus": 2762,
      "harbour": 2763,
      "cru": 2764,
      "blazer": 2765,
      "done": 2766,
      "skull": 2767,
      "former": 2768,
      "did": 2769,
      "pour": 2770,
      "skirt": 2771,
      "wheat": 2772,
      "##iven": 2773,
      "##ailed": 2774,
      "##bow": 2775,
      "monkey": 2776,
      "company": 2777,
      "breakf": 2778,
      "following": 2779,
      "##aged": 2780,
      "##ield": 2781,
      "fast": 2782,
      "sport": 2783,
      "page": 2784,
      "den": 2785,
      "partic": 2786,
      "visual": 2787,
      "##ently": 2788,
      "bee": 2789,
      "web": 2790,
      "cheer": 2791,
      "shr": 2792,
      "breakfast": 2793,
      "facade": 2794,
      "command": 2795,
      "##ument": 2796,
      "pipes": 2797,
      "rear": 2798,
      "belt": 2799,
      "##val": 2800,
      "motorcycle": 2801,
      "diam": 2802,
      "cows": 2803,
      "hy": 2804,
      "upper": 2805,
      "silhouettes": 2806,
      "turn": 2807,
      "shoulder": 2808,
      "giraffe": 2809,
      "##phones": 2810,
      "fee": 2811,
      "resting": 2812,
      "remote": 2813,
      "mesh": 2814,
      "bay": 2815,
      "##iti": 2816,
      "grad": 2817,
      "metall": 2818,
      "ple": 2819,
      "refr": 2820,
      "giant": 2821,
      "mug": 2822,
      "exerc": 2823,
      "ll": 2824,
      "quarter": 2825,
      "skin": 2826,
      "speakers": 2827,
      "##scrap": 2828,
      "skyscrap": 2829,
      "fix": 2830,
      "##ction": 2831,
      "organiz": 2832,
      "metallic": 2833,
      "##allen": 2834,
      "costumes": 2835,
      "const": 2836,
      "ethnic": 2837,
      "la": 2838,
      "refriger": 2839,
      "emb": 2840,
      "ham": 2841,
      "por": 2842,
      "ted": 2843,
      "##tion": 2844,
      "indoors": 2845,
      "covers": 2846,
      "cock": 2847,
      "rainbow": 2848,
      "community": 2849,
      "size": 2850,
      "##ished": 2851,
      "bushes": 2852,
      "typical": 2853,
      "racket": 2854,
      "##vi": 2855,
      "dam": 2856,
      "peri": 2857,
      "eld": 2858,
      "such": 2859,
      "stay": 2860,
      "transp": 2861,
      "border": 2862,
      "hosp": 2863,
      "cub": 2864,
      "includ": 2865,
      "hospital": 2866,
      "neighborhood": 2867,
      "director": 2868,
      "pin": 2869,
      "swing": 2870,
      "equipment": 2871,
      "bring": 2872,
      "able": 2873,
      "##rical": 2874,
      "strip": 2875,
      "welc": 2876,
      "teddy": 2877,
      "audience": 2878,
      "##oad": 2879,
      "##idential": 2880,
      "div": 2881,
      "level": 2882,
      "created": 2883,
      "van": 2884,
      "does": 2885,
      "##kend": 2886,
      "surfboard": 2887,
      "diamond": 2888,
      "appro": 2889,
      "period": 2890,
      "hockey": 2891,
      "once": 2892,
      "##usk": 2893,
      "##ensive": 2894,
      "relaxing": 2895,
      "##isher": 2896,
      "weekend": 2897,
      "winner": 2898,
      "##abb": 2899,
      "inc": 2900,
      "exhib": 2901,
      "ruins": 2902,
      "stack": 2903,
      "figure": 2904,
      "reflect": 2905,
      "stret": 2906,
      "song": 2907,
      "##berries": 2908,
      "##ells": 2909,
      "pedestrian": 2910,
      "tract": 2911,
      "adm": 2912,
      "outf": 2913,
      "elder": 2914,
      "chop": 2915,
      "distric": 2916,
      "balcony": 2917,
      "antique": 2918,
      "##ility": 2919,
      "suc": 2920,
      "##gu": 2921,
      "##thing": 2922,
      "republic": 2923,
      "ur": 2924,
      "cra": 2925,
      "invit": 2926,
      "contem": 2927,
      "comes": 2928,
      "winning": 2929,
      "geographical": 2930,
      "##here": 2931,
      "##view": 2932,
      "rural": 2933,
      "burning": 2934,
      "elephants": 2935,
      "casual": 2936,
      "##aning": 2937,
      "planet": 2938,
      "rece": 2939,
      "pick": 2940,
      "##oz": 2941,
      "monarch": 2942,
      "yard": 2943,
      "##opy": 2944,
      "##over": 2945,
      "crown": 2946,
      "##arents": 2947,
      "graff": 2948,
      "graffiti": 2949,
      "rugby": 2950,
      "drops": 2951,
      "spee": 2952,
      "##ols": 2953,
      "position": 2954,
      "##chair": 2955,
      "##ese": 2956,
      "##erence": 2957,
      "called": 2958,
      "scarf": 2959,
      "days": 2960,
      "sauc": 2961,
      "bucket": 2962,
      "sandy": 2963,
      "why": 2964,
      "##aster": 2965,
      "west": 2966,
      "##ging": 2967,
      "trouser": 2968,
      "protest": 2969,
      "chandel": 2970,
      "##urs": 2971,
      "##aces": 2972,
      "##cial": 2973,
      "facing": 2974,
      "ropes": 2975,
      "refrigerator": 2976,
      "##ps": 2977,
      "spir": 2978,
      "summ": 2979,
      "##usp": 2980,
      "cyc": 2981,
      "cable": 2982,
      "##ief": 2983,
      "greenery": 2984,
      "word": 2985,
      "ma": 2986,
      "wonder": 2987,
      "##pos": 2988,
      "narrow": 2989,
      "fact": 2990,
      "healthy": 2991,
      "wet": 2992,
      "lat": 2993,
      "ree": 2994,
      "tun": 2995,
      "highway": 2996,
      "lit": 2997,
      "dustbin": 2998,
      "organization": 2999,
      "sure": 3000,
      "canal": 3001,
      "transparent": 3002,
      "susp": 3003,
      "file": 3004,
      "score": 3005,
      "deity": 3006,
      "smiles": 3007,
      "waters": 3008,
      "mass": 3009,
      "##band": 3010,
      "rendering": 3011,
      "whole": 3012,
      "##mod": 3013,
      "##ature": 3014,
      "photograp": 3015,
      "##ler": 3016,
      "exc": 3017,
      "elderly": 3018,
      "##ys": 3019,
      "access": 3020,
      "##ember": 3021,
      "depic": 3022,
      "pub": 3023,
      "lion": 3024,
      "et": 3025,
      "story": 3026,
      "##bbles": 3027,
      "dol": 3028,
      "sunflow": 3029,
      "version": 3030,
      "coins": 3031,
      "tips": 3032,
      "##ement": 3033,
      "someone": 3034,
      "parade": 3035,
      "fabric": 3036,
      "lemon": 3037,
      "##ived": 3038,
      "sweater": 3039,
      "hole": 3040,
      "district": 3041,
      "##velop": 3042,
      "rice": 3043,
      "##sty": 3044,
      "laughing": 3045,
      "shiny": 3046,
      "stunning": 3047,
      "##ils": 3048,
      "recipe": 3049,
      "monday": 3050,
      "bill": 3051,
      "climbing": 3052,
      "libr": 3053,
      "shops": 3054,
      "pointing": 3055,
      "##ker": 3056,
      "gor": 3057,
      "finger": 3058,
      "photographed": 3059,
      "##gy": 3060,
      "##wear": 3061,
      "repres": 3062,
      "grain": 3063,
      "##porary": 3064,
      "grazing": 3065,
      "leaving": 3066,
      "serv": 3067,
      "contemporary": 3068,
      "mixed": 3069,
      "##ided": 3070,
      "##stage": 3071,
      "champions": 3072,
      "##ories": 3073,
      "##vely": 3074,
      "ang": 3075,
      "dusk": 3076,
      "vac": 3077,
      "##thern": 3078,
      "ladder": 3079,
      "towers": 3080,
      "barn": 3081,
      "colourful": 3082,
      "##tte": 3083,
      "illumin": 3084,
      "general": 3085,
      "dirt": 3086,
      "##ney": 3087,
      "##tail": 3088,
      "##ls": 3089,
      "pray": 3090,
      "ing": 3091,
      "milk": 3092,
      "cottage": 3093,
      "wings": 3094,
      "##aching": 3095,
      "types": 3096,
      "bunch": 3097,
      "##ients": 3098,
      "date": 3099,
      "says": 3100,
      "##ially": 3101,
      "bold": 3102,
      "accom": 3103,
      "viewed": 3104,
      "student": 3105,
      "bul": 3106,
      "garment": 3107,
      "product": 3108,
      "cer": 3109,
      "success": 3110,
      "cig": 3111,
      "alm": 3112,
      "##itted": 3113,
      "crowds": 3114,
      "rabb": 3115,
      "##ators": 3116,
      "five": 3117,
      "library": 3118,
      "commander": 3119,
      "wreath": 3120,
      "##ders": 3121,
      "conference": 3122,
      "cycle": 3123,
      "dock": 3124,
      "##nes": 3125,
      "##oming": 3126,
      "drinks": 3127,
      "host": 3128,
      "##iety": 3129,
      "##ike": 3130,
      "unique": 3131,
      "eleg": 3132,
      "bananas": 3133,
      "history": 3134,
      "patterns": 3135,
      "strong": 3136,
      "tractor": 3137,
      "based": 3138,
      "buds": 3139,
      "places": 3140,
      "##eeping": 3141,
      "block": 3142,
      "spark": 3143,
      "theme": 3144,
      "express": 3145,
      "coral": 3146,
      "doct": 3147,
      "dramatic": 3148,
      "cupc": 3149,
      "speed": 3150,
      "official": 3151,
      "cruise": 3152,
      "rustic": 3153,
      "photography": 3154,
      "ingred": 3155,
      "gues": 3156,
      "lunch": 3157,
      "hoardings": 3158,
      "guests": 3159,
      "stuff": 3160,
      "##ret": 3161,
      "univers": 3162,
      "moo": 3163,
      "gather": 3164,
      "vio": 3165,
      "lovely": 3166,
      "oc": 3167,
      "straight": 3168,
      "chicken": 3169,
      "lighting": 3170,
      "neckl": 3171,
      "parents": 3172,
      "opened": 3173,
      "tues": 3174,
      "tuesday": 3175,
      "tag": 3176,
      "blank": 3177,
      "east": 3178,
      "chess": 3179,
      "remain": 3180,
      "pumpkin": 3181,
      "##nding": 3182,
      "competition": 3183,
      "fre": 3184,
      "containers": 3185,
      "flock": 3186,
      "reve": 3187,
      "overlooking": 3188,
      "putting": 3189,
      "wednes": 3190,
      "stained": 3191,
      "wednesday": 3192,
      "##aming": 3193,
      "capture": 3194,
      "ren": 3195,
      "##gn": 3196,
      "basin": 3197,
      "eag": 3198,
      "ripe": 3199,
      "##ister": 3200,
      "##ased": 3201,
      "hun": 3202,
      "saw": 3203,
      "given": 3204,
      "sidewalk": 3205,
      "hood": 3206,
      "inform": 3207,
      "vess": 3208,
      "shorts": 3209,
      "section": 3210,
      "develop": 3211,
      "mill": 3212,
      "thurs": 3213,
      "gallery": 3214,
      "bod": 3215,
      "material": 3216,
      "thursday": 3217,
      "hop": 3218,
      "avail": 3219,
      "##me": 3220,
      "pig": 3221,
      "froz": 3222,
      "frozen": 3223,
      "tee": 3224,
      "symbols": 3225,
      "##icking": 3226,
      "##vern": 3227,
      "reef": 3228,
      "bloss": 3229,
      "fictional": 3230,
      "jet": 3231,
      "##ites": 3232,
      "##water": 3233,
      "choo": 3234,
      "lock": 3235,
      "chef": 3236,
      "gives": 3237,
      "worn": 3238,
      "splash": 3239,
      "yog": 3240,
      "##hroom": 3241,
      "mushroom": 3242,
      "telephone": 3243,
      "decorations": 3244,
      "panor": 3245,
      "selling": 3246,
      "arrive": 3247,
      "ladies": 3248,
      "professional": 3249,
      "games": 3250,
      "hairsty": 3251,
      "##bra": 3252,
      "available": 3253,
      "lighthouse": 3254,
      "##orn": 3255,
      "##men": 3256,
      "temp": 3257,
      "yach": 3258,
      "urban": 3259,
      "shut": 3260,
      "leng": 3261,
      "length": 3262,
      "import": 3263,
      "##ays": 3264,
      "english": 3265,
      "pouring": 3266,
      "emer": 3267,
      "bricks": 3268,
      "cath": 3269,
      "jars": 3270,
      "##orial": 3271,
      "bell": 3272,
      "##ais": 3273,
      "##med": 3274,
      "gas": 3275,
      "##onstr": 3276,
      "aqu": 3277,
      "bin": 3278,
      "squir": 3279,
      "note": 3280,
      "rainy": 3281,
      "##bag": 3282,
      "##otes": 3283,
      "civ": 3284,
      "illustrations": 3285,
      "moment": 3286,
      "##ague": 3287,
      "teenage": 3288,
      "squirrel": 3289,
      "change": 3290,
      "##erries": 3291,
      "went": 3292,
      "creative": 3293,
      "rot": 3294,
      "zebra": 3295,
      "friendly": 3296,
      "animation": 3297,
      "master": 3298,
      "newspaper": 3299,
      "govern": 3300,
      "noth": 3301,
      "##cting": 3302,
      "juice": 3303,
      "driver": 3304,
      "salad": 3305,
      "wing": 3306,
      "nothing": 3307,
      "ol": 3308,
      "tomatoes": 3309,
      "quality": 3310,
      "lots": 3311,
      "grun": 3312,
      "alone": 3313,
      "##cent": 3314,
      "##inning": 3315,
      "preparing": 3316,
      "bron": 3317,
      "handbag": 3318,
      "jew": 3319,
      "##oy": 3320,
      "blond": 3321,
      "playground": 3322,
      "cookies": 3323,
      "blackboard": 3324,
      "##ieval": 3325,
      "medieval": 3326,
      "amazing": 3327,
      "visitors": 3328,
      "wish": 3329,
      "carved": 3330,
      "grow": 3331,
      "##zy": 3332,
      "inning": 3333,
      "rev": 3334,
      "hanged": 3335,
      "pile": 3336,
      "dom": 3337,
      "outfit": 3338,
      "drone": 3339,
      "scr": 3340,
      "baskets": 3341,
      "headphones": 3342,
      "feeding": 3343,
      "etc": 3344,
      "transport": 3345,
      "chic": 3346,
      "appl": 3347,
      "college": 3348,
      "necklace": 3349,
      "switch": 3350,
      "decoration": 3351,
      "minim": 3352,
      "civil": 3353,
      "blind": 3354,
      "striped": 3355,
      "dun": 3356,
      "came": 3357,
      "nest": 3358,
      "chalk": 3359,
      "env": 3360,
      "marr": 3361,
      "18": 3362,
      "coc": 3363,
      "##ably": 3364,
      "thanks": 3365,
      "batt": 3366,
      "pale": 3367,
      "##aired": 3368,
      "##ky": 3369,
      "skiing": 3370,
      "wheelchair": 3371,
      "comf": 3372,
      "tile": 3373,
      "bronze": 3374,
      "lower": 3375,
      "blonde": 3376,
      "parts": 3377,
      "annual": 3378,
      "buy": 3379,
      "microphones": 3380,
      "cheese": 3381,
      "##ship": 3382,
      "residential": 3383,
      "less": 3384,
      "resort": 3385,
      "nur": 3386,
      "exper": 3387,
      "cooking": 3388,
      "letters": 3389,
      "reflected": 3390,
      "chandelier": 3391,
      "gradu": 3392,
      "dest": 3393,
      "##0th": 3394,
      "medical": 3395,
      "trol": 3396,
      "future": 3397,
      "fallen": 3398,
      "crane": 3399,
      "industrial": 3400,
      "extra": 3401,
      "almost": 3402,
      "jack": 3403,
      "novel": 3404,
      "guard": 3405,
      ":)": 3406,
      "spider": 3407,
      "button": 3408,
      "maj": 3409,
      "vict": 3410,
      "shown": 3411,
      "trolley": 3412,
      "listening": 3413,
      "wheels": 3414,
      "details": 3415,
      "sharing": 3416,
      "cherry": 3417,
      "fill": 3418,
      "rough": 3419,
      "##ifts": 3420,
      "variety": 3421,
      "soldier": 3422,
      "proc": 3423,
      "gothic": 3424,
      "elegant": 3425,
      "function": 3426,
      "##flies": 3427,
      "hon": 3428,
      "##ushing": 3429,
      "##sp": 3430,
      "vegetable": 3431,
      "##alist": 3432,
      "appe": 3433,
      "ways": 3434,
      "chec": 3435,
      "trian": 3436,
      "shelter": 3437,
      "build": 3438,
      "trendy": 3439,
      "comb": 3440,
      "thought": 3441,
      "tech": 3442,
      "forward": 3443,
      "##time": 3444,
      "steam": 3445,
      "bikes": 3446,
      "catch": 3447,
      "##osed": 3448,
      "traveling": 3449,
      "bare": 3450,
      "herd": 3451,
      "##ager": 3452,
      "rad": 3453,
      "solar": 3454,
      "hats": 3455,
      "gal": 3456,
      "themed": 3457,
      "hus": 3458,
      "lace": 3459,
      "##pr": 3460,
      "##acts": 3461,
      "husband": 3462,
      "alph": 3463,
      "championship": 3464,
      "meal": 3465,
      "government": 3466,
      "##idge": 3467,
      "realistic": 3468,
      "bodies": 3469,
      "aer": 3470,
      "ange": 3471,
      "within": 3472,
      "classroom": 3473,
      "##alian": 3474,
      "##otic": 3475,
      "machines": 3476,
      "products": 3477,
      "league": 3478,
      "workers": 3479,
      "speech": 3480,
      "musician": 3481,
      "actu": 3482,
      "rip": 3483,
      "since": 3484,
      "photographs": 3485,
      "porch": 3486,
      "tot": 3487,
      "cro": 3488,
      "lim": 3489,
      "spotted": 3490,
      "und": 3491,
      "pregn": 3492,
      "march": 3493,
      "##athered": 3494,
      "saucer": 3495,
      "##ina": 3496,
      "gardens": 3497,
      "largest": 3498,
      "international": 3499,
      "resid": 3500,
      "yoga": 3501,
      "cul": 3502,
      "stroll": 3503,
      "rising": 3504,
      "ut": 3505,
      "##dr": 3506,
      "summit": 3507,
      "leaning": 3508,
      "drive": 3509,
      "banana": 3510,
      "spend": 3511,
      "gorge": 3512,
      "lang": 3513,
      "trophy": 3514,
      "poss": 3515,
      "rooms": 3516,
      "passengers": 3517,
      "cocktail": 3518,
      "lan": 3519,
      "##ilies": 3520,
      "templ": 3521,
      "kite": 3522,
      "club": 3523,
      "subur": 3524,
      "doctor": 3525,
      "langu": 3526,
      "circular": 3527,
      "rabbit": 3528,
      "corn": 3529,
      "##anges": 3530,
      "genre": 3531,
      "depiction": 3532,
      "condition": 3533,
      "grassy": 3534,
      "##ten": 3535,
      "##iron": 3536,
      "calm": 3537,
      "environ": 3538,
      "cush": 3539,
      "turned": 3540,
      "rich": 3541,
      "rele": 3542,
      "##ilar": 3543,
      "lantern": 3544,
      "viol": 3545,
      "photographer": 3546,
      "order": 3547,
      "butterflies": 3548,
      "course": 3549,
      "lined": 3550,
      "##fish": 3551,
      "celebrating": 3552,
      "##ole": 3553,
      "rub": 3554,
      "invention": 3555,
      "violet": 3556,
      "##ige": 3557,
      "ven": 3558,
      "frog": 3559,
      "cabinet": 3560,
      "trib": 3561,
      "towel": 3562,
      "##aze": 3563,
      "passes": 3564,
      "coastal": 3565,
      "buses": 3566,
      "cameras": 3567,
      "shining": 3568,
      "##rought": 3569,
      "apples": 3570,
      "cigare": 3571,
      "rides": 3572,
      "complete": 3573,
      "media": 3574,
      "monument": 3575,
      "tul": 3576,
      "keeping": 3577,
      "displayed": 3578,
      "shades": 3579,
      "gifts": 3580,
      "zoo": 3581,
      "notes": 3582,
      "moored": 3583,
      "discus": 3584,
      "##mill": 3585,
      "artwork": 3586,
      "elev": 3587,
      "force": 3588,
      "snowfl": 3589,
      "depicting": 3590,
      "shade": 3591,
      "##friend": 3592,
      "grunge": 3593,
      "rob": 3594,
      "##made": 3595,
      "##ony": 3596,
      "##hine": 3597,
      "sciss": 3598,
      "fisher": 3599,
      "mac": 3600,
      "farmer": 3601,
      "##ilt": 3602,
      "suitcase": 3603,
      "buttons": 3604,
      "times": 3605,
      "##front": 3606,
      "fishes": 3607,
      "environment": 3608,
      "sunshine": 3609,
      "plain": 3610,
      "message": 3611,
      "lon": 3612,
      "welcome": 3613,
      "zoom": 3614,
      "##rod": 3615,
      "jackets": 3616,
      "worship": 3617,
      "##market": 3618,
      "watches": 3619,
      "surrounding": 3620,
      "harbor": 3621,
      "##aved": 3622,
      "arrow": 3623,
      "slices": 3624,
      "demonstr": 3625,
      "astr": 3626,
      "crash": 3627,
      "cale": 3628,
      "eagle": 3629,
      "shapes": 3630,
      "dragon": 3631,
      "important": 3632,
      "template": 3633,
      "##aded": 3634,
      "central": 3635,
      "learn": 3636,
      "calend": 3637,
      "##inets": 3638,
      "washing": 3639,
      "wrapped": 3640,
      "seats": 3641,
      "##ncy": 3642,
      "##ified": 3643,
      "quick": 3644,
      "cabinets": 3645,
      "vacation": 3646,
      "##eets": 3647,
      "backyard": 3648,
      "lost": 3649,
      "nee": 3650,
      "##oun": 3651,
      "stores": 3652,
      "pregnant": 3653,
      "scoot": 3654,
      "thick": 3655,
      "##den": 3656,
      "cliffs": 3657,
      "specs": 3658,
      "parish": 3659,
      "screens": 3660,
      "##fully": 3661,
      "guest": 3662,
      "describes": 3663,
      "tunnel": 3664,
      "common": 3665,
      "##ked": 3666,
      "exhibition": 3667,
      "jour": 3668,
      "catching": 3669,
      "accommod": 3670,
      "everything": 3671,
      "constit": 3672,
      "##opl": 3673,
      "grapes": 3674,
      "##ov": 3675,
      "electrical": 3676,
      "blog": 3677,
      "handsome": 3678,
      "aged": 3679,
      "blocks": 3680,
      "served": 3681,
      "##eption": 3682,
      "##ah": 3683,
      "online": 3684,
      "ferry": 3685,
      "handle": 3686,
      "##used": 3687,
      "estate": 3688,
      "reception": 3689,
      "mics": 3690,
      "reflections": 3691,
      "thinking": 3692,
      "campus": 3693,
      "cathed": 3694,
      "hallow": 3695,
      "supermarket": 3696,
      "##aps": 3697,
      "save": 3698,
      "glam": 3699,
      "everyone": 3700,
      "detailed": 3701,
      "techn": 3702,
      "ash": 3703,
      "hut": 3704,
      "##par": 3705,
      "tiger": 3706,
      "led": 3707,
      "blossom": 3708,
      "halloween": 3709,
      "##ades": 3710,
      "aeropl": 3711,
      "tide": 3712,
      "pens": 3713,
      "rings": 3714,
      "inf": 3715,
      "barb": 3716,
      "historical": 3717,
      "##oise": 3718,
      "practice": 3719,
      "rare": 3720,
      "todd": 3721,
      "clothing": 3722,
      "##axi": 3723,
      "calendar": 3724,
      "devices": 3725,
      "giraffes": 3726,
      "dolph": 3727,
      "interesting": 3728,
      "named": 3729,
      "duck": 3730,
      "rooft": 3731,
      "##uce": 3732,
      "via": 3733,
      "king": 3734,
      "violin": 3735,
      "cathedral": 3736,
      "architect": 3737,
      "shadows": 3738,
      "si": 3739,
      "serious": 3740,
      "py": 3741,
      "##blem": 3742,
      "queen": 3743,
      "##uded": 3744,
      "garage": 3745,
      "rent": 3746,
      "##igrap": 3747,
      "personal": 3748,
      "ago": 3749,
      "##ands": 3750,
      "sleep": 3751,
      "resp": 3752,
      "calligrap": 3753,
      "ducks": 3754,
      "ador": 3755,
      "underwater": 3756,
      "dollar": 3757,
      "lonely": 3758,
      "tournament": 3759,
      "effect": 3760,
      "fine": 3761,
      "##iversary": 3762,
      "anniversary": 3763,
      "glowing": 3764,
      "highlight": 3765,
      "study": 3766,
      "##actu": 3767,
      "gril": 3768,
      "basic": 3769,
      "newly": 3770,
      "stri": 3771,
      "##aught": 3772,
      "illuminated": 3773,
      "teac": 3774,
      "automotive": 3775,
      "phys": 3776,
      "direction": 3777,
      "denim": 3778,
      "pas": 3779,
      "##down": 3780,
      "kissing": 3781,
      "activ": 3782,
      "inner": 3783,
      "flies": 3784,
      "plent": 3785,
      "allow": 3786,
      "prior": 3787,
      "factory": 3788,
      "ingredients": 3789,
      "similar": 3790,
      "fixed": 3791,
      "unt": 3792,
      "##back": 3793,
      "social": 3794,
      "copy": 3795,
      "##agne": 3796,
      "tin": 3797,
      "tail": 3798,
      "impress": 3799,
      "borders": 3800,
      "champagne": 3801,
      "particip": 3802,
      "skyscrapers": 3803,
      "cocon": 3804,
      "##where": 3805,
      "horizon": 3806,
      "cry": 3807,
      "makeup": 3808,
      "complex": 3809,
      "lugg": 3810,
      "infl": 3811,
      "##verage": 3812,
      "angry": 3813,
      "gorgeous": 3814,
      "##isting": 3815,
      "bridal": 3816,
      "##ases": 3817,
      "du": 3818,
      "played": 3819,
      "speaks": 3820,
      "wait": 3821,
      "novelist": 3822,
      "perched": 3823,
      "patio": 3824,
      "##wood": 3825,
      "hydr": 3826,
      "plenty": 3827,
      "beds": 3828,
      "cage": 3829,
      "##lets": 3830,
      "coin": 3831,
      "surfer": 3832,
      "frost": 3833,
      "cities": 3834,
      "fou": 3835,
      "featured": 3836,
      "falls": 3837,
      "##naments": 3838,
      "comedy": 3839,
      "later": 3840,
      "trains": 3841,
      "coloured": 3842,
      "##alent": 3843,
      "language": 3844,
      "showed": 3845,
      "groups": 3846,
      "flash": 3847,
      "boxer": 3848,
      "palace": 3849,
      "banks": 3850,
      "dais": 3851,
      "##book": 3852,
      "##oggy": 3853,
      "##pies": 3854,
      "nap": 3855,
      "rays": 3856,
      "toward": 3857,
      "quest": 3858,
      "won": 3859,
      "bound": 3860,
      "sau": 3861,
      "scale": 3862,
      "stamps": 3863,
      "pasture": 3864,
      "information": 3865,
      "saf": 3866,
      "cones": 3867,
      "invitation": 3868,
      "mark": 3869,
      "thread": 3870,
      "##aced": 3871,
      "signboard": 3872,
      "posts": 3873,
      "##etic": 3874,
      "##iption": 3875,
      "ornaments": 3876,
      "suspension": 3877,
      "##umb": 3878,
      "throwing": 3879,
      "sound": 3880,
      "##bras": 3881,
      "fingers": 3882,
      "zebras": 3883,
      "bud": 3884,
      "bubbles": 3885,
      "become": 3886,
      "accommodation": 3887,
      "belie": 3888,
      "##agement": 3889,
      "foggy": 3890,
      "educ": 3891,
      "owl": 3892,
      "##born": 3893,
      "stickers": 3894,
      "iss": 3895,
      "##ought": 3896,
      "stor": 3897,
      "comfort": 3898,
      "potat": 3899,
      "sauce": 3900,
      "##sion": 3901,
      "sheds": 3902,
      "##ugging": 3903,
      "##tely": 3904,
      "##ecting": 3905,
      "commer": 3906,
      "completely": 3907,
      "exercise": 3908,
      "started": 3909,
      "shrub": 3910,
      "rise": 3911,
      "raised": 3912,
      "luggage": 3913,
      "maple": 3914,
      "canv": 3915,
      "signals": 3916,
      "steering": 3917,
      "##estic": 3918,
      "slight": 3919,
      "profile": 3920,
      "broad": 3921,
      "inj": 3922,
      "##istr": 3923,
      "pulling": 3924,
      "horizont": 3925,
      "cupcakes": 3926,
      "guide": 3927,
      "##berry": 3928,
      "colours": 3929,
      "oppos": 3930,
      "joy": 3931,
      "portion": 3932,
      "service": 3933,
      "picnic": 3934,
      "motorb": 3935,
      "carriage": 3936,
      "alphab": 3937,
      "recently": 3938,
      "tack": 3939,
      "##go": 3940,
      "##itors": 3941,
      "rolling": 3942,
      "throws": 3943,
      "10": 3944,
      "admin": 3945,
      "vine": 3946,
      "manne": 3947,
      "enough": 3948,
      "mannequ": 3949,
      "mural": 3950,
      "seeing": 3951,
      "refle": 3952,
      "comedian": 3953,
      "nails": 3954,
      "esc": 3955,
      "breed": 3956,
      "passenger": 3957,
      "formal": 3958,
      "calligraphy": 3959,
      "serving": 3960,
      "cigarette": 3961,
      "worker": 3962,
      "armed": 3963,
      "ethnicity": 3964,
      "launch": 3965,
      "smoot": 3966,
      "crew": 3967,
      "slice": 3968,
      "##lights": 3969,
      "seas": 3970,
      "canvas": 3971,
      "tomato": 3972,
      "terrace": 3973,
      "victory": 3974,
      "##rings": 3975,
      "roofs": 3976,
      "cycl": 3977,
      "chim": 3978,
      "earrings": 3979,
      "dancer": 3980,
      "yacht": 3981,
      "##ded": 3982,
      "orch": 3983,
      "commercial": 3984,
      "moss": 3985,
      "##bble": 3986,
      "peace": 3987,
      "areas": 3988,
      "gloss": 3989,
      "million": 3990,
      "##ective": 3991,
      "adv": 3992,
      "uses": 3993,
      "##anger": 3994,
      "holidays": 3995,
      "entire": 3996,
      "strawberries": 3997,
      "toddler": 3998,
      "oak": 3999,
      "sticker": 4000,
      "patient": 4001,
      "share": 4002,
      "fort": 4003,
      "connected": 4004,
      "actually": 4005,
      "##otion": 4006,
      "presents": 4007,
      "onstage": 4008,
      "nor": 4009,
      "besides": 4010,
      "pumpkins": 4011,
      "racing": 4012,
      "peoples": 4013,
      "feath": 4014,
      "hugging": 4015,
      "extr": 4016,
      "##arters": 4017,
      "slope": 4018,
      "scooter": 4019,
      "mall": 4020,
      "##zz": 4021,
      "shared": 4022,
      "leave": 4023,
      "sets": 4024,
      "overlay": 4025,
      "advertis": 4026,
      "builder": 4027,
      "000": 4028,
      "##fight": 4029,
      "##elves": 4030,
      "ceramic": 4031,
      "astron": 4032,
      "tools": 4033,
      "##aches": 4034,
      "sug": 4035,
      "##boat": 4036,
      "turtle": 4037,
      "maybe": 4038,
      "trucks": 4039,
      "cave": 4040,
      "dough": 4041,
      "##ode": 4042,
      "##rench": 4043,
      "composition": 4044,
      "smooth": 4045,
      "festive": 4046,
      "##ened": 4047,
      "starting": 4048,
      "leads": 4049,
      "title": 4050,
      "##eral": 4051,
      "##itter": 4052,
      "##allow": 4053,
      "##tub": 4054,
      "fourth": 4055,
      "earl": 4056,
      "blooming": 4057,
      "bathtub": 4058,
      "engagement": 4059,
      "fridge": 4060,
      "stalls": 4061,
      "doc": 4062,
      "bak": 4063,
      "##aste": 4064,
      "aeroplane": 4065,
      "talk": 4066,
      "transform": 4067,
      "lift": 4068,
      "owner": 4069,
      "smoking": 4070,
      "crop": 4071,
      "##rome": 4072,
      "marble": 4073,
      "covering": 4074,
      "courty": 4075,
      "horizontal": 4076,
      "nose": 4077,
      "##utes": 4078,
      "vs": 4079,
      "snowman": 4080,
      "drama": 4081,
      "pear": 4082,
      "artists": 4083,
      "teacher": 4084,
      "tissues": 4085,
      "ward": 4086,
      "reacts": 4087,
      "arrived": 4088,
      "fed": 4089,
      "##amb": 4090,
      "slowly": 4091,
      "caught": 4092,
      "##anging": 4093,
      "latest": 4094,
      "##eway": 4095,
      "crack": 4096,
      "heading": 4097,
      "snake": 4098,
      "hanger": 4099,
      "major": 4100,
      "##atory": 4101,
      "##arks": 4102,
      "outline": 4103,
      "born": 4104,
      "sew": 4105,
      "##aic": 4106,
      "##eak": 4107,
      "##tual": 4108,
      "##oman": 4109,
      "political": 4110,
      "price": 4111,
      "turb": 4112,
      "##ifying": 4113,
      "lettering": 4114,
      "grainy": 4115,
      "administr": 4116,
      "atm": 4117,
      "##oping": 4118,
      "poc": 4119,
      "inscr": 4120,
      "test": 4121,
      "yet": 4122,
      "titled": 4123,
      "often": 4124,
      "goat": 4125,
      "mount": 4126,
      "sugar": 4127,
      "mushrooms": 4128,
      "##ees": 4129,
      "shaking": 4130,
      "cheerful": 4131,
      "mosque": 4132,
      "chat": 4133,
      "ges": 4134,
      "##aim": 4135,
      "colum": 4136,
      "element": 4137,
      "hiking": 4138,
      "##ism": 4139,
      "##anic": 4140,
      "separ": 4141,
      "actress": 4142,
      "includes": 4143,
      "retail": 4144,
      "added": 4145,
      "snowflakes": 4146,
      "meas": 4147,
      "courtyard": 4148,
      "seeds": 4149,
      "honey": 4150,
      "dome": 4151,
      "##acters": 4152,
      "characters": 4153,
      "university": 4154,
      "return": 4155,
      "##ually": 4156,
      "##boy": 4157,
      "styl": 4158,
      "organic": 4159,
      "mates": 4160,
      "format": 4161,
      "married": 4162,
      "vert": 4163,
      "##ersey": 4164,
      "jersey": 4165,
      "oct": 4166,
      "rhy": 4167,
      "##ued": 4168,
      "touchdown": 4169,
      "internet": 4170,
      "renov": 4171,
      "panoramic": 4172,
      "treat": 4173,
      "warning": 4174,
      "alongside": 4175,
      "socks": 4176,
      "stripes": 4177,
      "olive": 4178,
      "dess": 4179,
      "deal": 4180,
      "diag": 4181,
      "magn": 4182,
      "needs": 4183,
      "aff": 4184,
      "tooth": 4185,
      "ident": 4186,
      "ener": 4187,
      "remo": 4188,
      "finished": 4189,
      "##ressed": 4190,
      "northern": 4191,
      "##thm": 4192,
      "glossy": 4193,
      "rhythm": 4194,
      "##sers": 4195,
      "reason": 4196,
      "prob": 4197,
      "fairy": 4198,
      "earlier": 4199,
      "cy": 4200,
      "berries": 4201,
      "trousers": 4202,
      "entry": 4203,
      "ornamental": 4204,
      "hydrant": 4205,
      "combin": 4206,
      "tattoos": 4207,
      "##spec": 4208,
      "##thers": 4209,
      "##ware": 4210,
      "cattle": 4211,
      "##iest": 4212,
      "self": 4213,
      "##maid": 4214,
      "countries": 4215,
      "feathers": 4216,
      "##sses": 4217,
      "roots": 4218,
      "newborn": 4219,
      "arrival": 4220,
      "##erst": 4221,
      "chest": 4222,
      "shooting": 4223,
      "circles": 4224,
      "control": 4225,
      "##asian": 4226,
      "others": 4227,
      "brain": 4228,
      "##ucasian": 4229,
      "caucasian": 4230,
      "officers": 4231,
      "founder": 4232,
      "cone": 4233,
      "gear": 4234,
      "firefight": 4235,
      "probably": 4236,
      "pengu": 4237,
      "inspir": 4238,
      "##vest": 4239,
      "opposite": 4240,
      "tube": 4241,
      "ful": 4242,
      "instead": 4243,
      "##und": 4244,
      "creating": 4245,
      "arriving": 4246,
      "slightly": 4247,
      "thous": 4248,
      "spectacle": 4249,
      "appears": 4250,
      "case": 4251,
      "##ording": 4252,
      "describe": 4253,
      "jungle": 4254,
      "decorating": 4255,
      "##atul": 4256,
      "expensive": 4257,
      "scores": 4258,
      "meet": 4259,
      "lies": 4260,
      "##ination": 4261,
      "army": 4262,
      "brace": 4263,
      "search": 4264,
      "framed": 4265,
      "suits": 4266,
      "turning": 4267,
      "utens": 4268,
      "skies": 4269,
      "job": 4270,
      "macro": 4271,
      "##hol": 4272,
      "flood": 4273,
      "lip": 4274,
      "locom": 4275,
      "##isc": 4276,
      "mosaic": 4277,
      "navy": 4278,
      "##apping": 4279,
      "alphabet": 4280,
      "bears": 4281,
      "##idden": 4282,
      "knee": 4283,
      "throw": 4284,
      "##giving": 4285,
      "forks": 4286,
      "micro": 4287,
      "##bby": 4288,
      "uppercase": 4289,
      "sunflower": 4290,
      "represent": 4291,
      "##och": 4292,
      "appeared": 4293,
      "##inary": 4294,
      "raising": 4295,
      "rooftop": 4296,
      "##uly": 4297,
      "##oke": 4298,
      "##arium": 4299,
      "flames": 4300,
      "shoulders": 4301,
      "battle": 4302,
      "facility": 4303,
      "coconut": 4304,
      "cactu": 4305,
      "drives": 4306,
      "captured": 4307,
      "hits": 4308,
      "headqu": 4309,
      "cactus": 4310,
      "ears": 4311,
      "cakes": 4312,
      "##nate": 4313,
      "barrel": 4314,
      "prev": 4315,
      "easter": 4316,
      "##enting": 4317,
      "##ams": 4318,
      "vessel": 4319,
      "states": 4320,
      "##tures": 4321,
      "throughout": 4322,
      "graphics": 4323,
      "rally": 4324,
      "quiet": 4325,
      "stormy": 4326,
      "thanksgiving": 4327,
      "bought": 4328,
      "headquarters": 4329,
      "ep": 4330,
      "musc": 4331,
      "administrative": 4332,
      "theater": 4333,
      "seag": 4334,
      "upon": 4335,
      "attack": 4336,
      "teams": 4337,
      "stro": 4338,
      "dood": 4339,
      "##ology": 4340,
      "secret": 4341,
      "seagull": 4342,
      "flowering": 4343,
      "anch": 4344,
      "resc": 4345,
      "travelling": 4346,
      "points": 4347,
      "extruded": 4348,
      "dow": 4349,
      "uk": 4350,
      "mech": 4351,
      "fold": 4352,
      "jug": 4353,
      "pedestrians": 4354,
      "joined": 4355,
      "dishes": 4356,
      "patr": 4357,
      "fully": 4358,
      "polar": 4359,
      "sofas": 4360,
      "multip": 4361,
      "##asting": 4362,
      "beige": 4363,
      "seash": 4364,
      "barr": 4365,
      "operating": 4366,
      "##mble": 4367,
      "visiting": 4368,
      "miles": 4369,
      "fox": 4370,
      "keys": 4371,
      "##ift": 4372,
      "##ids": 4373,
      "downt": 4374,
      "ink": 4375,
      "windmill": 4376,
      "reser": 4377,
      "shrubs": 4378,
      "##izes": 4379,
      "thousands": 4380,
      "##iced": 4381,
      "patterned": 4382,
      "sneak": 4383,
      "link": 4384,
      "##eter": 4385,
      "beneath": 4386,
      "biggest": 4387,
      "sour": 4388,
      "models": 4389,
      "install": 4390,
      "until": 4391,
      "dad": 4392,
      "rou": 4393,
      "vertical": 4394,
      "panels": 4395,
      "gathered": 4396,
      "##rylic": 4397,
      "guitars": 4398,
      "acrylic": 4399,
      "pants": 4400,
      "member": 4401,
      "imag": 4402,
      "wonderful": 4403,
      "convers": 4404,
      "pathway": 4405,
      "arrange": 4406,
      "panel": 4407,
      "kay": 4408,
      "chimney": 4409,
      "downtown": 4410,
      "##ester": 4411,
      "loved": 4412,
      "grills": 4413,
      "aquarium": 4414,
      "spac": 4415,
      "deliver": 4416,
      "##uffy": 4417,
      "rises": 4418,
      "villa": 4419,
      "fancy": 4420,
      "inscription": 4421,
      "neut": 4422,
      "packed": 4423,
      "lightning": 4424,
      "##ule": 4425,
      "buying": 4426,
      "scient": 4427,
      "extre": 4428,
      "rusty": 4429,
      "embr": 4430,
      "wanted": 4431,
      "pil": 4432,
      "ble": 4433,
      "##uf": 4434,
      "hours": 4435,
      "napk": 4436,
      "##na": 4437,
      "##olution": 4438,
      "older": 4439,
      "prepare": 4440,
      "prepares": 4441,
      "locomotive": 4442,
      "closeup": 4443,
      "harvest": 4444,
      "revival": 4445,
      "manuf": 4446,
      "teeth": 4447,
      "##fire": 4448,
      "offer": 4449,
      "fighting": 4450,
      "surpr": 4451,
      "##use": 4452,
      "shield": 4453,
      "quite": 4454,
      "heel": 4455,
      "moves": 4456,
      "attem": 4457,
      "spray": 4458,
      "term": 4459,
      "##iner": 4460,
      "parach": 4461,
      "dunes": 4462,
      "remind": 4463,
      "misty": 4464,
      "diagram": 4465,
      "soup": 4466,
      "royalty": 4467,
      "##stick": 4468,
      "monitors": 4469,
      "##orous": 4470,
      "expression": 4471,
      "isometric": 4472,
      "##elet": 4473,
      "skelet": 4474,
      "wrist": 4475,
      "##aled": 4476,
      "jumps": 4477,
      "scissors": 4478,
      "architectural": 4479,
      "##bage": 4480,
      "pul": 4481,
      "menu": 4482,
      "breaking": 4483,
      "foliage": 4484,
      "golfer": 4485,
      "adorable": 4486,
      "unus": 4487,
      "closet": 4488,
      "packets": 4489,
      "true": 4490,
      "drawers": 4491,
      "production": 4492,
      "weight": 4493,
      "footwear": 4494,
      "##ucted": 4495,
      "##ef": 4496,
      "typing": 4497,
      "glac": 4498,
      "hitting": 4499,
      "##phere": 4500,
      "result": 4501,
      "trunks": 4502,
      "repl": 4503,
      "movement": 4504,
      "advertisement": 4505,
      "##cept": 4506,
      "occ": 4507,
      "damaged": 4508,
      "sister": 4509,
      "shallow": 4510,
      "iconic": 4511,
      "uniforms": 4512,
      "##page": 4513,
      "highlighted": 4514,
      "glitter": 4515,
      "cho": 4516,
      "curly": 4517,
      "logs": 4518,
      "families": 4519,
      "robot": 4520,
      "mounted": 4521,
      "brides": 4522,
      "yourself": 4523,
      "glow": 4524,
      "cowboy": 4525,
      "fences": 4526,
      "cranes": 4527,
      "##cope": 4528,
      "matching": 4529,
      "stuck": 4530,
      "homepage": 4531,
      "introd": 4532,
      "miniature": 4533,
      "choose": 4534,
      "##riter": 4535,
      "pend": 4536,
      "memorial": 4537,
      "chem": 4538,
      "flows": 4539,
      "heat": 4540,
      "purch": 4541,
      "bark": 4542,
      "##ison": 4543,
      "desp": 4544,
      "folk": 4545,
      "ornate": 4546,
      "##wich": 4547,
      "##gles": 4548,
      "##ples": 4549,
      "events": 4550,
      "sandwich": 4551,
      "pasted": 4552,
      "##omb": 4553,
      "trim": 4554,
      "foods": 4555,
      "##ificial": 4556,
      "kick": 4557,
      "##osure": 4558,
      "entertain": 4559,
      "##fts": 4560,
      "##ads": 4561,
      "##ready": 4562,
      "french": 4563,
      "lips": 4564,
      "##osphere": 4565,
      "businessw": 4566,
      "landing": 4567,
      "graph": 4568,
      "successful": 4569,
      "wardro": 4570,
      "already": 4571,
      "trays": 4572,
      "appearance": 4573,
      "process": 4574,
      "atmosphere": 4575,
      "chan": 4576,
      "defin": 4577,
      "hairstyle": 4578,
      "drawings": 4579,
      "turns": 4580,
      "grounds": 4581,
      "deser": 4582,
      "energy": 4583,
      "##ately": 4584,
      "picking": 4585,
      "beginning": 4586,
      "##uary": 4587,
      "himself": 4588,
      "feeling": 4589,
      "poly": 4590,
      "storage": 4591,
      "combination": 4592,
      "##ricul": 4593,
      "padd": 4594,
      "colon": 4595,
      "medium": 4596,
      "##itive": 4597,
      "broc": 4598,
      "utensils": 4599,
      "##asted": 4600,
      "strap": 4601,
      "##ett": 4602,
      "slip": 4603,
      "hope": 4604,
      "lone": 4605,
      "pinned": 4606,
      "jewel": 4607,
      "massive": 4608,
      "kites": 4609,
      "attended": 4610,
      "##oint": 4611,
      "delic": 4612,
      "15": 4613,
      "##nded": 4614,
      "##ults": 4615,
      "creep": 4616,
      "texts": 4617,
      "explore": 4618,
      "motorbike": 4619,
      "##icip": 4620,
      "displaying": 4621,
      "islands": 4622,
      "artificial": 4623,
      "planets": 4624,
      "sunflowers": 4625,
      "broccol": 4626,
      "20": 4627,
      "mart": 4628,
      "enc": 4629,
      "##quoise": 4630,
      "turquoise": 4631,
      "engr": 4632,
      "16": 4633,
      "brought": 4634,
      "blood": 4635,
      "camel": 4636,
      "galax": 4637,
      "tape": 4638,
      "soon": 4639,
      "agricul": 4640,
      "danger": 4641,
      "scenes": 4642,
      "broccoli": 4643,
      "##kers": 4644,
      "soap": 4645,
      "satell": 4646,
      "dip": 4647,
      "tan": 4648,
      "floors": 4649,
      "bald": 4650,
      "squat": 4651,
      "##ume": 4652,
      "record": 4653,
      "accessories": 4654,
      "##hop": 4655,
      "##oph": 4656,
      "##ential": 4657,
      "##selves": 4658,
      "##sticks": 4659,
      "chains": 4660,
      "adding": 4661,
      "mind": 4662,
      "spent": 4663,
      "##ended": 4664,
      "##ama": 4665,
      "reflecting": 4666,
      "presentation": 4667,
      "glove": 4668,
      "hay": 4669,
      "staring": 4670,
      "trash": 4671,
      "officer": 4672,
      "12": 4673,
      "beverage": 4674,
      "##forest": 4675,
      "parr": 4676,
      "pyram": 4677,
      "theat": 4678,
      "intric": 4679,
      "embro": 4680,
      "crosses": 4681,
      "mer": 4682,
      "president": 4683,
      "finally": 4684,
      "skyscraper": 4685,
      "labels": 4686,
      "alley": 4687,
      "hers": 4688,
      "due": 4689,
      "##uzz": 4690,
      "##cast": 4691,
      "aside": 4692,
      "route": 4693,
      "shell": 4694,
      "neutral": 4695,
      "oranges": 4696,
      "snail": 4697,
      "unit": 4698,
      "princess": 4699,
      "taxi": 4700,
      "pocket": 4701,
      "##icing": 4702,
      "steep": 4703,
      "coastline": 4704,
      "donkey": 4705,
      "hug": 4706,
      "opt": 4707,
      "brother": 4708,
      "rubber": 4709,
      "dots": 4710,
      "lives": 4711,
      "personality": 4712,
      "stylized": 4713,
      "##illed": 4714,
      "bars": 4715,
      "pee": 4716,
      "issue": 4717,
      "gent": 4718,
      "stump": 4719,
      "dolls": 4720,
      "ran": 4721,
      "##iation": 4722,
      "##ploy": 4723,
      "sparkling": 4724,
      "businesswoman": 4725,
      "1st": 4726,
      "pay": 4727,
      "amb": 4728,
      "unusual": 4729,
      "flooring": 4730,
      "recent": 4731,
      "phones": 4732,
      "hidden": 4733,
      "leop": 4734,
      "province": 4735,
      "puts": 4736,
      "##yed": 4737,
      "tram": 4738,
      "##osaur": 4739,
      "fe": 4740,
      "presented": 4741,
      "customers": 4742,
      "lane": 4743,
      "posed": 4744,
      "cin": 4745,
      "##rove": 4746,
      "angel": 4747,
      "manager": 4748,
      "##aging": 4749,
      "attention": 4750,
      "walked": 4751,
      "wardrobe": 4752,
      "##iec": 4753,
      "logos": 4754,
      "dinosaur": 4755,
      "explain": 4756,
      "loving": 4757,
      "##nds": 4758,
      "waist": 4759,
      "gave": 4760,
      "##cers": 4761,
      "##imes": 4762,
      "division": 4763,
      "##idered": 4764,
      "employ": 4765,
      "hamm": 4766,
      "despite": 4767,
      "##lers": 4768,
      "staff": 4769,
      "##ula": 4770,
      "adj": 4771,
      "gentle": 4772,
      "spirit": 4773,
      "pep": 4774,
      "congr": 4775,
      "carrots": 4776,
      "hung": 4777,
      "##load": 4778,
      "girlfriend": 4779,
      "candy": 4780,
      "solid": 4781,
      "craft": 4782,
      "adven": 4783,
      "dancers": 4784,
      "monoch": 4785,
      "mun": 4786,
      "mansion": 4787,
      "situ": 4788,
      "tired": 4789,
      "haired": 4790,
      "rows": 4791,
      "##ino": 4792,
      "selection": 4793,
      "maroon": 4794,
      "concep": 4795,
      "satellite": 4796,
      "mel": 4797,
      "##arp": 4798,
      "landm": 4799,
      "##asing": 4800,
      "emblem": 4801,
      "cushions": 4802,
      "mens": 4803,
      "praying": 4804,
      "plus": 4805,
      "##ache": 4806,
      "diamonds": 4807,
      "##anical": 4808,
      "ais": 4809,
      "garland": 4810,
      "organism": 4811,
      "intricate": 4812,
      "constitution": 4813,
      "packet": 4814,
      "19th": 4815,
      "barric": 4816,
      "continent": 4817,
      "striking": 4818,
      "alb": 4819,
      "handmade": 4820,
      "##iller": 4821,
      "spread": 4822,
      "##aign": 4823,
      "belong": 4824,
      "occas": 4825,
      "campaign": 4826,
      "grave": 4827,
      "##shot": 4828,
      "lush": 4829,
      "lotus": 4830,
      "pure": 4831,
      "skinny": 4832,
      "domestic": 4833,
      "##wards": 4834,
      "stretch": 4835,
      "##aily": 4836,
      "heav": 4837,
      "leopard": 4838,
      "push": 4839,
      "##igs": 4840,
      "report": 4841,
      "contest": 4842,
      "watering": 4843,
      "snack": 4844,
      "rainforest": 4845,
      "reality": 4846,
      "roman": 4847,
      "residents": 4848,
      "opens": 4849,
      "marina": 4850,
      "listed": 4851,
      "pulled": 4852,
      "microw": 4853,
      "daily": 4854,
      "##acing": 4855,
      "##ims": 4856,
      "ket": 4857,
      "cityscape": 4858,
      "crab": 4859,
      "crazy": 4860,
      "rap": 4861,
      "changing": 4862,
      "insects": 4863,
      "dessert": 4864,
      "fell": 4865,
      "masc": 4866,
      "twist": 4867,
      "##cases": 4868,
      "luck": 4869,
      "##uddle": 4870,
      "sometimes": 4871,
      "##eer": 4872,
      "##esome": 4873,
      "plans": 4874,
      "divers": 4875,
      "##ude": 4876,
      "microwave": 4877,
      "incred": 4878,
      "assoc": 4879,
      "hed": 4880,
      "inters": 4881,
      "forming": 4882,
      "multic": 4883,
      "pendant": 4884,
      "huts": 4885,
      "carries": 4886,
      "benef": 4887,
      "destro": 4888,
      "consum": 4889,
      "confl": 4890,
      "multiple": 4891,
      "chap": 4892,
      "holder": 4893,
      "hairstyles": 4894,
      "nuts": 4895,
      "homeless": 4896,
      "boxing": 4897,
      "constitutional": 4898,
      "adult": 4899,
      "pencils": 4900,
      "puzz": 4901,
      "##lishing": 4902,
      "petals": 4903,
      "beans": 4904,
      "southern": 4905,
      "tries": 4906,
      "awesome": 4907,
      "##ety": 4908,
      "reveal": 4909,
      "##otional": 4910,
      "##ivid": 4911,
      "snowfall": 4912,
      "abs": 4913,
      "individ": 4914,
      "hike": 4915,
      "lanterns": 4916,
      "tire": 4917,
      "minimal": 4918,
      "tulips": 4919,
      "galaxy": 4920,
      "tong": 4921,
      "##azz": 4922,
      "potatoes": 4923,
      "materials": 4924,
      "##sw": 4925,
      "##semble": 4926,
      "qual": 4927,
      "austr": 4928,
      "tight": 4929,
      "marine": 4930,
      "lau": 4931,
      "peak": 4932,
      "pige": 4933,
      "mirrors": 4934,
      "interview": 4935,
      "bedrooms": 4936,
      "darkness": 4937,
      "favour": 4938,
      "##esty": 4939,
      "##li": 4940,
      "starry": 4941,
      "lens": 4942,
      "cleaning": 4943,
      "native": 4944,
      "booksh": 4945,
      "became": 4946,
      "congratul": 4947,
      "laund": 4948,
      "dandel": 4949,
      "fel": 4950,
      "silhouetted": 4951,
      "hund": 4952,
      "fisherman": 4953,
      "dreams": 4954,
      "whis": 4955,
      "progress": 4956,
      "headed": 4957,
      "watermel": 4958,
      "months": 4959,
      "ramp": 4960,
      "underground": 4961,
      "repair": 4962,
      "fluffy": 4963,
      "liz": 4964,
      "dolphins": 4965,
      "escal": 4966,
      "##igr": 4967,
      "shells": 4968,
      "altern": 4969,
      "ridge": 4970,
      "bulb": 4971,
      "writer": 4972,
      "figures": 4973,
      "apartments": 4974,
      "italian": 4975,
      "development": 4976,
      "atop": 4977,
      "herself": 4978,
      "collect": 4979,
      "standard": 4980,
      "restaurants": 4981,
      "fle": 4982,
      "##turing": 4983,
      "bankn": 4984,
      "laid": 4985,
      "##ense": 4986,
      "fried": 4987,
      "##ament": 4988,
      "##uters": 4989,
      "brings": 4990,
      "adds": 4991,
      "ones": 4992,
      "role": 4993,
      "bamb": 4994,
      "dressing": 4995,
      "skeleton": 4996,
      "aisle": 4997,
      "17": 4998,
      "14": 4999,
      "raw": 5000,
      "##tingu": 5001,
      "bats": 5002,
      "sight": 5003,
      "croc": 5004,
      "medal": 5005,
      "taps": 5006,
      "remains": 5007,
      "stroke": 5008,
      "strawberry": 5009,
      "touching": 5010,
      "carving": 5011,
      "exit": 5012,
      "discover": 5013,
      "rotating": 5014,
      "dent": 5015,
      "##lt": 5016,
      "##imate": 5017,
      "greenhouse": 5018,
      "finan": 5019,
      "##ien": 5020,
      "cany": 5021,
      "snowboard": 5022,
      "sliding": 5023,
      "farmers": 5024,
      "safety": 5025,
      "poet": 5026,
      "ec": 5027,
      "portraits": 5028,
      "jewelry": 5029,
      "smaller": 5030,
      "airplanes": 5031,
      "carn": 5032,
      "australian": 5033,
      "ribbons": 5034,
      "producer": 5035,
      "monochrome": 5036,
      "bamboo": 5037,
      "hur": 5038,
      "sent": 5039,
      "overhead": 5040,
      "stools": 5041,
      "nav": 5042,
      "grown": 5043,
      "posted": 5044,
      "washroom": 5045,
      "poured": 5046,
      "highest": 5047,
      "colonial": 5048,
      "notice": 5049,
      "##kn": 5050,
      "saus": 5051,
      "enjoyed": 5052,
      "headset": 5053,
      "lave": 5054,
      "remember": 5055,
      "cycling": 5056,
      "bracelet": 5057,
      "album": 5058,
      "tell": 5059,
      "statement": 5060,
      "alt": 5061,
      "lavender": 5062,
      "names": 5063,
      "##cts": 5064,
      "##ically": 5065,
      "sword": 5066,
      "mannequin": 5067,
      "##roud": 5068,
      "checking": 5069,
      "proud": 5070,
      "##bee": 5071,
      "science": 5072,
      "firefighters": 5073,
      "##urity": 5074,
      "grasses": 5075,
      "neon": 5076,
      "entering": 5077,
      "screening": 5078,
      "security": 5079,
      "##ogn": 5080,
      "sleeve": 5081,
      "countertop": 5082,
      "valent": 5083,
      "bridges": 5084,
      "potted": 5085,
      "stainless": 5086,
      "estab": 5087,
      "volc": 5088,
      "##person": 5089,
      "released": 5090,
      "crocod": 5091,
      "##nuts": 5092,
      "hd": 5093,
      "bees": 5094,
      "##uted": 5095,
      "##bal": 5096,
      "flush": 5097,
      "alco": 5098,
      "shoppers": 5099,
      "soul": 5100,
      "##pe": 5101,
      "themselves": 5102,
      "pushing": 5103,
      "sneakers": 5104,
      "alcohol": 5105,
      "fat": 5106,
      "cost": 5107,
      "laundry": 5108,
      "religion": 5109,
      "requ": 5110,
      "windy": 5111,
      "dollars": 5112,
      "stretching": 5113,
      "files": 5114,
      "talks": 5115,
      "goods": 5116,
      "buff": 5117,
      "##ka": 5118,
      "sheets": 5119,
      "curren": 5120,
      "salt": 5121,
      "cotton": 5122,
      "wolf": 5123,
      "##ibly": 5124,
      "span": 5125,
      "minimalist": 5126,
      "columns": 5127,
      "chemical": 5128,
      "jam": 5129,
      "vessels": 5130,
      "inspiration": 5131,
      "budget": 5132,
      "##arsh": 5133,
      "harves": 5134,
      "martial": 5135,
      "rush": 5136,
      "##reds": 5137,
      "grav": 5138,
      "sandals": 5139,
      "sewing": 5140,
      "salon": 5141,
      "conver": 5142,
      "totally": 5143,
      "goats": 5144,
      "nurse": 5145,
      "era": 5146,
      "##piec": 5147,
      "chips": 5148,
      "loose": 5149,
      "prim": 5150,
      "airl": 5151,
      "slide": 5152,
      "farmhouse": 5153,
      "emerge": 5154,
      "inflat": 5155,
      "lifting": 5156,
      "six": 5157,
      "nut": 5158,
      "itself": 5159,
      "radio": 5160,
      "##imp": 5161,
      "##atures": 5162,
      "triangle": 5163,
      "hundreds": 5164,
      "##itage": 5165,
      "flav": 5166,
      "nearby": 5167,
      "whale": 5168,
      "plank": 5169,
      "heritage": 5170,
      "blossoms": 5171,
      "eve": 5172,
      "coats": 5173,
      "sway": 5174,
      "oldest": 5175,
      "##etti": 5176,
      "financial": 5177,
      "eur": 5178,
      "flame": 5179,
      "lived": 5180,
      "carrot": 5181,
      "pun": 5182,
      "yester": 5183,
      "##umber": 5184,
      "knives": 5185,
      "subway": 5186,
      "graduation": 5187,
      "##acy": 5188,
      "beat": 5189,
      "deb": 5190,
      "bon": 5191,
      "bey": 5192,
      "reaching": 5193,
      "poll": 5194,
      "resear": 5195,
      "laun": 5196,
      "inflatable": 5197,
      "brief": 5198,
      "beyond": 5199,
      "alp": 5200,
      "corr": 5201,
      "styles": 5202,
      "dim": 5203,
      "##acture": 5204,
      "powder": 5205,
      "temper": 5206,
      "sell": 5207,
      "tags": 5208,
      "tires": 5209,
      "##anda": 5210,
      "unve": 5211,
      "canopy": 5212,
      "larger": 5213,
      "vir": 5214,
      "vases": 5215,
      "##bles": 5216,
      "##ala": 5217,
      "invitations": 5218,
      "conflict": 5219,
      "rather": 5220,
      "safe": 5221,
      "##aun": 5222,
      "sharp": 5223,
      "tool": 5224,
      "artic": 5225,
      "question": 5226,
      "boundary": 5227,
      "seashore": 5228,
      "crossed": 5229,
      "lily": 5230,
      "##iant": 5231,
      "discussing": 5232,
      "journey": 5233,
      "yesterday": 5234,
      "sick": 5235,
      "##ply": 5236,
      "##ances": 5237,
      "towels": 5238,
      "ger": 5239,
      "boot": 5240,
      "spectators": 5241,
      "refere": 5242,
      "mood": 5243,
      "undern": 5244,
      "heels": 5245,
      "multicol": 5246,
      "means": 5247,
      "puppies": 5248,
      "##porate": 5249,
      "cyclist": 5250,
      "##keep": 5251,
      "##ouse": 5252,
      "snap": 5253,
      "trailer": 5254,
      "physical": 5255,
      "lizard": 5256,
      "underneath": 5257,
      "educational": 5258,
      "fitted": 5259,
      "quotes": 5260,
      "federal": 5261,
      "quote": 5262,
      "subj": 5263,
      "hoodie": 5264,
      "tut": 5265,
      "##iously": 5266,
      "relations": 5267,
      "cop": 5268,
      "ir": 5269,
      "panning": 5270,
      "death": 5271,
      "tar": 5272,
      "weap": 5273,
      "dot": 5274,
      "excited": 5275,
      "county": 5276,
      "knitted": 5277,
      "blinds": 5278,
      "##keeper": 5279,
      "##ively": 5280,
      "cree": 5281,
      "rect": 5282,
      "##itude": 5283,
      "cargo": 5284,
      "##illing": 5285,
      "scenic": 5286,
      "experience": 5287,
      "astronaut": 5288,
      "aboard": 5289,
      "rh": 5290,
      "answ": 5291,
      "moved": 5292,
      "rocket": 5293,
      "multi": 5294,
      "gh": 5295,
      "tops": 5296,
      "formation": 5297,
      "trails": 5298,
      "backstage": 5299,
      "sept": 5300,
      "##alled": 5301,
      "chart": 5302,
      "exotic": 5303,
      "completed": 5304,
      "kinds": 5305,
      "advertising": 5306,
      "customer": 5307,
      "prints": 5308,
      "2nd": 5309,
      "rectang": 5310,
      "gates": 5311,
      "scrap": 5312,
      "theatre": 5313,
      "sizes": 5314,
      "cosm": 5315,
      "##asts": 5316,
      "adap": 5317,
      "surprised": 5318,
      "agricultural": 5319,
      "municip": 5320,
      "occup": 5321,
      "##alle": 5322,
      "sear": 5323,
      "upd": 5324,
      "helping": 5325,
      "rolls": 5326,
      "gran": 5327,
      "screenshot": 5328,
      "##ales": 5329,
      "spinning": 5330,
      "carried": 5331,
      "journ": 5332,
      "spiral": 5333,
      "wants": 5334,
      "##ae": 5335,
      "hangs": 5336,
      "##ills": 5337,
      "##ipt": 5338,
      "performer": 5339,
      "according": 5340,
      "##estyle": 5341,
      "##ipping": 5342,
      "recyc": 5343,
      "invest": 5344,
      "choice": 5345,
      "##apple": 5346,
      "ess": 5347,
      "budd": 5348,
      "offers": 5349,
      "favourite": 5350,
      "##inger": 5351,
      "canoe": 5352,
      "##umbs": 5353,
      "##scap": 5354,
      "protected": 5355,
      "extreme": 5356,
      "manufacture": 5357,
      "extingu": 5358,
      "##attered": 5359,
      "cubes": 5360,
      "parrot": 5361,
      "research": 5362,
      "reh": 5363,
      "volley": 5364,
      "conversation": 5365,
      "##road": 5366,
      "chopsticks": 5367,
      "believe": 5368,
      "parachute": 5369,
      "ult": 5370,
      "winding": 5371,
      "overs": 5372,
      "##oque": 5373,
      "burger": 5374,
      "baroque": 5375,
      "dirty": 5376,
      "filling": 5377,
      "venue": 5378,
      "anything": 5379,
      "leafy": 5380,
      "paw": 5381,
      "##ica": 5382,
      "##ooks": 5383,
      "fift": 5384,
      "encl": 5385,
      "consist": 5386,
      "recipes": 5387,
      "meets": 5388,
      "canyon": 5389,
      "reach": 5390,
      "celebrations": 5391,
      "puzzle": 5392,
      "##gre": 5393,
      "##ola": 5394,
      "##ulous": 5395,
      "diy": 5396,
      "organisms": 5397,
      "crying": 5398,
      "##ests": 5399,
      "clocks": 5400,
      "arrows": 5401,
      "owned": 5402,
      "contrast": 5403,
      "addition": 5404,
      "menswear": 5405,
      "##pan": 5406,
      "##apper": 5407,
      "suburb": 5408,
      "illustrated": 5409,
      "technology": 5410,
      "creek": 5411,
      "liter": 5412,
      "longer": 5413,
      "cit": 5414,
      "pug": 5415,
      "arches": 5416,
      "seal": 5417,
      "babies": 5418,
      "thriller": 5419,
      "approaching": 5420,
      "tutorial": 5421,
      "shoots": 5422,
      "origin": 5423,
      "prepared": 5424,
      "mission": 5425,
      "total": 5426,
      "occasion": 5427,
      "##uent": 5428,
      "##ication": 5429,
      "watermelon": 5430,
      "waterfront": 5431,
      "attending": 5432,
      "guns": 5433,
      "##ex": 5434,
      "##uting": 5435,
      "##sy": 5436,
      "##ics": 5437,
      "stood": 5438,
      "relief": 5439,
      "provide": 5440,
      "bridesmaid": 5441,
      "dash": 5442,
      "hiding": 5443,
      "##mm": 5444,
      "swan": 5445,
      "landscap": 5446,
      "bulld": 5447,
      "winds": 5448,
      "vibr": 5449,
      "quilt": 5450,
      "18th": 5451,
      "kettle": 5452,
      "tort": 5453,
      "address": 5454,
      "practicing": 5455,
      "fant": 5456,
      "chance": 5457,
      "teamm": 5458,
      "closer": 5459,
      "enjoys": 5460,
      "conceptual": 5461,
      "scary": 5462,
      "platter": 5463,
      "picturesque": 5464,
      "amongst": 5465,
      "worth": 5466,
      "glamorous": 5467,
      "jogg": 5468,
      "##icated": 5469,
      "##ask": 5470,
      "starts": 5471,
      "stacked": 5472,
      "decorate": 5473,
      "fishermen": 5474,
      "craw": 5475,
      "missing": 5476,
      "cushion": 5477,
      "curved": 5478,
      "motorcycles": 5479,
      "learning": 5480,
      "beak": 5481,
      "scored": 5482,
      "classical": 5483,
      "gad": 5484,
      "fries": 5485,
      "mob": 5486,
      "document": 5487,
      "relationship": 5488,
      "buddh": 5489,
      "dut": 5490,
      "apron": 5491,
      "amuse": 5492,
      "currently": 5493,
      "transportation": 5494,
      "arrangement": 5495,
      "##liament": 5496,
      "shark": 5497,
      "else": 5498,
      "stuffed": 5499,
      "mine": 5500,
      "##hole": 5501,
      "parliament": 5502,
      "exposure": 5503,
      "##clus": 5504,
      "disco": 5505,
      "frag": 5506,
      "##ission": 5507,
      "certain": 5508,
      "seaside": 5509,
      "possible": 5510,
      "september": 5511,
      "sin": 5512,
      "tor": 5513,
      "loaded": 5514,
      "jud": 5515,
      "spaces": 5516,
      "housepl": 5517,
      "awa": 5518,
      "notebook": 5519,
      "espec": 5520,
      "claim": 5521,
      "seating": 5522,
      "shutter": 5523,
      "amusement": 5524,
      "especially": 5525,
      "outer": 5526,
      "iv": 5527,
      "height": 5528,
      "mean": 5529,
      "anyone": 5530,
      "bearded": 5531,
      "begins": 5532,
      "triangles": 5533,
      "outl": 5534,
      "edition": 5535,
      "lin": 5536,
      "pound": 5537,
      "##inese": 5538,
      "100": 5539,
      "wallet": 5540,
      "installed": 5541,
      "taste": 5542,
      "magic": 5543,
      "persp": 5544,
      "##ocking": 5545,
      "incredible": 5546,
      "##sters": 5547,
      "channel": 5548,
      "fa": 5549,
      "chinese": 5550,
      "##illa": 5551,
      "studying": 5552,
      "washed": 5553,
      "chapel": 5554,
      "volleyball": 5555,
      "vibrant": 5556,
      "thumbs": 5557,
      "##ints": 5558,
      "thank": 5559,
      "auction": 5560,
      "wrap": 5561,
      "teenager": 5562,
      "##ears": 5563,
      "chopping": 5564,
      "tongue": 5565,
      "rivers": 5566,
      "##ober": 5567,
      "lobby": 5568,
      "stopped": 5569,
      "grandm": 5570,
      "october": 5571,
      "onions": 5572,
      "restored": 5573,
      "calc": 5574,
      "waits": 5575,
      "waterfalls": 5576,
      "swaying": 5577,
      "ginger": 5578,
      "tins": 5579,
      "##eating": 5580,
      "repeat": 5581,
      "emergency": 5582,
      "##avan": 5583,
      "panorama": 5584,
      "shutters": 5585,
      "planting": 5586,
      "pressing": 5587,
      "##tering": 5588,
      "keeps": 5589,
      "badge": 5590,
      "weigh": 5591,
      "camping": 5592,
      "brightly": 5593,
      "network": 5594,
      "announ": 5595,
      "tackle": 5596,
      "currency": 5597,
      ".,": 5598,
      "reind": 5599,
      "monaster": 5600,
      "programme": 5601,
      "gently": 5602,
      "produce": 5603,
      "composer": 5604,
      "lowercase": 5605,
      "desce": 5606,
      "beaches": 5607,
      "crowded": 5608,
      "cinem": 5609,
      "reindeer": 5610,
      "eats": 5611,
      "surv": 5612,
      "matter": 5613,
      "honor": 5614,
      "cycles": 5615,
      "sle": 5616,
      "eastern": 5617,
      "hiker": 5618,
      "begin": 5619,
      "supporters": 5620,
      "turbines": 5621,
      "##ri": 5622,
      "clown": 5623,
      "spices": 5624,
      "daughters": 5625,
      "pyramid": 5626,
      "##gs": 5627,
      "twigs": 5628,
      "smok": 5629,
      "baked": 5630,
      "veter": 5631,
      "##alt": 5632,
      "ask": 5633,
      "disab": 5634,
      "clearly": 5635,
      "norm": 5636,
      "grab": 5637,
      "##50s": 5638,
      "mile": 5639,
      "destination": 5640,
      "deserted": 5641,
      "sized": 5642,
      "editor": 5643,
      "cellphone": 5644,
      "residence": 5645,
      "broadcas": 5646,
      "rules": 5647,
      "perfectly": 5648,
      "musicians": 5649,
      "pastel": 5650,
      "##tile": 5651,
      "unf": 5652,
      "thre": 5653,
      "cans": 5654,
      "select": 5655,
      "styled": 5656,
      "sailboat": 5657,
      "##point": 5658,
      "##icy": 5659,
      "bust": 5660,
      "layer": 5661,
      "revealed": 5662,
      "sock": 5663,
      "cris": 5664,
      "choosing": 5665,
      "perspective": 5666,
      "rend": 5667,
      "fashionable": 5668,
      "bills": 5669,
      "crashing": 5670,
      "rowing": 5671,
      "grid": 5672,
      "depart": 5673,
      "accent": 5674,
      "shores": 5675,
      "swans": 5676,
      "agency": 5677,
      "crocodile": 5678,
      "planted": 5679,
      "regular": 5680,
      "##lind": 5681,
      "##field": 5682,
      "##vet": 5683,
      "##tery": 5684,
      "saying": 5685,
      "shines": 5686,
      "adults": 5687,
      "changed": 5688,
      "arts": 5689,
      "charming": 5690,
      "scrat": 5691,
      "looping": 5692,
      "compass": 5693,
      "intersection": 5694,
      "subject": 5695,
      "nurser": 5696,
      "prec": 5697,
      "##ecraft": 5698,
      "tro": 5699,
      "cylind": 5700,
      "marking": 5701,
      "cheap": 5702,
      "pulls": 5703,
      "slopes": 5704,
      "unkn": 5705,
      "remove": 5706,
      "reads": 5707,
      "calcul": 5708,
      "nood": 5709,
      "peac": 5710,
      "coloring": 5711,
      "nets": 5712,
      "chickens": 5713,
      "##epend": 5714,
      "palette": 5715,
      "planes": 5716,
      "placing": 5717,
      "volun": 5718,
      "association": 5719,
      "peaks": 5720,
      "magical": 5721,
      "hipster": 5722,
      "approach": 5723,
      "lid": 5724,
      "boyfriend": 5725,
      "11": 5726,
      "##iment": 5727,
      "independ": 5728,
      "unknown": 5729,
      "tallest": 5730,
      "dolly": 5731,
      "herbs": 5732,
      "depict": 5733,
      "constructed": 5734,
      "groc": 5735,
      "windsh": 5736,
      "spacecraft": 5737,
      "hammock": 5738,
      "exposed": 5739,
      "introduc": 5740,
      "alpine": 5741,
      "cuc": 5742,
      "tradition": 5743,
      "##hem": 5744,
      "##ald": 5745,
      "twin": 5746,
      "cooked": 5747,
      "chatting": 5748,
      "consumer": 5749,
      "barrier": 5750,
      "reserv": 5751,
      "##others": 5752,
      "scenery": 5753,
      "airliner": 5754,
      "nursery": 5755,
      "windshield": 5756,
      "##agonal": 5757,
      "source": 5758,
      "##lished": 5759,
      "demol": 5760,
      "##kle": 5761,
      "hillside": 5762,
      "schem": 5763,
      "gathering": 5764,
      "layers": 5765,
      "paired": 5766,
      "knit": 5767,
      "remaining": 5768,
      "##coming": 5769,
      "delicate": 5770,
      "helps": 5771,
      "received": 5772,
      "##oid": 5773,
      "cupcake": 5774,
      "monastery": 5775,
      "jeep": 5776,
      "write": 5777,
      "disapp": 5778,
      "difference": 5779,
      "told": 5780,
      "##bur": 5781,
      "challen": 5782,
      "wildflow": 5783,
      "zoomed": 5784,
      "dolphin": 5785,
      "##olled": 5786,
      "adventure": 5787,
      "##oof": 5788,
      "pets": 5789,
      "aug": 5790,
      "inch": 5791,
      "beams": 5792,
      "clut": 5793,
      "spending": 5794,
      "##ender": 5795,
      "##sts": 5796,
      "##mber": 5797,
      "nove": 5798,
      "poppies": 5799,
      "shoreline": 5800,
      "stroller": 5801,
      "lipstick": 5802,
      "psy": 5803,
      "fris": 5804,
      "##ulation": 5805,
      "vend": 5806,
      "instruct": 5807,
      "airline": 5808,
      "displays": 5809,
      "november": 5810,
      "except": 5811,
      "napkin": 5812,
      "individual": 5813,
      "##orting": 5814,
      "beads": 5815,
      "rose": 5816,
      "cred": 5817,
      "##uments": 5818,
      "handles": 5819,
      "wrong": 5820,
      "rescue": 5821,
      "13": 5822,
      "##inated": 5823,
      "alth": 5824,
      "convert": 5825,
      "patch": 5826,
      "corporate": 5827,
      "feather": 5828,
      "vegetation": 5829,
      "suite": 5830,
      "followed": 5831,
      "glacier": 5832,
      "although": 5833,
      "##lings": 5834,
      "camels": 5835,
      "felt": 5836,
      "marsh": 5837,
      "pitcher": 5838,
      "##abit": 5839,
      "pineapple": 5840,
      "poppy": 5841,
      "alarm": 5842,
      "1950s": 5843,
      "cash": 5844,
      "##ivity": 5845,
      "minutes": 5846,
      "june": 5847,
      "crime": 5848,
      "easily": 5849,
      "slim": 5850,
      "##ography": 5851,
      "freshly": 5852,
      "wavy": 5853,
      "exclus": 5854,
      "masks": 5855,
      "underst": 5856,
      "penguins": 5857,
      "situated": 5858,
      "pony": 5859,
      "ware": 5860,
      "sliced": 5861,
      "quickly": 5862,
      "inte": 5863,
      "dise": 5864,
      "structures": 5865,
      "ded": 5866,
      "##real": 5867,
      "asp": 5868,
      "resolution": 5869,
      "sticking": 5870,
      "##itely": 5871,
      "teap": 5872,
      "rooster": 5873,
      "amount": 5874,
      "needed": 5875,
      "hosted": 5876,
      "calf": 5877,
      "bump": 5878,
      "polish": 5879,
      "string": 5880,
      "docked": 5881,
      "cultural": 5882,
      "demonstration": 5883,
      "removed": 5884,
      "carnival": 5885,
      "july": 5886,
      "##igned": 5887,
      "alternative": 5888,
      "##piece": 5889,
      "volunte": 5890,
      "##60s": 5891,
      "##tuary": 5892,
      "included": 5893,
      "services": 5894,
      "500": 5895,
      "fer": 5896,
      "sleeves": 5897,
      "holy": 5898,
      "goalkeeper": 5899,
      "representing": 5900,
      "envel": 5901,
      "##quets": 5902,
      "split": 5903,
      "##ashed": 5904,
      "decided": 5905,
      "seagulls": 5906,
      "terminal": 5907,
      "dandelion": 5908,
      "frisbee": 5909,
      "rand": 5910,
      "somewhere": 5911,
      "turkey": 5912,
      "bouquets": 5913,
      "roller": 5914,
      "kayak": 5915,
      "collar": 5916,
      "opera": 5917,
      "fifth": 5918,
      "chee": 5919,
      "converted": 5920,
      "##tumer": 5921,
      "celebrities": 5922,
      "costumer": 5923,
      "##ounge": 5924,
      "er": 5925,
      "lounge": 5926,
      "liber": 5927,
      "exact": 5928,
      "olives": 5929,
      "##asp": 5930,
      "homemade": 5931,
      "suff": 5932,
      "##papers": 5933,
      "cracked": 5934,
      "migr": 5935,
      "sens": 5936,
      "witch": 5937,
      "##iring": 5938,
      "rider": 5939,
      "constituent": 5940,
      "##iar": 5941,
      "##tun": 5942,
      "download": 5943,
      "doodle": 5944,
      "mascot": 5945,
      "hedge": 5946,
      "whet": 5947,
      "amid": 5948,
      "peacock": 5949,
      "spots": 5950,
      "braid": 5951,
      "medit": 5952,
      "muddy": 5953,
      "tip": 5954,
      "desktop": 5955,
      "retr": 5956,
      "random": 5957,
      "diving": 5958,
      "wool": 5959,
      "##anding": 5960,
      "clicking": 5961,
      "meters": 5962,
      "sense": 5963,
      "swinging": 5964,
      "tribal": 5965,
      "whether": 5966,
      "ax": 5967,
      "gone": 5968,
      "zone": 5969,
      "began": 5970,
      "##elly": 5971,
      "prepar": 5972,
      "ties": 5973,
      "##orted": 5974,
      "purse": 5975,
      "confetti": 5976,
      "conditions": 5977,
      "gesture": 5978,
      "dangerous": 5979,
      "typew": 5980,
      "##ocked": 5981,
      "ensemble": 5982,
      "minute": 5983,
      "relaxed": 5984,
      "banknotes": 5985,
      "dair": 5986,
      "##nth": 5987,
      "##body": 5988,
      "breaks": 5989,
      "worked": 5990,
      "grilles": 5991,
      "pages": 5992,
      "##emor": 5993,
      "housing": 5994,
      "guys": 5995,
      "droplets": 5996,
      "##nut": 5997,
      "stepped": 5998,
      "travels": 5999,
      "##alo": 6000,
      "marks": 6001,
      "commemor": 6002,
      "join": 6003,
      "##iscuit": 6004,
      "biscuit": 6005,
      "##aul": 6006,
      "##rec": 6007,
      "phil": 6008,
      "postc": 6009,
      "horror": 6010,
      "knees": 6011,
      "barbec": 6012,
      "ko": 6013,
      "incre": 6014,
      "delivery": 6015,
      "dairy": 6016,
      "bree": 6017,
      "shep": 6018,
      "visited": 6019,
      "software": 6020,
      "stitch": 6021,
      "partially": 6022,
      "silk": 6023,
      "typewriter": 6024,
      "shepher": 6025,
      "conv": 6026,
      "apply": 6027,
      "192": 6028,
      "article": 6029,
      "skier": 6030,
      "tabby": 6031,
      "pills": 6032,
      "screw": 6033,
      "august": 6034,
      "bubble": 6035,
      "##lands": 6036,
      "##rect": 6037,
      "##ora": 6038,
      "december": 6039,
      "formed": 6040,
      "prayer": 6041,
      "flooded": 6042,
      "destroyed": 6043,
      "dum": 6044,
      "teach": 6045,
      "##eeling": 6046,
      "exercises": 6047,
      "depth": 6048,
      "tried": 6049,
      "rounded": 6050,
      "escalator": 6051,
      "rendered": 6052,
      "capturing": 6053,
      "##anced": 6054,
      "##ador": 6055,
      "apr": 6056,
      "starfish": 6057,
      "depictions": 6058,
      "##lit": 6059,
      "dense": 6060,
      "identity": 6061,
      "mechanic": 6062,
      "##rd": 6063,
      "serve": 6064,
      "##esting": 6065,
      "couples": 6066,
      "fashioned": 6067,
      "romance": 6068,
      "mum": 6069,
      "##cut": 6070,
      "##oped": 6071,
      "phr": 6072,
      "indic": 6073,
      "shots": 6074,
      "closing": 6075,
      "collecting": 6076,
      "granite": 6077,
      "retrie": 6078,
      "##elic": 6079,
      "roadside": 6080,
      "performed": 6081,
      "spectacular": 6082,
      "separate": 6083,
      "jelly": 6084,
      "puddle": 6085,
      "weathered": 6086,
      "breath": 6087,
      "labor": 6088,
      "referee": 6089,
      "##tic": 6090,
      "##wh": 6091,
      "thumb": 6092,
      "owners": 6093,
      "picked": 6094,
      "universe": 6095,
      "culture": 6096,
      "least": 6097,
      "spin": 6098,
      "bowling": 6099,
      "hammer": 6100,
      "##turist": 6101,
      "everyday": 6102,
      "depar": 6103,
      "elevated": 6104,
      "definitely": 6105,
      "april": 6106,
      "locks": 6107,
      "futurist": 6108,
      "buckets": 6109,
      "landmark": 6110,
      "rat": 6111,
      "##inct": 6112,
      "blankets": 6113,
      "kittens": 6114,
      "dating": 6115,
      "##oir": 6116,
      "blouse": 6117,
      "greetings": 6118,
      "comfortable": 6119,
      "attemp": 6120,
      "searching": 6121,
      "handw": 6122,
      "questions": 6123,
      "troops": 6124,
      "active": 6125,
      "caut": 6126,
      "topped": 6127,
      "explos": 6128,
      "reservoir": 6129,
      "lou": 6130,
      "delivers": 6131,
      "elevation": 6132,
      "anchor": 6133,
      "barbecue": 6134,
      "##ulated": 6135,
      "sketches": 6136,
      "antenn": 6137,
      "leash": 6138,
      "##oscope": 6139,
      "helped": 6140,
      "disabled": 6141,
      "toast": 6142,
      "clay": 6143,
      "pasta": 6144,
      "combine": 6145,
      "client": 6146,
      "asph": 6147,
      "planks": 6148,
      "driv": 6149,
      "boardwalk": 6150,
      "global": 6151,
      "reminds": 6152,
      "##off": 6153,
      "##ords": 6154,
      "controls": 6155,
      "dy": 6156,
      "jan": 6157,
      "poor": 6158,
      "surg": 6159,
      "distant": 6160,
      "installation": 6161,
      "german": 6162,
      "panda": 6163,
      "que": 6164,
      "##usion": 6165,
      "signed": 6166,
      "pref": 6167,
      "invol": 6168,
      "driveway": 6169,
      "booth": 6170,
      "celebrated": 6171,
      "finding": 6172,
      "burst": 6173,
      "protesters": 6174,
      "pepper": 6175,
      "cement": 6176,
      "##eth": 6177,
      "##agers": 6178,
      "noodles": 6179,
      "birch": 6180,
      "hallway": 6181,
      "bookshelf": 6182,
      "philos": 6183,
      "torn": 6184,
      "daytime": 6185,
      "tripod": 6186,
      "cuts": 6187,
      "##ership": 6188,
      "meaning": 6189,
      "bigger": 6190,
      "constell": 6191,
      "folded": 6192,
      "teammates": 6193,
      "jag": 6194,
      "usually": 6195,
      "directly": 6196,
      "penguin": 6197,
      "grows": 6198,
      "contour": 6199,
      "problem": 6200,
      "##izing": 6201,
      "decker": 6202,
      "monkeys": 6203,
      "asphalt": 6204,
      "##we": 6205,
      "skates": 6206,
      "loft": 6207,
      "adop": 6208,
      "everywhere": 6209,
      "deter": 6210,
      "wand": 6211,
      "planning": 6212,
      "offering": 6213,
      "diverse": 6214,
      "sile": 6215,
      "##abor": 6216,
      "biker": 6217,
      "balance": 6218,
      "yachts": 6219,
      "municipal": 6220,
      "credit": 6221,
      "cherries": 6222,
      "##ini": 6223,
      "creation": 6224,
      "barricades": 6225,
      "january": 6226,
      "sled": 6227,
      "orient": 6228,
      "scared": 6229,
      "meter": 6230,
      "unic": 6231,
      "handwr": 6232,
      "ingredient": 6233,
      "marriage": 6234,
      "philosop": 6235,
      "ankle": 6236,
      "cens": 6237,
      "presidential": 6238,
      "suburban": 6239,
      "renovated": 6240,
      "50": 6241,
      "myster": 6242,
      "electricity": 6243,
      "fitting": 6244,
      "pressure": 6245,
      "sprink": 6246,
      "crafts": 6247,
      "##ilst": 6248,
      "whilst": 6249,
      "sho": 6250,
      "blown": 6251,
      "partner": 6252,
      "extension": 6253,
      "census": 6254,
      "##ailing": 6255,
      "directions": 6256,
      "competes": 6257,
      "sails": 6258,
      "limited": 6259,
      "seem": 6260,
      "clust": 6261,
      "##erel": 6262,
      "exec": 6263,
      "cottages": 6264,
      "powerful": 6265,
      "embroidered": 6266,
      "diffic": 6267,
      "nom": 6268,
      "##ork": 6269,
      "paddle": 6270,
      "##life": 6271,
      "##aly": 6272,
      "nearly": 6273,
      "1960s": 6274,
      "bringing": 6275,
      "feed": 6276,
      "shou": 6277,
      "brill": 6278,
      "floats": 6279,
      "bund": 6280,
      "horns": 6281,
      "jogging": 6282,
      "wick": 6283,
      "##ilight": 6284,
      "mang": 6285,
      "twilight": 6286,
      "cozy": 6287,
      "confident": 6288,
      "provides": 6289,
      "impression": 6290,
      "##enade": 6291,
      "clash": 6292,
      "promenade": 6293,
      "reb": 6294,
      "review": 6295,
      "tulip": 6296,
      "absol": 6297,
      "extinguisher": 6298,
      "bol": 6299,
      "tiled": 6300,
      "##de": 6301,
      "flats": 6302,
      "chill": 6303,
      "##essed": 6304,
      "scissor": 6305,
      "injur": 6306,
      "vineyard": 6307,
      "toned": 6308,
      "garbage": 6309,
      "protect": 6310,
      "further": 6311,
      "jetty": 6312,
      "mixing": 6313,
      "grandmother": 6314,
      "strugg": 6315,
      "charity": 6316,
      "lifestyle": 6317,
      "pit": 6318,
      "creates": 6319,
      "medic": 6320,
      "mint": 6321,
      "observ": 6322,
      "venture": 6323,
      "lav": 6324,
      "locals": 6325,
      "linear": 6326,
      "iceber": 6327,
      "frosty": 6328,
      "maxi": 6329,
      "ox": 6330,
      "##stic": 6331,
      "recogn": 6332,
      "lime": 6333,
      "lie": 6334,
      "compound": 6335,
      "25": 6336,
      "thor": 6337,
      "botanical": 6338,
      "finishing": 6339,
      "splashing": 6340,
      "multicolored": 6341,
      "shares": 6342,
      "asked": 6343,
      "recre": 6344,
      "composite": 6345,
      "disease": 6346,
      "kicks": 6347,
      "bending": 6348,
      "playful": 6349,
      "##ipel": 6350,
      "pigeons": 6351,
      "die": 6352,
      "seemed": 6353,
      "coke": 6354,
      "plantation": 6355,
      "suppor": 6356,
      "swims": 6357,
      "rectangular": 6358,
      "catches": 6359,
      "##eetah": 6360,
      "humans": 6361,
      "returns": 6362,
      "pilot": 6363,
      "socket": 6364,
      "cheetah": 6365,
      "metro": 6366,
      "particular": 6367,
      "barrels": 6368,
      "ecl": 6369,
      "gaze": 6370,
      "onion": 6371,
      "squares": 6372,
      "wrest": 6373,
      "binoc": 6374,
      "##vings": 6375,
      "##arian": 6376,
      "carvings": 6377,
      "lovers": 6378,
      "formations": 6379,
      "railroad": 6380,
      "possibly": 6381,
      "##yer": 6382,
      "include": 6383,
      "establishing": 6384,
      "manufacturer": 6385,
      "pie": 6386,
      "couches": 6387,
      "popc": 6388,
      "cabbage": 6389,
      "float": 6390,
      "exploring": 6391,
      "ripped": 6392,
      "sam": 6393,
      "orb": 6394,
      "touches": 6395,
      "hikers": 6396,
      "backpacks": 6397,
      "warehouse": 6398,
      "asl": 6399,
      "salmon": 6400,
      "measuring": 6401,
      "shepherd": 6402,
      "draws": 6403,
      "fountains": 6404,
      "cricketer": 6405,
      "engraved": 6406,
      "suppl": 6407,
      "receiving": 6408,
      "mannequins": 6409,
      "crawling": 6410,
      "tailed": 6411,
      "##uous": 6412,
      "barbed": 6413,
      "exclusive": 6414,
      "vest": 6415,
      "##gings": 6416,
      "##brush": 6417,
      "leggings": 6418,
      "flaming": 6419,
      "thatched": 6420,
      "designers": 6421,
      "swir": 6422,
      "bunny": 6423,
      "##model": 6424,
      "doodles": 6425,
      "imagine": 6426,
      "challenge": 6427,
      "purp": 6428,
      "magnifying": 6429,
      "dimension": 6430,
      "asleep": 6431,
      "eight": 6432,
      "habit": 6433,
      "upcoming": 6434,
      "whose": 6435,
      "crest": 6436,
      "unident": 6437,
      "supermodel": 6438,
      "neighbour": 6439,
      "lilies": 6440,
      "tone": 6441,
      "mustache": 6442,
      "lemons": 6443,
      "injured": 6444,
      "anime": 6445,
      "circa": 6446,
      "phrase": 6447,
      "##itled": 6448,
      "positive": 6449,
      "instructions": 6450,
      "overview": 6451,
      "consider": 6452,
      "expected": 6453,
      "ghost": 6454,
      "dedicated": 6455,
      "kicking": 6456,
      "##ever": 6457,
      "peas": 6458,
      "truly": 6459,
      "borough": 6460,
      "popcorn": 6461,
      "fau": 6462,
      "seed": 6463,
      "##olding": 6464,
      "backgrounds": 6465,
      "roasted": 6466,
      "tomb": 6467,
      "brilliant": 6468,
      "cp": 6469,
      "cause": 6470,
      "motif": 6471,
      "projects": 6472,
      "potato": 6473,
      "tortoise": 6474,
      "tast": 6475,
      "crops": 6476,
      "bould": 6477,
      "gang": 6478,
      "lag": 6479,
      "ok": 6480,
      "drag": 6481,
      "load": 6482,
      "strike": 6483,
      "indian": 6484,
      "caus": 6485,
      "mobiles": 6486,
      "rink": 6487,
      "##tles": 6488,
      "percent": 6489,
      "balconies": 6490,
      "lucky": 6491,
      "fake": 6492,
      "greets": 6493,
      "##ify": 6494,
      "recl": 6495,
      "temples": 6496,
      "appeal": 6497,
      "eclip": 6498,
      "##dress": 6499,
      "##oles": 6500,
      "passed": 6501,
      "athletes": 6502,
      "terraced": 6503,
      "tel": 6504,
      "##set": 6505,
      "myself": 6506,
      "fitness": 6507,
      "latin": 6508,
      "##prise": 6509,
      "##atom": 6510,
      "ord": 6511,
      "unl": 6512,
      "listen": 6513,
      "eatables": 6514,
      "es": 6515,
      "lik": 6516,
      "artistic": 6517,
      "fabulous": 6518,
      "poetry": 6519,
      "scheme": 6520,
      "unidentified": 6521,
      "woodland": 6522,
      "assist": 6523,
      "impressive": 6524,
      "pir": 6525,
      "##70s": 6526,
      "##omed": 6527,
      "instit": 6528,
      "pins": 6529,
      "shine": 6530,
      "broke": 6531,
      "exhibit": 6532,
      "attempt": 6533,
      "philosopher": 6534,
      "mysterious": 6535,
      "seafront": 6536,
      "chalkboard": 6537,
      "activities": 6538,
      "valentine": 6539,
      "anatom": 6540,
      "grilled": 6541,
      "caution": 6542,
      "derel": 6543,
      "##vent": 6544,
      "footpr": 6545,
      "cookie": 6546,
      "funded": 6547,
      "derelict": 6548,
      "##isses": 6549,
      "runner": 6550,
      "wildlife": 6551,
      "muscles": 6552,
      "hib": 6553,
      "pean": 6554,
      "lands": 6555,
      "simply": 6556,
      "193": 6557,
      "calling": 6558,
      "bulbs": 6559,
      "##iscus": 6560,
      "patrol": 6561,
      "breeze": 6562,
      "determ": 6563,
      "lagoon": 6564,
      "eclipse": 6565,
      "hibiscus": 6566,
      "beet": 6567,
      "hide": 6568,
      "lakes": 6569,
      "plaid": 6570,
      "##aph": 6571,
      "sweets": 6572,
      "ambul": 6573,
      "wildflowers": 6574,
      "teles": 6575,
      "mand": 6576,
      "effort": 6577,
      "sixt": 6578,
      "convertible": 6579,
      "raise": 6580,
      "souven": 6581,
      "champion": 6582,
      "career": 6583,
      "souvenir": 6584,
      "talent": 6585,
      "neg": 6586,
      "##gly": 6587,
      "youth": 6588,
      "related": 6589,
      "compete": 6590,
      "faux": 6591,
      "cg": 6592,
      "##isk": 6593,
      "satin": 6594,
      "proposed": 6595,
      "ver": 6596,
      "creator": 6597,
      "croch": 6598,
      "epis": 6599,
      "##dom": 6600,
      "##ai": 6601,
      "trick": 6602,
      "##isters": 6603,
      "veil": 6604,
      "##blems": 6605,
      "oppor": 6606,
      "captain": 6607,
      "foam": 6608,
      "envelope": 6609,
      "difficult": 6610,
      "pc": 6611,
      "wake": 6612,
      "##ano": 6613,
      "siting": 6614,
      "recycled": 6615,
      "hex": 6616,
      "holes": 6617,
      "forests": 6618,
      "runners": 6619,
      "businessperson": 6620,
      "meg": 6621,
      "hangers": 6622,
      "edible": 6623,
      "workshop": 6624,
      "buddhist": 6625,
      "pebbles": 6626,
      "strange": 6627,
      "cosmetic": 6628,
      "journalist": 6629,
      "##inery": 6630,
      "##erous": 6631,
      "maps": 6632,
      "sax": 6633,
      "crochet": 6634,
      "##ikes": 6635,
      "ther": 6636,
      "chip": 6637,
      "lege": 6638,
      "chocolates": 6639,
      "opportun": 6640,
      "20th": 6641,
      "hook": 6642,
      "wicket": 6643,
      "##ropol": 6644,
      "benefits": 6645,
      "drap": 6646,
      "partial": 6647,
      "metropol": 6648,
      "cartoons": 6649,
      "ballet": 6650,
      "subspec": 6651,
      "campfire": 6652,
      "bulldog": 6653,
      "subspecies": 6654,
      "lil": 6655,
      "##ndon": 6656,
      "london": 6657,
      "discovered": 6658,
      "saxoph": 6659,
      "wint": 6660,
      "alg": 6661,
      "trump": 6662,
      "##cloth": 6663,
      "movies": 6664,
      "na": 6665,
      "occupied": 6666,
      "rasp": 6667,
      "##atist": 6668,
      "flut": 6669,
      "glimp": 6670,
      "brushes": 6671,
      "thigh": 6672,
      "compl": 6673,
      "wins": 6674,
      "##aza": 6675,
      "navig": 6676,
      "wagon": 6677,
      "##ana": 6678,
      "signing": 6679,
      "allowed": 6680,
      "arrivals": 6681,
      "##my": 6682,
      "forms": 6683,
      "tablecloth": 6684,
      "react": 6685,
      "asking": 6686,
      "defend": 6687,
      "continues": 6688,
      "primary": 6689,
      "laboratory": 6690,
      "lilac": 6691,
      "dates": 6692,
      "sack": 6693,
      "sant": 6694,
      "forces": 6695,
      "sequ": 6696,
      "drug": 6697,
      "17th": 6698,
      "cu": 6699,
      "##ecar": 6700,
      "regions": 6701,
      "applian": 6702,
      "weighing": 6703,
      "bom": 6704,
      "##80": 6705,
      "alumin": 6706,
      "provided": 6707,
      "discuss": 6708,
      "##inth": 6709,
      "clad": 6710,
      "driven": 6711,
      "athletic": 6712,
      "officials": 6713,
      "explaining": 6714,
      "adjust": 6715,
      "gravel": 6716,
      "teapot": 6717,
      "##urring": 6718,
      "trek": 6719,
      "knows": 6720,
      "repeating": 6721,
      "luxurious": 6722,
      "activity": 6723,
      "essential": 6724,
      "mail": 6725,
      "##bins": 6726,
      "clo": 6727,
      "tribute": 6728,
      "marker": 6729,
      "turbine": 6730,
      "doz": 6731,
      "belts": 6732,
      "dustbins": 6733,
      "shrine": 6734,
      "embracing": 6735,
      "jellyfish": 6736,
      "cpu": 6737,
      "died": 6738,
      "skis": 6739,
      "forever": 6740,
      "goals": 6741,
      "mats": 6742,
      "computers": 6743,
      "##armac": 6744,
      "dramatist": 6745,
      "flashing": 6746,
      "treatment": 6747,
      "cult": 6748,
      "##storm": 6749,
      "mostly": 6750,
      "armchair": 6751,
      "gentleman": 6752,
      "telescope": 6753,
      "santa": 6754,
      "sac": 6755,
      "##azed": 6756,
      "dw": 6757,
      "init": 6758,
      "##uss": 6759,
      "##box": 6760,
      "rests": 6761,
      "farms": 6762,
      "daisies": 6763,
      "reasons": 6764,
      "liberty": 6765,
      "tough": 6766,
      "corners": 6767,
      "extend": 6768,
      "engraving": 6769,
      "broadcasting": 6770,
      "therm": 6771,
      "ugly": 6772,
      "cubs": 6773,
      "corrid": 6774,
      "##sets": 6775,
      "hero": 6776,
      "##ometer": 6777,
      "happily": 6778,
      "shipping": 6779,
      "##eled": 6780,
      "paints": 6781,
      "hoop": 6782,
      "ends": 6783,
      "retired": 6784,
      "engineer": 6785,
      "appliances": 6786,
      "##night": 6787,
      "watched": 6788,
      "accents": 6789,
      "protective": 6790,
      "chopped": 6791,
      "gestures": 6792,
      "mermaid": 6793,
      "rolled": 6794,
      "flour": 6795,
      "sevent": 6796,
      "bathrooms": 6797,
      "solo": 6798,
      "receives": 6799,
      "chandeliers": 6800,
      "threads": 6801,
      "baking": 6802,
      "drying": 6803,
      "influ": 6804,
      "201": 6805,
      "altar": 6806,
      "dice": 6807,
      "##itan": 6808,
      "sheer": 6809,
      "opted": 6810,
      "equal": 6811,
      "rehears": 6812,
      "wicker": 6813,
      "merry": 6814,
      "##lead": 6815,
      "curious": 6816,
      "weeks": 6817,
      "woven": 6818,
      "independence": 6819,
      "retriever": 6820,
      "changes": 6821,
      "surprise": 6822,
      "prime": 6823,
      "painter": 6824,
      "focusing": 6825,
      "originally": 6826,
      "dat": 6827,
      "##bruary": 6828,
      "junction": 6829,
      "elf": 6830,
      "cheerlead": 6831,
      "epic": 6832,
      "february": 6833,
      "reported": 6834,
      "gem": 6835,
      "impact": 6836,
      "postcard": 6837,
      "average": 6838,
      "bins": 6839,
      "grade": 6840,
      "desks": 6841,
      "preser": 6842,
      "script": 6843,
      "tumb": 6844,
      "inches": 6845,
      "##kered": 6846,
      "powered": 6847,
      "exercising": 6848,
      "cultiv": 6849,
      "ages": 6850,
      "foil": 6851,
      "cryst": 6852,
      "cd": 6853,
      "##ower": 6854,
      "##ulars": 6855,
      "layered": 6856,
      "##gran": 6857,
      "respond": 6858,
      "measure": 6859,
      "tanks": 6860,
      "pome": 6861,
      "clin": 6862,
      "headlights": 6863,
      "circuit": 6864,
      "facial": 6865,
      "documents": 6866,
      "pomegran": 6867,
      "escape": 6868,
      "##azy": 6869,
      "damage": 6870,
      "checks": 6871,
      "checkered": 6872,
      "renovation": 6873,
      "binoculars": 6874,
      "glimpse": 6875,
      "naut": 6876,
      "##onies": 6877,
      "steth": 6878,
      "overall": 6879,
      "polka": 6880,
      "##amples": 6881,
      "hobby": 6882,
      "staying": 6883,
      "jazz": 6884,
      "##ums": 6885,
      "sausages": 6886,
      "frying": 6887,
      "##chie": 6888,
      "reptile": 6889,
      "carrier": 6890,
      "particles": 6891,
      "plun": 6892,
      "drawer": 6893,
      "education": 6894,
      "initial": 6895,
      "pais": 6896,
      "##kirts": 6897,
      "##season": 6898,
      "surge": 6899,
      "outskirts": 6900,
      "riders": 6901,
      "equestrian": 6902,
      "paisley": 6903,
      "capped": 6904,
      "listing": 6905,
      "pred": 6906,
      "inn": 6907,
      "eyebr": 6908,
      "locked": 6909,
      "orchard": 6910,
      "##com": 6911,
      "diet": 6912,
      "competing": 6913,
      "peeking": 6914,
      "stethoscope": 6915,
      "21": 6916,
      "beautifully": 6917,
      "moments": 6918,
      "tempor": 6919,
      "napkins": 6920,
      "cucumber": 6921,
      "##icem": 6922,
      "scar": 6923,
      "autumnal": 6924,
      "warms": 6925,
      "previous": 6926,
      "pa": 6927,
      "##bread": 6928,
      "guitarist": 6929,
      "department": 6930,
      "##writer": 6931,
      "imm": 6932,
      "##ogue": 6933,
      "overcast": 6934,
      "symm": 6935,
      "gears": 6936,
      "calculator": 6937,
      "symmet": 6938,
      "scattered": 6939,
      "##ycl": 6940,
      "continue": 6941,
      "fantastic": 6942,
      "blueberries": 6943,
      "surfers": 6944,
      "highly": 6945,
      "engaged": 6946,
      "thrown": 6947,
      "caused": 6948,
      "reflective": 6949,
      "anchored": 6950,
      "volcano": 6951,
      "euro": 6952,
      "algae": 6953,
      "##ained": 6954,
      "corals": 6955,
      "silky": 6956,
      "garlic": 6957,
      "nautical": 6958,
      "nec": 6959,
      "##orry": 6960,
      "##gets": 6961,
      "designated": 6962,
      "commode": 6963,
      "subm": 6964,
      "release": 6965,
      "##raw": 6966,
      "combined": 6967,
      "scientist": 6968,
      "futuristic": 6969,
      "aur": 6970,
      "goo": 6971,
      "maze": 6972,
      "recurring": 6973,
      "connecting": 6974,
      "embell": 6975,
      "doughnuts": 6976,
      "##aimed": 6977,
      "normal": 6978,
      "preparation": 6979,
      "nights": 6980,
      "chose": 6981,
      "walled": 6982,
      "entitled": 6983,
      "casc": 6984,
      "feels": 6985,
      "heaven": 6986,
      "##ob": 6987,
      "##ari": 6988,
      "##oted": 6989,
      "blows": 6990,
      "teamed": 6991,
      "consisting": 6992,
      "messages": 6993,
      "fighter": 6994,
      "published": 6995,
      "domin": 6996,
      "outlined": 6997,
      "boarding": 6998,
      "promotional": 6999,
      "divider": 7000,
      "jagged": 7001,
      "forget": 7002,
      "teal": 7003,
      "accompan": 7004,
      "plug": 7005,
      "charge": 7006,
      "parag": 7007,
      "saucers": 7008,
      "dentist": 7009,
      "launched": 7010,
      "cuis": 7011,
      "##olic": 7012,
      "1970s": 7013,
      "weapons": 7014,
      "soph": 7015,
      "##stone": 7016,
      "likes": 7017,
      "sem": 7018,
      "emotional": 7019,
      "skulls": 7020,
      "aquatic": 7021,
      "jewell": 7022,
      "##ray": 7023,
      "whiteboard": 7024,
      "tricks": 7025,
      "viv": 7026,
      "produced": 7027,
      "replica": 7028,
      "municipalities": 7029,
      "jewellery": 7030,
      "lining": 7031,
      "##80s": 7032,
      "##antly": 7033,
      "loves": 7034,
      "ens": 7035,
      "carefully": 7036,
      "snacks": 7037,
      "##wed": 7038,
      "fract": 7039,
      "dreaming": 7040,
      "##opus": 7041,
      "##athers": 7042,
      "passion": 7043,
      "octopus": 7044,
      "options": 7045,
      "seaf": 7046,
      "warming": 7047,
      "bakery": 7048,
      "buffalo": 7049,
      "oversized": 7050,
      "##exp": 7051,
      "cancer": 7052,
      "##oting": 7053,
      "hardware": 7054,
      "printer": 7055,
      "unveiled": 7056,
      "episode": 7057,
      "forg": 7058,
      "broom": 7059,
      "semi": 7060,
      "businessmen": 7061,
      "seasons": 7062,
      "explosion": 7063,
      "tale": 7064,
      "stops": 7065,
      "crisp": 7066,
      "institution": 7067,
      "sophistic": 7068,
      "##hake": 7069,
      "##ections": 7070,
      "becomes": 7071,
      "superher": 7072,
      "receive": 7073,
      "pigs": 7074,
      "briefcase": 7075,
      "##eless": 7076,
      "tyre": 7077,
      "diver": 7078,
      "ambulance": 7079,
      "##chess": 7080,
      "pairs": 7081,
      "hardwood": 7082,
      "ruined": 7083,
      "duchess": 7084,
      "polyg": 7085,
      "ranch": 7086,
      "oriental": 7087,
      "harm": 7088,
      "pou": 7089,
      "##leg": 7090,
      "prison": 7091,
      "##antage": 7092,
      "interact": 7093,
      "carton": 7094,
      "data": 7095,
      "seafood": 7096,
      "ner": 7097,
      "tote": 7098,
      "visitor": 7099,
      "acou": 7100,
      "##chedelic": 7101,
      "incor": 7102,
      "dune": 7103,
      "dragonfly": 7104,
      "qualifying": 7105,
      "psychedelic": 7106,
      "hen": 7107,
      "zip": 7108,
      "viewing": 7109,
      "knot": 7110,
      "textures": 7111,
      "ideal": 7112,
      "corridor": 7113,
      "##iate": 7114,
      "flip": 7115,
      "prey": 7116,
      "cater": 7117,
      "recording": 7118,
      "penal": 7119,
      "motorway": 7120,
      "operation": 7121,
      "lions": 7122,
      "ostr": 7123,
      "sill": 7124,
      "stepping": 7125,
      "likely": 7126,
      "saxophone": 7127,
      "achie": 7128,
      "tilt": 7129,
      "stories": 7130,
      "send": 7131,
      "ultimate": 7132,
      "selective": 7133,
      "ostrich": 7134,
      "3rd": 7135,
      "saving": 7136,
      "sisters": 7137,
      "waste": 7138,
      "arab": 7139,
      "hotels": 7140,
      "avoid": 7141,
      "threat": 7142,
      "metropolitan": 7143,
      "kit": 7144,
      "##rom": 7145,
      "crit": 7146,
      "hell": 7147,
      "subst": 7148,
      "perfume": 7149,
      "conditioner": 7150,
      "harvesting": 7151,
      "dew": 7152,
      "icy": 7153,
      "pans": 7154,
      "textile": 7155,
      "studded": 7156,
      "monster": 7157,
      "burnt": 7158,
      "described": 7159,
      "target": 7160,
      "##ix": 7161,
      "stag": 7162,
      "##anded": 7163,
      "##cep": 7164,
      "policem": 7165,
      "dove": 7166,
      "steal": 7167,
      "dapper": 7168,
      "fear": 7169,
      "##net": 7170,
      "isl": 7171,
      "drivers": 7172,
      "pollen": 7173,
      "polished": 7174,
      "amph": 7175,
      "suspended": 7176,
      "answer": 7177,
      "cuisine": 7178,
      "vast": 7179,
      "##ried": 7180,
      "##ishing": 7181,
      "showroom": 7182,
      "##rene": 7183,
      "climber": 7184,
      "climbs": 7185,
      "undated": 7186,
      "cyclists": 7187,
      "##weight": 7188,
      "estuary": 7189,
      "acoustic": 7190,
      "bones": 7191,
      "cert": 7192,
      "##iotic": 7193,
      "inau": 7194,
      "turtles": 7195,
      "figur": 7196,
      "improve": 7197,
      "majestic": 7198,
      "penalty": 7199,
      "inaug": 7200,
      "weird": 7201,
      "cha": 7202,
      "gradient": 7203,
      "column": 7204,
      "barriers": 7205,
      "tart": 7206,
      "tuck": 7207,
      "illustrator": 7208,
      "preseason": 7209,
      "smallest": 7210,
      "additional": 7211,
      "spruce": 7212,
      "summers": 7213,
      "toothbrush": 7214,
      "whiskey": 7215,
      "announced": 7216,
      "volunteers": 7217,
      "30": 7218,
      "jap": 7219,
      "##haw": 7220,
      "chew": 7221,
      "prince": 7222,
      "paris": 7223,
      "marching": 7224,
      "outfits": 7225,
      "pearl": 7226,
      "harvested": 7227,
      "trumpet": 7228,
      "ft": 7229,
      "sugg": 7230,
      "##boarding": 7231,
      "candid": 7232,
      "distinct": 7233,
      "orchid": 7234,
      "ivy": 7235,
      "neat": 7236,
      "##uing": 7237,
      "accident": 7238,
      "races": 7239,
      "timber": 7240,
      "beef": 7241,
      "hunting": 7242,
      "purchased": 7243,
      "islamic": 7244,
      "upside": 7245,
      "squad": 7246,
      "##anese": 7247,
      "##rib": 7248,
      "stayed": 7249,
      "##posed": 7250,
      "microsc": 7251,
      "legend": 7252,
      "hint": 7253,
      "##bed": 7254,
      "##ancing": 7255,
      "stable": 7256,
      "reaches": 7257,
      "politicians": 7258,
      "assigned": 7259,
      "copper": 7260,
      "##vey": 7261,
      "lighter": 7262,
      "##ques": 7263,
      "blossoming": 7264,
      "infin": 7265,
      "nation": 7266,
      "ot": 7267,
      "##pop": 7268,
      "placards": 7269,
      "sleek": 7270,
      "growth": 7271,
      "fluttering": 7272,
      "##foot": 7273,
      "flagp": 7274,
      "loop": 7275,
      "panc": 7276,
      "surfboards": 7277,
      "purchase": 7278,
      "sphere": 7279,
      "pov": 7280,
      "##pled": 7281,
      "stray": 7282,
      "meals": 7283,
      "##asure": 7284,
      "distressed": 7285,
      "4th": 7286,
      "wan": 7287,
      "##hog": 7288,
      "##zing": 7289,
      "flare": 7290,
      "filmed": 7291,
      "blazers": 7292,
      "gingerbread": 7293,
      "cinema": 7294,
      "shake": 7295,
      "##ngth": 7296,
      "happiness": 7297,
      "mugs": 7298,
      "embroid": 7299,
      "cann": 7300,
      "bored": 7301,
      "parad": 7302,
      "juicy": 7303,
      "gymn": 7304,
      "developed": 7305,
      "strength": 7306,
      "value": 7307,
      "spirits": 7308,
      "astronom": 7309,
      "unicorn": 7310,
      "mandala": 7311,
      "san": 7312,
      "##ris": 7313,
      "blow": 7314,
      "highlights": 7315,
      "simpl": 7316,
      "##itorium": 7317,
      "auditorium": 7318,
      "returned": 7319,
      "flavor": 7320,
      "1930s": 7321,
      "savan": 7322,
      "##pit": 7323,
      "##bird": 7324,
      "tubes": 7325,
      "believed": 7326,
      "virtual": 7327,
      "grocery": 7328,
      "paradise": 7329,
      "rim": 7330,
      "vines": 7331,
      "##bered": 7332,
      "##utive": 7333,
      "grape": 7334,
      "extended": 7335,
      "participants": 7336,
      "introduced": 7337,
      "##cel": 7338,
      "teenagers": 7339,
      "winger": 7340,
      "muscular": 7341,
      "##iac": 7342,
      "##pill": 7343,
      "##anna": 7344,
      "##ecture": 7345,
      "basement": 7346,
      "furnished": 7347,
      "billboard": 7348,
      "handwritten": 7349,
      "caterpill": 7350,
      "paralle": 7351,
      "medals": 7352,
      "rugged": 7353,
      "petr": 7354,
      "duty": 7355,
      "shovel": 7356,
      "aurora": 7357,
      "haun": 7358,
      "##lent": 7359,
      "##unk": 7360,
      "baller": 7361,
      "charm": 7362,
      "maintain": 7363,
      "generated": 7364,
      "glamour": 7365,
      "embroidery": 7366,
      "photographers": 7367,
      "serves": 7368,
      "palms": 7369,
      "climate": 7370,
      "mixer": 7371,
      "16th": 7372,
      "biscuits": 7373,
      "gazebo": 7374,
      "dump": 7375,
      "lam": 7376,
      "anth": 7377,
      "manner": 7378,
      "ended": 7379,
      "windmills": 7380,
      "dumbb": 7381,
      "##acting": 7382,
      "code": 7383,
      "dropped": 7384,
      "outst": 7385,
      "hairdress": 7386,
      "transit": 7387,
      "houseplant": 7388,
      "vivid": 7389,
      "lose": 7390,
      "considered": 7391,
      "bandanna": 7392,
      "messy": 7393,
      "levels": 7394,
      "reveals": 7395,
      "vendor": 7396,
      "##haps": 7397,
      "##lear": 7398,
      "frock": 7399,
      "perhaps": 7400,
      "excav": 7401,
      "dipl": 7402,
      "compact": 7403,
      "bullet": 7404,
      "mechanical": 7405,
      "carous": 7406,
      "replace": 7407,
      "wrapping": 7408,
      "union": 7409,
      "farmland": 7410,
      "skateboards": 7411,
      "racecar": 7412,
      "rabbits": 7413,
      "fortress": 7414,
      "econ": 7415,
      "##eries": 7416,
      "peach": 7417,
      "vision": 7418,
      "resem": 7419,
      "edges": 7420,
      "candies": 7421,
      "stuffs": 7422,
      "spacious": 7423,
      "belonging": 7424,
      "twisted": 7425,
      "iceberg": 7426,
      "temporary": 7427,
      "diplom": 7428,
      "econom": 7429,
      "hom": 7430,
      "rout": 7431,
      "sings": 7432,
      "##lim": 7433,
      "plough": 7434,
      "prair": 7435,
      "emerald": 7436,
      "lesson": 7437,
      "supplies": 7438,
      "parallel": 7439,
      "\".": 7440,
      "lord": 7441,
      "##isions": 7442,
      "mane": 7443,
      "##ifting": 7444,
      "cropped": 7445,
      "sausage": 7446,
      "carousel": 7447,
      "##rup": 7448,
      "barefoot": 7449,
      "tackled": 7450,
      "adapt": 7451,
      "##acon": 7452,
      "platforms": 7453,
      "gorilla": 7454,
      "##eeled": 7455,
      "los": 7456,
      "commuters": 7457,
      "layout": 7458,
      "newspapers": 7459,
      "participate": 7460,
      "##bbled": 7461,
      "footprints": 7462,
      "japanese": 7463,
      "##gers": 7464,
      "##inating": 7465,
      "pools": 7466,
      "geese": 7467,
      "bridesmaids": 7468,
      "megaph": 7469,
      "tones": 7470,
      "vo": 7471,
      "sees": 7472,
      "slides": 7473,
      "casino": 7474,
      "returning": 7475,
      "bonfire": 7476,
      "basil": 7477,
      "evil": 7478,
      "passport": 7479,
      "depressed": 7480,
      "cockpit": 7481,
      "angeles": 7482,
      "constellation": 7483,
      "exch": 7484,
      "typography": 7485,
      "cheering": 7486,
      "seriously": 7487,
      "cluster": 7488,
      "##ios": 7489,
      "##press": 7490,
      "tren": 7491,
      "beam": 7492,
      "static": 7493,
      "clearing": 7494,
      "texting": 7495,
      "calls": 7496,
      "sported": 7497,
      "pickup": 7498,
      "mr": 7499,
      "##utely": 7500,
      "mainly": 7501,
      "muff": 7502,
      "systems": 7503,
      "donned": 7504,
      "approaches": 7505,
      "piggy": 7506,
      "scientists": 7507,
      "vel": 7508,
      "workout": 7509,
      "##ickshaw": 7510,
      "newlywed": 7511,
      "200": 7512,
      "rickshaw": 7513,
      "##ilities": 7514,
      "flask": 7515,
      "teaching": 7516,
      "carts": 7517,
      "becoming": 7518,
      "dental": 7519,
      "hate": 7520,
      "zod": 7521,
      "##iated": 7522,
      "##gen": 7523,
      "younger": 7524,
      "quil": 7525,
      "delight": 7526,
      "pitches": 7527,
      "zodiac": 7528,
      "sto": 7529,
      "##owed": 7530,
      "easier": 7531,
      "burn": 7532,
      "membership": 7533,
      "gala": 7534,
      "landscaping": 7535,
      "gig": 7536,
      "tint": 7537,
      "grew": 7538,
      "##ographic": 7539,
      "seasonal": 7540,
      "strapless": 7541,
      "absolutely": 7542,
      "moor": 7543,
      "##aining": 7544,
      "overnight": 7545,
      "crush": 7546,
      "keyboards": 7547,
      "suburbs": 7548,
      "graveyard": 7549,
      "fal": 7550,
      "kang": 7551,
      "tang": 7552,
      "##asc": 7553,
      "##vere": 7554,
      "myst": 7555,
      "partners": 7556,
      "suitcases": 7557,
      "auto": 7558,
      "##erties": 7559,
      "properties": 7560,
      "cigar": 7561,
      "snowflake": 7562,
      "grille": 7563,
      "applying": 7564,
      "opportunity": 7565,
      "contract": 7566,
      "indie": 7567,
      "bales": 7568,
      "experien": 7569,
      "marked": 7570,
      "sinks": 7571,
      "megaphone": 7572,
      "fern": 7573,
      "##aroo": 7574,
      "canals": 7575,
      "neb": 7576,
      "projected": 7577,
      "shouting": 7578,
      "kangaroo": 7579,
      "wrought": 7580,
      "ster": 7581,
      "swamp": 7582,
      "barge": 7583,
      "trends": 7584,
      "freight": 7585,
      "pearls": 7586,
      "parliamentary": 7587,
      "polygon": 7588,
      "shing": 7589,
      "shakes": 7590,
      "higher": 7591,
      "grandp": 7592,
      "actual": 7593,
      "transformed": 7594,
      "anthem": 7595,
      "trouble": 7596,
      "##underst": 7597,
      "##ado": 7598,
      "scales": 7599,
      "problems": 7600,
      "winners": 7601,
      "tribe": 7602,
      "investig": 7603,
      "reclaimed": 7604,
      "microscope": 7605,
      "hal": 7606,
      "vies": 7607,
      "riot": 7608,
      "kneeling": 7609,
      "register": 7610,
      "faith": 7611,
      "nebula": 7612,
      "outing": 7613,
      "whip": 7614,
      "brows": 7615,
      "visits": 7616,
      "clever": 7617,
      "tracking": 7618,
      "lifts": 7619,
      "mur": 7620,
      "tread": 7621,
      "clapping": 7622,
      "graze": 7623,
      "newest": 7624,
      "firm": 7625,
      "endless": 7626,
      "neckline": 7627,
      "employees": 7628,
      "hungry": 7629,
      "update": 7630,
      "enclosed": 7631,
      "exactly": 7632,
      "antenna": 7633,
      "nect": 7634,
      "sights": 7635,
      "##erts": 7636,
      "cane": 7637,
      "solution": 7638,
      "pedest": 7639,
      "ballerina": 7640,
      "nectar": 7641,
      "pav": 7642,
      "##agues": 7643,
      "##aker": 7644,
      "machinery": 7645,
      "colleagues": 7646,
      "removing": 7647,
      "pilgr": 7648,
      "bass": 7649,
      "stir": 7650,
      "##adian": 7651,
      "generation": 7652,
      "max": 7653,
      "woo": 7654,
      "##nous": 7655,
      "spons": 7656,
      "##namic": 7657,
      "cocktails": 7658,
      "coal": 7659,
      "##osts": 7660,
      "ceilings": 7661,
      "enters": 7662,
      "##anked": 7663,
      "pollution": 7664,
      "aven": 7665,
      "##reed": 7666,
      "##idence": 7667,
      "sporting": 7668,
      "##rafts": 7669,
      "sweeping": 7670,
      "raining": 7671,
      "pours": 7672,
      "rescued": 7673,
      "employee": 7674,
      "nutr": 7675,
      "kisses": 7676,
      "potential": 7677,
      "##grown": 7678,
      "gadget": 7679,
      "injury": 7680,
      "certific": 7681,
      "blizz": 7682,
      "##udd": 7683,
      "cape": 7684,
      "specific": 7685,
      "greatest": 7686,
      "bunk": 7687,
      "straws": 7688,
      "pads": 7689,
      "motorbikes": 7690,
      "precious": 7691,
      "blizzard": 7692,
      "dazz": 7693,
      "##ickets": 7694,
      "##aint": 7695,
      "revers": 7696,
      "concent": 7697,
      "transitional": 7698,
      "##otten": 7699,
      "publishing": 7700,
      "moose": 7701,
      "proudly": 7702,
      "ferris": 7703,
      "purpose": 7704,
      "manic": 7705,
      "alive": 7706,
      "loading": 7707,
      "charco": 7708,
      "quay": 7709,
      "dances": 7710,
      "brands": 7711,
      "oval": 7712,
      "##onym": 7713,
      "collected": 7714,
      "challe": 7715,
      "showcase": 7716,
      "signage": 7717,
      "horseback": 7718,
      "paddy": 7719,
      "broadcast": 7720,
      "barricade": 7721,
      "debut": 7722,
      "challeng": 7723,
      "##otions": 7724,
      "doorway": 7725,
      "foal": 7726,
      "freed": 7727,
      "informal": 7728,
      "surgery": 7729,
      "##onymous": 7730,
      "##tered": 7731,
      "##chool": 7732,
      "makeover": 7733,
      "courtes": 7734,
      "bathing": 7735,
      "tucked": 7736,
      "charcoal": 7737,
      "courtesy": 7738,
      "aim": 7739,
      "blush": 7740,
      "bob": 7741,
      "alpha": 7742,
      "reflects": 7743,
      "gadgets": 7744,
      "cylinder": 7745,
      "bid": 7746,
      "strings": 7747,
      "arched": 7748,
      "digging": 7749,
      "catholic": 7750,
      "ripples": 7751,
      "queue": 7752,
      "40": 7753,
      "pipel": 7754,
      "specul": 7755,
      "focused": 7756,
      "dropping": 7757,
      "breeds": 7758,
      "pirate": 7759,
      "dated": 7760,
      "sush": 7761,
      "##he": 7762,
      "##west": 7763,
      "boss": 7764,
      "songs": 7765,
      "respect": 7766,
      "allows": 7767,
      "definition": 7768,
      "sixth": 7769,
      "paid": 7770,
      "fring": 7771,
      "signific": 7772,
      "struck": 7773,
      "disk": 7774,
      "longest": 7775,
      "guess": 7776,
      "springtime": 7777,
      "spotlight": 7778,
      "angles": 7779,
      "firefighter": 7780,
      "paragl": 7781,
      "sushi": 7782,
      "tights": 7783,
      "##esco": 7784,
      "stead": 7785,
      "##tually": 7786,
      "##boats": 7787,
      "nightcl": 7788,
      "matt": 7789,
      "landmarks": 7790,
      "countertops": 7791,
      "nightclub": 7792,
      "sib": 7793,
      "##rig": 7794,
      "worried": 7795,
      "snowstorm": 7796,
      "stopping": 7797,
      "communic": 7798,
      "doctors": 7799,
      "attempts": 7800,
      "involved": 7801,
      "raster": 7802,
      "tid": 7803,
      "##ek": 7804,
      "##rus": 7805,
      "##rador": 7806,
      "##mission": 7807,
      "##rep": 7808,
      "##oline": 7809,
      "obs": 7810,
      "tears": 7811,
      "greek": 7812,
      "offered": 7813,
      "loss": 7814,
      "presenting": 7815,
      "pops": 7816,
      "storey": 7817,
      "labrador": 7818,
      "donuts": 7819,
      "stretches": 7820,
      "duke": 7821,
      "encour": 7822,
      "woolen": 7823,
      "nuc": 7824,
      "mans": 7825,
      "creat": 7826,
      "tyres": 7827,
      "festivals": 7828,
      "leafs": 7829,
      "sample": 7830,
      "pedestal": 7831,
      "pag": 7832,
      "pensive": 7833,
      "##acent": 7834,
      "brushing": 7835,
      "unesco": 7836,
      "cube": 7837,
      "knitting": 7838,
      "bean": 7839,
      "##semb": 7840,
      "portals": 7841,
      "gardener": 7842,
      "transl": 7843,
      "checked": 7844,
      "belly": 7845,
      "managed": 7846,
      "glory": 7847,
      "seals": 7848,
      "examples": 7849,
      "eyed": 7850,
      "marath": 7851,
      "greeted": 7852,
      "crystals": 7853,
      "fellow": 7854,
      "##ports": 7855,
      "settle": 7856,
      "charts": 7857,
      "detached": 7858,
      "burned": 7859,
      "continued": 7860,
      "sporty": 7861,
      "represents": 7862,
      "marathon": 7863,
      "bone": 7864,
      "##jected": 7865,
      "thunderst": 7866,
      "curve": 7867,
      "tourism": 7868,
      "knew": 7869,
      "motherboard": 7870,
      "burns": 7871,
      "adjacent": 7872,
      "dashboard": 7873,
      "cem": 7874,
      "tux": 7875,
      "beaded": 7876,
      "curves": 7877,
      "expect": 7878,
      "rooftops": 7879,
      "pigeon": 7880,
      "congratulated": 7881,
      "treadmill": 7882,
      "thunderstorm": 7883,
      "tuxed": 7884,
      "##father": 7885,
      "grizz": 7886,
      "option": 7887,
      "debr": 7888,
      "chees": 7889,
      "sales": 7890,
      "sophisticated": 7891,
      "caterpillar": 7892,
      "60": 7893,
      "##mely": 7894,
      "##igan": 7895,
      "offices": 7896,
      "screaming": 7897,
      "united": 7898,
      "facebook": 7899,
      "watermarks": 7900,
      "battery": 7901,
      "counting": 7902,
      "grandfather": 7903,
      "statesman": 7904,
      "volcanic": 7905,
      "dynamic": 7906,
      "##rest": 7907,
      "brothers": 7908,
      "seaw": 7909,
      "signature": 7910,
      "avoc": 7911,
      "heavily": 7912,
      "rhin": 7913,
      "eyebrows": 7914,
      "sterling": 7915,
      "speculative": 7916,
      "igu": 7917,
      "catwalk": 7918,
      "trainer": 7919,
      "##rops": 7920,
      "markets": 7921,
      "friendship": 7922,
      "patriotic": 7923,
      "tartan": 7924,
      "grizzly": 7925,
      "debris": 7926,
      "rav": 7927,
      "twins": 7928,
      "cobbled": 7929,
      "##estone": 7930,
      "scan": 7931,
      "centerpiece": 7932,
      "content": 7933,
      "##anted": 7934,
      "lob": 7935,
      "syring": 7936,
      "chefs": 7937,
      "graduate": 7938,
      "superhero": 7939,
      "##lock": 7940,
      "picks": 7941,
      "chrome": 7942,
      "##indrops": 7943,
      "raindrops": 7944,
      "package": 7945,
      "caul": 7946,
      "temperatures": 7947,
      "hairdresser": 7948,
      "wig": 7949,
      "##arded": 7950,
      "fiber": 7951,
      "lighted": 7952,
      "cardigan": 7953,
      "walkers": 7954,
      "##erness": 7955,
      "wilderness": 7956,
      "environmental": 7957,
      "pyl": 7958,
      "lifted": 7959,
      "progressive": 7960,
      "orbit": 7961,
      "seventh": 7962,
      "mast": 7963,
      "tax": 7964,
      "flights": 7965,
      "chin": 7966,
      "##the": 7967,
      "preschool": 7968,
      "##ashes": 7969,
      "reprod": 7970,
      "memory": 7971,
      "doub": 7972,
      "privacy": 7973,
      "##burger": 7974,
      "lecture": 7975,
      "##ho": 7976,
      "##sole": 7977,
      "rocking": 7978,
      "slog": 7979,
      "joint": 7980,
      "fuel": 7981,
      "reserve": 7982,
      "extremely": 7983,
      "weapon": 7984,
      "mattress": 7985,
      "bite": 7986,
      "##iders": 7987,
      "##ternal": 7988,
      "willow": 7989,
      "camps": 7990,
      "mixture": 7991,
      "casting": 7992,
      "warr": 7993,
      "wrec": 7994,
      "##itory": 7995,
      "##onents": 7996,
      "flute": 7997,
      "correct": 7998,
      "indige": 7999,
      "barber": 8000,
      "attractions": 8001,
      "minimalistic": 8002,
      "flex": 8003,
      "prefer": 8004,
      "bomber": 8005,
      "pomegranate": 8006,
      "ss": 8007,
      "contact": 8008,
      "haircut": 8009,
      "beech": 8010,
      "procession": 8011,
      "torch": 8012,
      "indigenous": 8013,
      "rig": 8014,
      "##urally": 8015,
      "appearing": 8016,
      "cheerleaders": 8017,
      "bout": 8018,
      "##eas": 8019,
      "##amm": 8020,
      "styling": 8021,
      "knight": 8022,
      "paras": 8023,
      "starring": 8024,
      "emotions": 8025,
      "blooms": 8026,
      "grains": 8027,
      "splashes": 8028,
      "application": 8029,
      "paddles": 8030,
      "nic": 8031,
      "##urt": 8032,
      "bows": 8033,
      "rehearsal": 8034,
      "vent": 8035,
      "##aque": 8036,
      "##erg": 8037,
      "##tuce": 8038,
      "##houses": 8039,
      "lettuce": 8040,
      "walker": 8041,
      "angels": 8042,
      "demonstrators": 8043,
      "entertainer": 8044,
      "rushing": 8045,
      "##hetic": 8046,
      "##mint": 8047,
      "##oms": 8048,
      "showcas": 8049,
      "pix": 8050,
      "overlook": 8051,
      "embrace": 8052,
      "revealing": 8053,
      "hexagonal": 8054,
      "##oration": 8055,
      "peony": 8056,
      "autograph": 8057,
      "lays": 8058,
      "examining": 8059,
      "steak": 8060,
      "valentines": 8061,
      "hedgehog": 8062,
      "clinic": 8063,
      "pancakes": 8064,
      "pagod": 8065,
      "stom": 8066,
      "lets": 8067,
      "drib": 8068,
      "accep": 8069,
      "diap": 8070,
      "defender": 8071,
      "powerpoint": 8072,
      "paddling": 8073,
      "garlands": 8074,
      "habitat": 8075,
      "flagpole": 8076,
      "syringe": 8077,
      "eyel": 8078,
      "naturally": 8079,
      "photographing": 8080,
      "daisy": 8081,
      "1920s": 8082,
      "freedom": 8083,
      "##airs": 8084,
      "handshake": 8085,
      "headband": 8086,
      "fist": 8087,
      "heard": 8088,
      "spa": 8089,
      "##ivered": 8090,
      "myth": 8091,
      "delivered": 8092,
      "focal": 8093,
      "harvester": 8094,
      "meditating": 8095,
      "trench": 8096,
      "dug": 8097,
      "canadian": 8098,
      "sprou": 8099,
      "overgrown": 8100,
      "matte": 8101,
      "owls": 8102,
      "provin": 8103,
      "incident": 8104,
      "peaceful": 8105,
      "benefit": 8106,
      "dotted": 8107,
      "fasc": 8108,
      "haw": 8109,
      "##aust": 8110,
      "##wise": 8111,
      "drift": 8112,
      "usual": 8113,
      "recover": 8114,
      "creamy": 8115,
      "sticky": 8116,
      "##reshing": 8117,
      "vegan": 8118,
      "fiery": 8119,
      "curry": 8120,
      "follows": 8121,
      "bells": 8122,
      "certainly": 8123,
      "teachers": 8124,
      "joke": 8125,
      "locket": 8126,
      "paws": 8127,
      "hose": 8128,
      "telling": 8129,
      "twice": 8130,
      "uns": 8131,
      "happens": 8132,
      "waiter": 8133,
      "confused": 8134,
      "creepy": 8135,
      "prairie": 8136,
      "fj": 8137,
      "plaster": 8138,
      "gond": 8139,
      "acres": 8140,
      "apparent": 8141,
      "finds": 8142,
      "protecting": 8143,
      "##acturing": 8144,
      "tells": 8145,
      "##40s": 8146,
      "playoff": 8147,
      "existing": 8148,
      "squee": 8149,
      "pizzas": 8150,
      "elk": 8151,
      "peek": 8152,
      "daff": 8153,
      "fired": 8154,
      "remotes": 8155,
      "aircrafts": 8156,
      "shortly": 8157,
      "galloping": 8158,
      "strikes": 8159,
      "advantage": 8160,
      "daffod": 8161,
      "##ptu": 8162,
      "scaff": 8163,
      "##bridge": 8164,
      "parks": 8165,
      "faced": 8166,
      "graduates": 8167,
      "manufacturing": 8168,
      "tuxedo": 8169,
      "jockey": 8170,
      "##lines": 8171,
      "pebble": 8172,
      "cray": 8173,
      "classy": 8174,
      "pumps": 8175,
      "welcoming": 8176,
      "previously": 8177,
      "houseplants": 8178,
      "oy": 8179,
      "ta": 8180,
      "tarmac": 8181,
      "##ox": 8182,
      "##eated": 8183,
      "smell": 8184,
      "curls": 8185,
      "feeder": 8186,
      "12th": 8187,
      "dar": 8188,
      "lun": 8189,
      "forced": 8190,
      "brave": 8191,
      "refreshing": 8192,
      "##ooky": 8193,
      "volume": 8194,
      "freeway": 8195,
      "nuclear": 8196,
      "mock": 8197,
      "peonies": 8198,
      "arg": 8199,
      "##aked": 8200,
      "refu": 8201,
      "premium": 8202,
      "dusty": 8203,
      "infant": 8204,
      "represented": 8205,
      "literally": 8206,
      "warrior": 8207,
      "stomach": 8208,
      "mad": 8209,
      "effects": 8210,
      "wonderland": 8211,
      "squatting": 8212,
      "mice": 8213,
      "tug": 8214,
      "##00s": 8215,
      "##amel": 8216,
      "tramp": 8217,
      "needles": 8218,
      "admire": 8219,
      "hoping": 8220,
      "limit": 8221,
      "goose": 8222,
      "scaffolding": 8223,
      "99": 8224,
      "dives": 8225,
      "##iator": 8226,
      "plaza": 8227,
      "##ctic": 8228,
      "preview": 8229,
      "allig": 8230,
      "weddings": 8231,
      "territory": 8232,
      "##coat": 8233,
      "desserts": 8234,
      "peppers": 8235,
      "fail": 8236,
      "##ara": 8237,
      "##arine": 8238,
      "cruc": 8239,
      "numerous": 8240,
      "relat": 8241,
      "enth": 8242,
      "sailors": 8243,
      "rena": 8244,
      "jerseys": 8245,
      "creativity": 8246,
      "ticket": 8247,
      "##bound": 8248,
      "##bug": 8249,
      "##icam": 8250,
      "conser": 8251,
      "##issance": 8252,
      "facts": 8253,
      "operated": 8254,
      "steadicam": 8255,
      "hind": 8256,
      "mention": 8257,
      "chasing": 8258,
      "trium": 8259,
      "ladybug": 8260,
      "dealership": 8261,
      "medicine": 8262,
      "renaissance": 8263,
      "triumph": 8264,
      "docks": 8265,
      "iphone": 8266,
      "sells": 8267,
      "##x1": 8268,
      "utility": 8269,
      "embellished": 8270,
      "dies": 8271,
      "haul": 8272,
      "##ounce": 8273,
      "##orrow": 8274,
      "##arr": 8275,
      "promote": 8276,
      "nestled": 8277,
      "paying": 8278,
      "enclosure": 8279,
      "petrol": 8280,
      "pavil": 8281,
      "maxim": 8282,
      "bacon": 8283,
      "paved": 8284,
      "sust": 8285,
      "##allows": 8286,
      "chun": 8287,
      "spatul": 8288,
      "metres": 8289,
      "capt": 8290,
      "emerging": 8291,
      "ss1": 8292,
      "dart": 8293,
      "ip": 8294,
      "##lectic": 8295,
      "evergre": 8296,
      "sleeved": 8297,
      "protection": 8298,
      "ruff": 8299,
      "exhaust": 8300,
      "experiment": 8301,
      "temperature": 8302,
      "##50": 8303,
      "sten": 8304,
      "##adem": 8305,
      "##eling": 8306,
      "##assy": 8307,
      "##immer": 8308,
      "poem": 8309,
      "arctic": 8310,
      "console": 8311,
      "matches": 8312,
      "cutl": 8313,
      "villages": 8314,
      "humming": 8315,
      "helicopters": 8316,
      "blend": 8317,
      "killed": 8318,
      "lich": 8319,
      "til": 8320,
      "##oufl": 8321,
      "slider": 8322,
      "##olling": 8323,
      "memories": 8324,
      "subtle": 8325,
      "inspire": 8326,
      "cruising": 8327,
      "paddock": 8328,
      "explorer": 8329,
      "bookshelves": 8330,
      "cutlery": 8331,
      "risk": 8332,
      "##stairs": 8333,
      "##une": 8334,
      "spooky": 8335,
      "camoufl": 8336,
      "academ": 8337,
      "sailboats": 8338,
      "handbags": 8339,
      "rental": 8340,
      "eclectic": 8341,
      "understand": 8342,
      "sacred": 8343,
      "cres": 8344,
      "dv": 8345,
      "mothers": 8346,
      "##aters": 8347,
      "tender": 8348,
      "god": 8349,
      "results": 8350,
      "kitchens": 8351,
      "strolling": 8352,
      "sleeps": 8353,
      "ly": 8354,
      "lamb": 8355,
      "##pass": 8356,
      "##erk": 8357,
      "clover": 8358,
      "coated": 8359,
      "homework": 8360,
      "dispos": 8361,
      "fung": 8362,
      "hatched": 8363,
      "##shore": 8364,
      "speeding": 8365,
      "prevent": 8366,
      "repairing": 8367,
      "snowboarder": 8368,
      "integr": 8369,
      "##expected": 8370,
      "crad": 8371,
      "decision": 8372,
      "replaced": 8373,
      "supporting": 8374,
      "trampoline": 8375,
      "bug": 8376,
      "grove": 8377,
      "##ifier": 8378,
      "foreign": 8379,
      "breast": 8380,
      "suitable": 8381,
      "learned": 8382,
      "doughnut": 8383,
      "manicure": 8384,
      "lack": 8385,
      "sort": 8386,
      "saved": 8387,
      "beating": 8388,
      "boasts": 8389,
      "yards": 8390,
      "stages": 8391,
      "backwards": 8392,
      "frustr": 8393,
      "##amas": 8394,
      "unexpected": 8395,
      "happen": 8396,
      "paths": 8397,
      "honour": 8398,
      "demolition": 8399,
      "gap": 8400,
      "gathers": 8401,
      "punch": 8402,
      "boreal": 8403,
      "swings": 8404,
      "lego": 8405,
      "depend": 8406,
      "moonlight": 8407,
      "toothp": 8408,
      "winters": 8409,
      "necess": 8410,
      "caf": 8411,
      "sector": 8412,
      "alien": 8413,
      "motiv": 8414,
      "shelving": 8415,
      "invent": 8416,
      "assorted": 8417,
      "billi": 8418,
      "sleigh": 8419,
      "boulders": 8420,
      "draped": 8421,
      "coor": 8422,
      "trust": 8423,
      "poker": 8424,
      "##bled": 8425,
      "charging": 8426,
      "geomet": 8427,
      "demolished": 8428,
      "jaw": 8429,
      "kil": 8430,
      "##east": 8431,
      "sending": 8432,
      "viewer": 8433,
      "observing": 8434,
      "confir": 8435,
      "bands": 8436,
      "badmint": 8437,
      "depicts": 8438,
      "coconuts": 8439,
      "entirely": 8440,
      "browsing": 8441,
      "coord": 8442,
      "badminton": 8443,
      "pics": 8444,
      "greens": 8445,
      "attire": 8446,
      "creatures": 8447,
      "pyramids": 8448,
      "velvet": 8449,
      "drove": 8450,
      "whales": 8451,
      "##ensions": 8452,
      "##going": 8453,
      "awaiting": 8454,
      "##px": 8455,
      "##bish": 8456,
      "illusion": 8457,
      "snork": 8458,
      "disaster": 8459,
      "passage": 8460,
      "minister": 8461,
      "1980s": 8462,
      "connects": 8463,
      "shrimp": 8464,
      "500px": 8465,
      "anatomy": 8466,
      "wit": 8467,
      "##gular": 8468,
      "##ules": 8469,
      "##orious": 8470,
      "grind": 8471,
      "assemb": 8472,
      "horn": 8473,
      "apprec": 8474,
      "badges": 8475,
      "connect": 8476,
      "plains": 8477,
      "elementary": 8478,
      "moth": 8479,
      "##icist": 8480,
      "leap": 8481,
      "peaches": 8482,
      "grasshop": 8483,
      "funky": 8484,
      "synth": 8485,
      "announce": 8486,
      "captures": 8487,
      "battles": 8488,
      "elevator": 8489,
      "physicist": 8490,
      "gull": 8491,
      "ton": 8492,
      "stress": 8493,
      "plum": 8494,
      "caravan": 8495,
      "reun": 8496,
      "windowsill": 8497,
      "ladders": 8498,
      "cooker": 8499,
      "melting": 8500,
      "bonnet": 8501,
      "tasty": 8502,
      "newlyweds": 8503,
      "sed": 8504,
      "##ttes": 8505,
      "##gress": 8506,
      "mikes": 8507,
      "digit": 8508,
      "warmth": 8509,
      "15th": 8510,
      "creepers": 8511,
      "crescent": 8512,
      "shocked": 8513,
      "##uth": 8514,
      "staircases": 8515,
      "judge": 8516,
      "iguana": 8517,
      "00": 8518,
      "kill": 8519,
      "##right": 8520,
      "toss": 8521,
      "whims": 8522,
      "trained": 8523,
      "raises": 8524,
      "commission": 8525,
      "towering": 8526,
      "pointed": 8527,
      "grandparents": 8528,
      "##60": 8529,
      "##asy": 8530,
      "lean": 8531,
      "brass": 8532,
      "characteristic": 8533,
      "1940s": 8534,
      "stacks": 8535,
      "wishes": 8536,
      "clutch": 8537,
      "dang": 8538,
      "pamp": 8539,
      "sided": 8540,
      "##hill": 8541,
      "##acle": 8542,
      "##adows": 8543,
      "planned": 8544,
      "parties": 8545,
      "resident": 8546,
      "balancing": 8547,
      "defeat": 8548,
      "governmental": 8549,
      "hugs": 8550,
      "silence": 8551,
      "plunging": 8552,
      "avocado": 8553,
      "grasshopper": 8554,
      "fits": 8555,
      "##rored": 8556,
      "##usi": 8557,
      "dripping": 8558,
      "herb": 8559,
      "snook": 8560,
      "mirrored": 8561,
      "exciting": 8562,
      "stolen": 8563,
      "aid": 8564,
      "puck": 8565,
      "shimmer": 8566,
      "begg": 8567,
      "##ucting": 8568,
      "##osing": 8569,
      "princ": 8570,
      "haunted": 8571,
      "campsite": 8572,
      "dial": 8573,
      "##away": 8574,
      "##athing": 8575,
      "anonymous": 8576,
      "pride": 8577,
      "childhood": 8578,
      "highlands": 8579,
      "refur": 8580,
      "justice": 8581,
      "churches": 8582,
      "cooling": 8583,
      "pointer": 8584,
      "terrain": 8585,
      "sweatsh": 8586,
      "enthusi": 8587,
      "eps": 8588,
      "fet": 8589,
      "##order": 8590,
      "meadows": 8591,
      "enh": 8592,
      "traveler": 8593,
      "sheeps": 8594,
      "composed": 8595,
      "##retched": 8596,
      "applied": 8597,
      "europe": 8598,
      "policeman": 8599,
      "outstretched": 8600,
      "5th": 8601,
      "##gola": 8602,
      "pergola": 8603,
      "population": 8604,
      "swimmer": 8605,
      "mainten": 8606,
      "adorned": 8607,
      "ivory": 8608,
      "maintenance": 8609,
      "##rane": 8610,
      "heap": 8611,
      "happened": 8612,
      "circus": 8613,
      "remod": 8614,
      "officially": 8615,
      "internal": 8616,
      "dimensional": 8617,
      "voice": 8618,
      "##ranean": 8619,
      "eco": 8620,
      "##ene": 8621,
      "##ung": 8622,
      "midfield": 8623,
      "trainers": 8624,
      "collaps": 8625,
      "drew": 8626,
      "elabor": 8627,
      "mold": 8628,
      "##iel": 8629,
      "personnel": 8630,
      "manhole": 8631,
      "arrest": 8632,
      "desper": 8633,
      "afric": 8634,
      "pupils": 8635,
      "listens": 8636,
      "european": 8637,
      "tiar": 8638,
      "whit": 8639,
      "brow": 8640,
      "##using": 8641,
      "swords": 8642,
      "meant": 8643,
      "goldfish": 8644,
      "expans": 8645,
      "gowns": 8646,
      "avenue": 8647,
      "##hib": 8648,
      "snakes": 8649,
      "exist": 8650,
      "cord": 8651,
      "resist": 8652,
      "saddle": 8653,
      "sparkle": 8654,
      "siblings": 8655,
      "princip": 8656,
      "tiara": 8657,
      "russ": 8658,
      "vote": 8659,
      "boiled": 8660,
      "##ogram": 8661,
      "wooded": 8662,
      "fires": 8663,
      "##thene": 8664,
      "losing": 8665,
      "##brid": 8666,
      "supply": 8667,
      "surroundings": 8668,
      "supported": 8669,
      "missed": 8670,
      "tractors": 8671,
      "culinary": 8672,
      "kayaking": 8673,
      "polythene": 8674,
      "dinosaurs": 8675,
      "thorough": 8676,
      "achieve": 8677,
      "doubt": 8678,
      "dj": 8679,
      "zomb": 8680,
      "arena": 8681,
      "##etery": 8682,
      "flu": 8683,
      "finals": 8684,
      "inviting": 8685,
      "buried": 8686,
      "jumper": 8687,
      "cigarettes": 8688,
      "crews": 8689,
      "parachutes": 8690,
      "congratulations": 8691,
      "raspberries": 8692,
      "certificate": 8693,
      "cemetery": 8694,
      "pagoda": 8695,
      "loll": 8696,
      "mate": 8697,
      "##iser": 8698,
      "##ede": 8699,
      "mant": 8700,
      "redwood": 8701,
      "advice": 8702,
      "addresses": 8703,
      "fractal": 8704,
      "cannon": 8705,
      "gymnastic": 8706,
      "pavilion": 8707,
      "bart": 8708,
      "bung": 8709,
      "prohib": 8710,
      "foundation": 8711,
      "altitude": 8712,
      "survive": 8713,
      "conserv": 8714,
      "russian": 8715,
      "lazy": 8716,
      "tasting": 8717,
      "assemble": 8718,
      "however": 8719,
      "shelters": 8720,
      "femin": 8721,
      "pockets": 8722,
      "entertainment": 8723,
      "rum": 8724,
      "##aft": 8725,
      "toe": 8726,
      "severe": 8727,
      "earphones": 8728,
      "pottery": 8729,
      "pedig": 8730,
      "elegance": 8731,
      "suffering": 8732,
      "astronomical": 8733,
      "lollip": 8734,
      "gau": 8735,
      "bend": 8736,
      "blogg": 8737,
      "cobbles": 8738,
      "##okes": 8739,
      "useful": 8740,
      "collabor": 8741,
      "tapest": 8742,
      "participating": 8743,
      "slippers": 8744,
      "riverside": 8745,
      "pedigreed": 8746,
      "##hand": 8747,
      "##ences": 8748,
      "##awning": 8749,
      "acre": 8750,
      "penins": 8751,
      "anywhere": 8752,
      "batter": 8753,
      "hybrid": 8754,
      "winged": 8755,
      "delivering": 8756,
      "african": 8757,
      "50th": 8758,
      "dive": 8759,
      "immed": 8760,
      "##sta": 8761,
      "seg": 8762,
      "uphol": 8763,
      "upwards": 8764,
      "hous": 8765,
      "slab": 8766,
      "eaten": 8767,
      "bracelets": 8768,
      "ponytail": 8769,
      "bartender": 8770,
      "kale": 8771,
      "ten": 8772,
      "grace": 8773,
      "arc": 8774,
      "grouping": 8775,
      "hover": 8776,
      "guided": 8777,
      "profess": 8778,
      "drummer": 8779,
      "admiring": 8780,
      "excel": 8781,
      "switchboard": 8782,
      "afford": 8783,
      "14th": 8784,
      "koala": 8785,
      "upholst": 8786,
      "vul": 8787,
      "wrench": 8788,
      "##nels": 8789,
      "plush": 8790,
      "boho": 8791,
      "footbridge": 8792,
      "##ugated": 8793,
      "needle": 8794,
      "sandwiches": 8795,
      "corrugated": 8796,
      "peninsula": 8797,
      "24": 8798,
      "##yards": 8799,
      "##90s": 8800,
      "##ette": 8801,
      "tear": 8802,
      "priest": 8803,
      "portable": 8804,
      "landed": 8805,
      "wheelb": 8806,
      "screws": 8807,
      "bomb": 8808,
      "##enter": 8809,
      "mediter": 8810,
      "detailing": 8811,
      "separated": 8812,
      "ordinary": 8813,
      "ott": 8814,
      "dumbbells": 8815,
      "collapsed": 8816,
      "mediterranean": 8817,
      "tying": 8818,
      "##iques": 8819,
      "##about": 8820,
      "##ormous": 8821,
      "rocked": 8822,
      "enormous": 8823,
      "laughs": 8824,
      "documentary": 8825,
      "descending": 8826,
      "dwarf": 8827,
      "accompanied": 8828,
      "ottoman": 8829,
      "dual": 8830,
      "mound": 8831,
      "##coon": 8832,
      "tric": 8833,
      "proof": 8834,
      "raft": 8835,
      "reconstr": 8836,
      "roundabout": 8837,
      "joining": 8838,
      "##ankment": 8839,
      "raccoon": 8840,
      "embankment": 8841,
      "honoring": 8842,
      "crabs": 8843,
      "journal": 8844,
      "axe": 8845,
      "parent": 8846,
      "##5th": 8847,
      "##bas": 8848,
      "sharks": 8849,
      "treats": 8850,
      "trapped": 8851,
      "truth": 8852,
      "sitcom": 8853,
      "surreal": 8854,
      "wrote": 8855,
      "slot": 8856,
      "components": 8857,
      "unc": 8858,
      "array": 8859,
      "carpets": 8860,
      "submer": 8861,
      "televisions": 8862,
      "pork": 8863,
      "signboards": 8864,
      "scientific": 8865,
      "graphical": 8866,
      "neighbourhood": 8867,
      "evergreen": 8868,
      "stencil": 8869,
      "claw": 8870,
      "handed": 8871,
      "degre": 8872,
      "idol": 8873,
      "folding": 8874,
      "boring": 8875,
      "skiers": 8876,
      "tomorrow": 8877,
      "fund": 8878,
      "functional": 8879,
      "literary": 8880,
      "lavish": 8881,
      "shingle": 8882,
      "wheelbarrow": 8883,
      "wound": 8884,
      "##ault": 8885,
      "##bred": 8886,
      "upgr": 8887,
      "evolution": 8888,
      "aware": 8889,
      "protests": 8890,
      "packing": 8891,
      "terraces": 8892,
      "environmentalist": 8893,
      "donkeys": 8894,
      "trekking": 8895,
      "concentr": 8896,
      "degrees": 8897,
      "caves": 8898,
      "rif": 8899,
      "##bling": 8900,
      "##entic": 8901,
      "trio": 8902,
      "##ulf": 8903,
      "monks": 8904,
      "sched": 8905,
      "furry": 8906,
      "vanity": 8907,
      "optim": 8908,
      "aluminum": 8909,
      "10th": 8910,
      "##mers": 8911,
      "##inate": 8912,
      "stole": 8913,
      "treated": 8914,
      "stranded": 8915,
      "cabins": 8916,
      "rapid": 8917,
      "13th": 8918,
      "cot": 8919,
      "odd": 8920,
      "wip": 8921,
      "whist": 8922,
      "placard": 8923,
      "eventually": 8924,
      "organized": 8925,
      "collects": 8926,
      "beetle": 8927,
      "bons": 8928,
      "ign": 8929,
      "##ements": 8930,
      "bedside": 8931,
      "##ledge": 8932,
      "engines": 8933,
      "symbolic": 8934,
      "cooler": 8935,
      "connection": 8936,
      "thoughtful": 8937,
      "citiz": 8938,
      "diaper": 8939,
      "bonsai": 8940,
      "hens": 8941,
      "tier": 8942,
      "##quit": 8943,
      "skirts": 8944,
      "worlds": 8945,
      "##aughter": 8946,
      "dvd": 8947,
      "##acks": 8948,
      "##aser": 8949,
      "shred": 8950,
      "glut": 8951,
      "scub": 8952,
      "presence": 8953,
      "decl": 8954,
      "symp": 8955,
      "washbas": 8956,
      "contrasting": 8957,
      "feeds": 8958,
      "depicted": 8959,
      "barely": 8960,
      "advertisements": 8961,
      "escalators": 8962,
      "bundle": 8963,
      "pouch": 8964,
      "witness": 8965,
      "scuba": 8966,
      "##omous": 8967,
      "##asher": 8968,
      "carb": 8969,
      "otherwise": 8970,
      "darker": 8971,
      "grasslands": 8972,
      "divided": 8973,
      "glowed": 8974,
      "koi": 8975,
      "bungal": 8976,
      "drought": 8977,
      "sons": 8978,
      "therap": 8979,
      "planter": 8980,
      "##iflow": 8981,
      "bangs": 8982,
      "swept": 8983,
      "schools": 8984,
      "shaded": 8985,
      "racer": 8986,
      "hamster": 8987,
      "suggest": 8988,
      "lobster": 8989,
      "cauliflow": 8990,
      "daffodils": 8991,
      "snooker": 8992,
      "siding": 8993,
      "tickets": 8994,
      "yawning": 8995,
      "##met": 8996,
      "emotion": 8997,
      "wireless": 8998,
      "thoughts": 8999,
      "welcomed": 9000,
      "banknote": 9001,
      "adapted": 9002,
      "gangsta": 9003,
      "sweatshirt": 9004,
      "gluten": 9005,
      "sideways": 9006,
      "seven": 9007,
      "orang": 9008,
      "dishw": 9009,
      "millions": 9010,
      "crafted": 9011,
      "1920": 9012,
      "submerged": 9013,
      "##step": 9014,
      "pears": 9015,
      "##atever": 9016,
      "worm": 9017,
      "forehead": 9018,
      "strateg": 9019,
      "monk": 9020,
      "restoration": 9021,
      "wax": 9022,
      "joins": 9023,
      "overlooks": 9024,
      "reeds": 9025,
      "almond": 9026,
      "rotates": 9027,
      "lava": 9028,
      "lorry": 9029,
      "##for": 9030,
      "upset": 9031,
      "mathem": 9032,
      "##ellers": 9033,
      "weekly": 9034,
      "##bean": 9035,
      "defense": 9036,
      "crowns": 9037,
      "blocked": 9038,
      "whatever": 9039,
      "reached": 9040,
      "snapped": 9041,
      "soaring": 9042,
      "secure": 9043,
      "travelers": 9044,
      "trout": 9045,
      "magazines": 9046,
      "equipped": 9047,
      "orchids": 9048,
      "borealis": 9049,
      "feminine": 9050,
      "##aver": 9051,
      "orth": 9052,
      "pope": 9053,
      "sculpt": 9054,
      "entrep": 9055,
      "pastry": 9056,
      "alligator": 9057,
      "entreprene": 9058,
      "ram": 9059,
      "spare": 9060,
      "##arten": 9061,
      "patients": 9062,
      "dism": 9063,
      "stairway": 9064,
      "council": 9065,
      "stunned": 9066,
      "litter": 9067,
      "speedometer": 9068,
      "duo": 9069,
      "dandelions": 9070,
      "fantasy": 9071,
      "peanuts": 9072,
      "##ergarten": 9073,
      "fjord": 9074,
      "dishwasher": 9075,
      "##post": 9076,
      "glazed": 9077,
      "prize": 9078,
      "creature": 9079,
      "interiors": 9080,
      "holders": 9081,
      "cells": 9082,
      "groceries": 9083,
      "preserved": 9084,
      "savanna": 9085,
      "hosts": 9086,
      "##inum": 9087,
      "##asis": 9088,
      "##uration": 9089,
      "##amily": 9090,
      "##rons": 9091,
      "guards": 9092,
      "platinum": 9093,
      "cheers": 9094,
      "kindergarten": 9095,
      "hooded": 9096,
      "glittering": 9097,
      "executive": 9098,
      "arabic": 9099,
      "apparently": 9100,
      "crou": 9101,
      "fights": 9102,
      "hues": 9103,
      "##iliar": 9104,
      "bedding": 9105,
      "bik": 9106,
      "##ibility": 9107,
[...]
