{
  "version": "1.0",
  "truncation": null,
  "padding": null,
  "added_tokens": [
    {
      "id": 0,
      "content": "<pad>",
      "single_word": false,
      "lstrip": false,
      "rstrip": false,
      "normalized": false,
      "special": true
    },
    {
      "id": 1,
      "content": "<s>",
      "single_word": false,
      "lstrip": false,
      "rstrip": false,
      "normalized": false,
      "special": true
    },
    {
      "id": 2,
      "content": "</s>",
      "single_word": false,
      "lstrip": false,
      "rstrip": false,
      "normalized": false,
      "special": true
    }
  ],
  "normalizer": {
    "type": "NFKC"
  },
  "pre_tokenizer": {
    "type": "ByteLevel",
    "add_prefix_space": true,
    "trim_offsets": true,
    "use_regex": true
  },
  "post_processor": {
    "type": "ByteLevel",
    "add_prefix_space": true,
    "trim_offsets": true,
    "use_regex": true
  },
  "decoder": {
    "type": "ByteLevel",
    "add_prefix_space": true,
    "trim_offsets": true,
    "use_regex": true
  },
  "model": {
    "type": "BPE",
    "dropout": null,
    "unk_token": null,
    "continuing_subword_prefix": null,
    "end_of_word_suffix": null,
    "fuse_unk": false,
    "byte_fallback": false,
    "vocab": {
      "<pad>": 0,
      "<s>": 1,
      "</s>": 2,
      "!": 3,
      "\"": 4,
      "#": 5,
      "$": 6,
      "%": 7,
      "&": 8,
      "'": 9,
      "(": 10,
      ")": 11,
      "*": 12,
      "+": 13,
      ",": 14,
      "-": 15,
      ".": 16,
      "/": 17,
      "0": 18,
      "1": 19,
      "2": 20,
      "3": 21,
      "4": 22,
      "5": 23,
      "6": 24,
      "7": 25,
      "8": 26,
      "9": 27,
      ":": 28,
      ";": 29,
      "<": 30,
      "=": 31,
      ">": 32,
      "?": 33,
      "@": 34,
      "A": 35,
      "B": 36,
      "C": 37,
      "D": 38,
      "E": 39,
      "F": 40,
      "G": 41,
      "H": 42,
      "I": 43,
      "J": 44,
      "K": 45,
      "L": 46,
      "M": 47,
      "N": 48,
      "O": 49,
      "P": 50,
      "Q": 51,
      "R": 52,
      "S": 53,
      "T": 54,
      "U": 55,
      "V": 56,
      "W": 57,
      "X": 58,
      "Y": 59,
      "Z": 60,
      "[": 61,
      "\\": 62,
      "]": 63,
      "^": 64,
      "_": 65,
      "`": 66,
      "a": 67,
      "b": 68,
      "c": 69,
      "d": 70,
      "e": 71,
      "f": 72,
      "g": 73,
      "h": 74,
      "i": 75,
      "j": 76,
      "k": 77,
      "l": 78,
      "m": 79,
      "n": 80,
      "o": 81,
      "p": 82,
      "q": 83,
      "r": 84,
      "s": 85,
      "t": 86,
      "u": 87,
      "v": 88,
      "w": 89,
      "x": 90,
      "y": 91,
      "z": 92,
      "{": 93,
      "|": 94,
      "}": 95,
      "~": 96,
      "¡": 97,
      "¢": 98,
      "£": 99,
      "¤": 100,
      "¥": 101,
      "¦": 102,
      "§": 103,
      "¨": 104,
      "©": 105,
      "ª": 106,
      "«": 107,
      "¬": 108,
      "®": 109,
      "¯": 110,
      "°": 111,
      "±": 112,
      "²": 113,
      "³": 114,
      "´": 115,
      "µ": 116,
      "¶": 117,
      "·": 118,
      "¸": 119,
      "¹": 120,
      "º": 121,
      "»": 122,
      "¼": 123,
      "½": 124,
      "¾": 125,
      "¿": 126,
      "Â": 127,
      "Ã": 128,
      "Ä": 129,
      "Å": 130,
      "Æ": 131,
      "Ç": 132,
      "È": 133,
      "É": 134,
      "Ê": 135,
      "Ë": 136,
      "Ì": 137,
      "Î": 138,
      "Ï": 139,
      "Ð": 140,
      "×": 141,
      "Ø": 142,
      "Ù": 143,
      "à": 144,
      "á": 145,
      "â": 146,
      "ã": 147,
      "ê": 148,
      "ï": 149,
      "ð": 150,
      "ó": 151,
      "ô": 152,
      "ĉ": 153,
      "Ċ": 154,
      "Ġ": 155,
      "ġ": 156,
      "Ģ": 157,
      "ģ": 158,
      "Ĥ": 159,
      "ĥ": 160,
      "Ħ": 161,
      "ħ": 162,
      "Ĩ": 163,
      "ĩ": 164,
      "Ī": 165,
      "ī": 166,
      "Ĭ": 167,
      "ĭ": 168,
      "Į": 169,
      "į": 170,
      "İ": 171,
      "ı": 172,
      "Ĳ": 173,
      "ĳ": 174,
      "Ĵ": 175,
      "ĵ": 176,
      "Ķ": 177,
      "ķ": 178,
      "ĸ": 179,
      "Ĺ": 180,
      "ĺ": 181,
      "Ļ": 182,
      "ļ": 183,
      "Ľ": 184,
      "ľ": 185,
      "Ŀ": 186,
      "ŀ": 187,
      "Ł": 188,
      "ł": 189,
      "Ń": 190,
      "Ġt": 191,
      "he": 192,
      "Ġa": 193,
      "in": 194,
      "Ġthe": 195,
      "Ġs": 196,
      "re": 197,
      "Ġw": 198,
      "Ġo": 199,
      "nd": 200,
      "Ġc": 201,
      "Ġb": 202,
      "is": 203,
      "ou": 204,
      "er": 205,
      "Ġp": 206,
      "ing": 207,
      "it": 208,
      "an": 209,
      "Ġf": 210,
      "at": 211,
      "on": 212,
      "Ġ*": 213,
      "le": 214,
      "Ġand": 215,
      "Ġm": 216,
      "ĠI": 217,
      "or": 218,
      "Ġh": 219,
      "Ġin": 220,
      "Ġof": 221,
      "Ġd": 222,
      "ar": 223,
      "Ġth": 224,
      "es": 225,
      "en": 226,
      "ll": 227,
      "Ġg": 228,
      "Ġon": 229,
      "Ġis": 230,
      "Ġto": 231,
      "om": 232,
      "ed": 233,
      "ic": 234,
      "ac": 235,
      "Ġl": 236,
      "as": 237,
      "Ġse": 238,
      "Ġy": 239,
      "ĠĊ": 240,
      "ow": 241,
      "Ġwe": 242,
      "im": 243,
      "ot": 244,
      "OT": 245,
      "Ġthere": 246,
      "MOT": 247,
      "Ġyou": 248,
      "Ġsee": 249,
      "Ġcan": 250,
      "ge": 251,
      "id": 252,
      "Ġn": 253,
      "al": 254,
      "CH": 255,
      "Ġr": 256,
      "ay": 257,
      "Ġhe": 258,
      "ld": 259,
      "CHI": 260,
      "ve": 261,
      "ig": 262,
      "Ġst": 263,
      "ĠIn": 264,
      "ĠT": 265,
      "ack": 266,
      "st": 267,
      "Ġare": 268,
      "age": 269,
      "rou": 270,
      "et": 271,
      "ut": 272,
      "ad": 273,
      "Ġit": 274,
      "Ġthis": 275,
      "ith": 276,
      "Ġwh": 277,
      "oo": 278,
      "Ġwith": 279,
      "ers": 280,
      "ir": 281,
      "'s": 282,
      "Ġbe": 283,
      "Ġim": 284,
      "and": 285,
      "ht": 286,
      "Ġimage": 287,
      "round": 288,
      "Ġe": 289,
      "ion": 290,
      "se": 291,
      "all": 292,
      "ĠA": 293,
      "ur": 294,
      "am": 295,
      "Ġback": 296,
      "ent": 297,
      "ight": 298,
      "Ġthat": 299,
      "Ġre": 300,
      "Ġu": 301,
      "ol": 302,
      "ome": 303,
      "ke": 304,
      "op": 305,
      "Ġfor": 306,
      "Ġat": 307,
      "ct": 308,
      "ground": 309,
      "Ġan": 310,
      "ver": 311,
      "Ġpl": 312,
      "Ġbackground": 313,
      "Ġfr": 314,
      "ure": 315,
      "ĠThe": 316,
      "il": 317,
      "Ġwas": 318,
      "Ġdo": 319,
      "ide": 320,
      "ain": 321,
      "erson": 322,
      "Ġperson": 323,
      "her": 324,
      "ap": 325,
      "ĠS": 326,
      "ch": 327,
      "Ġsh": 328,
      "ab": 329,
      "ĠB": 330,
      "ly": 331,
      "Ġle": 332,
      "ill": 333,
      "ĠW": 334,
      "..": 335,
      "ew": 336,
      "ter": 337,
      "'t": 338,
      "ĠH": 339,
      "Ġk": 340,
      "Ġsome": 341,
      "ard": 342,
      "um": 343,
      "Ġch": 344,
      "ant": 345,
      "ĠM": 346,
      "un": 347,
      "ook": 348,
      "Ġha": 349,
      "Ġ-": 350,
      "ture": 351,
      "if": 352,
      "th": 353,
      "ĠO": 354,
      "Ġbl": 355,
      "lding": 356,
      "ite": 357,
      "Ġpic": 358,
      "Ġas": 359,
      "Ġtre": 360,
      "ust": 361,
      "ore": 362,
      "Ġme": 363,
      "Ġ=": 364,
      "ce": 365,
      "ind": 366,
      "Ġbu": 367,
      "les": 368,
      "itt": 369,
      "Ġman": 370,
      "Ġpicture": 371,
      "Ġgo": 372,
      "Ġbo": 373,
      "ie": 374,
      "Ġro": 375,
      "Ġv": 376,
      "ro": 377,
      "Ġpe": 378,
      "Ġcol": 379,
      "ĠC": 380,
      "ass": 381,
      "Ġli": 382,
      "Ġ\"": 383,
      "ood": 384,
      "Ġtr": 385,
      "ation": 386,
      "ist": 387,
      "Ġfl": 388,
      "âĢ": 389,
      "Ġcl": 390,
      "Ġsk": 391,
      "Ġhis": 392,
      "ople": 393,
      "now": 394,
      "Ġ[": 395,
      "ck": 396,
      "Ġher": 397,
      "Ġpeople": 398,
      "Ġj": 399,
      "Ġte": 400,
      "Ġal": 401,
      "Ġup": 402,
      "Ġone": 403,
      "Ġnot": 404,
      "ould": 405,
      "ul": 406,
      "us": 407,
      "Ġhave": 408,
      "hat": 409,
      "Ġwhite": 410,
      "ea": 411,
      "Ġfrom": 412,
      "Ġsp": 413,
      "Ġstand": 414,
      "ont": 415,
      "Ġout": 416,
      "art": 417,
      "nt": 418,
      "able": 419,
      "ect": 420,
      "Ġpo": 421,
      "Ġtrees": 422,
      "ĠY": 423,
      "res": 424,
      "ich": 425,
      "Ġcolor": 426,
      "Ġright": 427,
      "Ġshe": 428,
      "Ġso": 429,
      "el": 430,
      "Ġsky": 431,
      "Ġside": 432,
      "ag": 433,
      "one": 434,
      "Ġgr": 435,
      "Ġby": 436,
      "ft": 437,
      "Ġwall": 438,
      "Ġyour": 439,
      "Ġthey": 440,
      "Ġho": 441,
      "Ġne": 442,
      "Ġlook": 443,
      "Ġlike": 444,
      "ate": 445,
      "ake": 446,
      "here": 447,
      "ott": 448,
      "ĠD": 449,
      "Ġde": 450,
      "Ġstanding": 451,
      "king": 452,
      "ĠHe": 453,
      "ĠTh": 454,
      "Ġor": 455,
      "ĠP": 456,
      "our": 457,
      "ĠN": 458,
      "Ġwhich": 459,
      "ue": 460,
      "Ġplay": 461,
      "...": 462,
      "ri": 463,
      "red": 464,
      "Ġbr": 465,
      "Ġall": 466,
      "Ġbui": 467,
      "ĠOn": 468,
      "Ġab": 469,
      "Ġknow": 470,
      "ater": 471,
      "Ġfew": 472,
      "ĠThere": 473,
      "gh": 474,
      "est": 475,
      "Ġmy": 476,
      "ther": 477,
      "ry": 478,
      "Ġtable": 479,
      "Ġbuilding": 480,
      "au": 481,
      "eah": 482,
      "ame": 483,
      "Ġthem": 484,
      "Ġtw": 485,
      "xx": 486,
      "ell": 487,
      "Ġmo": 488,
      "own": 489,
      "out": 490,
      "Ġwhat": 491,
      "IN": 492,
      "ink": 493,
      "Ġsa": 494,
      "ast": 495,
      "ong": 496,
      "Ġcom": 497,
      "ĠG": 498,
      "ort": 499,
      "ĠL": 500,
      "Ġhad": 501,
      "Ġcar": 502,
      "ace": 503,
      "Ġco": 504,
      "Ġhim": 505,
      "Ġwor": 506,
      "Ġar": 507,
      "Ġwom": 508,
      "Ġob": 509,
      "air": 510,
      "ĠF": 511,
      "hen": 512,
      "Ġhand": 513,
      "Ġbott": 514,
      "Ġ1": 515,
      "ine": 516,
      "Ġbut": 517,
      "ip": 518,
      "qu": 519,
      "ĠThis": 520,
      "ity": 521,
      "INV": 522,
      "Ġtwo": 523,
      "ra": 524,
      "ess": 525,
      "Ġget": 526,
      "Ġleft": 527,
      "ject": 528,
      "itting": 529,
      "Ġhere": 530,
      "ĠR": 531,
      "Ġtop": 532,
      "Ġlo": 533,
      "ĠJ": 534,
      "ak": 535,
      "so": 536,
      "ice": 537,
      "Ġholding": 538,
      "Ġwater": 539,
      "ĠIt": 540,
      "Ġover": 541,
      "very": 542,
      "ive": 543,
      "Ġsitting": 544,
      "Ġno": 545,
      "Ġve": 546,
      "em": 547,
      "ark": 548,
      "ick": 549,
      "Ġblack": 550,
      "'re": 551,
      "Ġex": 552,
      "oh": 553,
      "Ġsu": 554,
      "ep": 555,
      "Ġgl": 556,
      "Ġgre": 557,
      "Ġdon": 558,
      "ies": 559,
      "Ġwere": 560,
      "aring": 561,
      "ĠAt": 562,
      "Ġwho": 563,
      "ĠE": 564,
      "no": 565,
      "Ġsm": 566,
      "Ġother": 567,
      "AT": 568,
      "Ġwoman": 569,
      "Ġobject": 570,
      "hing": 571,
      "other": 572,
      "Ġlight": 573,
      "Ġcon": 574,
      "av": 575,
      "ctor": 576,
      "ated": 577,
      "iv": 578,
      "ous": 579,
      "ile": 580,
      "ber": 581,
      "ally": 582,
      "ount": 583,
      "Ġint": 584,
      "Ġroad": 585,
      "Ġabout": 586,
      "'m": 587,
      "Ġdid": 588,
      "Ġfront": 589,
      "Ġwearing": 590,
      "what": 591,
      "Ġag": 592,
      "ime": 593,
      "you": 594,
      "are": 595,
      "way": 596,
      "Ġsc": 597,
      "Ġjust": 598,
      "ach": 599,
      "ical": 600,
      "Ġ2": 601,
      "Ġtheir": 602,
      "ĠYou": 603,
      "ress": 604,
      "os": 605,
      "oor": 606,
      "Ġoff": 607,
      "ĠWe": 608,
      "ants": 609,
      "Ġus": 610,
      "Ġfo": 611,
      "Ġ:": 612,
      "Ġbottom": 613,
      "orn": 614,
      "xt": 615,
      "Ġgrass": 616,
      "FAT": 617,
      "Ġwind": 618,
      "uring": 619,
      "ff": 620,
      "pp": 621,
      "ign": 622,
      "na": 623,
      "Ġalso": 624,
      "ittle": 625,
      "ĠAnd": 626,
      "led": 627,
      "Ġph": 628,
      "irl": 629,
      "Ġthink": 630,
      "ds": 631,
      "Ġwould": 632,
      "Ġpro": 633,
      "ose": 634,
      "ouse": 635,
      "ings": 636,
      "Ġif": 637,
      "hed": 638,
      "Ġgot": 639,
      "ĠâĢ": 640,
      "Ġhas": 641,
      "yeah": 642,
      "ound": 643,
      "te": 644,
      "'ll": 645,
      "Ġlittle": 646,
      "Ġdown": 647,
      "Ġsaid": 648,
      "ng": 649,
      "Ġchair": 650,
      "Ġwant": 651,
      "Ġvi": 652,
      "side": 653,
      "Ġwhen": 654,
      "ment": 655,
      "Ġwill": 656,
      "dy": 657,
      "Ġtime": 658,
      "Ġgirl": 659,
      "ish": 660,
      "hind": 661,
      "Ġglass": 662,
      "Ġday": 663,
      "Ġpr": 664,
      "Ġflow": 665,
      "Ġany": 666,
      "ving": 667,
      "ang": 668,
      "Ġ(": 669,
      "nder": 670,
      "Ġduring": 671,
      "ars": 672,
      "we": 673,
      "act": 674,
      "ree": 675,
      "].": 676,
      "Ġwal": 677,
      "ven": 678,
      "og": 679,
      "Ġblue": 680,
      "fter": 681,
      "Ġnow": 682,
      "Ġthen": 683,
      "ire": 684,
      "Ġcont": 685,
      "ustr": 686,
      "ting": 687,
      "Ġcent": 688,
      "hes": 689,
      "app": 690,
      "ild": 691,
      "bo": 692,
      "Ġground": 693,
      "ows": 694,
      "pt": 695,
      "Ġboard": 696,
      "xxx": 697,
      "Ġagain": 698,
      "ght": 699,
      "Ġred": 700,
      "Ġsay": 701,
      "ian": 702,
      "Ġinto": 703,
      "ble": 704,
      "ple": 705,
      "Ġill": 706,
      "Ġview": 707,
      "ade": 708,
      "Ġmore": 709,
      "Ġmany": 710,
      "ud": 711,
      "kay": 712,
      "Ġbeen": 713,
      "Ġbuildings": 714,
      "Ġart": 715,
      "ave": 716,
      "omet": 717,
      "Ġwood": 718,
      "Ġobjects": 719,
      "Ġplants": 720,
      "Ġsun": 721,
      "ank": 722,
      "ase": 723,
      "Ġgoing": 724,
      "pl": 725,
      "ĠâĢľ": 726,
      ".\"": 727,
      "ail": 728,
      "mer": 729,
      "that": 730,
      "ause": 731,
      "Ġen": 732,
      "ustration": 733,
      "Ġtree": 734,
      "Ġafter": 735,
      "Ġput": 736,
      "âĢĿ": 737,
      "ath": 738,
      "ere": 739,
      "'ve": 740,
      "Ġplaying": 741,
      "Ġhouse": 742,
      "Ġgu": 743,
      "idd": 744,
      "Ġdes": 745,
      "Ġcould": 746,
      "Ġgood": 747,
      "Ġfe": 748,
      "up": 749,
      "--": 750,
      "wn": 751,
      "str": 752,
      "irst": 753,
      "hic": 754,
      "Ġpre": 755,
      "urn": 756,
      "Ġqu": 757,
      "Ġillustration": 758,
      "Ġpart": 759,
      "ial": 760,
      "Ġi": 761,
      "âĢĻ": 762,
      "Ġgreen": 763,
      "Ġtoo": 764,
      "Ġfloor": 765,
      "Ġvery": 766,
      "Ġ19": 767,
      "orm": 768,
      "Ġdr": 769,
      "sh": 770,
      "Ġboy": 771,
      "Ġsur": 772,
      "Ġcr": 773,
      "ans": 774,
      "Ġold": 775,
      "ary": 776,
      "int": 777,
      "ec": 778,
      "yes": 779,
      "Ġroom": 780,
      "ss": 781,
      "Ġbook": 782,
      "Ġphot": 783,
      "iddle": 784,
      "Ġwr": 785,
      "ball": 786,
      "ĠK": 787,
      "ance": 788,
      "atch": 789,
      "rough": 790,
      "Ġ20": 791,
      "Ġyoung": 792,
      "Ġhow": 793,
      "Ġmus": 794,
      "Ġcity": 795,
      "Ġtext": 796,
      "Ġfore": 797,
      "Ġpersons": 798,
      "Ġmiddle": 799,
      "roup": 800,
      "ĠĠ": 801,
      "my": 802,
      "Ġmay": 803,
      "irt": 804,
      "uh": 805,
      "Ġfirst": 806,
      "Ġmake": 807,
      "Ġsomet": 808,
      "Ġwhere": 809,
      "Ġfoot": 810,
      "Ġcenter": 811,
      "Ġgroup": 812,
      "Ġclou": 813,
      "Ġway": 814,
      "Ġthese": 815,
      "ool": 816,
      "Ġke": 817,
      "Ġnew": 818,
      "Ġper": 819,
      "Ġvehic": 820,
      "Ġthrough": 821,
      "Ġdoor": 822,
      "the": 823,
      "Ġdress": 824,
      "Ġbus": 825,
      "sel": 826,
      "Ġhome": 827,
      "iss": 828,
      "ence": 829,
      "iz": 830,
      "ward": 831,
      "day": 832,
      "Ġun": 833,
      "uck": 834,
      "ĠWhat": 835,
      "ough": 836,
      "Ġad": 837,
      "ub": 838,
      "ise": 839,
      "Ġnight": 840,
      "cc": 841,
      "ction": 842,
      "Ġam": 843,
      "Ġbec": 844,
      "Ġdog": 845,
      "Ġstre": 846,
      "Ġatt": 847,
      "ĠU": 848,
      "Ġwooden": 849,
      "Ġlights": 850,
      "ock": 851,
      "Ġunder": 852,
      "ull": 853,
      "fore": 854,
      "ather": 855,
      "Ġhapp": 856,
      "Ġchild": 857,
      "oth": 858,
      "amp": 859,
      "ful": 860,
      "Ġdis": 861,
      "iling": 862,
      "Ġanother": 863,
      "ady": 864,
      "Ġhead": 865,
      "Ġmade": 866,
      "ĠNo": 867,
      "Ġcome": 868,
      "Ġshow": 869,
      "Ġwork": 870,
      "Ġfood": 871,
      ",\"": 872,
      "Ġ'": 873,
      "tern": 874,
      "iff": 875,
      "Ġxxx": 876,
      "Ġsomething": 877,
      "aut": 878,
      "Ġour": 879,
      "per": 880,
      "Ġye": 881,
      "Ġlet": 882,
      "ia": 883,
      "br": 884,
      "Ġlooks": 885,
      "ĠCh": 886,
      "Ġbet": 887,
      "ĠShe": 888,
      "Ġlooking": 889,
      "Ġbig": 890,
      "Ġvector": 891,
      "Ġtake": 892,
      "Ġbehind": 893,
      "ĠBe": 894,
      "hy": 895,
      "Ġhel": 896,
      "ond": 897,
      "Ġwell": 898,
      "ty": 899,
      "ates": 900,
      "Ġmu": 901,
      "ating": 902,
      "Ġhands": 903,
      "Ġball": 904,
      "Ġer": 905,
      "Ġthree": 906,
      "Ġsl": 907,
      "ountain": 908,
      "ons": 909,
      "cl": 910,
      "onna": 911,
      "ved": 912,
      "pen": 913,
      "ied": 914,
      "ĠHere": 915,
      "Ġflowers": 916,
      "ife": 917,
      "Ġpap": 918,
      "Ġneed": 919,
      "tain": 920,
      "Ġpres": 921,
      "Ġlong": 922,
      "igh": 923,
      "ning": 924,
      "Ġrun": 925,
      "Ġpain": 926,
      "ves": 927,
      "Ġaround": 928,
      "Ġdoes": 929,
      "ĠBut": 930,
      "Ġbeaut": 931,
      "Ġevery": 932,
      "Ġwalking": 933,
      "Ġtak": 934,
      "Ġbir": 935,
      "Ġcomp": 936,
      "Ġbefore": 937,
      "anc": 938,
      "ory": 939,
      "Ġsnow": 940,
      "Ġapp": 941,
      "ily": 942,
      "Ġgonna": 943,
      "ĠSt": 944,
      "iend": 945,
      "Ġbox": 946,
      "be": 947,
      "Ġplac": 948,
      "od": 949,
      "ord": 950,
      "Ġsign": 951,
      "ny": 952,
      "aves": 953,
      "ition": 954,
      "ren": 955,
      "Ġcontain": 956,
      "Ġtal": 957,
      "eside": 958,
      "aking": 959,
      "Ġrock": 960,
      ".=": 961,
      "Ġbed": 962,
      "Ġele": 963,
      "Ġonly": 964,
      "ange": 965,
      "Ġnear": 966,
      "self": 967,
      "ks": 968,
      "Ġhor": 969,
      "ĠThey": 970,
      "Ġcou": 971,
      "Ġshould": 972,
      "form": 973,
      "ious": 974,
      "Ġstreet": 975,
      "ho": 976,
      "Ġwindow": 977,
      "Ġsmall": 978,
      "aby": 979,
      "Ġthings": 980,
      "Ġsurf": 981,
      "Ġmountain": 982,
      "ĠOh": 983,
      "Ġset": 984,
      "man": 985,
      "Ġstr": 986,
      "Ġchairs": 987,
      "Ġcount": 988,
      "ument": 989,
      "ĠYeah": 990,
      "Ġpoles": 991,
      "Ġartist": 992,
      "Ġlove": 993,
      "Ġanim": 994,
      "Ġstage": 995,
      "Ġtell": 996,
      "Ġactor": 997,
      "ne": 998,
      "Ġcre": 999,
      "Ġphoto": 1000,
      "Ġboat": 1001,
      "Ġbeach": 1002,
      "ying": 1003,
      "Ġclouds": 1004,
      "Ġair": 1005,
      "Ġteam": 1006,
      "Ġdiff": 1007,
      "Ġrem": 1008,
      "Ġagainst": 1009,
      "Ġfootball": 1010,
      "iful": 1011,
      "ner": 1012,
      "Ġmen": 1013,
      "als": 1014,
      "ellow": 1015,
      "Ġeven": 1016,
      "Ġthan": 1017,
      "okay": 1018,
      "Ġnum": 1019,
      "ale": 1020,
      "ph": 1021,
      "do": 1022,
      "ah": 1023,
      "mb": 1024,
      "Ġmuch": 1025,
      "land": 1026,
      "Ġbeautiful": 1027,
      "ys": 1028,
      "ash": 1029,
      "Ġflag": 1030,
      "where": 1031,
      "sp": 1032,
      "Ġce": 1033,
      "augh": 1034,
      "Ġfam": 1035,
      "ought": 1036,
      "Ġplayer": 1037,
      "Ġche": 1038,
      "ms": 1039,
      "Ġcat": 1040,
      "Ġcup": 1041,
      "Ġind": 1042,
      "Ġmusical": 1043,
      "ric": 1044,
      "Ġsec": 1045,
      "Ġpol": 1046,
      "Ġits": 1047,
      "less": 1048,
      "Ġaway": 1049,
      "Ġinstr": 1050,
      "Ġopen": 1051,
      "cle": 1052,
      "board": 1053,
      "ĠThat": 1054,
      "ug": 1055,
      "Ġreally": 1056,
      "Ġmet": 1057,
      "Ġpat": 1058,
      "there": 1059,
      "Ġcur": 1060,
      "Ġpresent": 1061,
      "Ġfil": 1062,
      "ute": 1063,
      "Ġcap": 1064,
      "ove": 1065,
      "Ġtrain": 1066,
      "its": 1067,
      "ens": 1068,
      "Ġbaby": 1069,
      "Ġplaced": 1070,
      "ĠMr": 1071,
      "iness": 1072,
      "thing": 1073,
      "Ġpost": 1074,
      "ield": 1075,
      "Ġfriend": 1076,
      "Ġfind": 1077,
      "Ġclose": 1078,
      "ĠV": 1079,
      "Ġisol": 1080,
      "ĠSo": 1081,
      "rist": 1082,
      "let": 1083,
      "iver": 1084,
      "Ġdidn": 1085,
      "Ġbre": 1086,
      "Ġser": 1087,
      "Ġinstrument": 1088,
      "Ġinside": 1089,
      "vent": 1090,
      "Ġsw": 1091,
      "ee": 1092,
      "Ġisolated": 1093,
      "Ġbecause": 1094,
      "Ġpark": 1095,
      "Ġtaken": 1096,
      "ob": 1097,
      "Ġbag": 1098,
      "Ġmon": 1099,
      "hm": 1100,
      "Ġdoing": 1101,
      "Ġvis": 1102,
      "Ġwhile": 1103,
      "Ġmod": 1104,
      "Ġdesign": 1105,
      "Ġdiffere": 1106,
      "room": 1107,
      "Ġturn": 1108,
      "Ġsmiling": 1109,
      "raw": 1110,
      "ĠBehind": 1111,
      "anna": 1112,
      "Ġalong": 1113,
      "Ġear": 1114,
      "ix": 1115,
      "Ġdark": 1116,
      "Ġbas": 1117,
      "Ġvehicles": 1118,
      "arm": 1119,
      "ible": 1120,
      "enc": 1121,
      "Ġyellow": 1122,
      "Ġcal": 1123,
      "Ġleaves": 1124,
      "oon": 1125,
      "00": 1126,
      "rap": 1127,
      "Ġstart": 1128,
      "Ġwin": 1129,
      "right": 1130,
      "Ġdec": 1131,
      "Ġworld": 1132,
      "Ġport": 1133,
      "Ġforeground": 1134,
      "Ġbel": 1135,
      "Ġgame": 1136,
      "Ġsurface": 1137,
      "Ġmean": 1138,
      "ape": 1139,
      "Ġlot": 1140,
      "Ġbusiness": 1141,
      "Ġsty": 1142,
      "akes": 1143,
      "Ġrec": 1144,
      "AR": 1145,
      "Ġoutside": 1146,
      "Ġhelp": 1147,
      "Ġwindows": 1148,
      "Ġplate": 1149,
      "Ġwent": 1150,
      "'d": 1151,
      "ross": 1152,
      "Ġthing": 1153,
      "ope": 1154,
      "Ġpole": 1155,
      "ked": 1156,
      "Ġlast": 1157,
      "ump": 1158,
      "Ġ3": 1159,
      "ait": 1160,
      "Ġnever": 1161,
      "look": 1162,
      "Ġthose": 1163,
      "Ġmost": 1164,
      "Ġcle": 1165,
      "row": 1166,
      "Ġgreat": 1167,
      "ling": 1168,
      "az": 1169,
      "ĠWell": 1170,
      "idge": 1171,
      "Ġdifferent": 1172,
      "ike": 1173,
      "Ġsea": 1174,
      "Ġland": 1175,
      "Ġfire": 1176,
      "Ġmight": 1177,
      "Ġplace": 1178,
      "Ġmin": 1179,
      "Ġstill": 1180,
      "Ġfun": 1181,
      "chool": 1182,
      "Ġfin": 1183,
      "add": 1184,
      "Ġcomm": 1185,
      "Ġflower": 1186,
      "ables": 1187,
      "Ġblur": 1188,
      "arge": 1189,
      "ult": 1190,
      "ins": 1191,
      "ser": 1192,
      "Ġthought": 1193,
      "Ġcorn": 1194,
      "ets": 1195,
      "Ġhaving": 1196,
      "Ġnumber": 1197,
      "wards": 1198,
      "Ġfound": 1199,
      "?\"": 1200,
      "Ġface": 1201,
      "Ġpaper": 1202,
      "itten": 1203,
      "ions": 1204,
      "Ġmother": 1205,
      "Ġdri": 1206,
      "Ġhigh": 1207,
      "Ġmust": 1208,
      "Ġcame": 1209,
      "Ġname": 1210,
      "but": 1211,
      "ĠFr": 1212,
      "Ġshirt": 1213,
      "go": 1214,
      "Ġbow": 1215,
      "Ġcam": 1216,
      "Ġaut": 1217,
      "Ġspec": 1218,
      "Ġact": 1219,
      "Ġseen": 1220,
      "Ġbeing": 1221,
      "orning": 1222,
      "aw": 1223,
      "ane": 1224,
      "Ġfilm": 1225,
      "Ġwee": 1226,
      "Ġsho": 1227,
      "Ġend": 1228,
      "oc": 1229,
      "ted": 1230,
      "sc": 1231,
      "Ġfield": 1232,
      "Ġwanna": 1233,
      "Ġown": 1234,
      "port": 1235,
      "itc": 1236,
      "ye": 1237,
      "ents": 1238,
      "Ġbeside": 1239,
      "Ġmic": 1240,
      "Ġwomen": 1241,
      "Ġple": 1242,
      "Ġfour": 1243,
      "ĠAl": 1244,
      "Ġfamily": 1245,
      "Ġmorning": 1246,
      "gg": 1247,
      "Ġban": 1248,
      "ĠTo": 1249,
      "Ġnext": 1250,
      "Ġsil": 1251,
      "ib": 1252,
      "Ġbit": 1253,
      "Ġfence": 1254,
      "Ġ%": 1255,
      "Ġgive": 1256,
      "ists": 1257,
      "gan": 1258,
      "ost": 1259,
      "Ġcars": 1260,
      "Ġlife": 1261,
      "Ġriver": 1262,
      "Ġsing": 1263,
      "ached": 1264,
      "Ġlap": 1265,
      "ited": 1266,
      "Ġcountry": 1267,
      "opp": 1268,
      "Ġac": 1269,
      "Ġbrown": 1270,
      "Ġref": 1271,
      "Ġschool": 1272,
      "Ġdone": 1273,
      "olog": 1274,
      "ĠĠĠĠ": 1275,
      "ert": 1276,
      "Ġent": 1277,
      "Ġpass": 1278,
      "Ġscre": 1279,
      "Ġcour": 1280,
      "Ġpattern": 1281,
      "pe": 1282,
      "ames": 1283,
      "Ġcouple": 1284,
      "ier": 1285,
      "tend": 1286,
      "well": 1287,
      "Ġboards": 1288,
      "Ġheart": 1289,
      "Ġchildren": 1290,
      "Ġused": 1291,
      "can": 1292,
      "Ġguit": 1293,
      "set": 1294,
      "Ġstyle": 1295,
      "ones": 1296,
      "Ġbottle": 1297,
      "oy": 1298,
      "Ġrest": 1299,
      "get": 1300,
      "Ġcamer": 1301,
      "Ġhappy": 1302,
      "Ġcalled": 1303,
      "ines": 1304,
      "oof": 1305,
      "oney": 1306,
      "ually": 1307,
      "Ġyear": 1308,
      "outh": 1309,
      "Ġcons": 1310,
      ".]": 1311,
      "ors": 1312,
      "aff": 1313,
      "Ġcorner": 1314,
      "Ġwon": 1315,
      "ature": 1316,
      "Ġplant": 1317,
      "Ġwatch": 1318,
      "ding": 1319,
      "Ġwritten": 1320,
      "Ġrail": 1321,
      "Ġkn": 1322,
      "ored": 1323,
      "Ġsle": 1324,
      "ĠYes": 1325,
      "Ġitem": 1326,
      "ĠUn": 1327,
      "Ġel": 1328,
      "iding": 1329,
      "Ġkind": 1330,
      "Ġhair": 1331,
      "Ġhorse": 1332,
      "Ġmom": 1333,
      "Ġguitar": 1334,
      "Ġkeep": 1335,
      "rop": 1336,
      "mas": 1337,
      "Ġret": 1338,
      "Ġsum": 1339,
      "Ġpill": 1340,
      "Ġvehicle": 1341,
      "Ġ201": 1342,
      "meric": 1343,
      "Ġread": 1344,
      "ern": 1345,
      "Ġglasses": 1346,
      "EX": 1347,
      "Ġgard": 1348,
      "Ġrel": 1349,
      "aught": 1350,
      "ĠAs": 1351,
      "Ġmar": 1352,
      "ational": 1353,
      "Ġportra": 1354,
      "ways": 1355,
      "ummy": 1356,
      "Ġ#": 1357,
      "ations": 1358,
      "Ġkid": 1359,
      "Ġeat": 1360,
      "laugh": 1361,
      "Ġchar": 1362,
      "Ġbridge": 1363,
      "Ġfeel": 1364,
      "Ġbetter": 1365,
      "Ġsy": 1366,
      "Ġpop": 1367,
      "Ġsand": 1368,
      "ots": 1369,
      "Ġcele": 1370,
      "Ġwed": 1371,
      "Ġgold": 1372,
      "EXP": 1373,
      "Ġem": 1374,
      "Ġcamera": 1375,
      "Ġfall": 1376,
      "gether": 1377,
      "ograp": 1378,
      "Ġcelebr": 1379,
      "Ġtour": 1380,
      "ristmas": 1381,
      "Ġportrait": 1382,
      "Ġlarge": 1383,
      ".âĢĿ": 1384,
      "ember": 1385,
      "Ġloc": 1386,
      "Ġsupp": 1387,
      "Ġyears": 1388,
      "Ġsame": 1389,
      "ww": 1390,
      "uc": 1391,
      "Ġcare": 1392,
      "Ġacc": 1393,
      "Ġuse": 1394,
      "Ġbowl": 1395,
      "Ġwhe": 1396,
      "TE": 1397,
      "Ġperform": 1398,
      "body": 1399,
      "Ġeach": 1400,
      "Ġpie": 1401,
      "ween": 1402,
      "Ġnice": 1403,
      "ident": 1404,
      "Ġfly": 1405,
      "uct": 1406,
      "imes": 1407,
      "ual": 1408,
      "Ġround": 1409,
      "Ġhard": 1410,
      "Ġmat": 1411,
      "Ġgarden": 1412,
      "Ġhill": 1413,
      "ired": 1414,
      "Ġcall": 1415,
      "Ġstick": 1416,
      "Ġpink": 1417,
      "Ġclot": 1418,
      "Ġhang": 1419,
      "Ġfull": 1420,
      "owing": 1421,
      "Ġmot": 1422,
      "Ġcard": 1423,
      "ened": 1424,
      "huh": 1425,
      "ried": 1426,
      "Ġisn": 1427,
      "Ġtown": 1428,
      "Ġtogether": 1429,
      "Ġdist": 1430,
      "ital": 1431,
      "Ġgiv": 1432,
      "top": 1433,
      "ĠHow": 1434,
      "Ġsure": 1435,
      "Ġwait": 1436,
      "Ġsecond": 1437,
      "med": 1438,
      "Ġdraw": 1439,
      "pr": 1440,
      "Ġwhy": 1441,
      "Ġbooks": 1442,
      "Ġmountains": 1443,
      "ict": 1444,
      "IS": 1445,
      "Ġship": 1446,
      "Ġsunset": 1447,
      "Ġmetal": 1448,
      "Ġsuch": 1449,
      "ince": 1450,
      "Ġbar": 1451,
      "Ġbetween": 1452,
      "Ġforest": 1453,
      "ative": 1454,
      "que": 1455,
      "ush": 1456,
      "Ġboth": 1457,
      "iday": 1458,
      "Ġshot": 1459,
      "ower": 1460,
      "ses": 1461,
      "Ġhat": 1462,
      "Ġbi": 1463,
      "Ġroof": 1464,
      "Ġeyes": 1465,
      "alf": 1466,
      "Ġres": 1467,
      "ĠBr": 1468,
      "Ġfather": 1469,
      ",âĢĿ": 1470,
      "ular": 1471,
      "ason": 1472,
      "Ġarea": 1473,
      "ient": 1474,
      "Ġalways": 1475,
      "Ġâ": 1476,
      "Ġreal": 1477,
      "Ġbest": 1478,
      "Ġpainting": 1479,
      "ues": 1480,
      "vel": 1481,
      "Ġstat": 1482,
      "ium": 1483,
      "orts": 1484,
      "ĠIf": 1485,
      "Ġcolour": 1486,
      "Ġwedding": 1487,
      "Ġattached": 1488,
      "Ġdin": 1489,
      "Ġtalking": 1490,
      "Ġhot": 1491,
      "Ġuh": 1492,
      "io": 1493,
      "Ġspea": 1494,
      "Ġhous": 1495,
      "come": 1496,
      "Ġstud": 1497,
      "ts": 1498,
      "Ġgen": 1499,
      "ps": 1500,
      "Ġevent": 1501,
      "Ġline": 1502,
      "Ġcut": 1503,
      "Ġclass": 1504,
      "Ġcart": 1505,
      "ered": 1506,
      "Ġty": 1507,
      "Ġcove": 1508,
      "Ġreg": 1509,
      "Ġpar": 1510,
      "ract": 1511,
      "Ġever": 1512,
      "ished": 1513,
      "att": 1514,
      "Ġconc": 1515,
      "ĠAn": 1516,
      "Ġelse": 1517,
      "ĠDo": 1518,
      "ung": 1519,
      "Ġide": 1520,
      "Ġscreen": 1521,
      "Ġsit": 1522,
      "Ġanimal": 1523,
      "Ġtook": 1524,
      "merican": 1525,
      "Ġcurtain": 1526,
      "Ġben": 1527,
      "Ġsummer": 1528,
      "Ġclothes": 1529,
      "!\"": 1530,
      "Ġbask": 1531,
      "Ġcovered": 1532,
      "Ġmap": 1533,
      "Ġsaw": 1534,
      "Ġanything": 1535,
      "icy": 1536,
      "Ġtow": 1537,
      "ery": 1538,
      "this": 1539,
      "ony": 1540,
      "ides": 1541,
      "end": 1542,
      "Ġokay": 1543,
      "Ġobser": 1544,
      "iet": 1545,
      "ages": 1546,
      "Ġwalk": 1547,
      "Ġrain": 1548,
      "to": 1549,
      "Ġsleep": 1550,
      "Ġrunning": 1551,
      "Ġmark": 1552,
      "Ġbottles": 1553,
      "lic": 1554,
      "Ġed": 1555,
      "Ġexp": 1556,
      "ĠIs": 1557,
      "Ġhalf": 1558,
      "ring": 1559,
      "itchen": 1560,
      "und": 1561,
      "Ġkept": 1562,
      "Ġcoming": 1563,
      "Ġtowards": 1564,
      "Ġmoney": 1565,
      "airs": 1566,
      "Ġhouses": 1567,
      "Ġpret": 1568,
      "Ġform": 1569,
      "Ġhold": 1570,
      "Ġmatch": 1571,
      "addy": 1572,
      "ashion": 1573,
      "Ġyes": 1574,
      "Ġgoes": 1575,
      "Ġbird": 1576,
      "Ġkitchen": 1577,
      "ness": 1578,
      "Ġlaptop": 1579,
      "Ġdecor": 1580,
      "Ġyeah": 1581,
      "Ġdoesn": 1582,
      "Ġpoint": 1583,
      "orry": 1584,
      "AN": 1585,
      "cept": 1586,
      "Ġabove": 1587,
      "acket": 1588,
      "lect": 1589,
      "they": 1590,
      "uff": 1591,
      "Ġwinter": 1592,
      "RO": 1593,
      "Ġlead": 1594,
      "laughs": 1595,
      "Ġinter": 1596,
      "Ġpath": 1597,
      "Ġframe": 1598,
      "mhm": 1599,
      "Ġchristmas": 1600,
      "Ġfashion": 1601,
      "Ġfar": 1602,
      "Ġ4": 1603,
      "ĠMar": 1604,
      "Ġtold": 1605,
      "nce": 1606,
      "Ġsays": 1607,
      "ax": 1608,
      "Ġbro": 1609,
      "Ġpur": 1610,
      "fl": 1611,
      "Ġcloth": 1612,
      "wh": 1613,
      "not": 1614,
      "Ġmodel": 1615,
      "Ġste": 1616,
      "Ġposter": 1617,
      "Ġlady": 1618,
      "ries": 1619,
      "ician": 1620,
      "ival": 1621,
      "Ġpretty": 1622,
      "Ġter": 1623,
      "Ġcir": 1624,
      "ior": 1625,
      "Ġswe": 1626,
      "Ġlist": 1627,
      "Ġelect": 1628,
      "aur": 1629,
      "Ġpolit": 1630,
      "Ġleg": 1631,
      "door": 1632,
      "Ġparty": 1633,
      "Ġaer": 1634,
      "ological": 1635,
      "Ġunt": 1636,
      "ural": 1637,
      "Ġgetting": 1638,
      "Ġtoday": 1639,
      "ger": 1640,
      "Ġmed": 1641,
      "ley": 1642,
      "Ġmil": 1643,
      "Ġmaking": 1644,
      "mie": 1645,
      "ĠSh": 1646,
      "Ġ--": 1647,
      "Ġfoll": 1648,
      "Ġriding": 1649,
      "Ġhol": 1650,
      "acter": 1651,
      "Ġdire": 1652,
      "ared": 1653,
      "Ġtalk": 1654,
      "Ġcake": 1655,
      "Ġphone": 1656,
      "Ġbasket": 1657,
      "Ġliving": 1658,
      "hou": 1659,
      "she": 1660,
      "Ġattend": 1661,
      "mber": 1662,
      "part": 1663,
      "Ġitems": 1664,
      "Ġgone": 1665,
      "ipp": 1666,
      "ats": 1667,
      "Ġlooked": 1668,
      "icked": 1669,
      "Ġorange": 1670,
      "any": 1671,
      "Ġeas": 1672,
      "AD": 1673,
      "Ġfriends": 1674,
      "ched": 1675,
      "Ġsqu": 1676,
      "Ġtables": 1677,
      "gr": 1678,
      "Ġenough": 1679,
      "ever": 1680,
      "ches": 1681,
      "Ġthough": 1682,
      "ivers": 1683,
      "Ġadd": 1684,
      "Ġbreak": 1685,
      "Ġerm": 1686,
      "houet": 1687,
      "Ġsilhouet": 1688,
      "ĠAll": 1689,
      "orth": 1690,
      "Ġten": 1691,
      "une": 1692,
      "ision": 1693,
      "ĠThese": 1694,
      "Ġready": 1695,
      "ï¿": 1696,
      "Ġlive": 1697,
      "ï¿½": 1698,
      "Ġic": 1699,
      "Ġeng": 1700,
      "Ġflying": 1701,
      "Ġweek": 1702,
      "Ġice": 1703,
      "fr": 1704,
      "The": 1705,
      "ork": 1706,
      "Ġknown": 1707,
      "ces": 1708,
      "me": 1709,
      "Ġwithout": 1710,
      "Ġgirls": 1711,
      "Ġ200": 1712,
      "Ġcourse": 1713,
      "ister": 1714,
      "Ġcharacter": 1715,
      "Ġfive": 1716,
      "Ġoutdoor": 1717,
      "ĠTH": 1718,
      "Ġcolored": 1719,
      "iles": 1720,
      "Ġclear": 1721,
      "Ġdrink": 1722,
      "osed": 1723,
      "Ġbad": 1724,
      "len": 1725,
      "clud": 1726,
      "Ġphotograp": 1727,
      "Ġcute": 1728,
      "Ġvisible": 1729,
      "Ġstay": 1730,
      "Ġfest": 1731,
      "ĠBack": 1732,
      "Ġinv": 1733,
      "Ġseam": 1734,
      "lection": 1735,
      "Ġsim": 1736,
      "Ġdet": 1737,
      "Ġmov": 1738,
      "Ġnothing": 1739,
      "ires": 1740,
      "Ġlake": 1741,
      "Ġstep": 1742,
      "Ġbelie": 1743,
      "Ġbicy": 1744,
      "Ġsn": 1745,
      "bab": 1746,
      "ĠDon": 1747,
      "af": 1748,
      "Ġz": 1749,
      "Ġdoll": 1750,
      "SIS": 1751,
      "Ġpapers": 1752,
      "Ġsub": 1753,
      "ĠThen": 1754,
      "ury": 1755,
      "Ġrep": 1756,
      "Ġuntil": 1757,
      "Ġdisc": 1758,
      "Ġonce": 1759,
      "Ġseems": 1760,
      "oke": 1761,
      "Ġtry": 1762,
      "rying": 1763,
      "Ġattract": 1764,
      "inking": 1765,
      "Ġhum": 1766,
      "ĠAr": 1767,
      "by": 1768,
      "Ġholiday": 1769,
      "vers": 1770,
      "Ġshoes": 1771,
      "Ġobserve": 1772,
      "play": 1773,
      "Ġbiological": 1774,
      "Ġquite": 1775,
      "who": 1776,
      "Ġprod": 1777,
      "ĠNow": 1778,
      "Ġtele": 1779,
      "Ġcolorful": 1780,
      "der": 1781,
      "Ġplan": 1782,
      "Ġcross": 1783,
      "Ġworking": 1784,
      "ĠWhy": 1785,
      "mm": 1786,
      "Ġboys": 1787,
      "Ġbirth": 1788,
      "Ġblurred": 1789,
      "how": 1790,
      "Ġrocks": 1791,
      "ither": 1792,
      "Ġtaking": 1793,
      "Ġseamless": 1794,
      "ton": 1795,
      "ĠWhen": 1796,
      "key": 1797,
      "Ġwalls": 1798,
      "Ġanimals": 1799,
      "ĠBeside": 1800,
      "Ġmain": 1801,
      "Ļª": 1802,
      "Ġplease": 1803,
      "aps": 1804,
      "Ġshall": 1805,
      "Ġsound": 1806,
      "els": 1807,
      "Ġprop": 1808,
      "ined": 1809,
      "Ġtrans": 1810,
      "shirt": 1811,
      "ession": 1812,
      "Ġfish": 1813,
      "Ġfac": 1814,
      "Ġaerial": 1815,
      "Ġbanner": 1816,
      "Ġasked": 1817,
      "Ġmusic": 1818,
      "ear": 1819,
      "Ġstop": 1820,
      "why": 1821,
      "Ġvill": 1822,
      "Ġspecies": 1823,
      "aid": 1824,
      "Ġyet": 1825,
      "ecause": 1826,
      "Ġtrack": 1827,
      "uction": 1828,
      "Ġhur": 1829,
      "unch": 1830,
      "ics": 1831,
      "Ġfru": 1832,
      "ina": 1833,
      "Ġconsists": 1834,
      "Ġ18": 1835,
      "anks": 1836,
      "fta": 1837,
      "ised": 1838,
      "eth": 1839,
      "Ġinclud": 1840,
      "ator": 1841,
      "ublic": 1842,
      "Ġtoy": 1843,
      "Ġpast": 1844,
      "Ġmeet": 1845,
      "umn": 1846,
      "Ġclicked": 1847,
      "Ġremember": 1848,
      "Ġsports": 1849,
      "Ġstory": 1850,
      "Ġhour": 1851,
      "ĠâĻª": 1852,
      "Ġstatue": 1853,
      "Ġfree": 1854,
      "Ġpremie": 1855,
      "Ġorgan": 1856,
      "ror": 1857,
      "Ġsoon": 1858,
      "Ġacross": 1859,
      "Ġshows": 1860,
      "Ġshel": 1861,
      "Ġjacket": 1862,
      "ship": 1863,
      "don": 1864,
      "Ġletter": 1865,
      "most": 1866,
      "Ġbench": 1867,
      "Ġhear": 1868,
      "Ġspace": 1869,
      "ments": 1870,
      "put": 1871,
      "Ġmove": 1872,
      "Ġcloudy": 1873,
      "aving": 1874,
      "Ġpremiere": 1875,
      "Ġcrow": 1876,
      "Ġ_": 1877,
      "roph": 1878,
      "Ġkids": 1879,
      "Ġhafta": 1880,
      "Ġleave": 1881,
      "Ġdel": 1882,
      "aster": 1883,
      "Ġbright": 1884,
      "arn": 1885,
      "Ġsat": 1886,
      "Ġwore": 1887,
      "Ġfestival": 1888,
      "line": 1889,
      "Ġhimself": 1890,
      "dd": 1891,
      "ased": 1892,
      "Ġjump": 1893,
      "Ġslow": 1894,
      "Ġupon": 1895,
      "Ġboats": 1896,
      "Ġstate": 1897,
      "mp": 1898,
      "Ġcook": 1899,
      "Ġcartoon": 1900,
      "ĠGr": 1901,
      "Ġlaugh": 1902,
      "\".": 1903,
      "Ġ5": 1904,
      "Ġmind": 1905,
      "Ġshort": 1906,
      "Ġarri": 1907,
      "Ġ202": 1908,
      "Ġmodern": 1909,
      "Ġearly": 1910,
      "Ġlater": 1911,
      "Ġtruck": 1912,
      "raft": 1913,
      "onder": 1914,
      "erest": 1915,
      "ertain": 1916,
      "Ġstar": 1917,
      "Ġmicroph": 1918,
      "sing": 1919,
      "ER": 1920,
      "Ġdef": 1921,
      "Ġmoving": 1922,
      "Ġpot": 1923,
      "ret": 1924,
      "Ġmiss": 1925,
      "ities": 1926,
      "ĠRe": 1927,
      "Ġshop": 1928,
      "Ġceiling": 1929,
      "bs": 1930,
      "Ġinst": 1931,
      "Ġidea": 1932,
      "Ġdear": 1933,
      "ief": 1934,
      "Ġoffice": 1935,
      "Ġsof": 1936,
      "Ġoffic": 1937,
      "Ġcand": 1938,
      "Ġpu": 1939,
      "Ġcover": 1940,
      "Ġmag": 1941,
      "Ġmakes": 1942,
      "ming": 1943,
      "Ġbirthday": 1944,
      "ĠCome": 1945,
      "Ġheard": 1946,
      "oice": 1947,
      "Ġwanted": 1948,
      "Ġpolitician": 1949,
      "ĠDe": 1950,
      "Ġinterest": 1951,
      "Ġtrad": 1952,
      "Ġconf": 1953,
      "Ġparked": 1954,
      "Ġsilhouette": 1955,
      "Ġdays": 1956,
      "Ġusing": 1957,
      "Ġbear": 1958,
      "ilt": 1959,
      "ishing": 1960,
      "Ġreturn": 1961,
      "Ġlamp": 1962,
      "----": 1963,
      "ote": 1964,
      "eral": 1965,
      "ES": 1966,
      "MA": 1967,
      "stand": 1968,
      "read": 1969,
      "ffee": 1970,
      "TEA": 1971,
      "Ġbath": 1972,
      "Ġimp": 1973,
      "ĠFor": 1974,
      "ĠMrs": 1975,
      "Ġext": 1976,
      "lish": 1977,
      "Ġcream": 1978,
      "ĠRight": 1979,
      "ĠMy": 1980,
      "Ġcamp": 1981,
      "ĠMiss": 1982,
      "cause": 1983,
      "Ġtrying": 1984,
      "did": 1985,
      "Ġcoast": 1986,
      "arent": 1987,
      "ĠBackground": 1988,
      "Ġbase": 1989,
      "ering": 1990,
      "Ġlying": 1991,
      "ird": 1992,
      "Ġhanging": 1993,
      "ĠOkay": 1994,
      "oun": 1995,
      "Ġmovie": 1996,
      "Ġhist": 1997,
      "Ġswim": 1998,
      "Ġarch": 1999,
      "Ġhappened": 2000,
      "Ġmir": 2001,
      "Ġstones": 2002,
      "),": 2003,
      "Ġbring": 2004,
      "ize": 2005,
      "Ġcost": 2006,
      "ĠNew": 2007,
      "Ġtou": 2008,
      "ĠLet": 2009,
      "eed": 2010,
      "ready": 2011,
      "Ġisland": 2012,
      "ĠCl": 2013,
      "Ġeverything": 2014,
      "Ġenj": 2015,
      "Ġtoys": 2016,
      "ĠOne": 2017,
      "Ġtrou": 2018,
      "Ġoh": 2019,
      "Ġeating": 2020,
      "Ġpiece": 2021,
      "ster": 2022,
      "Ġlay": 2023,
      "ĠGo": 2024,
      "ohn": 2025,
      "Ġpen": 2026,
      "Ġbeg": 2027,
      "Ġclock": 2028,
      "llo": 2029,
      "Ġspeak": 2030,
      "MCH": 2031,
      "iron": 2032,
      "Ġcoffee": 2033,
      "ises": 2034,
      "Ġlate": 2035,
      "Ġmoment": 2036,
      "Ġstock": 2037,
      "stract": 2038,
      "Ġabstract": 2039,
      "amed": 2040,
      "Ġmarket": 2041,
      "iled": 2042,
      "Ġwhole": 2043,
      "ĠCan": 2044,
      "Ġpri": 2045,
      "Ġlogo": 2046,
      "Ġum": 2047,
      "Ġhaven": 2048,
      "Ġstone": 2049,
      "urch": 2050,
      "Ġmob": 2051,
      "wo": 2052,
      "ized": 2053,
      "You": 2054,
      "light": 2055,
      "uary": 2056,
      "Ġcomple": 2057,
      "Ġbody": 2058,
      "Ġamong": 2059,
      "oss": 2060,
      "Ġcomes": 2061,
      "Ġsince": 2062,
      "arl": 2063,
      "Ġsold": 2064,
      "Ġwonder": 2065,
      "rell": 2066,
      "Ġexpl": 2067,
      "Ġprot": 2068,
      "Ġson": 2069,
      "Ġgave": 2070,
      "Ġfunny": 2071,
      "Ġmach": 2072,
      "ky": 2073,
      "Ġtraff": 2074,
      "Ġhelm": 2075,
      "ĠEng": 2076,
      "ĠBl": 2077,
      "vern": 2078,
      "âĢĶ": 2079,
      "ten": 2080,
      "Ġsorry": 2081,
      "Ġtraffic": 2082,
      "Ġsofa": 2083,
      "BRO": 2084,
      "Ġcontin": 2085,
      "ĠGod": 2086,
      "ĠNot": 2087,
      "ising": 2088,
      "Ġevening": 2089,
      "aj": 2090,
      "Ġsunny": 2091,
      "Ġautumn": 2092,
      "Ġans": 2093,
      "ĠMay": 2094,
      "Ġexam": 2095,
      "Ġborn": 2096,
      "Ġactually": 2097,
      "ĠHey": 2098,
      "head": 2099,
      "Ġwild": 2100,
      "itional": 2101,
      "unt": 2102,
      "Ġknew": 2103,
      "Ġicon": 2104,
      "ream": 2105,
      "Ġvisit": 2106,
      "Ġjo": 2107,
      "Ġsong": 2108,
      "ken": 2109,
      "Ġ199": 2110,
      "Ġdoors": 2111,
      "Ġpictures": 2112,
      "ift": 2113,
      "Ġpolice": 2114,
      "Ġfenc": 2115,
      "Ġstarted": 2116,
      "aughter": 2117,
      "Ġtourist": 2118,
      "ipe": 2119,
      "Ġstore": 2120,
      "Ġass": 2121,
      "Ġmonth": 2122,
      "Ġfarm": 2123,
      "Ġspring": 2124,
      "ĠEr": 2125,
      "Ġwar": 2126,
      "Ġmouth": 2127,
      "opping": 2128,
      "Ġsix": 2129,
      "Ġfact": 2130,
      "Ġfeet": 2131,
      "ĠUnited": 2132,
      "Ġword": 2133,
      "Ġbicycle": 2134,
      "Ġrailing": 2135,
      "ĠAmerican": 2136,
      "Ġdig": 2137,
      "Ġsuit": 2138,
      "Oh": 2139,
      "Ġsort": 2140,
      "ific": 2141,
      "zz": 2142,
      "Ġmicrophone": 2143,
      "Ġheav": 2144,
      "Ġalmost": 2145,
      "intage": 2146,
      "bably": 2147,
      "ĠSp": 2148,
      "Ġvillage": 2149,
      "resh": 2150,
      "Ġvintage": 2151,
      "Ġcolors": 2152,
      "mbrell": 2153,
      "Ġnational": 2154,
      "mark": 2155,
      "ices": 2156,
      "Ġwires": 2157,
      "vice": 2158,
      "Ġumbrell": 2159,
      "Ġfight": 2160,
      "Ġhills": 2161,
      "ience": 2162,
      "Ġbelieve": 2163,
      "vision": 2164,
      "Ġdisplay": 2165,
      "Ġplat": 2166,
      "Ġdied": 2167,
      "anch": 2168,
      "iam": 2169,
      "Ġprof": 2170,
      "Ġdead": 2171,
      "fect": 2172,
      "owed": 2173,
      "Ġeither": 2174,
      "Ġdry": 2175,
      "ĠLe": 2176,
      "uss": 2177,
      "Ġbrick": 2178,
      "Ġposs": 2179,
      "Ġcor": 2180,
      "Ġquest": 2181,
      "www": 2182,
      "ider": 2183,
      "Ġseason": 2184,
      "Ġtower": 2185,
      "scape": 2186,
      "ully": 2187,
      "Ġcupboard": 2188,
      ").": 2189,
      "Ġconcert": 2190,
      "ĠMm": 2191,
      "ĠJohn": 2192,
      "Ġtrave": 2193,
      "ï¿½ï¿½": 2194,
      "unk": 2195,
      "Ġstation": 2196,
      "opped": 2197,
      "ĠInd": 2198,
      "Ġbat": 2199,
      "Ġmobile": 2200,
      "oe": 2201,
      "Ġgrand": 2202,
      "Ġprom": 2203,
      "Ġdou": 2204,
      "ĠJust": 2205,
      "Ġbirds": 2206,
      "Ġmatter": 2207,
      "ĠSc": 2208,
      "OU": 2209,
      "cess": 2210,
      "Ġtv": 2211,
      "ĠPr": 2212,
      "mon": 2213,
      "Ġaw": 2214,
      "GMA": 2215,
      "Ġwasn": 2216,
      "Ġpaint": 2217,
      "ze": 2218,
      "ĠMummy": 2219,
      "Ġ&": 2220,
      "Ġlow": 2221,
      "ama": 2222,
      "Ġdanc": 2223,
      "ese": 2224,
      "?âĢĿ": 2225,
      "inal": 2226,
      "Ġwords": 2227,
      "ccer": 2228,
      "Ġnoise": 2229,
      "gy": 2230,
      "Ġgrey": 2231,
      "rawn": 2232,
      "Ġresp": 2233,
      "Ġable": 2234,
      "\",": 2235,
      "Ġinc": 2236,
      "ommy": 2237,
      "anged": 2238,
      "Ġfav": 2239,
      "Ġveget": 2240,
      "Ġfresh": 2241,
      "Ġcrowd": 2242,
      "Ġalready": 2243,
      "Ġfem": 2244,
      "Ġtimes": 2245,
      "ĠTHE": 2246,
      "rought": 2247,
      "Ġask": 2248,
      "Ġsaying": 2249,
      "Ġjob": 2250,
      "Ġstri": 2251,
      "Ġ6": 2252,
      "adow": 2253,
      "ĠCHI": 2254,
      "mor": 2255,
      "Ġkey": 2256,
      "Ġfell": 2257,
      "ex": 2258,
      "Ġes": 2259,
      "Ġstuff": 2260,
      "arch": 2261,
      "ense": 2262,
      "kes": 2263,
      "Ġsoccer": 2264,
      "Ġshape": 2265,
      "use": 2266,
      "It": 2267,
      "Ġtakes": 2268,
      "Ġcomput": 2269,
      "Ġindust": 2270,
      "Ġmirror": 2271,
      "Ġplates": 2272,
      "Ġheld": 2273,
      "Ġboxes": 2274,
      "Ġstairs": 2275,
      "PAR": 2276,
      "Ġpay": 2277,
      "Ġpower": 2278,
      "Ġdrawing": 2279,
      "Ġvide": 2280,
      "see": 2281,
      "Ġscul": 2282,
      "Ġwalks": 2283,
      "Ã©": 2284,
      "Ġshowing": 2285,
      "Ġbrother": 2286,
      "Ġeye": 2287,
      "Ġsoft": 2288,
      "Ġhuman": 2289,
      "bers": 2290,
      "cean": 2291,
      "Ġcold": 2292,
      "Ġlost": 2293,
      "Ġfencing": 2294,
      "ĠHis": 2295,
      "Ġpan": 2296,
      "ĠWho": 2297,
      "Ġspect": 2298,
      "pet": 2299,
      "Ġflags": 2300,
      "Ġbecame": 2301,
      "ided": 2302,
      "ucture": 2303,
      "ma": 2304,
      "Ġturned": 2305,
      "ĠJack": 2306,
      "Ġmotor": 2307,
      "ged": 2308,
      "Ġwatching": 2309,
      "elt": 2310,
      "Ġegg": 2311,
      "ected": 2312,
      "po": 2313,
      "ĠWhere": 2314,
      "Ġwine": 2315,
      "pty": 2316,
      "Ġfig": 2317,
      "Ġfing": 2318,
      "Ġpos": 2319,
      "Ġtem": 2320,
      "Ġvar": 2321,
      "Ġquick": 2322,
      "Ġhope": 2323,
      "Ġfeature": 2324,
      "Ġlandscape": 2325,
      "Ġindoor": 2326,
      "arb": 2327,
      "Ġdrawn": 2328,
      "Ġwrong": 2329,
      "Ġdep": 2330,
      "Ġsent": 2331,
      "Ġunderstand": 2332,
      "ners": 2333,
      "Ġchurch": 2334,
      "Ġeff": 2335,
      "iting": 2336,
      "otta": 2337,
      "ced": 2338,
      "Ġbedroom": 2339,
      "ĠZ": 2340,
      "Ġtea": 2341,
      "Ġbegan": 2342,
      "itch": 2343,
      "Ġbutter": 2344,
      "Ġge": 2345,
      "Ġtraditional": 2346,
      "Ġprobably": 2347,
      "Ġtelevision": 2348,
      "Ġplayed": 2349,
      "omas": 2350,
      "nam": 2351,
      "ING": 2352,
      "oons": 2353,
      "Ġru": 2354,
      "partment": 2355,
      "Ġframes": 2356,
      "astic": 2357,
      "Ġminute": 2358,
      "Ġsweet": 2359,
      "Ġguy": 2360,
      "Ġprep": 2361,
      "Ġring": 2362,
      "ening": 2363,
      "lly": 2364,
      "Ġsal": 2365,
      "Ġtyp": 2366,
      "Ġwat": 2367,
      "ĠSome": 2368,
      "Ġmess": 2369,
      "Ġstructure": 2370,
      "bed": 2371,
      "Ġscen": 2372,
      "Ġproject": 2373,
      "Ġmoon": 2374,
      "pture": 2375,
      "Ġwife": 2376,
      "fully": 2377,
      "Ġattraction": 2378,
      "Ġclim": 2379,
      "ĠAre": 2380,
      "Ġ7": 2381,
      "Ġimport": 2382,
      "Ġfine": 2383,
      "Ġpool": 2384,
      "Ġgets": 2385,
      "Ġwouldn": 2386,
      "used": 2387,
      "Ġless": 2388,
      "DAD": 2389,
      "Ġcheck": 2390,
      "ips": 2391,
      "Ġvideo": 2392,
      "ĠCom": 2393,
      "ison": 2394,
      "ĠWh": 2395,
      "Ġplatform": 2396,
      "cri": 2397,
      "Ġeleph": 2398,
      "Ġbuilt": 2399,
      "ained": 2400,
      "tle": 2401,
      "Ġsir": 2402,
      "Ġarr": 2403,
      "Ġpull": 2404,
      "Ġ198": 2405,
      "Ġwheel": 2406,
      "ober": 2407,
      "Ġla": 2408,
      "Ġband": 2409,
      "Ġje": 2410,
      "Ġpage": 2411,
      "alth": 2412,
      "Ġsever": 2413,
      "Ġtouch": 2414,
      "Ġ8": 2415,
      "Ġmotion": 2416,
      "And": 2417,
      "Ġsculpture": 2418,
      "Ġbrought": 2419,
      "Ġnat": 2420,
      "Ġsuper": 2421,
      "Ġfemale": 2422,
      "ters": 2423,
      "Ġproble": 2424,
      "Ġempty": 2425,
      "Ġgun": 2426,
      "Ġocean": 2427,
      "Ġdaughter": 2428,
      "ato": 2429,
      "mbol": 2430,
      "ives": 2431,
      "Ġfair": 2432,
      "Ġdesk": 2433,
      "Ġwarm": 2434,
      "Ġseries": 2435,
      "Ġpal": 2436,
      "Ġseveral": 2437,
      "ĠStates": 2438,
      "Ġcast": 2439,
      "Ġclean": 2440,
      "stem": 2441,
      "Ġneck": 2442,
      "lling": 2443,
      "Ġcertain": 2444,
      "just": 2445,
      "Ġra": 2446,
      "Ġyourself": 2447,
      "cy": 2448,
      "iny": 2449,
      "Ġcab": 2450,
      "Ġseemed": 2451,
      "Ġsymbol": 2452,
      "Ġprov": 2453,
      "utes": 2454,
      "ney": 2455,
      "craft": 2456,
      "Ġhorses": 2457,
      "Ġexc": 2458,
      "ards": 2459,
      "Ġcomputer": 2460,
      "ĠPh": 2461,
      "Ġoften": 2462,
      "Ġev": 2463,
      "Ġage": 2464,
      "EN": 2465,
      "Ġplayers": 2466,
      "Ġmeans": 2467,
      "ution": 2468,
      "Ġequ": 2469,
      "nis": 2470,
      "Ġwaiting": 2471,
      "illy": 2472,
      "Ġpillars": 2473,
      "Ġdinner": 2474,
      "Ġspecial": 2475,
      "men": 2476,
      "ON": 2477,
      "ĠOr": 2478,
      "Ġflat": 2479,
      "Ġbags": 2480,
      "haps": 2481,
      "ĠGood": 2482,
      "Ġwear": 2483,
      "Ġcarpet": 2484,
      "cles": 2485,
      "undred": 2486,
      "Ġgray": 2487,
      "Ġstrong": 2488,
      "illed": 2489,
      "itary": 2490,
      "Ġrepl": 2491,
      "Ġrele": 2492,
      "Ġgiven": 2493,
      "Ġpainted": 2494,
      "Ġeight": 2495,
      "Ġdogs": 2496,
      "Ġtrop": 2497,
      "Ġfigure": 2498,
      "Ġguess": 2499,
      "izz": 2500,
      "aper": 2501,
      "ĠTom": 2502,
      "Ġthr": 2503,
      "Ġorig": 2504,
      "de": 2505,
      "Ġrestaur": 2506,
      "phone": 2507,
      "Ġath": 2508,
      "Ġtype": 2509,
      "19": 2510,
      "Ġchange": 2511,
      "alk": 2512,
      "Ġnorth": 2513,
      "Ġiron": 2514,
      "Ġann": 2515,
      "Ġvoice": 2516,
      "iter": 2517,
      "Ġmaybe": 2518,
      "Ġblock": 2519,
      "Ġones": 2520,
      "Ġgotta": 2521,
      "Ġwants": 2522,
      "Ġsol": 2523,
      "ral": 2524,
      "Ġocc": 2525,
      "Ġelectric": 2526,
      "Ġperforms": 2527,
      "Ġdoctor": 2528,
      "Ġhelmet": 2529,
      "ĠQ": 2530,
      "Ġbranch": 2531,
      "Ġgolden": 2532,
      "ĠLook": 2533,
      "Ġmachine": 2534,
      "Ġcond": 2535,
      "born": 2536,
      "Ġsaf": 2537,
      "Ġbur": 2538,
      "vi": 2539,
      "Ġglo": 2540,
      "Ġlegs": 2541,
      "ism": 2542,
      "Ġfast": 2543,
      "lected": 2544,
      "ention": 2545,
      "gl": 2546,
      "Ġsou": 2547,
      "aim": 2548,
      "Ġtex": 2549,
      "Ġhundred": 2550,
      "atic": 2551,
      "Ġcircle": 2552,
      "Ġtexture": 2553,
      "Ġhall": 2554,
      "Ġsomeone": 2555,
      "Ġnet": 2556,
      "Ġpoor": 2557,
      "Ġago": 2558,
      "Ġpurple": 2559,
      "Ġkill": 2560,
      "Ġpartic": 2561,
      "ned": 2562,
      "Ġlearn": 2563,
      "Ġswimming": 2564,
      "Ġrece": 2565,
      "hey": 2566,
      "Ġalone": 2567,
      "Ġspectac": 2568,
      "ĠâĢĵ": 2569,
      "good": 2570,
      "Ġthrow": 2571,
      "Well": 2572,
      "ops": 2573,
      "Ġgovern": 2574,
      "Ġdeath": 2575,
      "Ġoutdoors": 2576,
      "ana": 2577,
      "Ġcompany": 2578,
      "Ġexample": 2579,
      "Ġtur": 2580,
      "ĠGer": 2581,
      "ha": 2582,
      "Ġval": 2583,
      "ik": 2584,
      "ĠWill": 2585,
      "Ġsinging": 2586,
      "Ġlab": 2587,
      "for": 2588,
      "EL": 2589,
      "ially": 2590,
      "Ġcoat": 2591,
      "FCH": 2592,
      "reat": 2593,
      "aged": 2594,
      "ume": 2595,
      "Ġrecord": 2596,
      "bles": 2597,
      "Ġang": 2598,
      "Ġshore": 2599,
      "selves": 2600,
      "Ġspoon": 2601,
      "Ġ197": 2602,
      "Ġpick": 2603,
      "house": 2604,
      "!âĢĿ": 2605,
      "Ġstands": 2606,
      "Ġbaseball": 2607,
      "Ġphotograph": 2608,
      "Ġpublic": 2609,
      "Ġperfect": 2610,
      "Ġpair": 2611,
      "rol": 2612,
      "Ġcow": 2613,
      "Ġmilk": 2614,
      "Ġeasy": 2615,
      "Ġrack": 2616,
      "ĠĠĠĠĠĠĠĠ": 2617,
      "ently": 2618,
      "Ġsystem": 2619,
      "Ġlines": 2620,
      "Ġpupp": 2621,
      "Ġcatch": 2622,
      "Ġbal": 2623,
      "like": 2624,
      "Ġfishing": 2625,
      "Ġdriving": 2626,
      "Ġ.": 2627,
      "Ġbride": 2628,
      "rench": 2629,
      "Ġblank": 2630,
      "ĠDid": 2631,
      "Ġrather": 2632,
      "Ġsilver": 2633,
      "Ġ9": 2634,
      "Ġkiss": 2635,
      "hor": 2636,
      "estern": 2637,
      "Ġsmile": 2638,
      "Ġfelt": 2639,
      "iction": 2640,
      "Ġseat": 2641,
      "rent": 2642,
      "eter": 2643,
      "ara": 2644,
      "Ġimportant": 2645,
      "Ġproper": 2646,
      "Ġsurround": 2647,
      "anger": 2648,
      "Ġbuy": 2649,
      "iously": 2650,
      "Ġhuh": 2651,
      "Ġthank": 2652,
      "Ġprint": 2653,
      "000": 2654,
      "Ġleaf": 2655,
      "UR": 2656,
      "oman": 2657,
      "Ġmyself": 2658,
      "ĠAlso": 2659,
      "ils": 2660,
      "rew": 2661,
      "Ġju": 2662,
      "Ġblurry": 2663,
      "Ġtent": 2664,
      "ron": 2665,
      "Ġadm": 2666,
      "Ġstars": 2667,
      "cket": 2668,
      "enty": 2669,
      "Ġaren": 2670,
      "Ġcy": 2671,
      "Ġcompet": 2672,
      "Ġcase": 2673,
      "ĠThank": 2674,
      "because": 2675,
      "Ġopp": 2676,
      "Ġminutes": 2677,
      "Ġhon": 2678,
      "Ġgar": 2679,
      "Ġcarrying": 2680,
      "Ġteac": 2681,
      "Ġdiv": 2682,
      "Ġlad": 2683,
      "Ġmine": 2684,
      "Ġothers": 2685,
      "ĠAfter": 2686,
      "Ġcool": 2687,
      "Ġhit": 2688,
      "ask": 2689,
      "Ġorder": 2690,
      "ls": 2691,
      "Ġsingle": 2692,
      "ĠDaddy": 2693,
      "mbers": 2694,
      "Ġstorm": 2695,
      "fort": 2696,
      "Ġgiving": 2697,
      "Ġtennis": 2698,
      "Ġpack": 2699,
      "Ġcouch": 2700,
      "isc": 2701,
      "Ġdeal": 2702,
      "Ġumbrella": 2703,
      "Ġstreets": 2704,
      "Ġ10": 2705,
      "Ġaff": 2706,
      "Ġtrue": 2707,
      "Ġpieces": 2708,
      "friend": 2709,
      "Ġarm": 2710,
      "iger": 2711,
      "OR": 2712,
      "Ġcurtains": 2713,
      "What": 2714,
      "Ġmembers": 2715,
      "Ġcouldn": 2716,
      "Ġairpl": 2717,
      "Ġstudents": 2718,
      "ging": 2719,
      "Uh": 2720,
      "Ġmix": 2721,
      "Ġdeep": 2722,
      "Ġconstr": 2723,
      "Ġmill": 2724,
      "Ġautom": 2725,
      "Ġfavor": 2726,
      "Ġdigital": 2727,
      "Ġwish": 2728,
      "ails": 2729,
      "anches": 2730,
      "Mummy": 2731,
      "irty": 2732,
      "uge": 2733,
      "umb": 2734,
      "itect": 2735,
      "Ġpress": 2736,
      "Ġrestaurant": 2737,
      "Ġduck": 2738,
      "MAR": 2739,
      "Ġnumbers": 2740,
      "Ġbike": 2741,
      "ped": 2742,
      "een": 2743,
      "Ġbathroom": 2744,
      "rest": 2745,
      "Ġrailway": 2746,
      "Ġgoal": 2747,
      "iversity": 2748,
      "olf": 2749,
      "bye": 2750,
      "ances": 2751,
      "ĠHer": 2752,
      "Ġfur": 2753,
      "Ġreading": 2754,
      "Ġbranches": 2755,
      "Ġfix": 2756,
      "Ġmilitary": 2757,
      "Ġcere": 2758,
      "Yeah": 2759,
      "Ġcommun": 2760,
      "ality": 2761,
      "But": 2762,
      "Ġtraining": 2763,
      "Ġoper": 2764,
      "asure": 2765,
      "Ġaircraft": 2766,
      "ler": 2767,
      "Ġwaves": 2768,
      "oose": 2769,
      "ility": 2770,
      "Ġthinking": 2771,
      "Ġbasketball": 2772,
      "itor": 2773,
      "Ġsale": 2774,
      "Ġest": 2775,
      "Ġsmart": 2776,
      "Ġarchitect": 2777,
      "Yes": 2778,
      "Ġarms": 2779,
      "ued": 2780,
      "ĠFl": 2781,
      "ĠThomas": 2782,
      "over": 2783,
      "Ġmist": 2784,
      "band": 2785,
      "Ġheavy": 2786,
      "Ġregion": 2787,
      "Ġbegin": 2788,
      "Ġengine": 2789,
      "com": 2790,
      "lete": 2791,
      "gram": 2792,
      "Ġ196": 2793,
      "noon": 2794,
      "ately": 2795,
      "iant": 2796,
      "Ġindustry": 2797,
      "Ġfinished": 2798,
      "Ġsquare": 2799,
      "Ġrace": 2800,
      "iers": 2801,
      "Ġsteps": 2802,
      "Ġexper": 2803,
      "angu": 2804,
      "more": 2805,
      "ole": 2806,
      "oral": 2807,
      "Ġposters": 2808,
      "ĠGe": 2809,
      "Ġsimple": 2810,
      "Ġearth": 2811,
      "Ġgrap": 2812,
      "Ġfrog": 2813,
      "Ġsometimes": 2814,
      "Ġsurpr": 2815,
      "Ġnatural": 2816,
      "Ġburn": 2817,
      "Ġherself": 2818,
      "Ġbuild": 2819,
      "case": 2820,
      "Ġbroken": 2821,
      "Ġfa": 2822,
      "Ġreflection": 2823,
      "Ġclos": 2824,
      "Ġinsp": 2825,
      "Ġquestion": 2826,
      "Ġcoll": 2827,
      "eared": 2828,
      "ĠYour": 2829,
      "Ġleast": 2830,
      "raight": 2831,
      "Ġsister": 2832,
      "aped": 2833,
      "fast": 2834,
      "Ġshopping": 2835,
      "icks": 2836,
      "Ġafternoon": 2837,
      "ĠWith": 2838,
      "ums": 2839,
      "ges": 2840,
      "Ġamerican": 2841,
      "Ġcentury": 2842,
      "ighb": 2843,
      "Ġfit": 2844,
      "oom": 2845,
      "abb": 2846,
      "Ġhurt": 2847,
      "Ġenjoy": 2848,
      "Ġca": 2849,
      "Ġjeans": 2850,
      "hi": 2851,
      "Ġsucc": 2852,
      "Ġfinal": 2853,
      "ĠEd": 2854,
      "ĠPe": 2855,
      "cial": 2856,
      "velop": 2857,
      "ĠBen": 2858,
      "ĠTr": 2859,
      "Ġquiet": 2860,
      "Ġsupport": 2861,
      "Ġathlete": 2862,
      "have": 2863,
      "Ġsticks": 2864,
      "Ġsides": 2865,
      "Ġthird": 2866,
      "erry": 2867,
      "ann": 2868,
      "ĠPro": 2869,
      "thank": 2870,
      "ains": 2871,
      "Ġclassic": 2872,
      "Ġvegetables": 2873,
      "Ġsouth": 2874,
      "No": 2875,
      "||": 2876,
      "Ġfruits": 2877,
      "ining": 2878,
      "Ġbecome": 2879,
      "Ġdream": 2880,
      "Ġsleeping": 2881,
      "hel": 2882,
      "Ġhung": 2883,
      "Ġ$": 2884,
      "Ġappro": 2885,
      "Ġdescri": 2886,
      "Ġlocation": 2887,
      "then": 2888,
      "Ġfruit": 2889,
      "We": 2890,
      "oring": 2891,
      "Ġrods": 2892,
      "rance": 2893,
      "ristian": 2894,
      "gest": 2895,
      "got": 2896,
      "ead": 2897,
      "Ġattends": 2898,
      "Ġahead": 2899,
      "ique": 2900,
      "Ġwash": 2901,
      "NAN": 2902,
      "ef": 2903,
      "ngth": 2904,
      "ĠMOT": 2905,
      "oops": 2906,
      "ustom": 2907,
      "Ġchick": 2908,
      "ĠHar": 2909,
      "Ġansw": 2910,
      "Ġaction": 2911,
      "Ġdirect": 2912,
      "ĠCount": 2913,
      "ĠAm": 2914,
      "ey": 2915,
      "ta": 2916,
      "Ġlocal": 2917,
      "Ġplastic": 2918,
      "Ġhistor": 2919,
      "fall": 2920,
      "Ġcomplete": 2921,
      "Ġaf": 2922,
      "azing": 2923,
      "ays": 2924,
      "Ġstraight": 2925,
      "oop": 2926,
      "Ġmale": 2927,
      "Ġwatermark": 2928,
      "Ġtatt": 2929,
      "Ġwide": 2930,
      "Ġblood": 2931,
      "Ġlaw": 2932,
      "uhhuh": 2933,
      "ĠEx": 2934,
      "Ġfans": 2935,
      "con": 2936,
      "LD": 2937,
      "ci": 2938,
      "Ġshed": 2939,
      "orge": 2940,
      "Ġcabin": 2941,
      "ocal": 2942,
      "ĠPhil": 2943,
      "Ġtattoo": 2944,
      "Ġposition": 2945,
      "RA": 2946,
      "Ġpig": 2947,
      "Ġhus": 2948,
      "Ġcirc": 2949,
      "morrow": 2950,
      "Ġav": 2951,
      "That": 2952,
      "Ġfif": 2953,
      "Ġlangu": 2954,
      "Ġanc": 2955,
      "Ġnose": 2956,
      "ager": 2957,
      "Ġlovely": 2958,
      "Ġride": 2959,
      "Ġdining": 2960,
      "Ġhotel": 2961,
      "Ġairplane": 2962,
      "Ġsheep": 2963,
      "ĠX": 2964,
      "vert": 2965,
      "Ġprogram": 2966,
      "work": 2967,
      "ases": 2968,
      "Ġcried": 2969,
      "Ġformer": 2970,
      "20": 2971,
      "Ġgovernment": 2972,
      "ocol": 2973,
      "ĠCol": 2974,
      "Ġbread": 2975,
      "Ġant": 2976,
      "Ġgrowing": 2977,
      "icket": 2978,
      "Ġguys": 2979,
      "Ġdressed": 2980,
      "amb": 2981,
      "Ġlar": 2982,
      "Th": 2983,
      "Ġroll": 2984,
      "Ġdrive": 2985,
      "Ġvol": 2986,
      "Ġwithin": 2987,
      "Ġbelow": 2988,
      "ĠGet": 2989,
      "Ġinterior": 2990,
      "ept": 2991,
      "Ġpract": 2992,
      "Ġparent": 2993,
      "Ġtie": 2994,
      "ĠJan": 2995,
      "Ġhosp": 2996,
      "ebr": 2997,
      "Ġelephant": 2998,
      "ru": 2999,
      "Ġputting": 3000,
      "Ġtall": 3001,
      "ĠEnglish": 3002,
      "Ġaward": 3003,
      "Ġrunway": 3004,
      "Ġsend": 3005,
      "ades": 3006,
      "Ġneighb": 3007,
      "thern": 3008,
      "Ġtried": 3009,
      "Ġlots": 3010,
      "rict": 3011,
      "Ġattack": 3012,
      "Ġbreakfast": 3013,
      "ousand": 3014,
      "Ġnamed": 3015,
      "Ġdresses": 3016,
      "Ġreport": 3017,
      "Ġsuccess": 3018,
      "Ġreason": 3019,
      "Ġdam": 3020,
      "Ġfamous": 3021,
      "Ġchance": 3022,
      "Ġinform": 3023,
      "Ġstraw": 3024,
      "Ġfollowing": 3025,
      "Ġauthor": 3026,
      "]?": 3027,
      "Ġdi": 3028,
      "Ġtill": 3029,
      "Ġhuge": 3030,
      "ander": 3031,
      "ĠCar": 3032,
      "Ġchamp": 3033,
      "Ġrelig": 3034,
      "Ġinstruments": 3035,
      "uts": 3036,
      "udy": 3037,
      "Ġking": 3038,
      "Ġcoun": 3039,
      "Ġpriv": 3040,
      "Ġsite": 3041,
      "ĠBrit": 3042,
      "Ġspectacles": 3043,
      "cks": 3044,
      "Ġbusy": 3045,
      "ĠEl": 3046,
      "ajor": 3047,
      "Ġhours": 3048,
      "Ġbank": 3049,
      "Ġtwenty": 3050,
      "apan": 3051,
      "ĠGerman": 3052,
      "Ġbusinessman": 3053,
      "Ġsits": 3054,
      "Ġcollection": 3055,
      "does": 3056,
      "Ġhealth": 3057,
      "uly": 3058,
      "shall": 3059,
      "Ġplaces": 3060,
      "Ġran": 3061,
      "Ġdancing": 3062,
      "Ġprofession": 3063,
      "bing": 3064,
      "Ġmeeting": 3065,
      "ived": 3066,
      "Ġtropical": 3067,
      "old": 3068,
      "Ġimages": 3069,
      "Ġforward": 3070,
      "Ġ195": 3071,
      "Ġknife": 3072,
      "ĠAd": 3073,
      "Ġfilled": 3074,
      "ests": 3075,
      "rise": 3076,
      "Ġstem": 3077,
      "ĠMan": 3078,
      "ĠWor": 3079,
      "Ġgrow": 3080,
      "Ġmarried": 3081,
      "Ġpond": 3082,
      "agon": 3083,
      "cer": 3084,
      "Ġthousand": 3085,
      "aces": 3086,
      "Ġhusband": 3087,
      "Ġdrinking": 3088,
      "ude": 3089,
      "Ġ15": 3090,
      "Ġdistance": 3091,
      "Ġtrail": 3092,
      "Ġlived": 3093,
      "ux": 3094,
      "fly": 3095,
      "apped": 3096,
      "Ġplays": 3097,
      "Ġincluding": 3098,
      "Ġesc": 3099,
      "Ġphotos": 3100,
      "Ġpoints": 3101,
      "Ġdest": 3102,
      "Ġ17": 3103,
      "ĠDr": 3104,
      "lymp": 3105,
      "nic": 3106,
      "val": 3107,
      "Ġtrip": 3108,
      "raz": 3109,
      "Ġpet": 3110,
      "Ġopening": 3111,
      "Ġgate": 3112,
      "Ġ...": 3113,
      "etch": 3114,
      "Ġflo": 3115,
      "Ġflight": 3116,
      "bl": 3117,
      "ination": 3118,
      "Ġcustom": 3119,
      "two": 3120,
      "iety": 3121,
      "Ġfloral": 3122,
      "Ġsmoke": 3123,
      "ĠSe": 3124,
      "Ġscene": 3125,
      "Ġadv": 3126,
      "Ġcos": 3127,
      "Ġopened": 3128,
      "ĠMe": 3129,
      "Ġconstruction": 3130,
      "ills": 3131,
      "Ġshoot": 3132,
      "Ġentrance": 3133,
      "Ġbou": 3134,
      "Ġ12": 3135,
      "Ġstood": 3136,
      "col": 3137,
      "uth": 3138,
      "Ġglad": 3139,
      "Ġcentre": 3140,
      "when": 3141,
      "Ġvers": 3142,
      "Ġdevelop": 3143,
      "Ġtired": 3144,
      "Ġsunrise": 3145,
      "ĠFrance": 3146,
      "pril": 3147,
      "rel": 3148,
      "ĠFrench": 3149,
      "entle": 3150,
      "Ġcurrent": 3151,
      "Ġnature": 3152,
      "Ġshut": 3153,
      "Ġcelebrates": 3154,
      "Ġhospital": 3155,
      "Ġproblem": 3156,
      "Ġwestern": 3157,
      "Ġgreet": 3158,
      "ais": 3159,
      "Ġkilled": 3160,
      "ĠYork": 3161,
      "Ġworks": 3162,
      "Ġconcept": 3163,
      "aser": 3164,
      "Ġkne": 3165,
      "ĠCap": 3166,
      "Ġbord": 3167,
      "He": 3168,
      "Ġfeed": 3169,
      "cent": 3170,
      "Ġshelf": 3171,
      "kin": 3172,
      "ĠAh": 3173,
      "Ġwrite": 3174,
      "Ġgener": 3175,
      "Ġseven": 3176,
      "Ġmember": 3177,
      "Ġsus": 3178,
      "ĠPl": 3179,
      "Ġjuice": 3180,
      "ĠAb": 3181,
      "Ġholds": 3182,
      "Ġsad": 3183,
      "ĠDav": 3184,
      "Ġthemselves": 3185,
      "ĠBob": 3186,
      "ĠKing": 3187,
      "gu": 3188,
      "Ġlives": 3189,
      "omes": 3190,
      "Ġeffect": 3191,
      "glass": 3192,
      "Ġlevel": 3193,
      "Ġfuck": 3194,
      "oot": 3195,
      "IC": 3196,
      "Ġhole": 3197,
      "ĠEvery": 3198,
      "Ġreleased": 3199,
      "Ġconst": 3200,
      "dden": 3201,
      "Ġclub": 3202,
      "Ġcolle": 3203,
      "ĠCon": 3204,
      "Ġrope": 3205,
      "Ġchocol": 3206,
      "Ġdust": 3207,
      "Ġancient": 3208,
      "Ġfavorite": 3209,
      "view": 3210,
      "Ġteacher": 3211,
      "Ġoriginal": 3212,
      "Ġfalling": 3213,
      "mony": 3214,
      "raid": 3215,
      "ories": 3216,
      "ĠBy": 3217,
      "Ġnur": 3218,
      "Ġhop": 3219,
      "Ġ2020": 3220,
      "Ġpump": 3221,
      "Ġusually": 3222,
      "Ġtoward": 3223,
      "ĠJune": 3224,
      "Ġmonths": 3225,
      "nes": 3226,
      "obile": 3227,
      "Ġpopular": 3228,
      "Ġintern": 3229,
      "Ġceremony": 3230,
      "Ġquar": 3231,
      "izza": 3232,
      "Ġbanners": 3233,
      "Ġsomebody": 3234,
      "ĠPer": 3235,
      "cha": 3236,
      "ĠJapan": 3237,
      "Ġpod": 3238,
      "ĠJim": 3239,
      "ically": 3240,
      "alright": 3241,
      "che": 3242,
      "Ġpillar": 3243,
      "hood": 3244,
      "arling": 3245,
      "aches": 3246,
      "ĠMarch": 3247,
      "nament": 3248,
      "Ġtrouble": 3249,
      "Ġcourt": 3250,
      "Ġjumping": 3251,
      "Ġbeauty": 3252,
      "Ġhistory": 3253,
      "Ġsudden": 3254,
      "Ġcaught": 3255,
      "Ġcop": 3256,
      "Ġleaving": 3257,
      "Ġwel": 3258,
      "urday": 3259,
      "Ġcreated": 3260,
      "ĠBecause": 3261,
      "though": 3262,
      "ĠGrand": 3263,
      "Ġleader": 3264,
      "Ġcommon": 3265,
      "Ġfre": 3266,
      "LL": 3267,
      "Ġcontrol": 3268,
      "Ġgeneral": 3269,
      "Ġtiss": 3270,
      "aul": 3271,
      "Ġcapital": 3272,
      "ugg": 3273,
      "Ġwaving": 3274,
      "ctober": 3275,
      "co": 3276,
      "Ġski": 3277,
      "Ġspir": 3278,
      "ugust": 3279,
      "lease": 3280,
      "Ġproduc": 3281,
      "Ġalb": 3282,
      "Ġ194": 3283,
      "Ġfinish": 3284,
      "Ġut": 3285,
      "mother": 3286,
      "Ġmillion": 3287,
      "âĮ": 3288,
      "Ġrad": 3289,
      "Ġsafe": 3290,
      "Ġdad": 3291,
      "Ġconn": 3292,
      "Ġwhether": 3293,
      "ashing": 3294,
      "alian": 3295,
      "Ġterr": 3296,
      "Ġwriting": 3297,
      "ĠCounty": 3298,
      "Ġcell": 3299,
      "Ġtit": 3300,
      "lo": 3301,
      "Ġtray": 3302,
      "Ġton": 3303,
      "Ġlocated": 3304,
      "Ġsmo": 3305,
      "Ġsink": 3306,
      "Ġord": 3307,
      "Ġtoile": 3308,
      "Ġapple": 3309,
      "Ġlog": 3310,
      "Ġperhaps": 3311,
      "Ġdance": 3312,
      "Ġspl": 3313,
      "Ġpossible": 3314,
      "por": 3315,
      "TER": 3316,
      "ĠOf": 3317,
      "Ġkno": 3318,
      "ai": 3319,
      "Ġfinger": 3320,
      "urb": 3321,
      "Ġalright": 3322,
      "Ġafraid": 3323,
      "place": 3324,
      "Ġexcl": 3325,
      "ency": 3326,
      "Ġsight": 3327,
      "Ġdanger": 3328,
      "net": 3329,
      "ified": 3330,
      "Ġ!": 3331,
      "Ġ16": 3332,
      "Ġcups": 3333,
      "aint": 3334,
      "Ġneeds": 3335,
      "Ġexpress": 3336,
      "Ġmouse": 3337,
      "Ġhappen": 3338,
      "inting": 3339,
      "Ġnews": 3340,
      "Ġfeeling": 3341,
      "--------": 3342,
      "Ġstudy": 3343,
      "Ġeggs": 3344,
      "Ġappear": 3345,
      "rod": 3346,
      "Ġparents": 3347,
      "Ġfal": 3348,
      "Ġproduct": 3349,
      "LO": 3350,
      "Ġdish": 3351,
      "Ġedge": 3352,
      "Ġfut": 3353,
      "ĠFrank": 3354,
      "Ġnor": 3355,
      "aimed": 3356,
      "Ġlunch": 3357,
      "Ġclosed": 3358,
      "Ġdem": 3359,
      "Ġdirection": 3360,
      "Ġgentle": 3361,
      "Ġfilming": 3362,
      "nday": 3363,
      "Ġtrunk": 3364,
      "Ġdeck": 3365,
      "Ġdiffic": 3366,
      "ization": 3367,
      "oud": 3368,
      "iraff": 3369,
      "yl": 3370,
      "Ġplane": 3371,
      "Ġknows": 3372,
      "uce": 3373,
      "resent": 3374,
      "Ġmoved": 3375,
      "Ġvarious": 3376,
      "Ġled": 3377,
      "ĠTop": 3378,
      "Ġvase": 3379,
      "Ġonto": 3380,
      "attle": 3381,
      "iod": 3382,
      "Ġlisten": 3383,
      "Ġwet": 3384,
      "Ġdouble": 3385,
      "eb": 3386,
      "Ġpodium": 3387,
      "ĠBet": 3388,
      "Ġdev": 3389,
      "ounds": 3390,
      "child": 3391,
      "itted": 3392,
      "adium": 3393,
      "II": 3394,
      "Ġins": 3395,
      "Ġlapse": 3396,
      "Ġaud": 3397,
      "eddy": 3398,
      "ĠYOU": 3399,
      "Ġworked": 3400,
      "Ġspeed": 3401,
      "ured": 3402,
      "Ġcomb": 3403,
      "ĠJoe": 3404,
      "Ġluck": 3405,
      "Ġruns": 3406,
      "ĠEur": 3407,
      "antic": 3408,
      "Ġsen": 3409,
      "Ġpizza": 3410,
      "ology": 3411,
      "Ġanswer": 3412,
      "Ġenjo": 3413,
      "ĠMin": 3414,
      "quet": 3415,
      "Ġfort": 3416,
      "ĠWorld": 3417,
      "makes": 3418,
      "ham": 3419,
      "ĠErm": 3420,
      "Ġsave": 3421,
      "Ġlonger": 3422,
      "Ġcontaining": 3423,
      "Ġhy": 3424,
      "ĠJanuary": 3425,
      "time": 3426,
      "Ġharb": 3427,
      "stairs": 3428,
      "cember": 3429,
      "Ġscar": 3430,
      "Ġdesigned": 3431,
      "omb": 3432,
      "Ġabs": 3433,
      "Ġcott": 3434,
      "Ġdaddy": 3435,
      "Ġtap": 3436,
      "ray": 3437,
      "ipped": 3438,
      "Ġpassed": 3439,
      "actly": 3440,
      "night": 3441,
      "Ġinstead": 3442,
      "Ġwire": 3443,
      "Ġtomorrow": 3444,
      "path": 3445,
      "Ġturns": 3446,
      "drop": 3447,
      "ĠSouth": 3448,
      "Ġcandles": 3449,
      "wor": 3450,
      "Ġideas": 3451,
      "Ġtoilet": 3452,
      "Ġtot": 3453,
      "ĠGu": 3454,
      "front": 3455,
      "Ġlaughing": 3456,
      "Ġmeat": 3457,
      "Ġfoc": 3458,
      "Ġbowls": 3459,
      "terday": 3460,
      "Ġforget": 3461,
      "ints": 3462,
      "Ġyours": 3463,
      "Ġfeat": 3464,
      "Ġcarry": 3465,
      "ille": 3466,
      "Ġadded": 3467,
      "ales": 3468,
      "Ġcry": 3469,
      "Ġfurn": 3470,
      "Ġautomobile": 3471,
      "erm": 3472,
      "Ġsuppose": 3473,
      "Ġputs": 3474,
      "Ġgas": 3475,
      "CAR": 3476,
      "Ġsick": 3477,
      "Ġgift": 3478,
      "Ġshadow": 3479,
      "Ġstudio": 3480,
      "tered": 3481,
      "Ġgames": 3482,
      "Ġbased": 3483,
      "ulation": 3484,
      "vember": 3485,
      "Ġrib": 3486,
      "Ġsession": 3487,
      "Ġchocolate": 3488,
      "ris": 3489,
      "Ġdoub": 3490,
      "Ġawards": 3491,
      "son": 3492,
      "Ġgiraff": 3493,
      "Ġrow": 3494,
      "Ġstair": 3495,
      "Ġpub": 3496,
      "Ġ193": 3497,
      "Ġkeyboard": 3498,
      "Ġtest": 3499,
      "Ġsau": 3500,
      "Ġmult": 3501,
      "Ġsail": 3502,
      "Ġchicken": 3503,
      "cked": 3504,
      "UN": 3505,
      "Ġperiod": 3506,
      "Ġapartment": 3507,
      "Ġtrun": 3508,
      "Ġquickly": 3509,
      "Ġleather": 3510,
      "Ġlif": 3511,
      "Ġservice": 3512,
      "Ġdarling": 3513,
      "riage": 3514,
      "ites": 3515,
      "Ġdie": 3516,
      "hello": 3517,
      "Ġrust": 3518,
      "Ġballoons": 3519,
      "ĠBritish": 3520,
      "Ġspeaking": 3521,
      "Ġmid": 3522,
      "Ġrabb": 3523,
      "ection": 3524,
      "Ġreplied": 3525,
      "ption": 3526,
      "ĠPlease": 3527,
      "Ġtourists": 3528,
      "Ġboots": 3529,
      "ĠIndian": 3530,
      "Ġfork": 3531,
      "Ġdistrict": 3532,
      "Ġvan": 3533,
      "ĠTwo": 3534,
      "ĠCH": 3535,
      "Ġtast": 3536,
      "Ġshout": 3537,
      "erc": 3538,
      "eech": 3539,
      "may": 3540,
      "Ġhost": 3541,
      "Ġshr": 3542,
      "Ġmaster": 3543,
      "Ġstadium": 3544,
      "gar": 3545,
      "ĠTe": 3546,
      "Ġsile": 3547,
      "ĠHave": 3548,
      "Ġcards": 3549,
      "Ġinse": 3550,
      "lf": 3551,
      "Ġsuff": 3552,
      "RE": 3553,
      "Ġmiles": 3554,
      "Ġlanguage": 3555,
      "Ġresult": 3556,
      "ode": 3557,
      "Ġrelax": 3558,
      "inated": 3559,
      "Ġdecorated": 3560,
      "Ġgroom": 3561,
      "ipping": 3562,
      "Ġtape": 3563,
      "Ġnar": 3564,
      "Ġspend": 3565,
      "Ġskate": 3566,
      "istic": 3567,
      "erence": 3568,
      "Ġeveryone": 3569,
      "par": 3570,
      "PAT": 3571,
      "ae": 3572,
      "Ġrub": 3573,
      "Ġ]": 3574,
      "Ġstream": 3575,
      "Ġfiction": 3576,
      "udd": 3577,
      "Ġque": 3578,
      "Ġnine": 3579,
      "idence": 3580,
      "Ġskin": 3581,
      "Ġweather": 3582,
      "Ġbought": 3583,
      "wered": 3584,
      "ĠChristmas": 3585,
      "Ġfan": 3586,
      "Ġtiny": 3587,
      "ĠAN": 3588,
      "Ġselected": 3589,
      "hold": 3590,
      "Ġreturned": 3591,
      "urs": 3592,
      "Ġskyline": 3593,
      "eptember": 3594,
      "Ġseem": 3595,
      "Ġnoises": 3596,
      "Ġhoard": 3597,
      "Ġparts": 3598,
      "Ġorganis": 3599,
      "Ġjour": 3600,
      "Ġcastle": 3601,
      "Ġsheet": 3602,
      "Ġdetail": 3603,
      "Ġprivate": 3604,
      "Ġsize": 3605,
      "Ġstopped": 3606,
      "Ġfootpath": 3607,
      "Ġsounds": 3608,
      "Ġletters": 3609,
      "ald": 3610,
      "Ġhowever": 3611,
      "pens": 3612,
      "iform": 3613,
      "Ġsecret": 3614,
      "Ġbutterfly": 3615,
      "Ġmass": 3616,
      "Ġsoldiers": 3617,
      "which": 3618,
      "Ġfeaturing": 3619,
      "Ġmajor": 3620,
      "Ġrange": 3621,
      "Ġgrad": 3622,
      "Ġcheese": 3623,
      "Ġprin": 3624,
      "Ġdisapp": 3625,
      "Ġpuppy": 3626,
      "AP": 3627,
      "reen": 3628,
      "Ġrug": 3629,
      "Ġnearly": 3630,
      "ula": 3631,
      "Ġalbum": 3632,
      "Ġmeadow": 3633,
      "Ġgives": 3634,
      "ĠWar": 3635,
      "ram": 3636,
      "Ġdecorative": 3637,
      "bon": 3638,
      "Ġmommy": 3639,
      "Ġsurrounded": 3640,
      "Ġmagaz": 3641,
      "Ġinsect": 3642,
      "Ġchanged": 3643,
      "lls": 3644,
      "Ġrequ": 3645,
      "Ġvict": 3646,
      "Ġcannot": 3647,
      "ement": 3648,
      "ushed": 3649,
      "Ġhig": 3650,
      "ĠApril": 3651,
      "urd": 3652,
      "icking": 3653,
      "Ġanswered": 3654,
      "gas": 3655,
      "ox": 3656,
      "eds": 3657,
      "Ġrom": 3658,
      "Ġcomfort": 3659,
      "Ġshoe": 3660,
      "Ġcray": 3661,
      "ivil": 3662,
      "Ġfle": 3663,
      "Ġya": 3664,
      "ĠAmeric": 3665,
      "ardon": 3666,
      "Ġdecided": 3667,
      "Ġproperty": 3668,
      "Ġwoods": 3669,
      "ancy": 3670,
      "Ġsinger": 3671,
      "Ġspot": 3672,
      "Ġwhis": 3673,
      "Ġtub": 3674,
      "Ġ14": 3675,
      "Ġaccom": 3676,
      "nie": 3677,
      "Ġcostume": 3678,
      "Ġyesterday": 3679,
      "ĠAugust": 3680,
      "Ġquarter": 3681,
      "Ġteen": 3682,
      "Ġdesert": 3683,
      "Ġ11": 3684,
      "Ġsteel": 3685,
      "ilar": 3686,
      "rees": 3687,
      "Ġfollowed": 3688,
      "Ġstuck": 3689,
      "ĠOctober": 3690,
      "aded": 3691,
      "Ġfuture": 3692,
      "Ġpalm": 3693,
      "Ġstro": 3694,
      "oint": 3695,
      "Ġinformation": 3696,
      "ĠCal": 3697,
      "Ġgloves": 3698,
      "ĠÂ": 3699,
      "Ġextra": 3700,
      "Ġdepartment": 3701,
      "Ġconvers": 3702,
      "ionship": 3703,
      "Ġcelebrity": 3704,
      "ĠCaptain": 3705,
      "Ġeverybody": 3706,
      "Ġimag": 3707,
      "Ġcreate": 3708,
      "Ġoil": 3709,
      "Ġbelong": 3710,
      "Ġseated": 3711,
      "ares": 3712,
      "Ġcelebrate": 3713,
      "Ġdirector": 3714,
      "Ġhungry": 3715,
      "Ġpassen": 3716,
      "ĠEurope": 3717,
      "Ġhoney": 3718,
      "Ġfaces": 3719,
      "Ġet": 3720,
      "ĠNorth": 3721,
      "rible": 3722,
      "ĠPar": 3723,
      "Ġself": 3724,
      "Ġlim": 3725,
      "Ġcomed": 3726,
      "Ġthanks": 3727,
      "anges": 3728,
      "ĠSeptember": 3729,
      "ebruary": 3730,
      "Ġparticular": 3731,
      "Ġexpect": 3732,
      "Ġbouquet": 3733,
      "ĠNe": 3734,
      "Ġsugg": 3735,
      "Ġarranged": 3736,
      "Ġuniform": 3737,
      "Ġappeared": 3738,
      "uation": 3739,
      "ĠPres": 3740,
      "ĠSam": 3741,
      "Ġcheer": 3742,
      "Ġblanket": 3743,
      "Ġinteresting": 3744,
      "Ġanyone": 3745,
      "Ġstrange": 3746,
      "Ġsignal": 3747,
      "ĠSw": 3748,
      "Ġbroke": 3749,
      "Ġdat": 3750,
      "ooh": 3751,
      "AM": 3752,
      "ada": 3753,
      "ym": 3754,
      "Ġpretend": 3755,
      "Ġstamp": 3756,
      "box": 3757,
      "Ġpillows": 3758,
      "some": 3759,
      "Ġfountain": 3760,
      "ety": 3761,
      "rian": 3762,
      "Ġpray": 3763,
      "Ġpine": 3764,
      "Ġsetting": 3765,
      "Ġtravel": 3766,
      "ĠTO": 3767,
      "Ġworth": 3768,
      "ĠUniversity": 3769,
      "Ġlie": 3770,
      "Ġentire": 3771,
      "arp": 3772,
      "Ġcareer": 3773,
      "zen": 3774,
      "Ġlat": 3775,
      "enches": 3776,
      "yal": 3777,
      "acing": 3778,
      "ĠMary": 3779,
      "ateg": 3780,
      "ino": 3781,
      "ĠHello": 3782,
      "fer": 3783,
      "Ġseeing": 3784,
      "Ġpassing": 3785,
      "RY": 3786,
      "Ġfol": 3787,
      "ads": 3788,
      "Ġfollow": 3789,
      "Ġcloud": 3790,
      "Ġheads": 3791,
      "gie": 3792,
      "Ġwest": 3793,
      "oured": 3794,
      "Ġforce": 3795,
      "Ġbenches": 3796,
      "ĠAny": 3797,
      "osaur": 3798,
      "bow": 3799,
      "Ġlength": 3800,
      "Ġsenior": 3801,
      "Ġpipe": 3802,
      "Ġtelling": 3803,
      "Ġwebs": 3804,
      "Ġmonkey": 3805,
      "Ġ13": 3806,
      "ĠNovember": 3807,
      "Ġsketch": 3808,
      "Ġshowed": 3809,
      "Ġreached": 3810,
      "ĠâĢĺ": 3811,
      "Ġcas": 3812,
      "Ġcables": 3813,
      "wood": 3814,
      "empt": 3815,
      "Ġskating": 3816,
      "oll": 3817,
      "ĠEngland": 3818,
      "ĠFrom": 3819,
      "Ġteeth": 3820,
      "emy": 3821,
      "Ġpuzz": 3822,
      "Ġwhate": 3823,
      "Ġwaterfall": 3824,
      "Ġlau": 3825,
      "Ġteddy": 3826,
      "Ġpose": 3827,
      "Ġenjoying": 3828,
      "aced": 3829,
      "hered": 3830,
      "Ġcliff": 3831,
      "Ġreligious": 3832,
      "Ġwhatever": 3833,
      "mo": 3834,
      "Ġlion": 3835,
      "Ġbeer": 3836,
      "Ġcondition": 3837,
      "iano": 3838,
      "Ġcru": 3839,
      "Ġpenc": 3840,
      "Ġemb": 3841,
      "vol": 3842,
      "Ġdried": 3843,
      "teen": 3844,
      "Ġham": 3845,
      "Ġways": 3846,
      "ĠDecember": 3847,
      "ishes": 3848,
      "glasses": 3849,
      "Ġmike": 3850,
      "ague": 3851,
      "gers": 3852,
      "ometric": 3853,
      "Ġrepresent": 3854,
      "Ġanyway": 3855,
      "ĠMart": 3856,
      "ĠFebruary": 3857,
      "Ġbeginning": 3858,
      "oned": 3859,
      "Ġtri": 3860,
      "leep": 3861,
      "essel": 3862,
      "cel": 3863,
      "Ġserved": 3864,
      "Ġleading": 3865,
      "AS": 3866,
      "ĠIN": 3867,
      "Ġguard": 3868,
      "Ġstret": 3869,
      "Ġappe": 3870,
      "Ġeast": 3871,
      "Ġpresident": 3872,
      "ĠDavid": 3873,
      "ĠPeter": 3874,
      "Ġmater": 3875,
      "Ġshoulder": 3876,
      "ushing": 3877,
      "Ġfear": 3878,
      "Ġtemple": 3879,
      "Ġcommunity": 3880,
      "ĠLea": 3881,
      "Ġweeks": 3882,
      "Ġmud": 3883,
      "Ġprison": 3884,
      "Ġbrush": 3885,
      "Ġpin": 3886,
      "Ġmeant": 3887,
      "olly": 3888,
      "Ġtom": 3889,
      "uit": 3890,
      "Ġships": 3891,
      "Ġactors": 3892,
      "aly": 3893,
      "ĠMark": 3894,
      "Ġhappens": 3895,
      "ĠUh": 3896,
      "Ġgall": 3897,
      "chn": 3898,
      "Ġballs": 3899,
      "Ġtail": 3900,
      "Ġcareful": 3901,
      "tes": 3902,
      "Ġrod": 3903,
      "your": 3904,
      "Ġsilly": 3905,
      "Ġbrand": 3906,
      "Ġcoach": 3907,
      "ressed": 3908,
      "Ġswing": 3909,
      "ED": 3910,
      "Ġsport": 3911,
      "Ġpour": 3912,
      "âĢĵ": 3913,
      "lder": 3914,
      "CHILD": 3915,
      "Ġsomewhere": 3916,
      "unn": 3917,
      "ipes": 3918,
      "Ġbab": 3919,
      "Ġsearch": 3920,
      "Ġcollege": 3921,
      "ĠJe": 3922,
      "ĠSir": 3923,
      "Ġpant": 3924,
      "down": 3925,
      "Ġbul": 3926,
      "Ġactiv": 3927,
      "iced": 3928,
      "Ġstove": 3929,
      "Ġtissue": 3930,
      "rove": 3931,
      "ĠPaul": 3932,
      "Ġchildes": 3933,
      "Ġfingers": 3934,
      "CHILDES": 3935,
      "Ġpictured": 3936,
      "Ġdriver": 3937,
      "Ġeduc": 3938,
      "Ġjar": 3939,
      "Ġtonight": 3940,
      "Ġreceived": 3941,
      "Ġow": 3942,
      "lympic": 3943,
      "Ġwalked": 3944,
      "Ġden": 3945,
      "het": 3946,
      "say": 3947,
      "ĠJuly": 3948,
      "Ġterm": 3949,
      "Ġvessel": 3950,
      "singing": 3951,
      "aching": 3952,
      "alle": 3953,
      "Ġfellow": 3954,
      "ogn": 3955,
      "Ġstall": 3956,
      "iving": 3957,
      "Ġbeat": 3958,
      "ators": 3959,
      "ĠCr": 3960,
      "Ġdate": 3961,
      "Ġexcept": 3962,
      "Ġah": 3963,
      "Ġexactly": 3964,
      "Ġtracks": 3965,
      "IT": 3966,
      "ek": 3967,
      "ondon": 3968,
      "Ġfloating": 3969,
      "ĠComm": 3970,
      "Ġtract": 3971,
      "Ġballoon": 3972,
      "Ġcricket": 3973,
      "cher": 3974,
      "ĠMc": 3975,
      "ĠDan": 3976,
      "Ġtents": 3977,
      "Ġgogg": 3978,
      "Ġprofessional": 3979,
      "ashed": 3980,
      "Ġmad": 3981,
      "Ġbicycles": 3982,
      "Ġdifficult": 3983,
      "Ġdoubt": 3984,
      "Ġdeer": 3985,
      "atoes": 3986,
      "Ġcrossing": 3987,
      "Ġlux": 3988,
      "Ġcertainly": 3989,
      "Ġinfl": 3990,
      "Ġfields": 3991,
      "Ġrich": 3992,
      "ording": 3993,
      "itive": 3994,
      "Ġofficial": 3995,
      "Ġwave": 3996,
      "Ġattention": 3997,
      "Ġslowly": 3998,
      "Ġbackdrop": 3999,
      "Ġsuggest": 4000,
      "eak": 4001,
      "Ġshelves": 4002,
      "Ġarchitecture": 4003,
      "Ġoven": 4004,
      "Ġrob": 4005,
      "water": 4006,
      "Ġcutting": 4007,
      "Ġlaughs": 4008,
      "Ġshaped": 4009,
      "Ġsupposed": 4010,
      "icop": 4011,
      "Ġwhose": 4012,
      "Ch": 4013,
      "otted": 4014,
      "Ġgolf": 4015,
      "Ġbull": 4016,
      "ĠBlack": 4017,
      "back": 4018,
      "Ġperformance": 4019,
      "overed": 4020,
      "pend": 4021,
      "ĠMommy": 4022,
      "Ġcarried": 4023,
      "Ġtied": 4024,
      "hip": 4025,
      "Ġworry": 4026,
      "Ġmis": 4027,
      "Ġslight": 4028,
      "ĠMaybe": 4029,
      "Ġwears": 4030,
      "Ġcrying": 4031,
      "Ġsigns": 4032,
      "ĠRep": 4033,
      "ĠBel": 4034,
      "hib": 4035,
      "ĠAustr": 4036,
      "Ġdecl": 4037,
      "Ġairport": 4038,
      "Ġserious": 4039,
      "ĠNor": 4040,
      "Ġrough": 4041,
      "Ġwebsite": 4042,
      "ecially": 4043,
      "Ġgown": 4044,
      "Ġmagazine": 4045,
      "Ġiss": 4046,
      "Ġlargest": 4047,
      "razy": 4048,
      "works": 4049,
      "Ġou": 4050,
      "Ġshare": 4051,
      "Ġhelicop": 4052,
      "ronic": 4053,
      "Ġindeed": 4054,
      "Ġtreat": 4055,
      "iture": 4056,
      "Ġcivil": 4057,
      "Ġfocus": 4058,
      "Ġnewsp": 4059,
      "Ġped": 4060,
      "Ġreach": 4061,
      "Ġain": 4062,
      "Ġmotorcy": 4063,
      "Ġladd": 4064,
      "Ġsense": 4065,
      "Ġscr": 4066,
      "Ġfir": 4067,
      "LE": 4068,
      "Ġwhom": 4069,
      "Ġdrop": 4070,
      "Ġwelcome": 4071,
      "Ġpots": 4072,
      "maybe": 4073,
      "Ġgreeting": 4074,
      "ĠBar": 4075,
      "Ġtruth": 4076,
      "Ġposes": 4077,
      "ĠSer": 4078,
      "Ġvac": 4079,
      "Ġcaps": 4080,
      "Ġwonderful": 4081,
      "Ġlower": 4082,
      "Ġcontainer": 4083,
      "Ġcaptain": 4084,
      "Ġnin": 4085,
      "Ġrabbit": 4086,
      "NA": 4087,
      "ĠLondon": 4088,
      "mit": 4089,
      "ĠSee": 4090,
      "Ġrepe": 4091,
      "Ġmonitor": 4092,
      "looking": 4093,
      "Ġep": 4094,
      "Ġcats": 4095,
      "Ġadult": 4096,
      "icip": 4097,
      "Ġfamil": 4098,
      "Ġneighbor": 4099,
      "ĠNational": 4100,
      "Ġcupboards": 4101,
      "dom": 4102,
      "off": 4103,
      "Ġsimilar": 4104,
      "Ġliqu": 4105,
      "ids": 4106,
      "Ġears": 4107,
      "ĠPol": 4108,
      "ĠSte": 4109,
      "Ġserv": 4110,
      "Ġearl": 4111,
      "GRA": 4112,
      "Ġskateboard": 4113,
      "Ġchristian": 4114,
      "Ġtablet": 4115,
      "Ġmaterial": 4116,
      "aming": 4117,
      "OM": 4118,
      "Ġpiano": 4119,
      "Ġhell": 4120,
      "Ġgoggles": 4121,
      "paper": 4122,
      "acy": 4123,
      "ATT": 4124,
      "ĠQu": 4125,
      "Ġversion": 4126,
      "Ġcause": 4127,
      "Ġfat": 4128,
      "looks": 4129,
      "Ġcompos": 4130,
      "Ġ30": 4131,
      "Ġvalley": 4132,
      "Ġattractive": 4133,
      "Ġhi": 4134,
      "asc": 4135,
      "Ġbun": 4136,
      "ceed": 4137,
      "Ġphys": 4138,
      "Ġcompan": 4139,
      "kend": 4140,
      "Ġnoble": 4141,
      "Ġcounter": 4142,
      "Ġpeace": 4143,
      "anging": 4144,
      "ĠCity": 4145,
      "Ġcountries": 4146,
      "ns": 4147,
      "Ġladies": 4148,
      "Ġanimated": 4149,
      "Ġfireplace": 4150,
      "Ġesp": 4151,
      "gel": 4152,
      "yard": 4153,
      "'.": 4154,
      "inary": 4155,
      "ĠRuss": 4156,
      "Ġmuse": 4157,
      "Ġhistoric": 4158,
      "Ġcateg": 4159,
      "opes": 4160,
      "Ġturning": 4161,
      "Ġpul": 4162,
      "Ġfurther": 4163,
      "itty": 4164,
      "Ġsepar": 4165,
      "Ġpillow": 4166,
      "Ġlistening": 4167,
      "Ġalthough": 4168,
      "Ġfinally": 4169,
      "Ġstarts": 4170,
      "was": 4171,
      "yn": 4172,
      ",--": 4173,
      "Ġbroad": 4174,
      "Ġfallen": 4175,
      "Ġcounty": 4176,
      "igg": 4177,
      "Ġcapture": 4178,
      "ĠAf": 4179,
      "ĠOF": 4180,
      "Ġcontains": 4181,
      "bur": 4182,
      "isher": 4183,
      "Ġscore": 4184,
      "Ġofficer": 4185,
      "ounced": 4186,
      "Ġcontinued": 4187,
      "Ġfeatures": 4188,
      "Ġnarrow": 4189,
      "ĠThanks": 4190,
      "Ġangry": 4191,
      "ĠPart": 4192,
      "Ġprotect": 4193,
      "Ġexclaimed": 4194,
      "Ġhearts": 4195,
      "Ġener": 4196,
      "Ġchain": 4197,
      "Ġpier": 4198,
      "Ġjack": 4199,
      "Ġcandle": 4200,
      "Ġhug": 4201,
      "Ġallowed": 4202,
      "Ġwrote": 4203,
      "Ġitself": 4204,
      "walk": 4205,
      "ID": 4206,
      "with": 4207,
      "Ġweekend": 4208,
      "ĠHi": 4209,
      "Ġgiant": 4210,
      "Ġexerc": 4211,
      "nty": 4212,
      "ĠDad": 4213,
      "Ġskirt": 4214,
      "Ġbutton": 4215,
      "ĠMad": 4216,
      "ov": 4217,
      "ford": 4218,
      "ĠLou": 4219,
      "Ġrecogn": 4220,
      "roy": 4221,
      "lished": 4222,
      "Ġmum": 4223,
      "esides": 4224,
      "ĠWest": 4225,
      "otten": 4226,
      "Ġfurniture": 4227,
      "Ġhandle": 4228,
      "Ġlone": 4229,
      "Ġbound": 4230,
      "olute": 4231,
      "Ġblocks": 4232,
      "sit": 4233,
      "Ġdue": 4234,
      "Ġperforming": 4235,
      "field": 4236,
      "Ġpush": 4237,
      "Ġcrack": 4238,
      "Ġloved": 4239,
      "Ġspread": 4240,
      "Ġstaircase": 4241,
      "Ġadvert": 4242,
      "TUR": 4243,
      "umes": 4244,
      "Ġrese": 4245,
      "Ġpor": 4246,
      "ĨĴ": 4247,
      "Ġrear": 4248,
      "would": 4249,
      "ching": 4250,
      "Ġprotest": 4251,
      "Ġtelephone": 4252,
      "ĠOK": 4253,
      "Ġhasn": 4254,
      "boy": 4255,
      "Ġshower": 4256,
      "ael": 4257,
      "Ã¡": 4258,
      "Ġtool": 4259,
      "oph": 4260,
      "apes": 4261,
      "Why": 4262,
      "Ġcrazy": 4263,
      "Ġstool": 4264,
      "Ġinvol": 4265,
      "Ġraised": 4266,
      "Ġshown": 4267,
      "Ġarmy": 4268,
      "Ġsuddenly": 4269,
      "bu": 4270,
      "Ġ~": 4271,
      "aining": 4272,
      "ĠGen": 4273,
      "Ġblaz": 4274,
      "cated": 4275,
      "Ġspoke": 4276,
      "ĠGeorge": 4277,
      "Ġapart": 4278,
      "Ġspent": 4279,
      "Ġupper": 4280,
      "Ġelements": 4281,
      "Ġsailing": 4282,
      "Ġgather": 4283,
      "Ġenv": 4284,
      "Ġsection": 4285,
      "Ġnames": 4286,
      "izes": 4287,
      "Ġreact": 4288,
      "cil": 4289,
      "ograph": 4290,
      "Ġolder": 4291,
      "gn": 4292,
      "Ġthick": 4293,
      "ĠSm": 4294,
      "berries": 4295,
      "Ġdiam": 4296,
      "Ġsubject": 4297,
      "Ġnorm": 4298,
      "ĠKe": 4299,
      "wow": 4300,
      "Ġstems": 4301,
      "isted": 4302,
      "Ġinspired": 4303,
      "asion": 4304,
      "rs": 4305,
      "Ġought": 4306,
      "ĠPeople": 4307,
      "Ġorganisation": 4308,
      "Ġhomes": 4309,
      "Ġwheels": 4310,
      "Ġbeard": 4311,
      "Ġforg": 4312,
      "Ġarrived": 4313,
      "brary": 4314,
      "vocal": 4315,
      "pect": 4316,
      "Ġrender": 4317,
      "Ġjud": 4318,
      "Ġtax": 4319,
      "Ġbub": 4320,
      "Ġhelicopter": 4321,
      "gue": 4322,
      "ï¿½ï¿½ï¿½ï¿½": 4323,
      "Ġtruncated": 4324,
      "ĠLike": 4325,
      "reed": 4326,
      "Ġanymore": 4327,
      "ĠBetty": 4328,
      "antly": 4329,
      "Ġmeal": 4330,
      "Ġjoined": 4331,
      "Ġbelt": 4332,
      "Ġsunglasses": 4333,
      "ĠChi": 4334,
      "Ġoppos": 4335,
      "Ġavail": 4336,
      "Ġdrops": 4337,
      "Ġincre": 4338,
      "illa": 4339,
      "ĠFraser": 4340,
      "aret": 4341,
      "asing": 4342,
      "Ġlikes": 4343,
      "ĠSu": 4344,
      "soci": 4345,
      "cast": 4346,
      "Ġconsider": 4347,
      "Ġbill": 4348,
      "Ġroyal": 4349,
      "andel": 4350,
      "Ġblind": 4351,
      "Ġequip": 4352,
      "Ġblowing": 4353,
      "ission": 4354,
      "US": 4355,
      "amic": 4356,
      "Ġpocket": 4357,
      "pack": 4358,
      "Ġfog": 4359,
      "Ġemer": 4360,
      "Ġtrust": 4361,
      "lin": 4362,
      "Ġdut": 4363,
      "ĠSomet": 4364,
      "chair": 4365,
      "Ġattempt": 4366,
      "rect": 4367,
      "Ġchoo": 4368,
      "Ġtechn": 4369,
      "Ġplanet": 4370,
      "Ġ25": 4371,
      "iment": 4372,
      "Ġborder": 4373,
      "ĠĠĠĠĠĠ": 4374,
      "Ġmer": 4375,
      "Ġloud": 4376,
      "Ġgraphic": 4377,
      "Ġreve": 4378,
      "Ġcategory": 4379,
      "lands": 4380,
      "Ġburning": 4381,
      "dr": 4382,
      "Ġromantic": 4383,
      "Ġsocial": 4384,
      "Ġpaintings": 4385,
      "Ġconversation": 4386,
      "Ġ2018": 4387,
      "ients": 4388,
      "Ġretro": 4389,
      "Ġcompletely": 4390,
      "Ġaband": 4391,
      "RYA": 4392,
      "Ġcompl": 4393,
      "chi": 4394,
      "Ġrid": 4395,
      "Ġhoriz": 4396,
      "iti": 4397,
      "Ġroads": 4398,
      "Ġedited": 4399,
      "Ġtractor": 4400,
      "Ġlaying": 4401,
      "Ġinvest": 4402,
      "There": 4403,
      "ĠPat": 4404,
      "Ġdropped": 4405,
      "Ġpave": 4406,
      "Ġbloom": 4407,
      "Ġhar": 4408,
      "ĠLeft": 4409,
      "Ġlose": 4410,
      "Ġdelight": 4411,
      "Ġtight": 4412,
      "aning": 4413,
      "ĠChe": 4414,
      "Ġmuseum": 4415,
      "Ġwre": 4416,
      "Ġcock": 4417,
      "Ġspo": 4418,
      "Ġsteam": 4419,
      "reme": 4420,
      "ivid": 4421,
      "Ġwatches": 4422,
      "ians": 4423,
      "Ġstarting": 4424,
      "Ġkeeping": 4425,
      "Ġcelebration": 4426,
      "ĠMich": 4427,
      "Ġcrown": 4428,
      "unning": 4429,
      "Ġcows": 4430,
      "ĠPresident": 4431,
      "ka": 4432,
      "Ġnovel": 4433,
      "noise": 4434,
      "Ġlawn": 4435,
      "APTER": 4436,
      "Ġpow": 4437,
      "Ġpicks": 4438,
      "Ġcher": 4439,
      "hess": 4440,
      "under": 4441,
      "ailed": 4442,
      "Ġremark": 4443,
      "Ġmessage": 4444,
      "itation": 4445,
      "Ġbarn": 4446,
      "Ġquestions": 4447,
      "Ġscared": 4448,
      "Ġcrew": 4449,
      "Ġspeaker": 4450,
      "Ġplenty": 4451,
      "ĠGreat": 4452,
      "Ġroses": 4453,
      "Ġsoil": 4454,
      "Ġpopulation": 4455,
      "ĠLord": 4456,
      "ĠRober": 4457,
      "sings": 4458,
      "Ġbud": 4459,
      "Ġneeded": 4460,
      "llustration": 4461,
      "Ġdollars": 4462,
      "roud": 4463,
      "ĠWait": 4464,
      "isten": 4465,
      "Ġanybody": 4466,
      "Ġarrives": 4467,
      "clock": 4468,
      "LOI": 4469,
      "Ġdrums": 4470,
      "points": 4471,
      "ET": 4472,
      "Ġbattle": 4473,
      "Ġgym": 4474,
      "Ġaccept": 4475,
      "Ġinvent": 4476,
      "anes": 4477,
      "Ġspeech": 4478,
      "Ġwinning": 4479,
      "GH": 4480,
      "ya": 4481,
      "iel": 4482,
      "ĠTake": 4483,
      "Ġnecess": 4484,
      "sy": 4485,
      "alt": 4486,
      "cuse": 4487,
      "Ġaccount": 4488,
      "ĠMot": 4489,
      "Ġornament": 4490,
      "Ġaccess": 4491,
      "ĠCent": 4492,
      "ĠMom": 4493,
      "._": 4494,
      "Ġdom": 4495,
      "Ġcaf": 4496,
      "Ġavailable": 4497,
      "Ġsharp": 4498,
      "Ġcalm": 4499,
      "Ġtank": 4500,
      "Ġinf": 4501,
      "ably": 4502,
      "10": 4503,
      "Ġpolitical": 4504,
      "tr": 4505,
      "ĠHowever": 4506,
      "Ġdinosaur": 4507,
      "Ġmixed": 4508,
      "Ġicons": 4509,
      "Ġjoy": 4510,
      "ĠCHAPTER": 4511,
      "Ġgiraffe": 4512,
      "kins": 4513,
      "Ġhast": 4514,
      "Ġcovers": 4515,
      "Ġlamps": 4516,
      "know": 4517,
      "Ġpointing": 4518,
      "Ġbunch": 4519,
      "Ġfill": 4520,
      "Ġpavement": 4521,
      "turn": 4522,
      "Ġstudent": 4523,
      "yond": 4524,
      "Ġweren": 4525,
      "ĠEar": 4526,
      "Ġladder": 4527,
      "Ġyard": 4528,
      "Ġgrave": 4529,
      "Ġcub": 4530,
      "Ġsmell": 4531,
      "Ġelectronic": 4532,
      "ĠWilliam": 4533,
      "Ġlabel": 4534,
      "inist": 4535,
      "Ġwings": 4536,
      "rete": 4537,
      "Ġlit": 4538,
      "alent": 4539,
      "Ġbin": 4540,
      "Ġdevice": 4541,
      "Ġgrew": 4542,
      "Ġda": 4543,
      "Ġviews": 4544,
      "Ġangle": 4545,
      "Ġseas": 4546,
      "Ġpersonal": 4547,
      "So": 4548,
      "color": 4549,
      "ĠBo": 4550,
      "avy": 4551,
      "Ġtypes": 4552,
      "Ġfab": 4553,
      "ĠAle": 4554,
      "Ġprocess": 4555,
      "Ġbay": 4556,
      "ords": 4557,
      "Ġolympic": 4558,
      "Ġcharge": 4559,
      "Ġrole": 4560,
      "Ġbigger": 4561,
      "Ġhate": 4562,
      "iest": 4563,
      "epend": 4564,
      "ĠSorry": 4565,
      "Ġespecially": 4566,
      "bin": 4567,
      "Ġintrod": 4568,
      "vation": 4569,
      "Ġaged": 4570,
      "Ġrising": 4571,
      "Ġbod": 4572,
      "Ġequipment": 4573,
      "Ġracks": 4574,
      "viously": 4575,
      "ĠEven": 4576,
      "Ġ?": 4577,
      "ibly": 4578,
      "inite": 4579,
      "apping": 4580,
      "ixt": 4581,
      "Ġstatues": 4582,
      "ĠMother": 4583,
      "idden": 4584,
      "Ġbell": 4585,
      "Ġelder": 4586,
      "Ġbushes": 4587,
      "Ġamount": 4588,
      "Ġfighting": 4589,
      "Ġfootballer": 4590,
      "Ġdesigner": 4591,
      "uesday": 4592,
      "rat": 4593,
      "aker": 4594,
      "Ġmini": 4595,
      "FAD": 4596,
      "Ġdirty": 4597,
      "berry": 4598,
      ".'": 4599,
      "Ġate": 4600,
      "Ġenergy": 4601,
      "Ġthirty": 4602,
      "Ġlibrary": 4603,
      "Ġexhib": 4604,
      "ĠUncle": 4605,
      "Ġcompetition": 4606,
      "Ġrap": 4607,
      "lt": 4608,
      "Ġund": 4609,
      "Ġmos": 4610,
      "Ġbare": 4611,
      "Ġdiamond": 4612,
      "tell": 4613,
      "ghed": 4614,
      "Ġsaturday": 4615,
      "Ġble": 4616,
      "venture": 4617,
      "Ġempl": 4618,
      "Ġsnake": 4619,
      "Ġblow": 4620,
      "Ġbee": 4621,
      "ĠHelen": 4622,
      "Ġumbrellas": 4623,
      "Ġfireworks": 4624,
      "Ġgenus": 4625,
      "Ġgroups": 4626,
      "Ġenc": 4627,
      "will": 4628,
      "Ġliquid": 4629,
      "Ġprojector": 4630,
      "Ġstack": 4631,
      "ribut": 4632,
      "Ġneighborhood": 4633,
      "rical": 4634,
      "Ġplain": 4635,
      "ĠAg": 4636,
      "Ġsurprise": 4637,
      "Ġparking": 4638,
      "ĠAmerica": 4639,
      "Ġproblems": 4640,
      "Ġaudience": 4641,
      "Ġfunction": 4642,
      "Ġpaid": 4643,
      "Ġareas": 4644,
      "wr": 4645,
      "Ġtiger": 4646,
      "ĠAND": 4647,
      "Ġtowel": 4648,
      "Ġhide": 4649,
      "fish": 4650,
      "book": 4651,
      "Ġmention": 4652,
      "Ġpitc": 4653,
      "Ġmoves": 4654,
      "Ġabandoned": 4655,
      "Ġrespect": 4656,
      "Ġweb": 4657,
      "Ġremo": 4658,
      "ĠSky": 4659,
      "Ġfriendly": 4660,
      "Ġsugar": 4661,
      "Ġinterested": 4662,
      "Ġid": 4663,
      "ckey": 4664,
      "Ġearlier": 4665,
      "ĠFew": 4666,
      "ences": 4667,
      "Ġprinted": 4668,
      "ĠTV": 4669,
      "Ġcommune": 4670,
      "Ġcooking": 4671,
      "hem": 4672,
      "ĠJul": 4673,
      "nesday": 4674,
      "Ġbackside": 4675,
      "gasps": 4676,
      "Ġposing": 4677,
      "Ġfacing": 4678,
      "Ġluxury": 4679,
      "Ġrose": 4680,
      "Ġhockey": 4681,
      "ĠCarl": 4682,
      "arters": 4683,
      "Ġwaters": 4684,
      "Ġspark": 4685,
      "Ġanx": 4686,
      "ĠNin": 4687,
      "Ġ21": 4688,
      "Ġorganization": 4689,
      "medi": 4690,
      "ker": 4691,
      "ston": 4692,
      "Ġfriday": 4693,
      "Ġspoons": 4694,
      "Ġpractice": 4695,
      "car": 4696,
      "uel": 4697,
      "yle": 4698,
      "Ġfont": 4699,
      "Ġpicked": 4700,
      "asant": 4701,
      "vest": 4702,
      "Ġalive": 4703,
      "ĠChrist": 4704,
      "ursday": 4705,
      "Ġtrend": 4706,
      "Ġcommander": 4707,
      "Ġpurp": 4708,
      "Ġtitle": 4709,
      "Ġconcrete": 4710,
      "Ġrice": 4711,
      "osp": 4712,
      "Ġamazing": 4713,
      "Ġwallpaper": 4714,
      "Ġcommand": 4715,
      "Ġpuzzle": 4716,
      "Ġpencil": 4717,
      "ulture": 4718,
      "Ġofficers": 4719,
      "urban": 4720,
      "orrow": 4721,
      "Ġtransport": 4722,
      "Ġbeyond": 4723,
      "Ġfixed": 4724,
      "ĠRich": 4725,
      "ĠAunt": 4726,
      "Ġinj": 4727,
      "vin": 4728,
      "Ġmm": 4729,
      "Ġdram": 4730,
      "want": 4731,
      "Ġshops": 4732,
      "Ġclimbing": 4733,
      "Ġzoo": 4734,
      "Ġbrief": 4735,
      "Ġwinner": 4736,
      "Ġbackpack": 4737,
      "Ġwa": 4738,
      "Ġbutt": 4739,
      "Ġribbon": 4740,
      "Ġliked": 4741,
      "ortun": 4742,
      "aked": 4743,
      "ggy": 4744,
      "Ġspr": 4745,
      "Ġbricks": 4746,
      "Ġasking": 4747,
      "Ġcollage": 4748,
      "parent": 4749,
      "ĠSec": 4750,
      "ĠEm": 4751,
      "ĠIr": 4752,
      "Ġoffer": 4753,
      "whis": 4754,
      "Ġmur": 4755,
      "Ġfalls": 4756,
      "Ġscoring": 4757,
      "Ġmask": 4758,
      "orough": 4759,
      "Ġwashing": 4760,
      "pardon": 4761,
      "LA": 4762,
      "elve": 4763,
      "anda": 4764,
      "ÃŃ": 4765,
      "Ġinternational": 4766,
      "Ġfootage": 4767,
      "Ġeth": 4768,
      "Ġrefr": 4769,
      "How": 4770,
      "Ġgeometric": 4771,
      "tering": 4772,
      "Ġnewspaper": 4773,
      "Ġspirit": 4774,
      "Ġident": 4775,
      "Ġflowing": 4776,
      "Ġweight": 4777,
      "ams": 4778,
      "Ġhelped": 4779,
      "itude": 4780,
      "Don": 4781,
      "Ġsell": 4782,
      "rupt": 4783,
      "ĠFirst": 4784,
      "Ġsoldier": 4785,
      "Ġdestroy": 4786,
      "Ġinclude": 4787,
      "Ġsex": 4788,
      "Ġsmartphone": 4789,
      "Ġasleep": 4790,
      "Ġthin": 4791,
      "Ġwalkway": 4792,
      "Ġfile": 4793,
      "Ġdesigns": 4794,
      "Ġquality": 4795,
      "Ġsunday": 4796,
      "Ġskull": 4797,
      "isf": 4798,
      "Ġhealthy": 4799,
      "Ġnest": 4800,
      "ĠJames": 4801,
      "ping": 4802,
      "reg": 4803,
      "Ġlaid": 4804,
      "ĠMag": 4805,
      "otion": 4806,
      "Ġash": 4807,
      "They": 4808,
      "Ġpale": 4809,
      "ĠChar": 4810,
      "Ġprice": 4811,
      "Ġcrayon": 4812,
      "Ġpers": 4813,
      "Ġproud": 4814,
      "Ġresting": 4815,
      "Ġmedical": 4816,
      "ironment": 4817,
      "ĠLa": 4818,
      "baby": 4819,
      "rot": 4820,
      "ading": 4821,
      "Ġmissing": 4822,
      "igs": 4823,
      "gress": 4824,
      "Ġlikely": 4825,
      "Ġfifty": 4826,
      "Ġglobe": 4827,
      "Ġmotorcycle": 4828,
      "Ġbucket": 4829,
      "Ġsurprised": 4830,
      "athered": 4831,
      "ensus": 4832,
      "Ġnotice": 4833,
      "Ġsandw": 4834,
      "ĠAfric": 4835,
      "ĠMany": 4836,
      "ushes": 4837,
      "Ġsurfing": 4838,
      "ora": 4839,
      "Ġchief": 4840,
      "Ġcro": 4841,
      "road": 4842,
      "ĠCo": 4843,
      "oming": 4844,
      "ige": 4845,
      "Ġrocky": 4846,
      "Fr": 4847,
      "anas": 4848,
      "bert": 4849,
      "Ġcig": 4850,
      "ĠGl": 4851,
      "wanna": 4852,
      "OTH": 4853,
      "Ġamb": 4854,
      "uses": 4855,
      "Ġrainbow": 4856,
      "wait": 4857,
      "terior": 4858,
      "Ġlaughed": 4859,
      "Ġscient": 4860,
      "Ġsmiles": 4861,
      "Ġ2021": 4862,
      "Ġgrill": 4863,
      "Ġguests": 4864,
      "Ġcaused": 4865,
      "Ġ192": 4866,
      "Ġcardboard": 4867,
      "If": 4868,
      "Ġcomic": 4869,
      "Ġharbour": 4870,
      "hand": 4871,
      "yep": 4872,
      "Ġjoin": 4873,
      "umber": 4874,
      "Ġwheat": 4875,
      "ica": 4876,
      "Ġchem": 4877,
      "Ġpulled": 4878,
      "Ġsnowy": 4879,
      "Ġhiding": 4880,
      "ographical": 4881,
      "Ġdrum": 4882,
      "Ġcountryside": 4883,
      "Ġbold": 4884,
      "Ġactress": 4885,
      "ĠPark": 4886,
      "Daddy": 4887,
      "rey": 4888,
      "Ġtick": 4889,
      "Ġtemper": 4890,
      "Ġcottage": 4891,
      "Ġfourth": 4892,
      "ache": 4893,
      "ĠTell": 4894,
      "ĠCharl": 4895,
      "hest": 4896,
      "Ġbrid": 4897,
      "Ġ2017": 4898,
      "Ġdrinks": 4899,
      "Ġ24": 4900,
      "anced": 4901,
      "ĠIntern": 4902,
      "Ġrings": 4903,
      "phones": 4904,
      "Ġcentral": 4905,
      "verage": 4906,
      "appy": 4907,
      "Ġrailings": 4908,
      "Ġworn": 4909,
      "reek": 4910,
      "anta": 4911,
      "Illustration": 4912,
      "Ġuses": 4913,
      "Ġremote": 4914,
      "unicip": 4915,
      "alia": 4916,
      "agement": 4917,
      "pan": 4918,
      "ala": 4919,
      "Ġsunlight": 4920,
      "Ġconstit": 4921,
      "Do": 4922,
      "ĠAmy": 4923,
      "Ġpedest": 4924,
      "Ġcities": 4925,
      "Ġsour": 4926,
      "Ġterrible": 4927,
      "otive": 4928,
      "Ġshouldn": 4929,
      "Ġnote": 4930,
      "erv": 4931,
      "Ġspider": 4932,
      "Ġrooms": 4933,
      "wise": 4934,
      "Ġforgot": 4935,
      "Ġchoose": 4936,
      "Ġradio": 4937,
      "Ġtiles": 4938,
      "ĠRiver": 4939,
      "Ġsens": 4940,
      "Ġblues": 4941,
      "Ġexcited": 4942,
      "ĠRobert": 4943,
      "Ġfed": 4944,
      "ĠBefore": 4945,
      "Ġrelation": 4946,
      "Ġfro": 4947,
      "Ġvisual": 4948,
      "Ġfarmer": 4949,
      "iforn": 4950,
      "Ġconcern": 4951,
      "Ġpatient": 4952,
      "ĠâĨĴ": 4953,
      "Ġtaste": 4954,
      "Ġpile": 4955,
      "olutely": 4956,
      "Ġselling": 4957,
      "Ġrare": 4958,
      "Ġheat": 4959,
      "Ġchat": 4960,
      "Ġlips": 4961,
      "ius": 4962,
      "Ġ2022": 4963,
      "Ġrefriger": 4964,
      "Ġris": 4965,
      "Ġbrain": 4966,
      "Ġmovies": 4967,
      "essor": 4968,
      "Ġethnic": 4969,
      "inger": 4970,
      "Ġbreath": 4971,
      "Ġing": 4972,
      "Ġcycl": 4973,
      "oms": 4974,
      "ĠSat": 4975,
      "Ġfeather": 4976,
      "Ġtypical": 4977,
      "Ġhoarding": 4978,
      "uk": 4979,
      "mod": 4980,
      "ĠMum": 4981,
      "Ġweap": 4982,
      "Ġcalling": 4983,
      "take": 4984,
      "Ġetc": 4985,
      "Ġexperience": 4986,
      "ĠSy": 4987,
      "rial": 4988,
      "Ġdifference": 4989,
      "gen": 4990,
      "Ġelephants": 4991,
      "AL": 4992,
      "Ġpitch": 4993,
      "bag": 4994,
      "ĠJes": 4995,
      "nding": 4996,
      "esh": 4997,
      "ez": 4998,
      "amm": 4999,
      "Ġdiscovered": 5000,
      "Ġop": 5001,
      "Ġrout": 5002,
      "RI": 5003,
      "Ġdesp": 5004,
      "Ġlaptops": 5005,
      "Ġaccident": 5006,
      "Ġcookies": 5007,
      "Ġimmedi": 5008,
      "trees": 5009,
      "ĠSar": 5010,
      "Ġregular": 5011,
      "ĠCaliforn": 5012,
      "Ġwatercolor": 5013,
      "ĠParty": 5014,
      "Ġbodies": 5015,
      "Ġopposite": 5016,
      "Ġoccasion": 5017,
      "Ġcontem": 5018,
      "ĠSpan": 5019,
      "Ġclipping": 5020,
      "Ġpause": 5021,
      "ien": 5022,
      "ously": 5023,
      "Ġnap": 5024,
      "Ġgarage": 5025,
      "chan": 5026,
      "iar": 5027,
      "Ġknock": 5028,
      "Ġdoc": 5029,
      "ĠHist": 5030,
      "Ġmonarch": 5031,
      "uced": 5032,
      "\")": 5033,
      "Ġmedic": 5034,
      "Ġstories": 5035,
      "ply": 5036,
      "Ġsoul": 5037,
      "upid": 5038,
      "Ġexterior": 5039,
      "Ġbye": 5040,
      "bes": 5041,
      "iller": 5042,
      "Ġtries": 5043,
      "Ġknee": 5044,
      "wing": 5045,
      "inct": 5046,
      "Ġhelmets": 5047,
      "Ġdemon": 5048,
      "ĠRoman": 5049,
      "Ġnone": 5050,
      "ĠChristian": 5051,
      "Ġmovement": 5052,
      "Ġpipes": 5053,
      "ĠRob": 5054,
      "urity": 5055,
      "ĠEn": 5056,
      "ĠMor": 5057,
      "Ġpants": 5058,
      "ĠStop": 5059,
      "Ġprec": 5060,
      "Ġremind": 5061,
      "Ġdelic": 5062,
      "Ġlearned": 5063,
      "Ġsquir": 5064,
      "Ġrent": 5065,
      "Ġuniversity": 5066,
      "Ġenvironment": 5067,
      "Ġkitten": 5068,
      "Ġlock": 5069,
      "Ġ/": 5070,
      "Ġpounds": 5071,
      "Ġleague": 5072,
      "Ġoutf": 5073,
      "abel": 5074,
      "elly": 5075,
      "Ġcong": 5076,
      "ĠIT": 5077,
      "keep": 5078,
      "Ġpens": 5079,
      "Ġelection": 5080,
      "pered": 5081,
      "conom": 5082,
      "watch": 5083,
      "Ġdun": 5084,
      "Ġconference": 5085,
      "ĠCalifornia": 5086,
      "ĠWH": 5087,
      "Ġeasily": 5088,
      "18": 5089,
      "Ġtunn": 5090,
      "ĠAnn": 5091,
      "Ġhero": 5092,
      "Ġresc": 5093,
      "Ġformed": 5094,
      "Ġsculptures": 5095,
      "Ġjourney": 5096,
      "Ġthrowing": 5097,
      "Ġfucking": 5098,
      "Ġpil": 5099,
      "Ġsituation": 5100,
      "Ġcafe": 5101,
      "Ġbegins": 5102,
      "Ġimpress": 5103,
      "Ġcraft": 5104,
      "Now": 5105,
      "ounter": 5106,
      "Ġcostumes": 5107,
      "Ġsatisf": 5108,
      "Ġstylish": 5109,
      "rem": 5110,
      "uhoh": 5111,
      "ĠReally": 5112,
      "ĠBon": 5113,
      "eh": 5114,
      "Ġentered": 5115,
      "Ġrural": 5116,
      "Ġsurv": 5117,
      "Ġruins": 5118,
      "Ġoccup": 5119,
      "ola": 5120,
      "Ġtotal": 5121,
      "ĠBert": 5122,
      "Ġspeakers": 5123,
      "ĠWin": 5124,
      "Ġgrown": 5125,
      "Ġdeser": 5126,
      "ĠĠĠĠĠĠĠĠĠĠĠĠĠĠĠĠ": 5127,
      "itz": 5128,
      "Ġcable": 5129,
      "Ġspin": 5130,
      "Ġspeaks": 5131,
      "please": 5132,
      "Ġdetails": 5133,
      "ĠHen": 5134,
      "ception": 5135,
      "Ġestab": 5136,
      "Ġcarriage": 5137,
      "Ġdiscuss": 5138,
      "ĠGermany": 5139,
      "Ġpassengers": 5140,
      "Ġcollect": 5141,
      "Ġmemor": 5142,
      "Ġdefe": 5143,
      "Ġchap": 5144,
      "Ġqueen": 5145,
      "Ġcasual": 5146,
      "Ġmeasure": 5147,
      "ĠFather": 5148,
      "Ġhandsome": 5149,
      "Ġhighway": 5150,
      "Ġreflect": 5151,
      "Ġsilence": 5152,
      "ifts": 5153,
      "OW": 5154,
      "ĠMost": 5155,
      "usk": 5156,
      "Ġmug": 5157,
      "Ġguns": 5158,
      "ĠBill": 5159,
      "uten": 5160,
      "Ġadventure": 5161,
      "ĠQue": 5162,
      "Ġbabies": 5163,
      "Ġsevent": 5164,
      "Ġracket": 5165,
      "ĠJen": 5166,
      "hah": 5167,
      "shine": 5168,
      "abit": 5169,
      "Ġ100": 5170,
      "ville": 5171,
      "Ġsixt": 5172,
      "Ġnobody": 5173,
      "Ġroo": 5174,
      "ylv": 5175,
      "Ġtextured": 5176,
      "Ġannounced": 5177,
      "Ġappearance": 5178,
      "Ġindoors": 5179,
      "inistr": 5180,
      "ĠRo": 5181,
      "SI": 5182,
      "ti": 5183,
      "Ġslee": 5184,
      "Ġpregn": 5185,
      "Ġexpected": 5186,
      "ware": 5187,
      "atory": 5188,
      "ĠPen": 5189,
      "ĠBott": 5190,
      "'?": 5191,
      "Ġshapes": 5192,
      "Ġwatched": 5193,
      "aze": 5194,
      "Ġcanal": 5195,
      "Ġteams": 5196,
      "rib": 5197,
      "ĠChamp": 5198,
      "Ġneckl": 5199,
      "Ġtone": 5200,
      "iot": 5201,
      "va": 5202,
      "Ġpa": 5203,
      "Ġunique": 5204,
      "Ġevents": 5205,
      "Ġmedia": 5206,
      "inese": 5207,
      "Ġjew": 5208,
      "ule": 5209,
      "Ġarrive": 5210,
      "Ġrepublic": 5211,
      "of": 5212,
      "allic": 5213,
      "sidered": 5214,
      "annel": 5215,
      "aud": 5216,
      "Ġopportun": 5217,
      "Ġsuccessful": 5218,
      "Ġscarf": 5219,
      "Ġap": 5220,
      "Ġrise": 5221,
      "ĠIndia": 5222,
      "olph": 5223,
      "Ġtheme": 5224,
      "scrap": 5225,
      "ĠNothing": 5226,
      "Ġcopy": 5227,
      "Ġrecently": 5228,
      "Ġhip": 5229,
      "Ġappl": 5230,
      "Ġnotes": 5231,
      "Ġstrip": 5232,
      "ĠHouse": 5233,
      "dog": 5234,
      "mommy": 5235,
      "ĠRed": 5236,
      "Ġfool": 5237,
      "ĠMon": 5238,
      "Ġmusician": 5239,
      "Ġflock": 5240,
      "Ġblazer": 5241,
      "ĠDoctor": 5242,
      "Ġextreme": 5243,
      "Ġrespons": 5244,
      "Ġtong": 5245,
      "Ġworkers": 5246,
      "Ġkick": 5247,
      "Ġapples": 5248,
      "acht": 5249,
      "three": 5250,
      "Ġconsidered": 5251,
      "Ġsweater": 5252,
      "uf": 5253,
      "Ġdeterm": 5254,
      "Ġescape": 5255,
      "ita": 5256,
      "Ġfright": 5257,
      "Ġsett": 5258,
      "Ġpleasure": 5259,
      "Ġrefrigerator": 5260,
      "Ġgrassland": 5261,
      "vious": 5262,
      "cul": 5263,
      "ĠMat": 5264,
      "Ġsimply": 5265,
      "Ġdocument": 5266,
      "lets": 5267,
      "Ġdustbin": 5268,
      "URS": 5269,
      "Ġguest": 5270,
      "Ġstrugg": 5271,
      "Ġdirected": 5272,
      "Ġparade": 5273,
      "Ġmunicip": 5274,
      "anny": 5275,
      "Ġclever": 5276,
      "Ġchampionship": 5277,
      "Ġchoice": 5278,
      "Ġtrains": 5279,
      "angle": 5280,
      "Ġchess": 5281,
      "cony": 5282,
      "Ġshining": 5283,
      "Ġbanana": 5284,
      "Ġpulling": 5285,
      "acters": 5286,
      "Ġbite": 5287,
      "Ġskyscrap": 5288,
      "Ġeleg": 5289,
      "Ġcrit": 5290,
      "Ġindivid": 5291,
      "Ġhardly": 5292,
      "Ġbuttons": 5293,
      "Ġhun": 5294,
      "ĠAnt": 5295,
      "ledge": 5296,
      "ĠIm": 5297,
      "alist": 5298,
      "Ġ23": 5299,
      "Ġbalcony": 5300,
      "pers": 5301,
      "Ġtips": 5302,
      "Ġvisitors": 5303,
      "aling": 5304,
      "Ġropes": 5305,
      "Ġ2010": 5306,
      "ography": 5307,
      "ĠBlue": 5308,
      "Ġtim": 5309,
      "Ġseats": 5310,
      "da": 5311,
      "Ġmetallic": 5312,
      "Ġplans": 5313,
      "Ġchest": 5314,
      "wear": 5315,
      "Ġpadd": 5316,
      "Ġ22": 5317,
      "arr": 5318,
      "Ġenter": 5319,
      "Ġinflu": 5320,
      "Ġtalked": 5321,
      "Ġdemand": 5322,
      "ida": 5323,
      "Ġbiggest": 5324,
      "Ġpromise": 5325,
      "Ġdangerous": 5326,
      "Ġworse": 5327,
      "sers": 5328,
      "Ġtwelve": 5329,
      "Ġincludes": 5330,
      "Ġprepared": 5331,
      "Ġshiny": 5332,
      "Ġlid": 5333,
      "Ġvocal": 5334,
      "ĠKen": 5335,
      "Ġrugby": 5336,
      "Ġelderly": 5337,
      "inally": 5338,
      "ĠThree": 5339,
      "Ġproduced": 5340,
      "ico": 5341,
      "usion": 5342,
      "ĠLeague": 5343,
      "Ġlonely": 5344,
      "lean": 5345,
      "ĠGovern": 5346,
      "Ġmanner": 5347,
      "Ġbron": 5348,
      "Ġmeaning": 5349,
      "Ġsilhouettes": 5350,
      "Ġsuitc": 5351,
      "Ġsandy": 5352,
      "Ġ50": 5353,
      "Ġepis": 5354,
      "ĠAir": 5355,
      "icated": 5356,
      "ultural": 5357,
      "name": 5358,
      "give": 5359,
      "Ġvariety": 5360,
      "Ġrelaxing": 5361,
      "Ġpumpkin": 5362,
      "ĠMichael": 5363,
      "ims": 5364,
      "ĠBrown": 5365,
      "ĠAlex": 5366,
      "Ġupstairs": 5367,
      "ĠThrough": 5368,
      "Ġduty": 5369,
      "Ġagree": 5370,
      "ebra": 5371,
      "Ġcomedy": 5372,
      "Ġindepend": 5373,
      "Ġalph": 5374,
      "usic": 5375,
      "ĠWould": 5376,
      "Ġsocks": 5377,
      "Ġtoast": 5378,
      "Ġdeclared": 5379,
      "iament": 5380,
      "Ġhood": 5381,
      "father": 5382,
      "Ġimm": 5383,
      "Ġcoins": 5384,
      "ĠSan": 5385,
      "Ġcharacters": 5386,
      "Ġcupc": 5387,
      "Ġcontinues": 5388,
      "Ġdramatic": 5389,
      "Ġrefer": 5390,
      "Ġfeeding": 5391,
      "Ġdrew": 5392,
      "Ġsmaller": 5393,
      "Ġparticip": 5394,
      "Ġmesh": 5395,
      "Ġforth": 5396,
      "Ġthrows": 5397,
      "ĠLuc": 5398,
      "Mum": 5399,
      "owers": 5400,
      "Ġdeg": 5401,
      "Ġfabric": 5402,
      "Ġstates": 5403,
      "Ġbenef": 5404,
      "Ġslide": 5405,
      "VE": 5406,
      "big": 5407,
      "Ġtag": 5408,
      "reet": 5409,
      "Ġmush": 5410,
      "Ġantique": 5411,
      "stit": 5412,
      "Ġ(\"": 5413,
      "opl": 5414,
      "Ġarrange": 5415,
      "Ġguide": 5416,
      "initely": 5417,
      "eath": 5418,
      "Ġcensus": 5419,
      "ĠSund": 5420,
      "Ġcolon": 5421,
      "Ġbananas": 5422,
      "aughty": 5423,
      "Ġresident": 5424,
      "Ġaddress": 5425,
      "Ġtin": 5426,
      "Ġhappening": 5427,
      "ciety": 5428,
      ".,": 5429,
      "Ġfancy": 5430,
      "Ġfully": 5431,
      "Ġuncle": 5432,
      "Ġgeographical": 5433,
      "Ġshoulders": 5434,
      "Ġpun": 5435,
      "Ġsunshine": 5436,
      "Ġshooting": 5437,
      "Ġwake": 5438,
      "Ġshelter": 5439,
      "ĠOur": 5440,
      "ĠGive": 5441,
      "Ġnorthern": 5442,
      "Ġfacade": 5443,
      "these": 5444,
      "Ġsurfboard": 5445,
      "laughing": 5446,
      "mond": 5447,
      "ok": 5448,
      "Ġimagine": 5449,
      "oted": 5450,
      "Ġexist": 5451,
      "Ġcous": 5452,
      "ĠBottom": 5453,
      "Ġgorge": 5454,
      "Ġmanager": 5455,
      "Ġstupid": 5456,
      "Ġthinks": 5457,
      "Ġdepend": 5458,
      "Ġgrab": 5459,
      "Ġallow": 5460,
      "ĠJapanese": 5461,
      "Ġmissed": 5462,
      "Ġeag": 5463,
      "porary": 5464,
      "Ġlucky": 5465,
      "Ġharm": 5466,
      "Ġfairy": 5467,
      "has": 5468,
      "Ġtemp": 5469,
      "Ġthrew": 5470,
      "Ġdragon": 5471,
      "Ġdrama": 5472,
      "Ġ2019": 5473,
      "Ġdise": 5474,
      "Ġsalad": 5475,
      "Ġfaith": 5476,
      "ĠWas": 5477,
      "Ġswitch": 5478,
      "Ġkinds": 5479,
      "Ġtor": 5480,
      "50": 5481,
      "Ġfrozen": 5482,
      "ĠMic": 5483,
      "Ġrecipe": 5484,
      "Ġpreparing": 5485,
      "Ġpurpose": 5486,
      "Ġzebra": 5487,
      "Ġowl": 5488,
      "Ġended": 5489,
      "Ġproducts": 5490,
      "Ġcloser": 5491,
      "Ġassist": 5492,
      "pensive": 5493,
      "Ġslightly": 5494,
      "uke": 5495,
      "Ġgod": 5496,
      "ĠBur": 5497,
      "Ġdollar": 5498,
      "Ġcommer": 5499,
      "Ġnecklace": 5500,
      "Ġtunnel": 5501,
      "adows": 5502,
      "My": 5503,
      "Ġenemy": 5504,
      "ugs": 5505,
      "Ġrolling": 5506,
      "An": 5507,
      "Ġexpression": 5508,
      "ĠJwww": 5509,
      "]!": 5510,
      "Ġhigher": 5511,
      "Ġpouring": 5512,
      "ĠDuring": 5513,
      "Ġyacht": 5514,
      "Ġbelieved": 5515,
      "Ġï¿½": 5516,
      "Ġanywhere": 5517,
      "Ġregard": 5518,
      "11": 5519,
      "ĠAct": 5520,
      "Ġassoci": 5521,
      "Ġillum": 5522,
      "Ġ2011": 5523,
      "Ġemploy": 5524,
      "Ġthroughout": 5525,
      "Ġir": 5526,
      "Ġdemonstr": 5527,
      "Ġmushroom": 5528,
      "Mommy": 5529,
      "Ġpatterns": 5530,
      "Ġlear": 5531,
      "Ġbloss": 5532,
      "ĠOther": 5533,
      "Ġcomplex": 5534,
      "ĠWhich": 5535,
      "ĠSum": 5536,
      "Ġhats": 5537,
      "Ġfamilies": 5538,
      "ĠMa": 5539,
      "iber": 5540,
      "Ġshorts": 5541,
      "ĠCor": 5542,
      "Ġtalks": 5543,
      "Ġlies": 5544,
      "Ġpicnic": 5545,
      "Ġshit": 5546,
      "ental": 5547,
      "Ġmount": 5548,
      "aging": 5549,
      "Ġphotographer": 5550,
      "pre": 5551,
      "ively": 5552,
      "outs": 5553,
      "Ġol": 5554,
      "ĠTheir": 5555,
      "ĠListen": 5556,
      "Ġmachines": 5557,
      "Ġhut": 5558,
      "Ġhey": 5559,
      "Ġtowers": 5560,
      "Ġrelationship": 5561,
      "onde": 5562,
      "Ġowner": 5563,
      "Ġmarch": 5564,
      "ĠAustralia": 5565,
      "Ġsunfl": 5566,
      "Ġforty": 5567,
      "tery": 5568,
      "Ġwriter": 5569,
      "Ġcruise": 5570,
      "ĠRepublic": 5571,
      "Ġurban": 5572,
      "ĠEast": 5573,
      "Ġprim": 5574,
      "ĠHistory": 5575,
      "hin": 5576,
      "Ġhm": 5577,
      "ĠAc": 5578,
      "Ġviol": 5579,
      "Ġcontemporary": 5580,
      "Ġgathered": 5581,
      "bered": 5582,
      "ĠHarry": 5583,
      "ĠUS": 5584,
      "ential": 5585,
      "ĠSchool": 5586,
      "She": 5587,
      "Ġarrest": 5588,
      "Ġstruck": 5589,
      "Ġbasin": 5590,
      "----------------": 5591,
      "ĠJesus": 5592,
      "Ġestate": 5593,
      "Ġhelping": 5594,
      "Ġmostly": 5595,
      "brother": 5596,
      "Ġbronze": 5597,
      "Ġvacation": 5598,
      "Ġpound": 5599,
      "Ġwing": 5600,
      "Ġpir": 5601,
      "Ġtooth": 5602,
      "Ġstaff": 5603,
      "ĠTex": 5604,
      "Ġpresents": 5605,
      "Ġrot": 5606,
      "Ġgraff": 5607,
      "Ġindustrial": 5608,
      "Then": 5609,
      "Ġdusk": 5610,
      "ĠFar": 5611,
      "Ġcycle": 5612,
      "ĠCarol": 5613,
      "Ġgraffiti": 5614,
      "Ġhonest": 5615,
      "Ġsoup": 5616,
      "Ġsmooth": 5617,
      "ended": 5618,
      "ĠState": 5619,
      "Ġtransparent": 5620,
      "aine": 5621,
      "Ġentertain": 5622,
      "Ġcoral": 5623,
      "sery": 5624,
      "ĠCoun": 5625,
      "Ġvictory": 5626,
      "Ġminim": 5627,
      "Ġfictional": 5628,
      "ocr": 5629,
      "Ġcage": 5630,
      "Ġinvolved": 5631,
      "Ġlighting": 5632,
      "Ġingred": 5633,
      "cip": 5634,
      "Ġwound": 5635,
      "Ġracing": 5636,
      "dge": 5637,
      "lay": 5638,
      "Ġlift": 5639,
      "Ġdeity": 5640,
      "Ġcherry": 5641,
      "Ġcush": 5642,
      "Ġchandel": 5643,
      "Ġtrousers": 5644,
      "ari": 5645,
      "Ġlemon": 5646,
      "Ġnecessary": 5647,
      "Ġgrapes": 5648,
      "Ġrendering": 5649,
      "ĠSen": 5650,
      "Ġutter": 5651,
      "Ġpregnant": 5652,
      "Ġsongs": 5653,
      "Ġducks": 5654,
      "Ġscience": 5655,
      "izing": 5656,
      "Ġclothing": 5657,
      "aign": 5658,
      "oid": 5659,
      "ĠOl": 5660,
      "ĠIts": 5661,
      "ĠLittle": 5662,
      "ĠSure": 5663,
      "Ġsharing": 5664,
      "ĠDoes": 5665,
      "Ġchim": 5666,
      "picks": 5667,
      "ago": 5668,
      "iverse": 5669,
      "Ġviewed": 5670,
      "Ġpalace": 5671,
      "Ġ,": 5672,
      "ĠMal": 5673,
      "Ġstunning": 5674,
      "ighs": 5675,
      "Ġconnected": 5676,
      "cut": 5677,
      "Ġhorn": 5678,
      "Ġkeys": 5679,
      "Ġnom": 5680,
      "Ġreef": 5681,
      "Ġcontr": 5682,
      "pic": 5683,
      "Ġfund": 5684,
      "Ġjet": 5685,
      "Ġcreature": 5686,
      "Ġusual": 5687,
      "idents": 5688,
      "Ġsets": 5689,
      "Ġhonor": 5690,
      "Ġannual": 5691,
      "30": 5692,
      "Ġcave": 5693,
      "flies": 5694,
      "stage": 5695,
      "aks": 5696,
      "known": 5697,
      "ieve": 5698,
      "Ġcrowds": 5699,
      "abet": 5700,
      "Ġgreenery": 5701,
      "Ġcarefully": 5702,
      "_,": 5703,
      "ĠII": 5704,
      "made": 5705,
      "Ġpoet": 5706,
      "ĠAust": 5707,
      "using": 5708,
      "Ġbeneath": 5709,
      "ste": 5710,
      "ucted": 5711,
      "Ġgallery": 5712,
      "Ġeconom": 5713,
      "Ġarrow": 5714,
      "ĠHigh": 5715,
      "Ġproduction": 5716,
      "Ġcorrect": 5717,
      "Ġsafety": 5718,
      "Ġbang": 5719,
      "Ġaccording": 5720,
      "CK": 5721,
      "Ġliter": 5722,
      "Ġqual": 5723,
      "Ġsaved": 5724,
      "yer": 5725,
      "Ġaqu": 5726,
      "Ġgoin": 5727,
      "Ġunless": 5728,
      "otes": 5729,
      "Ġgrain": 5730,
      "gin": 5731,
      "ĠHall": 5732,
      "Ġtrouser": 5733,
      "oli": 5734,
      "bell": 5735,
      "Ġastr": 5736,
      "ĠChild": 5737,
      "host": 5738,
      "Ġfavour": 5739,
      "Ġmoo": 5740,
      "Ġcraw": 5741,
      "rier": 5742,
      "Ġripe": 5743,
      "ĠTony": 5744,
      "Ġcharm": 5745,
      "Ġclaim": 5746,
      "Ġnurse": 5747,
      "Ġimmediately": 5748,
      "Ġfail": 5749,
      "St": 5750,
      "Ġwreath": 5751,
      "LY": 5752,
      "Ġcred": 5753,
      "Ġbesides": 5754,
      "Ġthreat": 5755,
      "Ġfox": 5756,
      "12": 5757,
      "lights": 5758,
      "Ġcigaret": 5759,
      "Ġsidewalk": 5760,
      "Ġsciss": 5761,
      "vey": 5762,
      "Ġchalk": 5763,
      "Ġtwice": 5764,
      "Ġclimb": 5765,
      "imate": 5766,
      "ĠMinister": 5767,
      "ĠOnly": 5768,
      "Ġprovince": 5769,
      "aled": 5770,
      "fire": 5771,
      "Ġparish": 5772,
      "bel": 5773,
      "Ġperfectly": 5774,
      "ĠTim": 5775,
      "Ġgrazing": 5776,
      "Ġchef": 5777,
      "Ġphotographed": 5778,
      "ĠHol": 5779,
      "Ġbeds": 5780,
      "Ġgarment": 5781,
      "Ġexercise": 5782,
      "Ġmonday": 5783,
      "asp": 5784,
      "ify": 5785,
      "Ġneedta": 5786,
      "In": 5787,
      "Ġchart": 5788,
      "arsh": 5789,
      "Ġhighest": 5790,
      "Ġmanaged": 5791,
      "Ġsquirrel": 5792,
      "Ġunus": 5793,
      "Ġlaunch": 5794,
      "Ġporch": 5795,
      "Ġlink": 5796,
      "Ġmagn": 5797,
      "Ġmagic": 5798,
      "ĠBoth": 5799,
      "ĠBig": 5800,
      "ĠON": 5801,
      "plate": 5802,
      "Ġsymbols": 5803,
      "Ġleaning": 5804,
      "ĠDen": 5805,
      "Ġbeh": 5806,
      "Ġadministr": 5807,
      "Ġskiing": 5808,
      "Ġver": 5809,
      "Ġma": 5810,
      "illiant": 5811,
      "Ġaside": 5812,
      "Ġpasses": 5813,
      "Ġoutfit": 5814,
      "Ġchanges": 5815,
      "Ġphotography": 5816,
      "Ġnursery": 5817,
      "Ġhadn": 5818,
      "Ġyog": 5819,
      "Ġtraveling": 5820,
      "leanor": 5821,
      "four": 5822,
      "Ġfactory": 5823,
      "Ġtools": 5824,
      "Ġward": 5825,
      "ĠSch": 5826,
      "Ġreflected": 5827,
      "rid": 5828,
      "lent": 5829,
      "Ġexpensive": 5830,
      "aws": 5831,
      "Ġstores": 5832,
      "ĠÂ£": 5833,
      "antern": 5834,
      "acks": 5835,
      "Ġtrucks": 5836,
      "counter": 5837,
      "Ġplayground": 5838,
      "ĠST": 5839,
      "Ġkite": 5840,
      "ĠBer": 5841,
      "Ġboo": 5842,
      "Ġsav": 5843,
      "boat": 5844,
      "aily": 5845,
      "Ġkeeps": 5846,
      "pill": 5847,
      "Ġcrime": 5848,
      "Ġgentleman": 5849,
      "och": 5850,
      "Ġopt": 5851,
      "Ġgro": 5852,
      "Ġgal": 5853,
      "Ġwrapped": 5854,
      "Ġinvestig": 5855,
      "andy": 5856,
      "Ġbreaking": 5857,
      "tail": 5858,
      "iring": 5859,
      "Ġcatching": 5860,
      "ĠGeneral": 5861,
      "Ġbrave": 5862,
      "ĠLouis": 5863,
      "Ġmechan": 5864,
      "Ġtrib": 5865,
      "Ġcrane": 5866,
      "Ġdevelopment": 5867,
      "Ġcalls": 5868,
      "Ġmultip": 5869,
      "Ġeager": 5870,
      "ĠMed": 5871,
      "Ġsolar": 5872,
      "Ġclown": 5873,
      "Ġstring": 5874,
      "Ġpublished": 5875,
      "berg": 5876,
      "aved": 5877,
      "Ġartic": 5878,
      "Ġeducation": 5879,
      "GR": 5880,
      "ĠBu": 5881,
      "Ġvent": 5882,
      "ĠSunday": 5883,
      "ibility": 5884,
      "oes": 5885,
      "Ġcoin": 5886,
      "Ġ26": 5887,
      "ĠVery": 5888,
      "Ġconnect": 5889,
      "ĠOld": 5890,
      "heart": 5891,
      "Ġtherefore": 5892,
      "Ġtongue": 5893,
      "Ġtide": 5894,
      "Ġdrag": 5895,
      "Ġopens": 5896,
      "Ġinterview": 5897,
      "Ġsettle": 5898,
      "Ġlarger": 5899,
      "Ġnon": 5900,
      "ĠTw": 5901,
      "Ġbears": 5902,
      "Ġ27": 5903,
      "Ġwand": 5904,
      "tures": 5905,
      "Ġexplain": 5906,
      "Ġalarm": 5907,
      "Ġgardens": 5908,
      "Ġresort": 5909,
      "Ġprior": 5910,
      "Ġrules": 5911,
      "Ġrhy": 5912,
      "Ġstrength": 5913,
      "AY": 5914,
      "Ġwarning": 5915,
      "Ġsauce": 5916,
      "Ġmem": 5917,
      "Ġbuds": 5918,
      "alend": 5919,
      "Ġbaskets": 5920,
      "ĠScott": 5921,
      "Ġtrick": 5922,
      "Is": 5923,
      "Ġarmed": 5924,
      "ĠMont": 5925,
      "Ġpicking": 5926,
      "Ġcreative": 5927,
      "ĠInternational": 5928,
      "those": 5929,
      "Ġtrol": 5930,
      "Ġserving": 5931,
      "Ġcommercial": 5932,
      "vere": 5933,
      "Ġeverywhere": 5934,
      "ĠTexas": 5935,
      "Ġshade": 5936,
      "Ġgoodness": 5937,
      "ĠAbout": 5938,
      "Ġagreed": 5939,
      "Ġtournament": 5940,
      "Ġmission": 5941,
      "Ġbump": 5942,
      "Ġstained": 5943,
      "Ġremain": 5944,
      "stop": 5945,
      "isters": 5946,
      "Ġworried": 5947,
      "Ġscale": 5948,
      "Ġincluded": 5949,
      "Ġnormal": 5950,
      "UNK": 5951,
      "Ġdirt": 5952,
      "Ġrev": 5953,
      "Ġpleased": 5954,
      "Ġdecorations": 5955,
      "Ġyouth": 5956,
      "Ġillustrations": 5957,
      "Ġanimation": 5958,
      "Ġreser": 5959,
      "Ġ2016": 5960,
      "Ġcampaign": 5961,
      "Ġfirm": 5962,
      "Ġopportunity": 5963,
      "Ġ28": 5964,
      "Ġcaptured": 5965,
      "ĠRichard": 5966,
      "ĠPic": 5967,
      "ipper": 5968,
      "istan": 5969,
      "ĠMac": 5970,
      "ĠJane": 5971,
      "ĠOut": 5972,
      "ĠSim": 5973,
      "Ġtears": 5974,
      "Ġexec": 5975,
      "Ġmonument": 5976,
      "Ġturtle": 5977,
      "eping": 5978,
      "ĠSpanish": 5979,
      "Ġrespond": 5980,
      "keys": 5981,
      "Ġappears": 5982,
      "Ġillustr": 5983,
      "Ġfinding": 5984,
      "Ġrustic": 5985,
      "Ġthousands": 5986,
      "five": 5987,
      "Ġbreat": 5988,
      "Ġgifts": 5989,
      "Ġmonster": 5990,
      "ieval": 5991,
      "Ġcontainers": 5992,
      "Right": 5993,
      "Ġhidden": 5994,
      "Ġnative": 5995,
      "ĠSaturday": 5996,
      "Ġsecurity": 5997,
      "Ġphotographs": 5998,
      "Ġhistorical": 5999,
      "Ġ29": 6000,
      "Ġtomatoes": 6001,
      "ĠDes": 6002,
      "Ġrainy": 6003,
      "ossible": 6004,
      "Ġharbor": 6005,
      "ĠSup": 6006,
      "iece": 6007,
      "Ġnaughty": 6008,
      "osh": 6009,
      "Ġcarved": 6010,
      "Ġworship": 6011,
      "Ġlighthouse": 6012,
      "Ġbubbles": 6013,
      "Ġlantern": 6014,
      "Ġaeropl": 6015,
      "Ġmac": 6016,
      "ulous": 6017,
      "ĠParis": 6018,
      "Ġvegetable": 6019,
      "Ġshaking": 6020,
      "ointed": 6021,
      "utch": 6022,
      "Ġtuesday": 6023,
      "olic": 6024,
      "Ġfounded": 6025,
      "Ġelegant": 6026,
      "Ġbisc": 6027,
      "Ġdarkness": 6028,
      "Ġfigures": 6029,
      "Ġrapid": 6030,
      "igr": 6031,
      "Ġwit": 6032,
      "ĠMex": 6033,
      "Ġbark": 6034,
      "Ġonline": 6035,
      "Ġoverlooking": 6036,
      "Ġcalend": 6037,
      "Ġgorgeous": 6038,
      "rie": 6039,
      "ĠCup": 6040,
      "Ġcabinet": 6041,
      "quarters": 6042,
      "Ġextend": 6043,
      "Ġpengu": 6044,
      "Ġburst": 6045,
      "Ġdishes": 6046,
      ":=": 6047,
      "Ġweak": 6048,
      "elled": 6049,
      "Ġloose": 6050,
      "Ġcontinue": 6051,
      "Ġpossibly": 6052,
      "semb": 6053,
      "Ġcolourful": 6054,
      "ĠMer": 6055,
      "Ġdirectly": 6056,
      "Ġlace": 6057,
      "Ġflood": 6058,
      "alled": 6059,
      "ĠWhite": 6060,
      "ois": 6061,
      "Ġherd": 6062,
      "Ġneg": 6063,
      "Ġcomfortable": 6064,
      "Ġdough": 6065,
      "Ġdais": 6066,
      "Ġabsolutely": 6067,
      "Ġgoat": 6068,
      "ini": 6069,
      "Ġbless": 6070,
      "otic": 6071,
      "Ġsurrounding": 6072,
      "UT": 6073,
      "uch": 6074,
      "Ġgradu": 6075,
      "oise": 6076,
      "eer": 6077,
      "Ġenjoyed": 6078,
      "la": 6079,
      "lyn": 6080,
      "Ġmedieval": 6081,
      "Ġsac": 6082,
      "Ġloss": 6083,
      "anche": 6084,
      "ĠExcuse": 6085,
      "Ġshark": 6086,
      "Ġgrun": 6087,
      "Ġteenage": 6088,
      "ĠPet": 6089,
      "Ġwednesday": 6090,
      "Ġfault": 6091,
      "Ġprogress": 6092,
      "Ġ2015": 6093,
      "Ġtells": 6094,
      "ĠCharlie": 6095,
      "ĠPort": 6096,
      "Ġscrew": 6097,
      "Ġhook": 6098,
      "Ġsandwich": 6099,
      "ungle": 6100,
      "Ġflies": 6101,
      "Ġseconds": 6102,
      "ĠBart": 6103,
      "Ġclassroom": 6104,
      "Ġterms": 6105,
      "Ġhurry": 6106,
      "stick": 6107,
      "aft": 6108,
      "Ġsuitcase": 6109,
      "estic": 6110,
      "going": 6111,
      "Ġevidence": 6112,
      "ĠSarah": 6113,
      "ĠDick": 6114,
      "ĠÃ": 6115,
      "Ġur": 6116,
      "Ġsem": 6117,
      "IM": 6118,
      "worth": 6119,
      "Ġber": 6120,
      "ĠCO": 6121,
      "Ġappre": 6122,
      "Ġsticker": 6123,
      "ifying": 6124,
      "ĠLee": 6125,
      "ĠAnne": 6126,
      "Ġissue": 6127,
      "urt": 6128,
      "Ġfisher": 6129,
      "Ġelement": 6130,
      "utenant": 6131,
      "Ġsoap": 6132,
      "Ġbanks": 6133,
      "imp": 6134,
      "Ġsilent": 6135,
      "Ġthursday": 6136,
      "Thomas": 6137,
      "Ġspotted": 6138,
      "enced": 6139,
      "ĠEuropean": 6140,
      "Ġshared": 6141,
      "Ġtotally": 6142,
      "Ġchemical": 6143,
      "Ġtack": 6144,
      "omen": 6145,
      "Ġdecoration": 6146,
      "All": 6147,
      "uckles": 6148,
      "Ġpercent": 6149,
      "Ġretired": 6150,
      "Ġ2014": 6151,
      "ĠSince": 6152,
      "Ġblog": 6153,
      "Ġnoticed": 6154,
      "ĠNever": 6155,
      "Ġfold": 6156,
      "Ġhanged": 6157,
      "Ġheight": 6158,
      "...?": 6159,
      "Ġdepic": 6160,
      "ilding": 6161,
      "Ġdiag": 6162,
      "Ġloves": 6163,
      "ĠHenry": 6164,
      "ios": 6165,
      "Ġreaches": 6166,
      "Ġportion": 6167,
      "cries": 6168,
      "yy": 6169,
      "while": 6170,
      "Ġreception": 6171,
      "aren": 6172,
      "roat": 6173,
      "ĠRoy": 6174,
      "athy": 6175,
      "Ġremem": 6176,
      "Ġsouthern": 6177,
      "bit": 6178,
      "ĠTow": 6179,
      "Ġmarriage": 6180,
      "Ġsalt": 6181,
      "Ġkissing": 6182,
      "Ġpressure": 6183,
      "ĠDem": 6184,
      "Ġpages": 6185,
      "cend": 6186,
      "Ġsummit": 6187,
      "Ġenglish": 6188,
      "Ġdisease": 6189,
      "Ġexhibition": 6190,
      "ĠWhile": 6191,
      "Ġhairst": 6192,
      "arently": 6193,
      "ĠPerhaps": 6194,
      "Ġshirts": 6195,
      "17": 6196,
      "bb": 6197,
      "Ġblonde": 6198,
      "Ġservices": 6199,
      "sters": 6200,
      "Ġpanor": 6201,
      "vo": 6202,
      "Ġcit": 6203,
      "Ġdisp": 6204,
      "Ġ2012": 6205,
      "Ġprincess": 6206,
      "Ġawful": 6207,
      "ĠBE": 6208,
      "Ġinvitation": 6209,
      "scri": 6210,
      "Ġstayed": 6211,
      "west": 6212,
      "Ġmile": 6213,
      "ĠLady": 6214,
      "ension": 6215,
      "Ġdock": 6216,
      "atives": 6217,
      "ĠJo": 6218,
      "sm": 6219,
      "Ġlined": 6220,
      "Ġdolly": 6221,
      "den": 6222,
      "Ġatm": 6223,
      "Ġdefinitely": 6224,
      "Ġinner": 6225,
      "Ġcalendar": 6226,
      "Ġelectrical": 6227,
      "Ġzoom": 6228,
      "Ġrides": 6229,
      "Ġboss": 6230,
      ",'": 6231,
      "Ġcapt": 6232,
      "Ġearn": 6233,
      "Ġresidential": 6234,
      "Ġhello": 6235,
      "Ġeh": 6236,
      "Ġprevent": 6237,
      "Ġserve": 6238,
      "Ġcameras": 6239,
      "Ġhandbag": 6240,
      "apt": 6241,
      "Ġbutterflies": 6242,
      "Ġcontract": 6243,
      "Ġsword": 6244,
      "Ġdisplayed": 6245,
      "ĠWal": 6246,
      "Ġbringing": 6247,
      "ĠGra": 6248,
      "Not": 6249,
      "Ġbuying": 6250,
      "whoops": 6251,
      "green": 6252,
      "Ġdrone": 6253,
      "Ġborders": 6254,
      "itors": 6255,
      "opher": 6256,
      "Ġresol": 6257,
      "cup": 6258,
      "neath": 6259,
      "onse": 6260,
      "Ġheadphones": 6261,
      "ĠFranc": 6262,
      "This": 6263,
      "rots": 6264,
      "Ġchanging": 6265,
      "oween": 6266,
      "Ġbrings": 6267,
      "ELS": 6268,
      "Ġseeds": 6269,
      "ontin": 6270,
      "Ġshadows": 6271,
      "Ġjars": 6272,
      "ĠUnder": 6273,
      "ĠMil": 6274,
      "SO": 6275,
      "Ġoccur": 6276,
      "Ġbunny": 6277,
      "Ġslice": 6278,
      "ĠOff": 6279,
      "Ġbikes": 6280,
      "Ġstriped": 6281,
      "aven": 6282,
      "Ġtaught": 6283,
      "Ġnails": 6284,
      "ulated": 6285,
      "Ġthread": 6286,
      "agne": 6287,
      "Ġclearly": 6288,
      "ouch": 6289,
      "Ġpleasant": 6290,
      "Ġanch": 6291,
      "Ġteach": 6292,
      "Ġdownstairs": 6293,
      "Ġdescribe": 6294,
      "ĠMore": 6295,
      "Ġdreams": 6296,
      "Ġpure": 6297,
      "ĠChina": 6298,
      "ĠBeck": 6299,
      "ĠFriday": 6300,
      "Ġblackboard": 6301,
      "--\"": 6302,
      "Ġalongside": 6303,
      "Ġsaus": 6304,
      "Ġeasier": 6305,
      "Ġresearch": 6306,
      "200": 6307,
      "Ġcandy": 6308,
      "Ġbuses": 6309,
      "Ġcampus": 6310,
      "Ġstrawberries": 6311,
      "Ġcris": 6312,
      "Ġprincip": 6313,
      "Ġsupper": 6314,
      "hedral": 6315,
      "Ġpowerful": 6316,
      "Ġknees": 6317,
      "vas": 6318,
      "Ġpsy": 6319,
      "Ġnail": 6320,
      "Ġholidays": 6321,
      "Ġspell": 6322,
      "Ġsaucer": 6323,
      "Ġaccommod": 6324,
      "Ġcheerful": 6325,
      "Nin": 6326,
      "ĠMel": 6327,
      "Ġven": 6328,
      "Ġcases": 6329,
      "Ġshock": 6330,
      "Ġpositive": 6331,
      "Ã¨": 6332,
      "Ġnewly": 6333,
      "ĠAmong": 6334,
      "istics": 6335,
      "Ġeffort": 6336,
      "Ġsmoking": 6337,
      "Ġsigned": 6338,
      "blue": 6339,
      "Ġfridge": 6340,
      "asy": 6341,
      "Ġess": 6342,
      "ĠRos": 6343,
      "cr": 6344,
      "Ġdescribes": 6345,
      "ucky": 6346,
      "Ġowned": 6347,
      "Ġinqu": 6348,
      "Ġpuppet": 6349,
      "15": 6350,
      "Ġbasic": 6351,
      "ĠRussian": 6352,
      "Ġculture": 6353,
      "ĠPri": 6354,
      "Ġislands": 6355,
      "ĠScot": 6356,
      "ersey": 6357,
      "ĠâĢĶ": 6358,
      "Ġinvention": 6359,
      "ĠCharles": 6360,
      "Ġchic": 6361,
      "ĠItalian": 6362,
      "Ġcontact": 6363,
      "ĠAcc": 6364,
      "another": 6365,
      "ours": 6366,
      "market": 6367,
      "Ġfeatured": 6368,
      "Ġwheelchair": 6369,
      "Ġschools": 6370,
      "ĠAnother": 6371,
      "Ġ2008": 6372,
      "ĠTur": 6373,
      "Ġpurch": 6374,
      "Ġtemperature": 6375,
      "Ã¼": 6376,
      "rer": 6377,
      "sure": 6378,
      "Ġwolf": 6379,
      "Ġinning": 6380,
      "Ġcurrently": 6381,
      "ĠCos": 6382,
      "Ġgenre": 6383,
      "ĠCould": 6384,
      "cream": 6385,
      "apers": 6386,
      "ĠRem": 6387,
      "urdie": 6388,
      "Ġtrolley": 6389,
      "Ġhits": 6390,
      "Ġnea": 6391,
      "Ġforgotten": 6392,
      "ĠFred": 6393,
      "Ġviole": 6394,
      "Ġrealistic": 6395,
      "Ġinterrupt": 6396,
      "ĠEarth": 6397,
      "Ġatmosp": 6398,
      "Ġshake": 6399,
      "Ġcircular": 6400,
      "sk": 6401,
      "Ġdolls": 6402,
      "Ġmistake": 6403,
      "fe": 6404,
      "Ġbon": 6405,
      "Ġyounger": 6406,
      "Ġ)": 6407,
      "Ġpromised": 6408,
      "ĠStreet": 6409,
      "ĠTowards": 6410,
      "bby": 6411,
      "ĠGreen": 6412,
      "pa": 6413,
      "Ġbrilliant": 6414,
      "Ġheadquarters": 6415,
      "Ġimpossible": 6416,
      "Ġcolumn": 6417,
      "Ġrule": 6418,
      "ĠGO": 6419,
      "Ġtrophy": 6420,
      "ĠUnion": 6421,
      "coming": 6422,
      "Ġtile": 6423,
      "Ġgreatest": 6424,
      "Ġcakes": 6425,
      "Ġmail": 6426,
      "iversary": 6427,
      "Ġcousin": 6428,
      "somet": 6429,
      "asons": 6430,
      "Ġmel": 6431,
      "Ġevident": 6432,
      "Ġeagle": 6433,
      "Ġfishes": 6434,
      "ĠCouncil": 6435,
      "IR": 6436,
      "ĠLaur": 6437,
      "Ġmicrophones": 6438,
      "Ġordered": 6439,
      "Ġastron": 6440,
      "Ġvio": 6441,
      "Ġartists": 6442,
      "itan": 6443,
      "Ġrate": 6444,
      "Ġjungle": 6445,
      "Ġcrash": 6446,
      "Ġdim": 6447,
      "ĠCanada": 6448,
      "Ġthus": 6449,
      "Ġbeans": 6450,
      "Ġleads": 6451,
      "Ġshell": 6452,
      "dad": 6453,
      "Ġspoken": 6454,
      "iana": 6455,
      "Ġsolid": 6456,
      "Ġmedal": 6457,
      "Ġacqu": 6458,
      "sw": 6459,
      "Ġsch": 6460,
      "Ġmanuf": 6461,
      "igned": 6462,
      "Ġdevices": 6463,
      "Ġunusual": 6464,
      "Ġfrost": 6465,
      "Ġorders": 6466,
      "ero": 6467,
      "ĠMhm": 6468,
      "Ġfeels": 6469,
      "Ġdetailed": 6470,
      "Ġharvest": 6471,
      "Ġhoardings": 6472,
      "org": 6473,
      "ĠTHAT": 6474,
      "Ġepisode": 6475,
      "Ġscoot": 6476,
      "azz": 6477,
      "Ġlearning": 6478,
      "Ġmemory": 6479,
      "Ġchannel": 6480,
      "ĠDor": 6481,
      "Ġmedicine": 6482,
      "Ġrevol": 6483,
      "Ġ2009": 6484,
      "Ġstatement": 6485,
      "Ġcovering": 6486,
      "Ġdivision": 6487,
      "ĠThose": 6488,
      "ourt": 6489,
      "Ġgently": 6490,
      "Ġparl": 6491,
      "Ġcoastal": 6492,
      "jo": 6493,
      "Ġforever": 6494,
      "Ġ2007": 6495,
      "Ġdeveloped": 6496,
      "ĠChampionship": 6497,
      "ban": 6498,
      "Ġcancer": 6499,
      "Ġcelebrating": 6500,
      "Ġwaste": 6501,
      "ulf": 6502,
      "Ġplus": 6503,
      "Ġrecent": 6504,
      "Ġfellows": 6505,
      "alo": 6506,
      "essie": 6507,
      "Ġunderneath": 6508,
      "Ġformal": 6509,
      "Ġevil": 6510,
      "Ġopin": 6511,
      "Ġheading": 6512,
      "Ġanniversary": 6513,
      "oples": 6514,
      "Ġunc": 6515,
      "cod": 6516,
      "ĠItaly": 6517,
      "Ġscary": 6518,
      "Ġsque": 6519,
      "Ġghost": 6520,
      "Ġremains": 6521,
      "STE": 6522,
      "ĠJose": 6523,
      "Ġstickers": 6524,
      "Ġcliffs": 6525,
      "Ġbits": 6526,
      "giving": 6527,
      "auc": 6528,
      "isn": 6529,
      "Ġvia": 6530,
      "Ġjumped": 6531,
      "Ġx": 6532,
      "Ġdolph": 6533,
      "Ġadvant": 6534,
      "Ġdecision": 6535,
      "ĠBear": 6536,
      "Ġsteering": 6537,
      "Ġreported": 6538,
      "Ġpassenger": 6539,
      "Ġforced": 6540,
      "Ġrelated": 6541,
      "adian": 6542,
      "Ġtrade": 6543,
      "Ġchandelier": 6544,
      "Ġremained": 6545,
      "Ġtomato": 6546,
      "lem": 6547,
      "Ġconsist": 6548,
      "Ġupset": 6549,
      "Ġdebut": 6550,
      "Ġcattle": 6551,
      "Ġ40": 6552,
      "acher": 6553,
      "Ġyoga": 6554,
      "ĠGar": 6555,
      "Ġoffered": 6556,
      "Ġprevious": 6557,
      "Ġox": 6558,
      "Ġgrassy": 6559,
      "ERE": 6560,
      "Ġpresented": 6561,
      "Ġairl": 6562,
      "Ġ[?": 6563,
      "Ġ2013": 6564,
      "cellent": 6565,
      "Ġmut": 6566,
      "Ġquietly": 6567,
      "Ġtheat": 6568,
      "Ġpulls": 6569,
      "ij": 6570,
      "ĠSus": 6571,
      "Ġbush": 6572,
      "Ġgothic": 6573,
      "ĠNear": 6574,
      "Ġpushing": 6575,
      "ĠGot": 6576,
      "ata": 6577,
      "Ġstandard": 6578,
      "lers": 6579,
      "Ġhorizon": 6580,
      "Ġstir": 6581,
      "Ġshades": 6582,
      "Ġcircles": 6583,
      "ii": 6584,
      "puts": 6585,
      "Ġ0": 6586,
      "lla": 6587,
      "Ġferry": 6588,
      "Ġunit": 6589,
      "Ġjourn": 6590,
      "Ġwilling": 6591,
      "Ġindic": 6592,
      "Ġpas": 6593,
      "Ġfeathers": 6594,
      "ĠSummer": 6595,
      "rings": 6596,
      "Ġparticularly": 6597,
      "Ġske": 6598,
      "icing": 6599,
      "roll": 6600,
      "Ġoak": 6601,
      "Ġalphabet": 6602,
      "Ġdaily": 6603,
      "making": 6604,
      "Ġtip": 6605,
      "iner": 6606,
      "ittee": 6607,
      "Ġrights": 6608,
      "Ġpitcher": 6609,
      "azed": 6610,
      "arian": 6611,
      "ĠOver": 6612,
      "Ġremoved": 6613,
      "make": 6614,
      "Ġlanding": 6615,
      "Ġgirlfriend": 6616,
      "Ġattended": 6617,
      "16": 6618,
      "Ã¶": 6619,
      "ĠDou": 6620,
      "Ġtrendy": 6621,
      "Ġdread": 6622,
      "ĠHel": 6623,
      "ĠChinese": 6624,
      "ĠEve": 6625,
      "Ġninet": 6626,
      "burg": 6627,
      "ria": 6628,
      "Ġ:)": 6629,
      "Ġfinanc": 6630,
      "Ġaeroplane": 6631,
      "Ġthemed": 6632,
      "ĠChurch": 6633,
      "Ġhelps": 6634,
      "Ġstamps": 6635,
      "Ġfolk": 6636,
      "Ġclip": 6637,
      "cing": 6638,
      "Ġroots": 6639,
      "rit": 6640,
      "ĠOlymp": 6641,
      "Ġthrown": 6642,
      "Ġlatest": 6643,
      "ĠMartin": 6644,
      "ademy": 6645,
      "Ġbrace": 6646,
      "ĠReg": 6647,
      "his": 6648,
      "âĮī": 6649,
      "âĮĭ": 6650,
      "Ġvo": 6651,
      "osta": 6652,
      "Ġnut": 6653,
      "Ġcanvas": 6654,
      "athan": 6655,
      "Ġrelief": 6656,
      "Ġresponse": 6657,
      "Ġprepare": 6658,
      "Ġwond": 6659,
      "iration": 6660,
      "Ġneat": 6661,
      "Ġoldest": 6662,
      "Ġcrossed": 6663,
      "gypt": 6664,
      "Ġ2006": 6665,
      "ĠSun": 6666,
      "ĠUm": 6667,
      "Ġdestroyed": 6668,
      "ĠQueen": 6669,
      "Ġwashed": 6670,
      "Ġincred": 6671,
      "Ġcomedian": 6672,
      "Ġcash": 6673,
      "Ġconfir": 6674,
      "Ġaddition": 6675,
      "aries": 6676,
      "Ġcolours": 6677,
      "Ġsuggested": 6678,
      "Ġpeas": 6679,
      "cat": 6680,
      "ĠDep": 6681,
      "ĠFour": 6682,
      "Ġseparate": 6683,
      "HE": 6684,
      "rome": 6685,
      "Ġviolet": 6686,
      "14": 6687,
      "ĠSomething": 6688,
      "13": 6689,
      "Ġcone": 6690,
      "Ġfier": 6691,
      "Ġsignals": 6692,
      "Ġbackyard": 6693,
      "Ġslices": 6694,
      "wind": 6695,
      "Ġign": 6696,
      "Ġrays": 6697,
      "Ġpeoples": 6698,
      "Ġobviously": 6699,
      "olled": 6700,
      "ulty": 6701,
      "Ġvine": 6702,
      "Ġourselves": 6703,
      "Ġdefend": 6704,
      "Ġpred": 6705,
      "Ġglowing": 6706,
      "Ġlugg": 6707,
      "ĠWind": 6708,
      "arily": 6709,
      "bre": 6710,
      "Ġreasons": 6711,
      "ĠSl": 6712,
      "Ġactive": 6713,
      "Ġfifteen": 6714,
      "Ġmans": 6715,
      "Ġelev": 6716,
      "ĠGold": 6717,
      "naments": 6718,
      "Ġappreci": 6719,
      "ĠHa": 6720,
      "Ġactivity": 6721,
      "Ġrisk": 6722,
      "ĠSanta": 6723,
      "Ġlip": 6724,
      "CO": 6725,
      "ĠNet": 6726,
      "Ġpacked": 6727,
      "Ġphil": 6728,
      "action": 6729,
      "Ġartwork": 6730,
      "Ġtul": 6731,
      "Ġbuff": 6732,
      "gency": 6733,
      "ROZ": 6734,
      "Ġstepped": 6735,
      "Ġdancer": 6736,
      "Ġweird": 6737,
      "could": 6738,
      "Ġaverage": 6739,
      "ĠHE": 6740,
      "Ġchee": 6741,
      "Ġtube": 6742,
      "Ġpy": 6743,
      "Ġsmiled": 6744,
      "Ġprovide": 6745,
      "Ġ1960": 6746,
      "Ġangel": 6747,
      "fight": 6748,
      "yup": 6749,
      "Ġtodd": 6750,
      "ĠDist": 6751,
      "asts": 6752,
      "ashington": 6753,
      "Ġjudge": 6754,
      "CE": 6755,
      "ĠKingdom": 6756,
      "umer": 6757,
      "ĠLat": 6758,
      "Ġbloody": 6759,
      "....": 6760,
      "Ġproducer": 6761,
      "Ġshrub": 6762,
      "Ġchips": 6763,
      "ĠJulia": 6764,
      "Ġjun": 6765,
      "Ġthoughts": 6766,
      "Ġsees": 6767,
      "Ġadop": 6768,
      "Ġstaying": 6769,
      "Ġdecide": 6770,
      "every": 6771,
      "Ġloving": 6772,
      "Ġslope": 6773,
      "Ġsupermarket": 6774,
      "Ġreligion": 6775,
      "Ġjackets": 6776,
      "ba": 6777,
      "Ġwise": 6778,
      "essert": 6779,
      "Ġbrothers": 6780,
      "mot": 6781,
      "Ġhay": 6782,
      "Ġaltern": 6783,
      "ĠFlore": 6784,
      "aterpill": 6785,
      "icient": 6786,
      "ckets": 6787,
      "Ġdare": 6788,
      "Ġprefer": 6789,
      "Ġcommunic": 6790,
      "ault": 6791,
      "sed": 6792,
      "Ġcathedral": 6793,
      "Ġrelease": 6794,
      "Ġrubber": 6795,
      "igan": 6796,
      "ĠEgypt": 6797,
      "Ġindividual": 6798,
      "Ġjam": 6799,
      "Ġtid": 6800,
      "Ġfant": 6801,
      "omm": 6802,
      "Ġnetwork": 6803,
      "orous": 6804,
      "open": 6805,
      "Ġsteep": 6806,
      "Ġdepiction": 6807,
      "Ġmoored": 6808,
      "Ġkitty": 6809,
      "Ġtransform": 6810,
      "Ġbecoming": 6811,
      "GHT": 6812,
      "Ġdessert": 6813,
      "Ġshield": 6814,
      "Ġends": 6815,
      "babbles": 6816,
      "Ġstripes": 6817,
      "gly": 6818,
      "Ġsociety": 6819,
      "Ġcigarette": 6820,
      "Ġpartner": 6821,
      "Ġmurder": 6822,
      "Ġcookie": 6823,
      "ĠClub": 6824,
      "Ġraising": 6825,
      "KF": 6826,
      "Ġbother": 6827,
      "attered": 6828,
      "ĠPlay": 6829,
      "ilities": 6830,
      "Ġreality": 6831,
      "Ġproduce": 6832,
      "Ġsource": 6833,
      "Ġdip": 6834,
      "Ġscrap": 6835,
      "Ġviolin": 6836,
      "Ġmoss": 6837,
      "Ġworker": 6838,
      "Ġsnowfl": 6839,
      "ĠâĮ": 6840,
      "Ġsoftly": 6841,
      "Ġcloset": 6842,
      "Ġanxious": 6843,
      "Ġroute": 6844,
      "Ġreck": 6845,
      "Ġmicro": 6846,
      "vis": 6847,
      "Ġduh": 6848,
      "ĠDis": 6849,
      "Ġliber": 6850,
      "ilence": 6851,
      "Ġatmosphere": 6852,
      "Ġmakeup": 6853,
      "ĠApp": 6854,
      "uffy": 6855,
      "Ġvalue": 6856,
      "Ġgenerally": 6857,
      "Ġstrike": 6858,
      "Ġknowledge": 6859,
      "ĠSmith": 6860,
      "htub": 6861,
      "Ġtravelling": 6862,
      "zy": 6863,
      "ĠRes": 6864,
      "Ġchampagne": 6865,
      "Ġforces": 6866,
      "ĠOnce": 6867,
      "Ġdamage": 6868,
      "Ġmood": 6869,
      "ĠIS": 6870,
      "ĠOoh": 6871,
      "wall": 6872,
      "aken": 6873,
      "âĢĿ.": 6874,
      "Ġoperating": 6875,
      "Ġmate": 6876,
      "Ġcontent": 6877,
      "Ġfounder": 6878,
      "Ġvocalises": 6879,
      "uits": 6880,
      "Ġach": 6881,
      "ĠSylv": 6882,
      "Ġeaten": 6883,
      "Ġstaring": 6884,
      "Ġforms": 6885,
      "ĠDel": 6886,
      "Ġcompleted": 6887,
      "ĠWashington": 6888,
      "ĠVict": 6889,
      "ification": 6890,
      "Ġhitting": 6891,
      "Ġdeb": 6892,
      "Ġsnowman": 6893,
      "Ġperformed": 6894,
      "ceeded": 6895,
      "Ġingredients": 6896,
      "ĠSometimes": 6897,
      "ĠBonnet": 6898,
      "Ġluggage": 6899,
      "__": 6900,
      "Ġscissors": 6901,
      "thm": 6902,
      "Ġunderwater": 6903,
      "Ġcreating": 6904,
      "Ġpotatoes": 6905,
      "Ġaware": 6906,
      "Ġathlet": 6907,
      "Ġknight": 6908,
      "Ġspray": 6909,
      "Ġtarge": 6910,
      "ĠArab": 6911,
      "Ġcredit": 6912,
      "Ġposts": 6913,
      "Ġexplore": 6914,
      "Ġhundreds": 6915,
      "Ġbuilder": 6916,
      "Ġbreed": 6917,
      "ĠHon": 6918,
      "ĠMax": 6919,
      "Ġdepicting": 6920,
      "ashes": 6921,
      "Ġnovelist": 6922,
      "Ġneither": 6923,
      "atell": 6924,
      "ĠPut": 6925,
      "should": 6926,
      "Ġ()": 6927,
      "Ġmall": 6928,
      "Ġscreens": 6929,
      "stone": 6930,
      "Ġphysical": 6931,
      "achel": 6932,
      "Ġbees": 6933,
      "ĠSal": 6934,
      "Ġconditions": 6935,
      "han": 6936,
      "Ġmentioned": 6937,
      "ĠKore": 6938,
      "Ġ2000": 6939,
      "Ġgrunge": 6940,
      "ĠTy": 6941,
      "Chi": 6942,
      "ĠMama": 6943,
      "Ġtend": 6944,
      "Ġobl": 6945,
      "eps": 6946,
      "Ġdescribed": 6947,
      "Ġglam": 6948,
      "Ġdiscover": 6949,
      "Ġfailed": 6950,
      "Ġbot": 6951,
      "Ġjoke": 6952,
      "Ġworst": 6953,
      "Ġgiraffes": 6954,
      "lock": 6955,
      "Ġpony": 6956,
      "uddle": 6957,
      "Ġsake": 6958,
      "Ġfired": 6959,
      "Ġsuc": 6960,
      "oughs": 6961,
      "Ġapproach": 6962,
      "Ġrush": 6963,
      "amma": 6964,
      "Ġmarry": 6965,
      "AK": 6966,
      "bec": 6967,
      "Ġwhist": 6968,
      "Ġconfl": 6969,
      "Ġafford": 6970,
      "Ġvisiting": 6971,
      "Ġcoloured": 6972,
      "ĠAfrica": 6973,
      "ĠFuck": 6974,
      "Ġhighlight": 6975,
      "Ġmagnet": 6976,
      "Ġcurious": 6977,
      "ĠDam": 6978,
      "Ġtemplate": 6979,
      "Ġcabinets": 6980,
      "Ġ..": 6981,
      "Ġreview": 6982,
      "cely": 6983,
      "ĠDO": 6984,
      "Ġbathtub": 6985,
      "Ġreflections": 6986,
      "bar": 6987,
      "ĠBern": 6988,
      "Ġtreasure": 6989,
      "Ġengagement": 6990,
      "ĠSing": 6991,
      "Ġstops": 6992,
      "Ġshouted": 6993,
      "Ġhorizont": 6994,
      "ĠVal": 6995,
      "ĠMond": 6996,
      "Ġcones": 6997,
      "ĠMaster": 6998,
      "pper": 6999,
      "actually": 7000,
      "oard": 7001,
      "ĠRock": 7002,
      "ivity": 7003,
      "osc": 7004,
      "Ġnuts": 7005,
      "Ġperched": 7006,
      "ĠBoy": 7007,
      "illing": 7008,
      "Ġcocon": 7009,
      "Ġcomposition": 7010,
      "Ġexcuse": 7011,
      "ĠCare": 7012,
      "Ġentirely": 7013,
      "Ġsomewhat": 7014,
      "ĠTen": 7015,
      "gal": 7016,
      "ĠHur": 7017,
      "uous": 7018,
      "Ġpushed": 7019,
      "ĠStill": 7020,
      "Ġeats": 7021,
      "orter": 7022,
      "Ġthroat": 7023,
      "Ġbug": 7024,
      "Ġboot": 7025,
      "Ġinstruction": 7026,
      "ĠHum": 7027,
      "ĠRec": 7028,
      "rud": 7029,
      "Ġfairly": 7030,
      "Ġlanguages": 7031,
      "Ġmummy": 7032,
      "Ġboxer": 7033,
      "Ġpurs": 7034,
      "ĠPre": 7035,
      "iance": 7036,
      "Ġfifth": 7037,
      "pected": 7038,
      "Ġcleaning": 7039,
      "Ġprove": 7040,
      "ĠColle": 7041,
      "daddy": 7042,
      "Ġlocked": 7043,
      "Ġstudied": 7044,
      "Ġgrounds": 7045,
      "Ġpurse": 7046,
      "Ġsneak": 7047,
      "Ġheaven": 7048,
      "Ġ1970": 7049,
      "Ġdesper": 7050,
      "Ġdrives": 7051,
      "Ġthou": 7052,
      "Ġchop": 7053,
      "ca": 7054,
      "lend": 7055,
      "Ġtroops": 7056,
      "ĠSpain": 7057,
      "Ġbroadcast": 7058,
      "Ġinno": 7059,
      "Ġsplash": 7060,
      "Ġspecs": 7061,
      "Ġmarble": 7062,
      "Ġwondering": 7063,
      "Ġrecording": 7064,
      "Ġlawyer": 7065,
      "Ġnerv": 7066,
      "Ġcontest": 7067,
      "rising": 7068,
      "geles": 7069,
      "Ġvir": 7070,
      "Ġconcerned": 7071,
      "little": 7072,
      "ĠEverything": 7073,
      "Ġdump": 7074,
      "Ġholes": 7075,
      "ĠDay": 7076,
      "Ġadvertis": 7077,
      "ST": 7078,
      "Ġnu": 7079,
      "ĠRoss": 7080,
      "Ġeleven": 7081,
      "Come": 7082,
      "ĠâĢĻ": 7083,
      "Ġprofile": 7084,
      "Ġ1980": 7085,
      "ĠProf": 7086,
      "Ġflew": 7087,
      "Ġgoods": 7088,
      "Ġwaited": 7089,
      "Ġilluminated": 7090,
      "Ġsnap": 7091,
      "Ġtradition": 7092,
      "Ġmounted": 7093,
      "Ġstor": 7094,
      "ĠAward": 7095,
      "Ġtough": 7096,
      "Ġpee": 7097,
      "ĠCam": 7098,
      "Ġflash": 7099,
      "Fraser": 7100,
      "mill": 7101,
      "ĠWE": 7102,
      "Ġfeelings": 7103,
      "mission": 7104,
      "ado": 7105,
      "Ġ190": 7106,
      "June": 7107,
      "rom": 7108,
      "ĠBarb": 7109,
      "Ġheaded": 7110,
      "ador": 7111,
      "Ġhammer": 7112,
      "ĠCong": 7113,
      "Ġexplained": 7114,
      "bout": 7115,
      "Ġproperly": 7116,
      "Ġengaged": 7117,
      "Ġreceive": 7118,
      "Ġadvice": 7119,
      "Ġgrandmother": 7120,
      "raphy": 7121,
      "ĠIsland": 7122,
      "Ġstroke": 7123,
      "Ġentry": 7124,
      "Ġequal": 7125,
      "Ġfinancial": 7126,
      "80": 7127,
      "Ġhabit": 7128,
      "ĠNat": 7129,
      "Ġ2005": 7130,
      "Ġrat": 7131,
      "pension": 7132,
      "Ġflames": 7133,
      "ĠUp": 7134,
      "Ġmart": 7135,
      "Ġknowing": 7136,
      "Ġornaments": 7137,
      "whe": 7138,
      "ki": 7139,
      "ĠBre": 7140,
      "Ġencour": 7141,
      "ulations": 7142,
      "Ġneut": 7143,
      "ĠChief": 7144,
      "Ġpatio": 7145,
      "inder": 7146,
      "Ġvote": 7147,
      "Ġaboard": 7148,
      "Ġpaying": 7149,
      "ĠHold": 7150,
      "Ġplanning": 7151,
      "Ġtrial": 7152,
      "Ġexcite": 7153,
      "Ġexecut": 7154,
      "Ġacting": 7155,
      "Ġscenes": 7156,
      "hum": 7157,
      "ĠFOR": 7158,
      "Ġaccommodation": 7159,
      "ĠFlorence": 7160,
      "stood": 7161,
      "ĠGrandma": 7162,
      "Ġhalloween": 7163,
      "Ġknocked": 7164,
      "Ġwhispered": 7165,
      "Ġcrocod": 7166,
      "ĠOlympics": 7167,
      "Ġwarn": 7168,
      "Ġges": 7169,
      "Ġsuspension": 7170,
      "Ġrescue": 7171,
      "Ġsuits": 7172,
      "Ġconv": 7173,
      "ĠAdam": 7174,
      "Ġsplit": 7175,
      "ĠMike": 7176,
      "Ġink": 7177,
      "ĠWel": 7178,
      "Al": 7179,
      "Ġnav": 7180,
      "Ġraise": 7181,
      "Ġtitled": 7182,
      "Ġdow": 7183,
      "ĠBomb": 7184,
      "Ġalc": 7185,
      "Ġearrings": 7186,
      "AMY": 7187,
      "Ġwrest": 7188,
      "ingu": 7189,
      "Ġlightning": 7190,
      "Ġsettled": 7191,
      "CAT": 7192,
      "Ġmotorb": 7193,
      "VER": 7194,
      "Where": 7195,
      "Ġdu": 7196,
      "essed": 7197,
      "fortun": 7198,
      "uries": 7199,
      "CT": 7200,
      "Ġpup": 7201,
      "shire": 7202,
      "Ġstom": 7203,
      "Ġrhythm": 7204,
      "Ġotherwise": 7205,
      "happy": 7206,
      "Ġinscri": 7207,
      "ĠBye": 7208,
      "oul": 7209,
      "Ġpopp": 7210,
      "Ġdressing": 7211,
      "sn": 7212,
      "Ġdying": 7213,
      "ĠChic": 7214,
      "Ġcupcakes": 7215,
      "Ġeastern": 7216,
      "ĠAustralian": 7217,
      "bird": 7218,
      "Ġleaders": 7219,
      "Ġrooft": 7220,
      "Ġsatell": 7221,
      "Ġcrab": 7222,
      "vocalizes": 7223,
      "yellow": 7224,
      "Ġtheater": 7225,
      "Ġmultiple": 7226,
      "Ġjumps": 7227,
      "Ġopinion": 7228,
      "sl": 7229,
      "Ġgang": 7230,
      "Ġmassive": 7231,
      "Ġbom": 7232,
      "ĠSuper": 7233,
      "Ġdrove": 7234,
      "Ġmaple": 7235,
      "Ġreply": 7236,
      "rd": 7237,
      "Ġmics": 7238,
      "ĠSylvia": 7239,
      "ota": 7240,
      "Ġhydr": 7241,
      "aterpillar": 7242,
      "lest": 7243,
      "Ġnavy": 7244,
      "Ġdamaged": 7245,
      "Ġdepart": 7246,
      "Ġrepeated": 7247,
      "ENT": 7248,
      "building": 7249,
      "Ġberries": 7250,
      "Ġbudget": 7251,
      "Ġwitness": 7252,
      "mar": 7253,
      "Ġbars": 7254,
      "Ġautomotive": 7255,
      "UK": 7256,
      "Ġload": 7257,
      "Ġcallig": 7258,
      "Ġpowder": 7259,
      "ĠSay": 7260,
      "ded": 7261,
      "ĠRog": 7262,
      "Ġmarks": 7263,
      "ĠZe": 7264,
      "Ġweapons": 7265,
      "Ġemergency": 7266,
      "Ġfrightened": 7267,
      "Ġshook": 7268,
      "apple": 7269,
      "esome": 7270,
      "ĠNic": 7271,
      "Ġcalcul": 7272,
      "Ġpointed": 7273,
      "Ġdozen": 7274,
      "Ġcomment": 7275,
      "uhuh": 7276,
      "ebras": 7277,
      "Ġstrawberry": 7278,
      "keeper": 7279,
      "Ġmates": 7280,
      "ĠFlor": 7281,
      "Ġchimney": 7282,
      "ĠLove": 7283,
      "Ġformat": 7284,
      "Ġgreater": 7285,
      "Ġdenim": 7286,
      "Ġapparently": 7287,
      "Ġstroll": 7288,
      "Ġpilot": 7289,
      "Ġfrag": 7290,
      "eling": 7291,
      "draw": 7292,
      "foot": 7293,
      "Ġwrist": 7294,
      "Ġnation": 7295,
      "ancing": 7296,
      "Ġmatters": 7297,
      "Ġ189": 7298,
      "ĠLin": 7299,
      "think": 7300,
      "Ġrolls": 7301,
      "Ġpresence": 7302,
      "Ġforeign": 7303,
      "Gr": 7304,
      "Ġrivers": 7305,
      "Ġ2004": 7306,
      "Ġinstant": 7307,
      "Ġbridal": 7308,
      "woman": 7309,
      "Ġdetermined": 7310,
      "JEN": 7311,
      "rels": 7312,
      "Ġugly": 7313,
      "Ġ1990": 7314,
      "Ġadministrative": 7315,
      "ĠHam": 7316,
      "Ġflows": 7317,
      "SOA": 7318,
      "Ġpasture": 7319,
      "Ġtechnology": 7320,
      "ga": 7321,
      "ĠRome": 7322,
      "Ġzebras": 7323,
      "Ġblooming": 7324,
      "Ġconsc": 7325,
      "Ġagric": 7326,
      "osure": 7327,
      "pering": 7328,
      "ĠMartine": 7329,
      "ĠCle": 7330,
      "Ġmyst": 7331,
      "idding": 7332,
      "Ġbecomes": 7333,
      "Ġnearby": 7334,
      "Ġmodels": 7335,
      "Ġ2001": 7336,
      "Ġinternet": 7337,
      "Ġdespite": 7338,
      "Ġreaching": 7339,
      "tt": 7340,
      "Ġrealize": 7341,
      "Ġpumpkins": 7342,
      "yan": 7343,
      "Ġskyscrapers": 7344,
      "Ġvert": 7345,
      "Ġcer": 7346,
      "Ġdistant": 7347,
      "Ġmainly": 7348,
      "Ġcowboy": 7349,
      "Ġ1950": 7350,
      "Ġmere": 7351,
      "Ġcoloring": 7352,
      "Ġelected": 7353,
      "Ġtire": 7354,
      "ĠVir": 7355,
      "Ġorganic": 7356,
      "sorry": 7357,
      "Ġdoin": 7358,
      "Ġroofs": 7359,
      "umble": 7360,
      "LI": 7361,
      "lim": 7362,
      "ĠBraz": 7363,
      "oodles": 7364,
      "Ġscooter": 7365,
      "Ġcotton": 7366,
      "Ġpersonality": 7367,
      "bee": 7368,
      "ective": 7369,
      "ĠJew": 7370,
      "Ġhugging": 7371,
      "Ġarg": 7372,
      "Ġcombination": 7373,
      "Ġwhale": 7374,
      "ordon": 7375,
      "aughters": 7376,
      "omin": 7377,
      "Ġyell": 7378,
      "Ġjelly": 7379,
      ".âĢĻ": 7380,
      "Ġpoured": 7381,
      "arf": 7382,
      "Ġtouching": 7383,
      "hod": 7384,
      "Ġsisters": 7385,
      "Ġterrace": 7386,
      "Ġuseful": 7387,
      "Let": 7388,
      "Ġfoggy": 7389,
      "ellig": 7390,
      "Ġunf": 7391,
      "Ġcrayons": 7392,
      "Ġscores": 7393,
      "ĠSom": 7394,
      "ĠFin": 7395,
      "ributed": 7396,
      "Ġexperi": 7397,
      "Ġapproaching": 7398,
      "Ġcourty": 7399,
      "Ġconflict": 7400,
      "Ġfond": 7401,
      "Ġgloss": 7402,
      "ĠChris": 7403,
      "Ġprovided": 7404,
      "iggles": 7405,
      "Ġmax": 7406,
      "llie": 7407,
      "Ġrac": 7408,
      "Ġdisappeared": 7409,
      "Ġhorizontal": 7410,
      "sequ": 7411,
      "abr": 7412,
      "Ġodd": 7413,
      "Ġjigs": 7414,
      "Ġsheds": 7415,
      "Ġcouncil": 7416,
      "Ġsna": 7417,
      "Ġinn": 7418,
      "ĠPrince": 7419,
      "Ġmanage": 7420,
      "Ġsurfer": 7421,
      "Ġcheap": 7422,
      "Ġarriving": 7423,
      "Ġfamiliar": 7424,
      "ĠMonday": 7425,
      "Sh": 7426,
      "Ġburied": 7427,
      "Ġadvantage": 7428,
      "Ġcarrots": 7429,
      "ensive": 7430,
      "gent": 7431,
      "page": 7432,
      "ĠWood": 7433,
      "Ġafterwards": 7434,
      "leton": 7435,
      "acture": 7436,
      "ĠMur": 7437,
      "order": 7438,
      "Ġembr": 7439,
      "arium": 7440,
      "gend": 7441,
      "ette": 7442,
      "Ġvessels": 7443,
      "Ġsuppl": 7444,
      "Ġexplos": 7445,
      "Ġmushrooms": 7446,
      "Ġinstall": 7447,
      "oses": 7448,
      "Ġteaching": 7449,
      "Ġtoddler": 7450,
      "ĠIll": 7451,
      "allen": 7452,
      "abor": 7453,
      "KAT": 7454,
      "yed": 7455,
      "Ġlogs": 7456,
      "overy": 7457,
      "asty": 7458,
      "ĠMus": 7459,
      "Ġadding": 7460,
      "Ġfederal": 7461,
      "Ġphilos": 7462,
      "Ġfreed": 7463,
      "Ġscored": 7464,
      "ishment": 7465,
      "Ġtruly": 7466,
      "Ġrocket": 7467,
      "Ġmedium": 7468,
      "Ġtaxi": 7469,
      "Ġremarked": 7470,
      "Ġlaun": 7471,
      "Ġyards": 7472,
      "rael": 7473,
      "Ġarrival": 7474,
      "Ġoriginally": 7475,
      "Ġvs": 7476,
      "ĠAlright": 7477,
      "ĠLake": 7478,
      "ano": 7479,
      "Ġpoll": 7480,
      "Ġunknown": 7481,
      "Ġcandid": 7482,
      "eat": 7483,
      "Ġintroduced": 7484,
      "ĠBecky": 7485,
      "ĠBilly": 7486,
      "Ġlatter": 7487,
      "Ġmoments": 7488,
      "Ġtummy": 7489,
      "inate": 7490,
      "Ġhearing": 7491,
      "Ġcaut": 7492,
      "Ġoutline": 7493,
      "Ġdeliver": 7494,
      "Ġmaterials": 7495,
      "Ġcontrast": 7496,
      "ĠBrazil": 7497,
      "mel": 7498,
      "aping": 7499,
      "Ġcustomers": 7500,
      "Ġpad": 7501,
      "ĠBay": 7502,
      "Ġhunt": 7503,
      "Ġmunicipality": 7504,
      "Ġaim": 7505,
      "Ġsposta": 7506,
      "Ġemotion": 7507,
      "Ġamongst": 7508,
      "apper": 7509,
      "Ġdata": 7510,
      "Ġtrim": 7511,
      "ĠRay": 7512,
      "Ġexcitement": 7513,
      "Ġalcoh": 7514,
      "ĠME": 7515,
      "ĠVictor": 7516,
      "Ġlane": 7517,
      "year": 7518,
      "Ġfacility": 7519,
      "ĠJoseph": 7520,
      "Ġstomach": 7521,
      "ĠMass": 7522,
      "Ġ60": 7523,
      "Ġdegree": 7524,
      "ĠPerson": 7525,
      "Ġmyster": 7526,
      "Ġsurg": 7527,
      "fat": 7528,
      "Ġcoal": 7529,
      "Ġcrim": 7530,
      "eta": 7531,
      "Ġretail": 7532,
      "ussing": 7533,
      "Ġcompanion": 7534,
      "sung": 7535,
      "astern": 7536,
      "Ġbomb": 7537,
      "shot": 7538,
      "Ġgentlemen": 7539,
      "Ġresults": 7540,
      "ĠAccording": 7541,
      "Ġlisted": 7542,
      "Ġrobot": 7543,
      "Ġremembered": 7544,
      "ican": 7545,
      "Ġnineteen": 7546,
      "ALL": 7547,
      "ĠSol": 7548,
      "arts": 7549,
      "ntown": 7550,
      "Ġoranges": 7551,
      "pany": 7552,
      "Ġexciting": 7553,
      "Ġvolcan": 7554,
      "Ã³": 7555,
      "Ġcourtyard": 7556,
      "\"]": 7557,
      "Ġloop": 7558,
      "Ġexch": 7559,
      "Ġformula": 7560,
      "ĠJimmy": 7561,
      "chief": 7562,
      "Ġkm": 7563,
      "silence": 7564,
      "Ġcocktail": 7565,
      "Ġbone": 7566,
      "Ġorch": 7567,
      "ĠRen": 7568,
      "amples": 7569,
      "Ġethnicity": 7570,
      "Ġax": 7571,
      "ĠBea": 7572,
      "Ġeffects": 7573,
      "Ġbones": 7574,
      "ĠAcademy": 7575,
      "Ġtorn": 7576,
      "Ġoperation": 7577,
      "Ġseriously": 7578,
      "Ġlack": 7579,
      "vy": 7580,
      "ĠPal": 7581,
      "Ġspecific": 7582,
      "Ġdaughters": 7583,
      "atholic": 7584,
      "Ġboyfriend": 7585,
      "upp": 7586,
      "peror": 7587,
      "Ġturb": 7588,
      "Ġamuse": 7589,
      "Ġkinda": 7590,
      "Ġtreatment": 7591,
      "Ġbust": 7592,
      "ĠCamp": 7593,
      "Ġspots": 7594,
      "ĠAtl": 7595,
      "Ġtoes": 7596,
      "ili": 7597,
      "Ġmural": 7598,
      "inson": 7599,
      "about": 7600,
      "mpire": 7601,
      "person": 7602,
      "Ġreacts": 7603,
      "mates": 7604,
      "ĠIre": 7605,
      "Ġgay": 7606,
      "Ġhurried": 7607,
      "Ġskies": 7608,
      "ĠMaggie": 7609,
      "Ġbeads": 7610,
      "Ġtrash": 7611,
      "ĠIsn": 7612,
      "Ġcanoe": 7613,
      "ĠWow": 7614,
      "Ġpoly": 7615,
      "Ġaunt": 7616,
      "Ġbegg": 7617,
      "Ġtissues": 7618,
      "aus": 7619,
      "Ġbree": 7620,
      "Ġpacket": 7621,
      "omy": 7622,
      "Ġrolled": 7623,
      "win": 7624,
      "Ġta": 7625,
      "60": 7626,
      "ĠLand": 7627,
      "ĠLie": 7628,
      "ĠBobby": 7629,
      "music": 7630,
      "Ġmanne": 7631,
      "Ġtriangle": 7632,
      "Ġstalls": 7633,
      "ĠSea": 7634,
      "ĠPak": 7635,
      "Ġsignboard": 7636,
      "Ġhighly": 7637,
      "Ġhunting": 7638,
      "voc": 7639,
      "Ġwished": 7640,
      "Ġwitch": 7641,
      "Ġrank": 7642,
      "Ġtouched": 7643,
      "Ġcongrat": 7644,
      "mom": 7645,
      "robe": 7646,
      "ĠCollege": 7647,
      "urally": 7648,
      "Ġrealized": 7649,
      "Ġbalance": 7650,
      "Ġmaid": 7651,
      "Ġthorough": 7652,
      "heast": 7653,
      "ĠBaby": 7654,
      "osen": 7655,
      "Ġcircum": 7656,
      "Ġlifted": 7657,
      "Ġambul": 7658,
      "ĠScotland": 7659,
      "ELL": 7660,
      "Ġsixty": 7661,
      "Ġfrequ": 7662,
      "Ġjewel": 7663,
      "ocratic": 7664,
      "Ġcalligraphy": 7665,
      "Ġpit": 7666,
      "Ġovers": 7667,
      "Ġremove": 7668,
      "Ġninety": 7669,
      "ĠIrish": 7670,
      "Ġfer": 7671,
      "ĠOk": 7672,
      "Ġproved": 7673,
      "ĠAlthough": 7674,
      "Ġstriking": 7675,
      "Ġavoid": 7676,
      "vocalize": 7677,
      "ĠBomba": 7678,
      "Ġshells": 7679,
      "emic": 7680,
      "Ġcourage": 7681,
      "Ġrequest": 7682,
      "Ġolive": 7683,
      "Ġiv": 7684,
      "Ġmosque": 7685,
      "Ġimprove": 7686,
      "Ġstudying": 7687,
      "Ġexcellent": 7688,
      "Ġstorage": 7689,
      "Ġmannequ": 7690,
      "Ġprogramme": 7691,
      "holds": 7692,
      "Ġsorts": 7693,
      "ĠDutch": 7694,
      "Ġcode": 7695,
      "Ġwinds": 7696,
      "Ġgrandfather": 7697,
      "Ġfought": 7698,
      "imit": 7699,
      "pretend": 7700,
      "zer": 7701,
      "Ġmerry": 7702,
      "Ġhumans": 7703,
      "Ġshallow": 7704,
      "Ġtransl": 7705,
      "Ġclient": 7706,
      "ĠPrin": 7707,
      "Ġdescend": 7708,
      "ĠIsrael": 7709,
      "arry": 7710,
      "oodle": 7711,
      "Ġcurly": 7712,
      "Ġrally": 7713,
      "ĠMajor": 7714,
      "ĠSteven": 7715,
      "hus": 7716,
      "sie": 7717,
      "Ġtab": 7718,
      "ĠLes": 7719,
      "Ġstranger": 7720,
      "FA": 7721,
      "ua": 7722,
      "ĠLaw": 7723,
      "Ġfoods": 7724,
      "Ġpolar": 7725,
      "Ġobserved": 7726,
      "ĠJeff": 7727,
      "Ġresist": 7728,
      "angers": 7729,
      "Ġinfluence": 7730,
      "erk": 7731,
      "Ġanno": 7732,
      "Ġslip": 7733,
      "pron": 7734,
      "Ġfestive": 7735,
      "Ġhiking": 7736,
      "press": 7737,
      "Ġlesson": 7738,
      "ĠChicago": 7739,
      "uing": 7740,
      "Ġcarries": 7741,
      "ias": 7742,
      "Ġwan": 7743,
      "thur": 7744,
      "ĠProv": 7745,
      "ĠIreland": 7746,
      "Ġtouchdown": 7747,
      "Ġwagon": 7748,
      "ĠRam": 7749,
      "Ġsleeve": 7750,
      "Ġgates": 7751,
      "Ġselection": 7752,
      "ĠHad": 7753,
      "ificial": 7754,
      "ĠLaura": 7755,
      "ĠBeth": 7756,
      "Ġactual": 7757,
      "Ġdowntown": 7758,
      "Good": 7759,
      "Ġdome": 7760,
      "Ġonstage": 7761,
      "omer": 7762,
      "Ġcitiz": 7763,
      "rians": 7764,
      "Ġmatches": 7765,
      "ounce": 7766,
      "Ġloft": 7767,
      "Ġentering": 7768,
      "Ġtrunks": 7769,
      "rors": 7770,
      "Ġvisited": 7771,
      "uan": 7772,
      "Ġtask": 7773,
      "Ġreno": 7774,
      "Ġfirefight": 7775,
      "isions": 7776,
      "Ġfaster": 7777,
      "Ġconver": 7778,
      "Ġfrench": 7779,
      "ĠTer": 7780,
      "ĠFire": 7781,
      "Ġreplaced": 7782,
      "Ġnervous": 7783,
      "Ġscratch": 7784,
      "SS": 7785,
      "Ġsings": 7786,
      "Ġglance": 7787,
      "Ġminister": 7788,
      "Ġoccupied": 7789,
      "asian": 7790,
      "Ġsequ": 7791,
      "abeth": 7792,
      "Ġcamel": 7793,
      "Ġconstitution": 7794,
      "Ġupside": 7795,
      "Ġspan": 7796,
      "ĠLos": 7797,
      "ĠRod": 7798,
      "Ġrif": 7799,
      "Ġlocom": 7800,
      "Ġsupply": 7801,
      "Ġsystems": 7802,
      "Ġrises": 7803,
      "ĠKeep": 7804,
      "orted": 7805,
      "Ġproposed": 7806,
      "Ġder": 7807,
      "unte": 7808,
      "Ġhorror": 7809,
      "ĠSecret": 7810,
      "pull": 7811,
      "Ġteachers": 7812,
      "rick": 7813,
      "try": 7814,
      "Ġremaining": 7815,
      "Ġdots": 7816,
      "Ġfinds": 7817,
      "Ġordinary": 7818,
      "Ġjigsaw": 7819,
      "esty": 7820,
      "ĠGirl": 7821,
      "othy": 7822,
      "Ġ2002": 7823,
      "Ġmurd": 7824,
      "istry": 7825,
      "Ġsuspic": 7826,
      "Peter": 7827,
      "ules": 7828,
      "LAU": 7829,
      "Ġrapidly": 7830,
      "Who": 7831,
      "Ġtreated": 7832,
      "Ġoverlay": 7833,
      "Ġera": 7834,
      "Ġhonour": 7835,
      "ĠRoyal": 7836,
      "orable": 7837,
      "Ġdomestic": 7838,
      "Ġcact": 7839,
      "isa": 7840,
      "Ġlorry": 7841,
      "ĠPolly": 7842,
      "leg": 7843,
      "Ġdriven": 7844,
      "corn": 7845,
      "ettle": 7846,
      "Ġchecking": 7847,
      "ĠFlorida": 7848,
      "lie": 7849,
      "Ġsto": 7850,
      "ĠLong": 7851,
      "Ġinsects": 7852,
      "ĠHot": 7853,
      "Ġspectacle": 7854,
      "Ġlic": 7855,
      "Ġheels": 7856,
      "ĠWestern": 7857,
      "Ġalt": 7858,
      "Ġpoo": 7859,
      "Ġflav": 7860,
      "ĠNed": 7861,
      "erous": 7862,
      "ĠCorn": 7863,
      "ĠPurdie": 7864,
      "ĠGreek": 7865,
      "Ġprize": 7866,
      "OO": 7867,
      "lor": 7868,
      "Ġsevere": 7869,
      "Ġsche": 7870,
      "Ġapplic": 7871,
      "Ġplanets": 7872,
      "May": 7873,
      "Ġwid": 7874,
      "igator": 7875,
      "Ġresidents": 7876,
      "Ġreturns": 7877,
      "Ġgalax": 7878,
      "Ġthee": 7879,
      "ĠYoung": 7880,
      "Ġhanger": 7881,
      "Ġfarmers": 7882,
      "Ġrecorded": 7883,
      "GE": 7884,
      "ures": 7885,
      "Ġshame": 7886,
      "Ġcho": 7887,
      "Ġprepar": 7888,
      "Ġcaterpillar": 7889,
      "nothing": 7890,
      "ĠEarly": 7891,
      "Ġglit": 7892,
      "ION": 7893,
      "Ġspare": 7894,
      "Ġsatellite": 7895,
      "ĠBro": 7896,
      "ĠAndy": 7897,
      "Ġedition": 7898,
      "Ġchose": 7899,
      "sticks": 7900,
      "ĠJon": 7901,
      "Ġawesome": 7902,
      "unny": 7903,
      "Ġsin": 7904,
      "enth": 7905,
      "Ġprem": 7906,
      "Ġminiature": 7907,
      "Ġobtain": 7908,
      "ĠAngel": 7909,
      "writer": 7910,
      "Ġconstitu": 7911,
      "Ġcarrot": 7912,
      "Ġlosing": 7913,
      "Ġfolks": 7914,
      "Ġtender": 7915,
      "Ġpean": 7916,
      "ands": 7917,
      "Ġstretch": 7918,
      "Ġsitu": 7919,
      "Ġ2003": 7920,
      "Ġdivided": 7921,
      "ĠIndians": 7922,
      "Ġarticle": 7923,
      "Ġaid": 7924,
      "lessly": 7925,
      "Ġchains": 7926,
      "Ġnewborn": 7927,
      "Ġstyl": 7928,
      "ĠSwed": 7929,
      "inda": 7930,
      "ĠPrime": 7931,
      "Ġinjured": 7932,
      "ĠFort": 7933,
      "Ġwaist": 7934,
      "ih": 7935,
      "Ġclosely": 7936,
      "Ġeaster": 7937,
      "zzz": 7938,
      "Ġgraphics": 7939,
      "mers": 7940,
      "Ġï¿½ï¿½ï¿½ï¿½": 7941,
      "ooper": 7942,
      "Ġspending": 7943,
      "Of": 7944,
      "Ġestablished": 7945,
      "Ġglossy": 7946,
      "inating": 7947,
      "Ġburned": 7948,
      "40": 7949,
      "Ġprofessor": 7950,
      "nina": 7951,
      "umed": 7952,
      "Ġrequired": 7953,
      "ĠRE": 7954,
      "Ġlabor": 7955,
      "Ġcharming": 7956,
      "really": 7957,
      "Ġinh": 7958,
      "Ġhoping": 7959,
      "piece": 7960,
      "Ġphones": 7961,
      "Ġstormy": 7962,
      "ĠEdward": 7963,
      "Ġpassage": 7964,
      "Ġkay": 7965,
      "Ġdrawers": 7966,
      "Ġornamental": 7967,
      "Ġglac": 7968,
      "Ġhappiness": 7969,
      "Ġevol": 7970,
      "Ġwounded": 7971,
      "BC": 7972,
      "Ġded": 7973,
      "ĠEliz": 7974,
      "Ġextremely": 7975,
      "Ġsnowflakes": 7976,
      "Ġraw": 7977,
      "Ġcreep": 7978,
      "Ġconfident": 7979,
      "pro": 7980,
      "ona": 7981,
      "Ġsunflower": 7982,
      "point": 7983,
      "Ġtrailer": 7984,
      "Ġcoconut": 7985,
      "ĠSqu": 7986,
      "ĠNice": 7987,
      "Ġdiagram": 7988,
      "Ġfart": 7989,
      "Ġdism": 7990,
      "Ġutens": 7991,
      "bott": 7992,
      "zard": 7993,
      "Ġplanned": 7994,
      "Ġlettering": 7995,
      "ĠTurn": 7996,
      "stances": 7997,
      "Ġartificial": 7998,
      "Ġshouting": 7999,
      "Ġframed": 8000,
      "Ġchosen": 8001,
      "atsy": 8002,
      "KAR": 8003,
      "aron": 8004,
      "ĠFore": 8005,
      "Ġcrowded": 8006,
      "Ġparliament": 8007,
      "Ġvertical": 8008,
      "Ġsignific": 8009,
      "Ġkilling": 8010,
      "Ġsticking": 8011,
      "Ġcuts": 8012,
      "Ġ187": 8013,
      "umper": 8014,
      "Ġdrug": 8015,
      "Ġvoices": 8016,
      "Ġsplend": 8017,
      "Ġtattoos": 8018,
      "ĠRussia": 8019,
      "Ġwondered": 8020,
      "itage": 8021,
      "ĠStep": 8022,
      "Ġflowering": 8023,
      "ĠArt": 8024,
      "Ġvolunte": 8025,
      "Ġweapon": 8026,
      "ccoli": 8027,
      "Ġunderground": 8028,
      "Ġcooked": 8029,
      "ndry": 8030,
      "ĠHas": 8031,
      "sembly": 8032,
      "dis": 8033,
      "onel": 8034,
      "Ġflame": 8035,
      "Ġdecorating": 8036,
      "Ġaquarium": 8037,
      "untary": 8038,
      "Ġresponsible": 8039,
      "ĠMexico": 8040,
      "takes": 8041,
      "Ġtalent": 8042,
      "Ġrows": 8043,
      "Ġparties": 8044,
      "Ġdrawings": 8045,
      "Ġstump": 8046,
      "ura": 8047,
      "ĠSaint": 8048,
      "Ġflour": 8049,
      "Ġbatt": 8050,
      "Ġinit": 8051,
      "poles": 8052,
      "Ġthy": 8053,
      "Ġhorrible": 8054,
      "whoa": 8055,
      "after": 8056,
      "Ġtut": 8057,
      "Ġsheets": 8058,
      "ems": 8059,
      "199": 8060,
      "ĠNext": 8061,
      "Ġgrainy": 8062,
      "clear": 8063,
      "Ġaccent": 8064,
      "ussy": 8065,
      "forest": 8066,
      "spect": 8067,
      "hetic": 8068,
      "Ġtoss": 8069,
      "cho": 8070,
      "ĠHy": 8071,
      "oston": 8072,
      "Ġfavourite": 8073,
      "Ġtheory": 8074,
      "Ġinvited": 8075,
      "Ġdoctors": 8076,
      "Ġlanded": 8077,
      "mble": 8078,
      "Ġginger": 8079,
      "urance": 8080,
      "Ġclosing": 8081,
      "Ġrepeat": 8082,
      "\".=": 8083,
      "bridge": 8084,
      "Ġmarked": 8085,
      "Ġnormally": 8086,
      "Ġforks": 8087,
      "ĠMiddle": 8088,
      "Ġunderstood": 8089,
      "Ġterror": 8090,
      "Ġambulance": 8091,
      "Ġagent": 8092,
      "Ġoffers": 8093,
      "Ġconcent": 8094,
      "lings": 8095,
      "lishing": 8096,
      "orial": 8097,
      "amas": 8098,
      "Ġmenu": 8099,
      "Ġmaintain": 8100,
      "yon": 8101,
      "ores": 8102,
      "ĠLife": 8103,
      "Ġsurely": 8104,
      "Ġeditor": 8105,
      "Ġcustomer": 8106,
      "Ġindependent": 8107,
      "Ġshrubs": 8108,
      "Ġouter": 8109,
      "ĠFine": 8110,
      "ĠRose": 8111,
      "aucasian": 8112,
      "Ġlord": 8113,
      "anted": 8114,
      "ĠNick": 8115,
      "ression": 8116,
      "bbles": 8117,
      "Ġhesit": 8118,
      "ĠCast": 8119,
      "Ġpedestrian": 8120,
      "Ġcrocodile": 8121,
      "Ġhik": 8122,
      "Ġgarb": 8123,
      "Ġpend": 8124,
      "Ġjobs": 8125,
      "Ġmemorial": 8126,
      "Ġmanufacture": 8127,
      "acon": 8128,
      "Ġroast": 8129,
      "Ġneutral": 8130,
      "viet": 8131,
      "agged": 8132,
      "Ġgrace": 8133,
      "ques": 8134,
      "Ġspirits": 8135,
      "Ġfortune": 8136,
      "Ġinscription": 8137,
      "Mr": 8138,
      "min": 8139,
      "Ġmatching": 8140,
      "Ġrusty": 8141,
      "ĠVirgin": 8142,
      "Ġfloors": 8143,
      "ĠArmy": 8144,
      "Ġclimate": 8145,
      "ĠPakistan": 8146,
      "ĠEleanor": 8147,
      "Ġ31": 8148,
      "ĠAmericans": 8149,
      "ĠAfrican": 8150,
      "ĠProfessor": 8151,
      "Ġreads": 8152,
      "Ġgraph": 8153,
      "bish": 8154,
      "brush": 8155,
      "Ġeventually": 8156,
      "Ġinstit": 8157,
      "Ġpige": 8158,
      "Ġseed": 8159,
      "Ġcactus": 8160,
      "Ġner": 8161,
      "ĠHu": 8162,
      "Ġsending": 8163,
      "Ġceramic": 8164,
      "Ġglove": 8165,
      "mine": 8166,
      "ilty": 8167,
      "ĠMen": 8168,
      "Ġclay": 8169,
      "Ġslept": 8170,
      "Ġtheatre": 8171,
      "eled": 8172,
      "ĠLast": 8173,
      "Ġforming": 8174,
      "Ġbehav": 8175,
      "opard": 8176,
      "ĠOx": 8177,
      "Ġbald": 8178,
      "ĠJerry": 8179,
      "ĠGovernor": 8180,
      "sky": 8181,
      "Ġselect": 8182,
      "opy": 8183,
      "Ġopera": 8184,
      "ĠTime": 8185,
      "Ġvolume": 8186,
      "ĠJean": 8187,
      "uster": 8188,
      "from": 8189,
      "ĠXX": 8190,
      "Ġlimited": 8191,
      "IA": 8192,
      "ami": 8193,
      "Ġdepth": 8194,
      "Ġconduct": 8195,
      "ĠBesides": 8196,
      "thew": 8197,
      "Ġ188": 8198,
      "Ġprotected": 8199,
      "Ġexperiment": 8200,
      "Ġpanoramic": 8201,
      "Ġhydrant": 8202,
      "Ġuniverse": 8203,
      "ĠToday": 8204,
      "ref": 8205,
      "ĠMet": 8206,
      "Ġpanel": 8207,
      "Ġult": 8208,
      "Ġdonkey": 8209,
      "Ġprayer": 8210,
      "Ġscheme": 8211,
      "25": 8212,
      "Ġlil": 8213,
      "âĢķ": 8214,
      "iage": 8215,
      "met": 8216,
      "ĠLater": 8217,
      "Ġaft": 8218,
      "only": 8219,
      "Ġthunder": 8220,
      "Ġmosa": 8221,
      "itory": 8222,
      "ĠCanadian": 8223,
      "Ġimpression": 8224,
      "Ġbills": 8225,
      "ĠCall": 8226,
      "ĠEach": 8227,
      "ĠDistrict": 8228,
      "VID": 8229,
      "icer": 8230,
      "ointment": 8231,
      "Ġrip": 8232,
      "choo": 8233,
      "Ġvilla": 8234,
      "Ġuniforms": 8235,
      "ĠCentral": 8236,
      "IGHT": 8237,
      "Ġsweat": 8238,
      "Ġaccompan": 8239,
      "Ġincredible": 8240,
      "agull": 8241,
      "Ġmeters": 8242,
      "umin": 8243,
      "ĠPo": 8244,
      "Ġemble": 8245,
      "Ġprecious": 8246,
      "Ġsweetheart": 8247,
      "ĠCons": 8248,
      "iches": 8249,
      "ĠStr": 8250,
      "',": 8251,
      "aa": 8252,
      "Ġsomehow": 8253,
      "Ġspaces": 8254,
      "ĠSoviet": 8255,
      "Ġarrows": 8256,
      "Ġcompanies": 8257,
      "Ġloaded": 8258,
      "Ġslipped": 8259,
      "Ġmort": 8260,
      "artment": 8261,
      "ĠArthur": 8262,
      "unts": 8263,
      "Ġfitted": 8264,
      "Ġspite": 8265,
      "Ġdifficulty": 8266,
      "ima": 8267,
      "Ġpanels": 8268,
      "Ġmacro": 8269,
      "ĠRad": 8270,
      "Ġpigs": 8271,
      "Ġpeak": 8272,
      "Ġdelicate": 8273,
      "Ġsteal": 8274,
      "weet": 8275,
      "Ġlegal": 8276,
      "uctor": 8277,
      "Ġfiles": 8278,
      "Ġseal": 8279,
      "together": 8280,
      "Ġpyram": 8281,
      "Ġrecy": 8282,
      "Ġcorpor": 8283,
      "whispers": 8284,
      "Ġrevealed": 8285,
      "Ġwardrobe": 8286,
      "bled": 8287,
      "ele": 8288,
      "ĠWomen": 8289,
      "elle": 8290,
      "ĠPost": 8291,
      "Ġseagull": 8292,
      "Ġbend": 8293,
      "Ġdamn": 8294,
      "Ġinstructions": 8295,
      "Ġintellig": 8296,
      "Ġelectricity": 8297,
      "Ġfoliage": 8298,
      "nods": 8299,
      "Ġapply": 8300,
      "Ġlifting": 8301,
      "remember": 8302,
      "stitute": 8303,
      "Ġadvertisement": 8304,
      "ĠOb": 8305,
      "Ġbracelet": 8306,
      "din": 8307,
      "Ġcaucasian": 8308,
      "anchester": 8309,
      "ĠConf": 8310,
      "Ġscarcely": 8311,
      "allenge": 8312,
      "ĠNobody": 8313,
      "âĮĬ": 8314,
      "ikes": 8315,
      "non": 8316,
      "ĠSusan": 8317,
      "Ġfreedom": 8318,
      "Ġshots": 8319,
      "Ġadorable": 8320,
      "Ġdrown": 8321,
      "rant": 8322,
      "Ġsons": 8323,
      "Ġgoals": 8324,
      "Ġdesire": 8325,
      "Ġtexts": 8326,
      "Ġpropos": 8327,
      "Ġdiamonds": 8328,
      "Ġmansion": 8329,
      "Did": 8330,
      "ĠWed": 8331,
      "Ġpoliceman": 8332,
      "Ġtwin": 8333,
      "Ġtops": 8334,
      "Ġtires": 8335,
      "ĠFAT": 8336,
      "Ġblame": 8337,
      "rog": 8338,
      "Ġreturning": 8339,
      "Ġoblig": 8340,
      "ani": 8341,
      "Ġthanksgiving": 8342,
      "Ġren": 8343,
      "Ġcarn": 8344,
      "Ġstuffed": 8345,
      "pointing": 8346,
      "Ġprisoners": 8347,
      "eau": 8348,
      "Ġsecure": 8349,
      "Ġholy": 8350,
      "Ġmole": 8351,
      "Ġhorsie": 8352,
      "RIC": 8353,
      "rous": 8354,
      "abled": 8355,
      "Ġages": 8356,
      "Ġscri": 8357,
      "Ġcompeted": 8358,
      "Ġposted": 8359,
      "Ġgaze": 8360,
      "Ġwatering": 8361,
      "bove": 8362,
      "itzer": 8363,
      "ouses": 8364,
      "Ġdraws": 8365,
      "Ã©e": 8366,
      "Ġpatch": 8367,
      "Ġrushed": 8368,
      "ĠBoston": 8369,
      "umbs": 8370,
      "ĠAngeles": 8371,
      "Ġembro": 8372,
      "Mom": 8373,
      "Ste": 8374,
      "ĠBest": 8375,
      "usted": 8376,
      "Ġpresentation": 8377,
      "Ġpassion": 8378,
      "Ġrecognized": 8379,
      "Ġlegend": 8380,
      "Ġlistened": 8381,
      "Ġcells": 8382,
      "Ġstole": 8383,
      "Ġrode": 8384,
      "Ġmas": 8385,
      "ĠStand": 8386,
      "Ġramp": 8387,
      "ulate": 8388,
      "obal": 8389,
      "Ġpedestrians": 8390,
      "Ġlocomotive": 8391,
      "oma": 8392,
      "Ġna": 8393,
      "ĠAbove": 8394,
      "former": 8395,
      "Ġadults": 8396,
      "ruded": 8397,
      "oos": 8398,
      "ĠDidn": 8399,
      "nice": 8400,
      "Ġfrogs": 8401,
      "Ġpinned": 8402,
      "eze": 8403,
      "Ġger": 8404,
      "Ġsymp": 8405,
      "Ġchampion": 8406,
      "Ġcrosses": 8407,
      "Ġ80": 8408,
      "SE": 8409,
      "bons": 8410,
      "nuts": 8411,
      "Ġroman": 8412,
      "ĠVan": 8413,
      "Ġparach": 8414,
      "Ġbatter": 8415,
      "Ġmisty": 8416,
      "mouth": 8417,
      "Ġpathway": 8418,
      "cur": 8419,
      "Ġfaint": 8420,
      "ĠSid": 8421,
      "Ġpoison": 8422,
      "Ġintended": 8423,
      "Ġrecomm": 8424,
      "Ġbadly": 8425,
      "Ġsparkling": 8426,
      "Ġrooftop": 8427,
      "ĠRoger": 8428,
      "oting": 8429,
      "kee": 8430,
      "Ġoverhead": 8431,
      "Ġuppercase": 8432,
      "Ġincrease": 8433,
      "haha": 8434,
      "Ã±": 8435,
      "ĠMo": 8436,
      "soft": 8437,
      "Ġdirections": 8438,
      "Ġ\"'": 8439,
      "Ġ(;": 8440,
      "Ġdistinct": 8441,
      "Here": 8442,
      "ĠEv": 8443,
      "Ġnights": 8444,
      "erg": 8445,
      "Ġmast": 8446,
      "arliament": 8447,
      "Ġcritic": 8448,
      "Ġbackwards": 8449,
      "ittens": 8450,
      "ieved": 8451,
      "Ġarts": 8452,
      "show": 8453,
      "Ġrecorder": 8454,
      "Ġphr": 8455,
      "Ġarchitectural": 8456,
      "hetti": 8457,
      "nut": 8458,
      "nel": 8459,
      "hew": 8460,
      "Ġhipp": 8461,
      "Ġyo": 8462,
      "Ġguitars": 8463,
      "Ġridge": 8464,
      "Ġpenny": 8465,
      "umbling": 8466,
      "ability": 8467,
      "Ġbroccoli": 8468,
      "Ġaffair": 8469,
      "Ġchickens": 8470,
      "Ġlaws": 8471,
      "ĠGovernment": 8472,
      "ĠAye": 8473,
      "ila": 8474,
      "ĠCat": 8475,
      "ava": 8476,
      "Ġpreser": 8477,
      "Ġfences": 8478,
      "Ġenthus": 8479,
      "Ġsquat": 8480,
      "Ġwrap": 8481,
      "ĠMarg": 8482,
      "Ġspinning": 8483,
      "ĠImage": 8484,
      "Ġrevival": 8485,
      "tw": 8486,
      "hole": 8487,
      "ĠTrans": 8488,
      "una": 8489,
      "ĠEmpire": 8490,
      "Ġsliding": 8491,
      "Ġcamping": 8492,
      "Ġmotorbike": 8493,
      "ILL": 8494,
      "Ġuk": 8495,
      "Ġcargo": 8496,
      "Ġgreatly": 8497,
      "ammy": 8498,
      "ĠWay": 8499,
      "Ġhanded": 8500,
      "ropol": 8501,
      "Ġdelicious": 8502,
      "nons": 8503,
      "pher": 8504,
      "Ġborrow": 8505,
      "Ġbeige": 8506,
      "ippers": 8507,
      "Ġevidently": 8508,
      "Ġbol": 8509,
      "Ġlean": 8510,
      "Ġjug": 8511,
      "Ġmarine": 8512,
      "Ġrepair": 8513,
      "Ġconcentr": 8514,
      "Ġinches": 8515,
      "plants": 8516,
      "Ġlads": 8517,
      "Ġroyalty": 8518,
      "tin": 8519,
      "Ġthumb": 8520,
      "Ġvirt": 8521,
      "otty": 8522,
      "Ġdunes": 8523,
      "bury": 8524,
      "ania": 8525,
      "amber": 8526,
      "Ġvast": 8527,
      "agg": 8528,
      "Ġdrawer": 8529,
      "Ġpackets": 8530,
      "Ġlaunched": 8531,
      "ĠBrian": 8532,
      "Ġconce": 8533,
      "Ġraining": 8534,
      "Ġtyping": 8535,
      "Ġfilling": 8536,
      "Ġalcohol": 8537,
      "yr": 8538,
      "alking": 8539,
      "ĠDire": 8540,
      "Ġtowns": 8541,
      "Ġawait": 8542,
      "Ġseasons": 8543,
      "Ġlamb": 8544,
      "oppers": 8545,
      "Ġchecked": 8546,
      "SIB": 8547,
      "ĠHor": 8548,
      "care": 8549,
      "--_": 8550,
      "Ġunion": 8551,
      "Ġengra": 8552,
      "sey": 8553,
      "ĠFe": 8554,
      "Ġprepares": 8555,
      "Ġpirate": 8556,
      "Ġcushions": 8557,
      "Ġbent": 8558,
      "Ġhen": 8559,
      "venue": 8560,
      "ITH": 8561,
      "Ġactivities": 8562,
      "ĠInside": 8563,
      "usive": 8564,
      "Ġtouches": 8565,
      "Ġanti": 8566,
      "ĠSteve": 8567,
      "Ġguilty": 8568,
      "Ġtransfer": 8569,
      "Ġcomposer": 8570,
      "omed": 8571,
      "amily": 8572,
      "Ġwhenever": 8573,
      "Ġsofas": 8574,
      "Ġarrangement": 8575,
      "Ġtram": 8576,
      "Ġimpro": 8577,
      "Ġ70": 8578,
      "Ġsearching": 8579,
      "TH": 8580,
      "ira": 8581,
      "chuckles": 8582,
      "ĠParliament": 8583,
      "airy": 8584,
      "ĠIran": 8585,
      "ĠTommy": 8586,
      "ĠBell": 8587,
      "Ġformation": 8588,
      "playing": 8589,
      "Ġincident": 8590,
      "Ġtempor": 8591,
      "ĠElizabeth": 8592,
      "ĠHuh": 8593,
      "Ġheavily": 8594,
      "Ġlabels": 8595,
      "ĠAgain": 8596,
      "Ġsewing": 8597,
      "Ġpatterned": 8598,
      "Ġgathering": 8599,
      "acious": 8600,
      "Ġstain": 8601,
      "ĠKim": 8602,
      "Mama": 8603,
      "nces": 8604,
      "Ġlect": 8605,
      "Ġbrides": 8606,
      "Ġhomeless": 8607,
      "Ġacry": 8608,
      "Ġextruded": 8609,
      "Ġdancers": 8610,
      "EW": 8611,
      "Ġlou": 8612,
      "Ġorn": 8613,
      "ĠAlice": 8614,
      "Ġlaundry": 8615,
      "Ġbelongs": 8616,
      "Ġpraying": 8617,
      "Ġanchor": 8618,
      "igger": 8619,
      "ela": 8620,
      "Ġmonitors": 8621,
      "ĠTown": 8622,
      "Ġgoats": 8623,
      "Ġvalent": 8624,
      "Ġplanes": 8625,
      "Ġsoftware": 8626,
      "ĠAnyway": 8627,
      "Ġtarget": 8628,
      "Ġlessons": 8629,
      "Ġwow": 8630,
      "Ġwipe": 8631,
      "iscilla": 8632,
      "Ġhamm": 8633,
      "UST": 8634,
      "Ġastronaut": 8635,
      "Ġwealth": 8636,
      "Ġscare": 8637,
      "Ġacrylic": 8638,
      "Ġmasc": 8639,
      "ĠMabel": 8640,
      "Ġvolley": 8641,
      "ĠGames": 8642,
      "ĠFox": 8643,
      "Ġaffect": 8644,
      "Ġbullet": 8645,
      "Ġrend": 8646,
      "Ġglow": 8647,
      "Ġcrop": 8648,
      "Ġsilk": 8649,
      "ĠAnna": 8650,
      "Ġpenguin": 8651,
      "Ġstopping": 8652,
      "ĠAT": 8653,
      "ĠHill": 8654,
      "ĠMAN": 8655,
      "Ġgrandma": 8656,
      "Ġbenefit": 8657,
      "Ġparrot": 8658,
      "Ġreplace": 8659,
      "ĠAround": 8660,
      "ĠSpr": 8661,
      "rowave": 8662,
      "Ġsixth": 8663,
      "Ġrestaurants": 8664,
      "Ġpiggy": 8665,
      "Ġsuffered": 8666,
      "law": 8667,
      "ĠBull": 8668,
      "ĠFive": 8669,
      "Ġmonkeys": 8670,
      "Ġ90": 8671,
      "Ġcushion": 8672,
      "Ġreckon": 8673,
      "Ġmysterious": 8674,
      "Ġsurgery": 8675,
      "Per": 8676,
      "Ġbreast": 8677,
      "eder": 8678,
      "ĠSon": 8679,
      "Ġupd": 8680,
      "Ġpriest": 8681,
      "Ġcircus": 8682,
      "Ġamusement": 8683,
      "OB": 8684,
      "ivery": 8685,
      "Ġtaps": 8686,
      "ĠCourt": 8687,
      "Ġuseta": 8688,
      "Ġfollows": 8689,
      "Ġ1999": 8690,
      "Ġskinny": 8691,
      "Ġtriang": 8692,
      "FF": 8693,
      "IV": 8694,
      "ĠKat": 8695,
      "load": 8696,
      "Ġincreased": 8697,
      "Ġkettle": 8698,
      "Ġalley": 8699,
      "Ġexha": 8700,
      "Ġrainforest": 8701,
      "Ġgolfer": 8702,
      "hemat": 8703,
      "sighs": 8704,
      "aghetti": 8705,
      "Ġwatermel": 8706,
      "Ġprimary": 8707,
      "ĠLatin": 8708,
      "Ġsway": 8709,
      "Ġboxing": 8710,
      "Ġ1996": 8711,
      "Ġpencils": 8712,
      "Ġconfirmed": 8713,
      "Ġbats": 8714,
      "Ġjail": 8715,
      "Ġjustice": 8716,
      "Ġbitch": 8717,
      "inals": 8718,
      "ĠOw": 8719,
      "ĠCOM": 8720,
      "ĠLight": 8721,
      "Ġprince": 8722,
      "Ġadmit": 8723,
      "giggles": 8724,
      "Ġdiscussing": 8725,
      "Ġdumb": 8726,
      "storm": 8727,
      "Ġiconic": 8728,
      "Ġclimbed": 8729,
      "Ġ1930": 8730,
      "Ġarrested": 8731,
      "Ġpride": 8732,
      "Ġclassical": 8733,
      "Ġregions": 8734,
      "Ġbreaks": 8735,
      "Ġsales": 8736,
      "Ġpotato": 8737,
      "ĠDaniel": 8738,
      "real": 8739,
      "ĠJud": 8740,
      "Ġcoats": 8741,
      "ivered": 8742,
      "Ġwoke": 8743,
      "ĠMake": 8744,
      "rose": 8745,
      "Ġclick": 8746,
      "Ġexposed": 8747,
      "Ġcreek": 8748,
      "Ġkites": 8749,
      "ĠWater": 8750,
      "aki": 8751,
      "Ġfried": 8752,
      "Ġkil": 8753,
      "ĠJones": 8754,
      "Ġamid": 8755,
      "Ġstatistics": 8756,
      "Åį": 8757,
      "icken": 8758,
      "ĠHmm": 8759,
      "Ġowners": 8760,
      "Ġsuspect": 8761,
      "Ġeducational": 8762,
      "Ġassociation": 8763,
      "Ġhighlighted": 8764,
      "nope": 8765,
      "itations": 8766,
      "ĠFil": 8767,
      "Ġtale": 8768,
      "ĠJac": 8769,
      "Ġcranes": 8770,
      "Ġours": 8771,
      "Ġengines": 8772,
      "Ġ1994": 8773,
      "Ġmunicipal": 8774,
      "CA": 8775,
      "Ġprotection": 8776,
      "Ġissues": 8777,
      "Ġsore": 8778,
      "Ġcoup": 8779,
      "AND": 8780,
      "ĠPriscilla": 8781,
      "Ġjewelry": 8782,
      "Ġeagerly": 8783,
      "Ġchallenge": 8784,
      "Ġawake": 8785,
      "Ġescaped": 8786,
      "Ġcolonial": 8787,
      "six": 8788,
      "ricate": 8789,
      "Ġgrills": 8790,
      "Ġsam": 8791,
      "ĠEric": 8792,
      "Ġencl": 8793,
      "ĠShould": 8794,
      "Ġ500": 8795,
      "vet": 8796,
      "ĠTra": 8797,
      "ĠGroup": 8798,
      "Ġcine": 8799,
      "aland": 8800,
      "Ġsuffering": 8801,
      "Ġbiscuits": 8802,
      "ja": 8803,
      "Ġmeets": 8804,
      "Ġbarric": 8805,
      "Ġhurts": 8806,
      "ĠPhilip": 8807,
      "Ġlandmark": 8808,
      "ĠShut": 8809,
      "Ġskeleton": 8810,
      "To": 8811,
      "Ġlun": 8812,
      "Ġrect": 8813,
      "ĠKitty": 8814,
      "Ġutensils": 8815,
      "Ġais": 8816,
      "ĠSE": 8817,
      "ĠBird": 8818,
      "Ġpolicy": 8819,
      "Ġconfused": 8820,
      "Ġreflecting": 8821,
      "acle": 8822,
      "Ġtrays": 8823,
      "Ġprime": 8824,
      "Ġknives": 8825,
      "Ġadvertising": 8826,
      "ĠRon": 8827,
      "velope": 8828,
      "ĠGordon": 8829,
      "Ġcloseup": 8830,
      "Ġticket": 8831,
      "Ġroles": 8832,
      "Ġgarbage": 8833,
      "ĠMY": 8834,
      "âĢľ": 8835,
      "Ġdere": 8836,
      "\"?": 8837,
      "Ġseek": 8838,
      "Ġagency": 8839,
      "Ġrefused": 8840,
      "Ġsteady": 8841,
      "Ġprints": 8842,
      "NIC": 8843,
      "ctic": 8844,
      "Ġ1998": 8845,
      "ĠJimmie": 8846,
      "Ġcompass": 8847,
      "ĠSand": 8848,
      "Ġgalaxy": 8849,
      "Ġtort": 8850,
      "Ġinch": 8851,
      "Ġdivor": 8852,
      "Ġadjust": 8853,
      "Ġmighty": 8854,
      "Ġdunno": 8855,
      "Ġsatisfied": 8856,
      "Ġdelay": 8857,
      "Ġsnail": 8858,
      "Ġlands": 8859,
      "Ġsausage": 8860,
      "goes": 8861,
      "Ġinterf": 8862,
      "Ġeighty": 8863,
      "Ġhedge": 8864,
      "iac": 8865,
      "Ġincl": 8866,
      "aboo": 8867,
      "Ġblows": 8868,
      "Ġdrugs": 8869,
      "bble": 8870,
      "yay": 8871,
      "Ġtear": 8872,
      "Ġ1992": 8873,
      "Ġdisplaying": 8874,
      "ĠPatsy": 8875,
      "Ġorganism": 8876,
      "Ġability": 8877,
      "vention": 8878,
      "Ġplanted": 8879,
      "amin": 8880,
      "Ġgrows": 8881,
      "Ġexit": 8882,
      "Ġpresidential": 8883,
      "Ġalternative": 8884,
      "ĠâĮĪ": 8885,
      "Ġdoggie": 8886,
      "Ġemblem": 8887,
      "hist": 8888,
      "Ġinfect": 8889,
      "dat": 8890,
      "Ġisometric": 8891,
      "ocks": 8892,
      "rene": 8893,
      "ĠAssoci": 8894,
      "ĠMaria": 8895,
      "Ġgrowth": 8896,
      "Ġaccepted": 8897,
      "Ġearnest": 8898,
      "John": 8899,
      "Ġfries": 8900,
      "ĠLi": 8901,
      "Ġenvelope": 8902,
      "Ġuns": 8903,
      "Ġnaturally": 8904,
      "Ġstretching": 8905,
      "Ġdeserted": 8906,
      "Ġmartial": 8907,
      "PE": 8908,
      "stead": 8909,
      "ĠHA": 8910,
      "ĠVer": 8911,
      "Ġnearer": 8912,
      "ĠLieutenant": 8913,
      "inter": 8914,
      "ĠDiv": 8915,
      "Ġmosaic": 8916,
      "Ġ1995": 8917,
      "ĠBritain": 8918,
      "Ġswinging": 8919,
      "Ġapolog": 8920,
      "_.": 8921,
      "bie": 8922,
      "bread": 8923,
      "rm": 8924,
      "Ġpra": 8925,
      "Ġrul": 8926,
      "ĠSil": 8927,
      "ĠStan": 8928,
      "Ġmicrowave": 8929,
      "Ġrelative": 8930,
      "Ġflu": 8931,
      "Ġinters": 8932,
      "ĠEveryone": 8933,
      "22": 8934,
      "ented": 8935,
      "ĠFoot": 8936,
      "Ġrecords": 8937,
      "Ġengineer": 8938,
      "invol": 8939,
      "oto": 8940,
      "Ġbarrel": 8941,
      "Ġstolen": 8942,
      "Ġfootwear": 8943,
      "Ġpressing": 8944,
      "Ġcruel": 8945,
      "Ġhike": 8946,
      "ngthen": 8947,
      "Ġletting": 8948,
      "Ġappointed": 8949,
      "Ġtribe": 8950,
      "Ġidentity": 8951,
      "ĠHelp": 8952,
      "stra": 8953,
      "ĠGal": 8954,
      "Ġfriendship": 8955,
      "Ġattacked": 8956,
      "Ġhairstyle": 8957,
      "When": 8958,
      "away": 8959,
      "contin": 8960,
      "Ġstable": 8961,
      "agers": 8962,
      "ĠThink": 8963,
      "Ġbasically": 8964,
      "Ġholder": 8965,
      "Ġbriefly": 8966,
      "ĠWinter": 8967,
      "Ġstern": 8968,
      "Ġlem": 8969,
      "ĠPot": 8970,
      "itched": 8971,
      "Ġhuts": 8972,
      "Ġcheeks": 8973,
      "ĠBessie": 8974,
      "Ġchase": 8975,
      "ogue": 8976,
      "ĠMove": 8977,
      "Ġpushes": 8978,
      "Ġbattery": 8979,
      "itches": 8980,
      "Ġvictim": 8981,
      "ĠWoman": 8982,
      "indeer": 8983,
      "Ġfluffy": 8984,
      "isl": 8985,
      "Ġwindy": 8986,
      "Ġrestored": 8987,
      "Ġpasted": 8988,
      "Ġstarring": 8989,
      "Ġtrium": 8990,
      "Ġ1920": 8991,
      "ansas": 8992,
      "Ġadds": 8993,
      "Ġaccessories": 8994,
      "Are": 8995,
      "Ġbelly": 8996,
      "ĠCont": 8997,
      "Ġlodge": 8998,
      "Ġlets": 8999,
      "Ġretire": 9000,
      "Ġbulb": 9001,
      "Ġgained": 9002,
      "Ġkidding": 9003,
      "plant": 9004,
      "Ġquote": 9005,
      "shirts": 9006,
      "Ġ186": 9007,
      "za": 9008,
      "Ġattending": 9009,
      "Ġsquad": 9010,
      "Ġrehe": 9011,
      "Ġjog": 9012,
      "ropri": 9013,
      "Ġ2023": 9014,
      "Ġmor": 9015,
      "Ġshove": 9016,
      "Ġinspiration": 9017,
      "Ġbreeze": 9018,
      "Ġfits": 9019,
      "ĠSou": 9020,
      "ĠOpen": 9021,
      "eaking": 9022,
      "Ġtwist": 9023,
      "Ġqueer": 9024,
      "Ġpity": 9025,
      "angar": 9026,
      "involuntary": 9027,
      "Ġdies": 9028,
      "Ġgear": 9029,
      "ĠTHIS": 9030,
      "ĠWhoa": 9031,
      "Ġornate": 9032,
      "dri": 9033,
      "Ġhadta": 9034,
      "ĠClare": 9035,
      "Ġwarri": 9036,
      "ji": 9037,
      "Ġbeverage": 9038,
      "quoise": 9039,
      "Ġindependence": 9040,
      "alous": 9041,
      "Ġhomepage": 9042,
      "Ah": 9043,
      "Ġimpact": 9044,
      "Ġcultural": 9045,
      "acific": 9046,
      "Ġsnowboard": 9047,
      "ĠÂ¶": 9048,
      "Ġscientists": 9049,
      "ĠRoad": 9050,
      "food": 9051,
      "life": 9052,
      "maid": 9053,
      "Ġoct": 9054,
      "Ġdepict": 9055,
      "ĠWatch": 9056,
      "Ġpeek": 9057,
      "Ġkeen": 9058,
      "Ġunex": 9059,
      "ajesty": 9060,
      "Ġrequire": 9061,
      "Ġbuffalo": 9062,
      "ĠSecond": 9063,
      "Ġaston": 9064,
      "Ġunfortun": 9065,
      "Ġicecream": 9066,
      "Ġdelivery": 9067,
      "Ġcoastline": 9068,
      "Ġribbons": 9069,
      "ĠWHAT": 9070,
      "Ġstruggle": 9071,
      "Ġsplendid": 9072,
      "ĠStay": 9073,
      "Ġcollar": 9074,
      "ebook": 9075,
      "Ġsunflowers": 9076,
      "Ġlayer": 9077,
      "Ġoccurred": 9078,
      "li": 9079,
      "Ġcreation": 9080,
      "Ġturquoise": 9081,
      "pass": 9082,
      "Ġdating": 9083,
      "Ġtramp": 9084,
      "emies": 9085,
      "Ġneighbour": 9086,
      "Ġlevels": 9087,
      "Ġbridges": 9088,
      "Ġskyscraper": 9089,
      "ĠProvince": 9090,
      "inky": 9091,
      "Ġbusinesswoman": 9092,
      "Ġagricultural": 9093,
      "itzerland": 9094,
      "ĠTuesday": 9095,
      "Ġbund": 9096,
      "Ġsaving": 9097,
      "Ġhoped": 9098,
      "Ġbubble": 9099,
      "ouri": 9100,
      "alleng": 9101,
      "Ġpsych": 9102,
      "Ġbeast": 9103,
      "were": 9104,
      "Ġsentence": 9105,
      "Ġfisherman": 9106,
      "Ġfarther": 9107,
      "Ġwishes": 9108,
      "cloth": 9109,
      "Ġforests": 9110,
      "Ġhasta": 9111,
      "ĠHaw": 9112,
      "Ġkingdom": 9113,
      "Ġdelighted": 9114,
      "Ġcolumns": 9115,
      "Ġhousing": 9116,
      "umbled": 9117,
      "cluded": 9118,
      "bling": 9119,
      "Ġgrade": 9120,
      "Ġdiss": 9121,
      "Ġpearl": 9122,
      "Ġbadge": 9123,
      "ĠSwitzerland": 9124,
      "Ġtriumph": 9125,
      "ridge": 9126,
      "Ġhal": 9127,
      "azy": 9128,
      "Ġcontinent": 9129,
      "Ġrecognize": 9130,
      "first": 9131,
      "Ġleopard": 9132,
      "Ġunable": 9133,
      "Ġrailroad": 9134,
      "Ġpuppies": 9135,
      "pine": 9136,
      "ilst": 9137,
      "Ġoffering": 9138,
      "Ġgreenhouse": 9139,
      "Ġmulti": 9140,
      "Ġboundary": 9141,
      "wide": 9142,
      "Ġblankets": 9143,
      "ĠStar": 9144,
      "Ġappreciate": 9145,
      "Ġsang": 9146,
      "Ġwinding": 9147,
      "ELA": 9148,
      "Be": 9149,
      "push": 9150,
      "Ġsafely": 9151,
      "Ġillustrated": 9152,
      "Ġsizes": 9153,
      "ĠSH": 9154,
      "throw": 9155,
      "Ġ1991": 9156,
      "Ġbedrooms": 9157,
      "Ġsupported": 9158,
      "iders": 9159,
      "Ġnotebook": 9160,
      "ĠDun": 9161,
      "Ġcult": 9162,
      "ingly": 9163,
      "Ġ1997": 9164,
      "Ġpackage": 9165,
      "ĠCOVID": 9166,
      "Ġreindeer": 9167,
      "estyle": 9168,
      "ĠFront": 9169,
      "Ġsuburb": 9170,
      "Ġfleet": 9171,
      "Ġconstitutional": 9172,
      "Ġpanda": 9173,
      "Ġfate": 9174,
      "Ġfasc": 9175,
      "Ġeveryday": 9176,
      "Ġresidence": 9177,
      "ĠShow": 9178,
      "Ġadvance": 9179,
      "ĠJenny": 9180,
      "ĠDisney": 9181,
      "ĠSecretary": 9182,
      "kiss": 9183,
      "run": 9184,
      "ĠAut": 9185,
      "Ġkicking": 9186,
      "Ġprisoner": 9187,
      "Ġviolent": 9188,
      "ĠWednesday": 9189,
      "iation": 9190,
      "atched": 9191,
      "Ġthirst": 9192,
      "ourse": 9193,
      "Ġjournalist": 9194,
      "Ġaltogether": 9195,
      "Ġclasses": 9196,
      "Ġrepresented": 9197,
      "Ġwo": 9198,
      "Ġveter": 9199,
      "Ġcounting": 9200,
      "Ġcircumstances": 9201,
      "Ġblown": 9202,
      "odes": 9203,
      "Ġswall": 9204,
      "Ġcauses": 9205,
      "ĠBir": 9206,
      "Ġtricks": 9207,
      "Ġposed": 9208,
      "Ġairplanes": 9209,
      "Ġbamb": 9210,
      "Ġrig": 9211,
      "ĠRel": 9212,
      "shouts": 9213,
      "Ġswift": 9214,
      "Ar": 9215,
      "ĠTor": 9216,
      "Ġhangs": 9217,
      "too": 9218,
      "ĠTre": 9219,
      "Ġrum": 9220,
      "coughs": 9221,
      "onies": 9222,
      "Ġplank": 9223,
      "ANT": 9224,
      "Ġdash": 9225,
      "kel": 9226,
      "Ġflooring": 9227,
      "Ġlens": 9228,
      "Ġvision": 9229,
      "Ġcompete": 9230,
      "Ġdemanded": 9231,
      "Re": 9232,
      "Ġlocks": 9233,
      "Ġpoetry": 9234,
      "yles": 9235,
      "Ġsurge": 9236,
      "Ġreceiving": 9237,
      "Ġpetals": 9238,
      "Ġterritory": 9239,
      "Ġextended": 9240,
      "ĠâĢĶâĢĶ": 9241,
      "Ġgeneration": 9242,
      "Ġdegrees": 9243,
      "Ġbore": 9244,
      "ĠBas": 9245,
      "behind": 9246,
      "Ġtrained": 9247,
      "Ġstudies": 9248,
      "grass": 9249,
      "Ġapartments": 9250,
      "ĠDemocratic": 9251,
      "Ġfantastic": 9252,
      "Ġjersey": 9253,
      "Ġvisitor": 9254,
      "Ġforgive": 9255,
      "IL": 9256,
      "mate": 9257,
      "Ġpets": 9258,
      "Ġdoo": 9259,
      "ĠAld": 9260,
      "Ġcarp": 9261,
      "Ġmaroon": 9262,
      ",âĢĻ": 9263,
      "24": 9264,
      "pot": 9265,
      "Ġconser": 9266,
      "Ġharder": 9267,
      "ĠEdna": 9268,
      "hone": 9269,
      "orange": 9270,
      "Ġgain": 9271,
      "ĠSur": 9272,
      "Ġdrunk": 9273,
      "Ġturkey": 9274,
      "III": 9275,
      "Ġscript": 9276,
      "Ġbeating": 9277,
      "ĠWhatever": 9278,
      "ĠChair": 9279,
      "ricane": 9280,
      "Ġgrate": 9281,
      "onsense": 9282,
      "ĠFrances": 9283,
      "Ġstead": 9284,
      "isco": 9285,
      "mes": 9286,
      "Ġcries": 9287,
      "Ġdense": 9288,
      "Ġpear": 9289,
      "ĠCatholic": 9290,
      "Ġridic": 9291,
      "ĠOliver": 9292,
      "Ġflush": 9293,
      "Ġintense": 9294,
      "Ġvibr": 9295,
      "inity": 9296,
      "Ġcomr": 9297,
      "Ġdoggy": 9298,
      "Ġmustn": 9299,
      "Ġanswers": 9300,
      "Ġmigr": 9301,
      "ros": 9302,
      "Ġstyles": 9303,
[...]
