{
  "version": "1.0",
  "truncation": null,
  "padding": null,
  "added_tokens": [
    {
      "id": 0,
      "content": "<pad>",
      "single_word": false,
      "lstrip": false,
      "rstrip": false,
      "normalized": false,
      "special": true
    },
    {
      "id": 1,
      "content": "<s>",
      "single_word": false,
      "lstrip": false,
      "rstrip": false,
      "normalized": false,
      "special": true
    },
    {
      "id": 2,
      "content": "</s>",
      "single_word": false,
      "lstrip": false,
      "rstrip": false,
      "normalized": false,
      "special": true
    }
  ],
  "normalizer": {
    "type": "NFKC"
  },
  "pre_tokenizer": {
    "type": "ByteLevel",
    "add_prefix_space": true,
    "trim_offsets": true,
    "use_regex": true
  },
  "post_processor": {
    "type": "ByteLevel",
    "add_prefix_space": true,
    "trim_offsets": true,
    "use_regex": true
  },
  "decoder": {
    "type": "ByteLevel",
    "add_prefix_space": true,
    "trim_offsets": true,
    "use_regex": true
  },
  "model": {
    "type": "BPE",
    "dropout": null,
    "unk_token": null,
    "continuing_subword_prefix": null,
    "end_of_word_suffix": null,
    "fuse_unk": false,
    "byte_fallback": false,
    "vocab": {
      "<pad>": 0,
      "<s>": 1,
      "</s>": 2,
      "!": 3,
      "\"": 4,
      "#": 5,
      "$": 6,
      "%": 7,
      "&": 8,
      "'": 9,
      "(": 10,
      ")": 11,
      "*": 12,
      "+": 13,
      ",": 14,
      "-": 15,
      ".": 16,
      "/": 17,
      "0": 18,
      "1": 19,
      "2": 20,
      "3": 21,
      "4": 22,
      "5": 23,
      "6": 24,
      "7": 25,
      "8": 26,
      "9": 27,
      ":": 28,
      ";": 29,
      "=": 30,
      "?": 31,
      "@": 32,
      "A": 33,
      "B": 34,
      "C": 35,
      "D": 36,
      "E": 37,
      "F": 38,
      "G": 39,
      "H": 40,
      "I": 41,
      "J": 42,
      "K": 43,
      "L": 44,
      "M": 45,
      "N": 46,
      "O": 47,
      "P": 48,
      "Q": 49,
      "R": 50,
      "S": 51,
      "T": 52,
      "U": 53,
      "V": 54,
      "W": 55,
      "X": 56,
      "Y": 57,
      "Z": 58,
      "[": 59,
      "\\": 60,
      "]": 61,
      "^": 62,
      "_": 63,
      "`": 64,
      "a": 65,
      "b": 66,
      "c": 67,
      "d": 68,
      "e": 69,
      "f": 70,
      "g": 71,
      "h": 72,
      "i": 73,
      "j": 74,
      "k": 75,
      "l": 76,
      "m": 77,
      "n": 78,
      "o": 79,
      "p": 80,
      "q": 81,
      "r": 82,
      "s": 83,
      "t": 84,
      "u": 85,
      "v": 86,
      "w": 87,
      "x": 88,
      "y": 89,
      "z": 90,
      "{": 91,
      "|": 92,
      "}": 93,
      "~": 94,
      "¡": 95,
      "¢": 96,
      "£": 97,
      "¤": 98,
      "¥": 99,
      "¦": 100,
      "§": 101,
      "¨": 102,
      "©": 103,
      "ª": 104,
      "«": 105,
      "¬": 106,
      "®": 107,
      "¯": 108,
      "°": 109,
      "±": 110,
      "²": 111,
      "³": 112,
      "´": 113,
      "µ": 114,
      "¶": 115,
      "·": 116,
      "¸": 117,
      "¹": 118,
      "º": 119,
      "»": 120,
      "¼": 121,
      "½": 122,
      "¾": 123,
      "¿": 124,
      "Â": 125,
      "Ã": 126,
      "Ä": 127,
      "Å": 128,
      "Æ": 129,
      "Ç": 130,
      "È": 131,
      "É": 132,
      "Ê": 133,
      "Ë": 134,
      "Ø": 135,
      "Ù": 136,
      "Û": 137,
      "à": 138,
      "á": 139,
      "â": 140,
      "ã": 141,
      "ï": 142,
      "ô": 143,
      "ĉ": 144,
      "Ċ": 145,
      "Ġ": 146,
      "ġ": 147,
      "Ģ": 148,
      "ģ": 149,
      "Ĥ": 150,
      "ĥ": 151,
      "Ħ": 152,
      "ħ": 153,
      "Ĩ": 154,
      "ĩ": 155,
      "Ī": 156,
      "ī": 157,
      "Ĭ": 158,
      "ĭ": 159,
      "Į": 160,
      "į": 161,
      "İ": 162,
      "ı": 163,
      "Ĳ": 164,
      "ĳ": 165,
      "Ĵ": 166,
      "ĵ": 167,
      "Ķ": 168,
      "ķ": 169,
      "ĸ": 170,
      "Ĺ": 171,
      "ĺ": 172,
      "Ļ": 173,
      "ļ": 174,
      "Ľ": 175,
      "ľ": 176,
      "Ŀ": 177,
      "ŀ": 178,
      "Ł": 179,
      "ł": 180,
      "Ń": 181,
      "Ġt": 182,
      "he": 183,
      "Ġa": 184,
      "in": 185,
      "Ġ*": 186,
      "ou": 187,
      "Ġthe": 188,
      "Ġw": 189,
      "re": 190,
      "Ġs": 191,
      "ha": 192,
      "on": 193,
      "er": 194,
      "it": 195,
      "Ġb": 196,
      "nd": 197,
      "is": 198,
      "Ġc": 199,
      "ĠĊ": 200,
      "Ġm": 201,
      "Ġo": 202,
      "Ġd": 203,
      "ing": 204,
      "Ġf": 205,
      "OT": 206,
      "MOT": 207,
      "Ġy": 208,
      "ll": 209,
      "Ġto": 210,
      "an": 211,
      "ĠI": 212,
      "or": 213,
      "es": 214,
      "Ġyou": 215,
      "ed": 216,
      "hat": 217,
      "en": 218,
      "Ġp": 219,
      "Ġg": 220,
      "CH": 221,
      "Ġl": 222,
      "CHI": 223,
      "ar": 224,
      "Ġof": 225,
      "Ġand": 226,
      "as": 227,
      "Ġin": 228,
      "no": 229,
      "at": 230,
      "om": 231,
      "Ġhe": 232,
      "'s": 233,
      "Ġh": 234,
      "le": 235,
      "Ġha": 236,
      "Ġit": 237,
      "ve": 238,
      "ay": 239,
      "ic": 240,
      "et": 241,
      "Ġon": 242,
      "Ġth": 243,
      "ĠT": 244,
      "Ġthat": 245,
      "us": 246,
      "gh": 247,
      "id": 248,
      "Ġbe": 249,
      "oo": 250,
      "ĠA": 251,
      "ld": 252,
      "Ġis": 253,
      "al": 254,
      "ut": 255,
      "ow": 256,
      "Ġno": 257,
      "Ġe": 258,
      "Ġwas": 259,
      "ĠS": 260,
      "Ġwe": 261,
      "im": 262,
      "ke": 263,
      "ac": 264,
      "'t": 265,
      "ad": 266,
      "ver": 267,
      "ĠM": 268,
      "Ġre": 269,
      "ot": 270,
      "..": 271,
      "Ġn": 272,
      "ght": 273,
      "Ġfor": 274,
      "ri": 275,
      "ĠW": 276,
      "se": 277,
      "ir": 278,
      "ĠB": 279,
      "ly": 280,
      "ion": 281,
      "Ġ=": 282,
      "am": 283,
      "Ġdo": 284,
      "ent": 285,
      "ĠH": 286,
      "Ġst": 287,
      "Ġu": 288,
      "out": 289,
      "ĠC": 290,
      "st": 291,
      "Ġk": 292,
      "ro": 293,
      "Ġ\"": 294,
      "ith": 295,
      "Ġme": 296,
      "ea": 297,
      "her": 298,
      "Ġwith": 299,
      "ĠThe": 300,
      "Ġ[": 301,
      "all": 302,
      "ome": 303,
      "Ġgo": 304,
      "Ġse": 305,
      "Ġli": 306,
      "and": 307,
      "âĢ": 308,
      "ch": 309,
      "Ġan": 310,
      "ĠY": 311,
      "Ġas": 312,
      "ur": 313,
      "Ġat": 314,
      "ter": 315,
      "Ġnot": 316,
      "ould": 317,
      "Ġwh": 318,
      "Ġhave": 319,
      "ill": 320,
      "Ġ-": 321,
      "ĠD": 322,
      "ce": 323,
      "now": 324,
      "Ġthis": 325,
      "Ġare": 326,
      "ust": 327,
      "ĠN": 328,
      "ell": 329,
      "ook": 330,
      "if": 331,
      "ant": 332,
      "ĠP": 333,
      "ct": 334,
      "il": 335,
      "ĠO": 336,
      "Ġhis": 337,
      "Ġknow": 338,
      "un": 339,
      "xx": 340,
      "um": 341,
      "Ġone": 342,
      "Ġyour": 343,
      "ra": 344,
      "eah": 345,
      "ĠG": 346,
      "ĠL": 347,
      "Ġher": 348,
      "Ġj": 349,
      "here": 350,
      "...": 351,
      "Ġup": 352,
      "ie": 353,
      "Ġthey": 354,
      "th": 355,
      "Ġdon": 356,
      "Ġthere": 357,
      "Ġcan": 358,
      "Ġshe": 359,
      "ore": 360,
      "Ġne": 361,
      "ĠF": 362,
      "op": 363,
      "Ġso": 364,
      "Ġwhat": 365,
      "Ġmy": 366,
      "Ġhad": 367,
      "ĠJ": 368,
      "Ġall": 369,
      "ge": 370,
      "rom": 371,
      "our": 372,
      "Ġ1": 373,
      "pp": 374,
      "ĠR": 375,
      "ain": 376,
      "ab": 377,
      "Ġlike": 378,
      "Ġr": 379,
      "Ġsh": 380,
      "el": 381,
      "ĠĠ": 382,
      "ood": 383,
      "ack": 384,
      "Ġsa": 385,
      "ight": 386,
      "oh": 387,
      "ĠE": 388,
      "Ġout": 389,
      "Ġhim": 390,
      "art": 391,
      "ck": 392,
      "ink": 393,
      "ul": 394,
      "ol": 395,
      "ake": 396,
      "Ġbut": 397,
      "ry": 398,
      "Ġab": 399,
      "'re": 400,
      "Ġde": 401,
      "ĠIt": 402,
      "Ġpl": 403,
      "ĠHe": 404,
      "Ġget": 405,
      "AT": 406,
      "Ġfrom": 407,
      "ess": 408,
      "ig": 409,
      "han": 410,
      "IN": 411,
      "hen": 412,
      "very": 413,
      "ation": 414,
      "em": 415,
      "right": 416,
      "Ġal": 417,
      "red": 418,
      "ers": 419,
      "Ġdid": 420,
      "'m": 421,
      "Ġwere": 422,
      "est": 423,
      "qu": 424,
      "you": 425,
      "one": 426,
      "ist": 427,
      "Ġor": 428,
      "na": 429,
      "ĠYou": 430,
      "Ġsu": 431,
      "ound": 432,
      "Ġby": 433,
      "FAT": 434,
      "ame": 435,
      "what": 436,
      "ind": 437,
      "Ġ2": 438,
      "itt": 439,
      "os": 440,
      "Ġthem": 441,
      "ther": 442,
      "nt": 443,
      "ard": 444,
      "res": 445,
      "Ġcom": 446,
      "ong": 447,
      "Ġsome": 448,
      "Ġthink": 449,
      "Ġabout": 450,
      "Ġgot": 451,
      "ak": 452,
      "Ġhere": 453,
      "own": 454,
      "INV": 455,
      "ast": 456,
      "use": 457,
      "Ġwant": 458,
      "Ġjust": 459,
      "ive": 460,
      "Ġwor": 461,
      "ally": 462,
      "Ġlook": 463,
      "].": 464,
      "Ġsp": 465,
      "Ġsee": 466,
      "Ġwould": 467,
      "Ġ(": 468,
      "'ll": 469,
      "Ġcon": 470,
      "Ġsaid": 471,
      "ĠâĢ": 472,
      "ap": 473,
      "ate": 474,
      "yeah": 475,
      "Ġv": 476,
      "ep": 477,
      "ick": 478,
      "Ġif": 479,
      "xxx": 480,
      "ice": 481,
      "Ġex": 482,
      "hi": 483,
      "kay": 484,
      "fe": 485,
      "Ġany": 486,
      "ven": 487,
      "ort": 488,
      "ime": 489,
      "ber": 490,
      "ich": 491,
      "--": 492,
      "od": 493,
      "Ġwho": 494,
      "ough": 495,
      "Ġman": 496,
      "Ġthen": 497,
      "Ġsay": 498,
      "Ġus": 499,
      "Ġwhen": 500,
      "ag": 501,
      "Ġright": 502,
      "ine": 503,
      "are": 504,
      "Ġtw": 505,
      "Ġnow": 506,
      "ide": 507,
      ".\"": 508,
      "Ġwill": 509,
      "hing": 510,
      "Ġpro": 511,
      "Ġint": 512,
      "ittle": 513,
      "ous": 514,
      "ies": 515,
      "ear": 516,
      "that": 517,
      "au": 518,
      "Ġbo": 519,
      "Ġ20": 520,
      "Ġback": 521,
      "Ġdown": 522,
      "Ġag": 523,
      "Ġer": 524,
      "ost": 525,
      "ause": 526,
      "Ġlittle": 527,
      "ose": 528,
      "way": 529,
      "Ġgoing": 530,
      "Ġbeen": 531,
      "Ġtime": 532,
      "Ġput": 533,
      "'ve": 534,
      "Ġcould": 535,
      "Ġ19": 536,
      "ĠK": 537,
      "Ġgood": 538,
      "Ġover": 539,
      "lf": 540,
      "Ġcl": 541,
      "ity": 542,
      "ove": 543,
      "we": 544,
      "Ġhas": 545,
      "ĠâĢľ": 546,
      "Ġoff": 547,
      "ne": 548,
      "uh": 549,
      "end": 550,
      "Ġar": 551,
      "ace": 552,
      "Ġmore": 553,
      "Ġvery": 554,
      "âĢĻ": 555,
      "ree": 556,
      "Ġwhich": 557,
      "Ġtoo": 558,
      "ite": 559,
      "my": 560,
      "ĠU": 561,
      "ĠAnd": 562,
      "ĠWhat": 563,
      "AR": 564,
      "âĢĿ": 565,
      "ĠĠĠĠ": 566,
      "cause": 567,
      "Ġqu": 568,
      ",\"": 569,
      "Ġother": 570,
      "so": 571,
      "Ġtwo": 572,
      "Ġtheir": 573,
      "Ġplay": 574,
      "Ġthing": 575,
      "Ġtr": 576,
      "ure": 577,
      "ft": 578,
      "Ġro": 579,
      "the": 580,
      "Ġpe": 581,
      "Ġfe": 582,
      "Ġxxx": 583,
      "ĠSt": 584,
      "Ġ'": 585,
      "ud": 586,
      "ment": 587,
      "ish": 588,
      "alk": 589,
      "reat": 590,
      "Ġle": 591,
      "Ġaf": 592,
      "Ġbl": 593,
      "Ġcome": 594,
      "add": 595,
      "Ġbr": 596,
      "XP": 597,
      "onna": 598,
      "ĠNo": 599,
      "pe": 600,
      "EXP": 601,
      "ase": 602,
      "ĠShe": 603,
      "other": 604,
      "urn": 605,
      "ĠTh": 606,
      "yes": 607,
      "ond": 608,
      "omet": 609,
      "iss": 610,
      "ue": 611,
      "ought": 612,
      "ĠIn": 613,
      "hy": 614,
      "Ġgonna": 615,
      "ian": 616,
      "Ġgr": 617,
      "hed": 618,
      "orn": 619,
      "uck": 620,
      "Ġinto": 621,
      "ps": 622,
      "ople": 623,
      ".=": 624,
      "Ġhow": 625,
      "Ġagain": 626,
      "Ġmake": 627,
      "age": 628,
      "Ġway": 629,
      "irst": 630,
      "ho": 631,
      "iv": 632,
      "Ġthan": 633,
      "ia": 634,
      "ount": 635,
      "Ġam": 636,
      "ty": 637,
      "be": 638,
      "ĠWe": 639,
      "ble": 640,
      "ass": 641,
      "ire": 642,
      "ary": 643,
      "Ġwhere": 644,
      "ade": 645,
      "ĠOh": 646,
      "PAR": 647,
      "ĠBut": 648,
      "Ġen": 649,
      "Ġtake": 650,
      "Ġdoes": 651,
      "Ġwork": 652,
      "pl": 653,
      "ĠYeah": 654,
      "Ġwell": 655,
      "Ġpeople": 656,
      "do": 657,
      "Ġsomet": 658,
      "act": 659,
      "ater": 660,
      "Ġco": 661,
      "pt": 662,
      "okay": 663,
      "uch": 664,
      "Ġlet": 665,
      "Ġneed": 666,
      "ĠMr": 667,
      "Ġmean": 668,
      "ov": 669,
      "Ġfirst": 670,
      "self": 671,
      "Ġday": 672,
      "per": 673,
      "Ġtell": 674,
      "ise": 675,
      "Ġhand": 676,
      "har": 677,
      "Ġcall": 678,
      "av": 679,
      "ress": 680,
      "ang": 681,
      "ull": 682,
      "les": 683,
      "Ġpart": 684,
      "ci": 685,
      "ah": 686,
      "ather": 687,
      "ord": 688,
      "ĠThey": 689,
      "ff": 690,
      "ĠV": 691,
      "Ġafter": 692,
      "int": 693,
      "Ġshould": 694,
      "mer": 695,
      "Ġbet": 696,
      "where": 697,
      "ĠThat": 698,
      "Ġfl": 699,
      "augh": 700,
      "Ġour": 701,
      "ren": 702,
      "fore": 703,
      "wn": 704,
      "te": 705,
      "nder": 706,
      "Ġmuch": 707,
      "Ġcar": 708,
      "hm": 709,
      "ady": 710,
      "thing": 711,
      "able": 712,
      "Ġthr": 713,
      "ach": 714,
      "ys": 715,
      "Ġevery": 716,
      "Ġpo": 717,
      "ile": 718,
      "Ġdidn": 719,
      "Ġun": 720,
      "ru": 721,
      "Ġonly": 722,
      "Ġpre": 723,
      "anna": 724,
      "ting": 725,
      "there": 726,
      "ance": 727,
      "ool": 728,
      "Ġyear": 729,
      "iz": 730,
      "hild": 731,
      "Ġte": 732,
      "irl": 733,
      "Ġsc": 734,
      "cc": 735,
      "Ġsec": 736,
      "Ġreally": 737,
      "ouse": 738,
      "Ġgu": 739,
      "Ġsomething": 740,
      "ark": 741,
      "ĠSo": 742,
      "Ġpr": 743,
      "Ġmade": 744,
      "ng": 745,
      "day": 746,
      "Ġthese": 747,
      "cl": 748,
      "ĠWell": 749,
      "Ġhapp": 750,
      "ict": 751,
      "Ġdis": 752,
      "Ġwr": 753,
      "AN": 754,
      "ated": 755,
      "Ġchild": 756,
      "get": 757,
      "Ġlong": 758,
      "ĠThis": 759,
      "Ġtalk": 760,
      "ory": 761,
      "ob": 762,
      "Ġad": 763,
      "?\"": 764,
      "ub": 765,
      "Ġsm": 766,
      "hes": 767,
      "Ġbefore": 768,
      "Ġaway": 769,
      "ions": 770,
      "Ġbecause": 771,
      "oc": 772,
      "'d": 773,
      "Ġunder": 774,
      "ied": 775,
      "og": 776,
      "ward": 777,
      "Ġim": 778,
      "Ġgirl": 779,
      "Ġke": 780,
      "Ġcomp": 781,
      "ving": 782,
      "IS": 783,
      "Ġrem": 784,
      "ody": 785,
      "Ġact": 786,
      "ence": 787,
      ".]": 788,
      "Ġwanna": 789,
      "Ġbig": 790,
      "oll": 791,
      "Ġdoing": 792,
      "Ġwent": 793,
      "RO": 794,
      "man": 795,
      "atch": 796,
      "Ġsha": 797,
      "Ġthree": 798,
      "gg": 799,
      "Ġper": 800,
      "Ġthose": 801,
      "Ġhel": 802,
      "ens": 803,
      "Ġnever": 804,
      "Ġask": 805,
      "Ġalso": 806,
      "Ġthought": 807,
      "Ġold": 808,
      "ĠYes": 809,
      "ful": 810,
      "Ġturn": 811,
      "ip": 812,
      "Ġch": 813,
      "ix": 814,
      "Ġapp": 815,
      "MA": 816,
      "Ġhome": 817,
      "ild": 818,
      "ĠThere": 819,
      "riend": 820,
      "Ġ%": 821,
      "ons": 822,
      "Ġ201": 823,
      "ling": 824,
      "laugh": 825,
      "¿½": 826,
      "ï¿½": 827,
      "Ġmay": 828,
      "can": 829,
      "Ġthings": 830,
      "but": 831,
      "Ġcame": 832,
      "ock": 833,
      "old": 834,
      "nother": 835,
      "aby": 836,
      "Ġcr": 837,
      "ks": 838,
      "look": 839,
      "Ġbook": 840,
      "Ġnew": 841,
      "ect": 842,
      "oot": 843,
      "ans": 844,
      "Ġeven": 845,
      "00": 846,
      "ors": 847,
      "Ġcont": 848,
      "let": 849,
      "lease": 850,
      "ried": 851,
      "Ġbit": 852,
      "Ġhead": 853,
      "well": 854,
      "Ġbu": 855,
      "Ġmust": 856,
      "Ġgreat": 857,
      "ĠCh": 858,
      "ath": 859,
      "ved": 860,
      "Ġfind": 861,
      "Ġdone": 862,
      "oy": 863,
      "Ġthrough": 864,
      "Ġstart": 865,
      "ily": 866,
      "Ġlove": 867,
      "ĠUn": 868,
      "ny": 869,
      "Ġanother": 870,
      "ave": 871,
      "Ġsl": 872,
      "ings": 873,
      "Ġhouse": 874,
      "Ġgive": 875,
      "aking": 876,
      "ĠTH": 877,
      "aw": 878,
      "ait": 879,
      "up": 880,
      "Ġtry": 881,
      "Ġhelp": 882,
      "Ġstill": 883,
      "Ġboy": 884,
      "Ġlea": 885,
      "ious": 886,
      "come": 887,
      "Ġeat": 888,
      "Ġlast": 889,
      "Ġres": 890,
      "Ġmany": 891,
      "ign": 892,
      "TE": 893,
      "air": 894,
      "Ġname": 895,
      "igh": 896,
      "ww": 897,
      "Ġshow": 898,
      "BRO": 899,
      "GMA": 900,
      "akes": 901,
      "Ġcha": 902,
      "Ġwon": 903,
      "xt": 904,
      "tain": 905,
      "Ġra": 906,
      "ars": 907,
      "ened": 908,
      "Ġser": 909,
      "Ġmight": 910,
      "als": 911,
      "âĻ": 912,
      "Ġchan": 913,
      "ĠHow": 914,
      "ves": 915,
      "ates": 916,
      "ually": 917,
      "Ġmin": 918,
      "Ġlot": 919,
      "ummy": 920,
      "orm": 921,
      "land": 922,
      "Ġfound": 923,
      "SIS": 924,
      "Ġmother": 925,
      "Ġkind": 926,
      "Ġbel": 927,
      "laughs": 928,
      "Ġche": 929,
      "âĻª": 930,
      "Ġdif": 931,
      "Ġnight": 932,
      "ult": 933,
      "anc": 934,
      "Ġcomm": 935,
      "chool": 936,
      "port": 937,
      "Ġmov": 938,
      "side": 939,
      "Ġcount": 940,
      "oney": 941,
      "ĠAl": 942,
      "Ġrec": 943,
      "body": 944,
      "Ġop": 945,
      "Ġhar": 946,
      ".âĢĿ": 947,
      "Ġerm": 948,
      "Ġmost": 949,
      "ail": 950,
      "Ġown": 951,
      "Ġcalled": 952,
      "Ġbaby": 953,
      "Ġfeel": 954,
      "oss": 955,
      "ĠĠĠĠĠĠĠĠ": 956,
      "ĠIf": 957,
      "Ġfriend": 958,
      "rent": 959,
      "ye": 960,
      "ember": 961,
      "Ġused": 962,
      "und": 963,
      "Ġbot": 964,
      "ever": 965,
      "Ġbetter": 966,
      "Ġel": 967,
      "Ġmom": 968,
      "Ġcare": 969,
      "Ġaround": 970,
      "Ġuh": 971,
      "Ġsuch": 972,
      "ĠFr": 973,
      "Ġend": 974,
      "Ġwhy": 975,
      "ere": 976,
      "Ġokay": 977,
      "huh": 978,
      "Ġyears": 979,
      "Ġatt": 980,
      "Ġlife": 981,
      "imes": 982,
      "Ġlooks": 983,
      "Ġdes": 984,
      "uc": 985,
      "Ġbeing": 986,
      "orry": 987,
      "Ġplace": 988,
      "Ġits": 989,
      "addy": 990,
      "Ġtra": 991,
      "ĠâĻª": 992,
      "Ġfour": 993,
      "Ġyeah": 994,
      "ĠBr": 995,
      "Ġkeep": 996,
      "Ġseem": 997,
      "ew": 998,
      "MCH": 999,
      "ĠAs": 1000,
      "ical": 1001,
      "inn": 1002,
      "Ġsit": 1003,
      "ways": 1004,
      "oun": 1005,
      "ited": 1006,
      "Ġanything": 1007,
      "row": 1008,
      "Ġgl": 1009,
      "Ġsure": 1010,
      "ike": 1011,
      "ction": 1012,
      "ince": 1013,
      "ee": 1014,
      "ĠDo": 1015,
      "ĠIs": 1016,
      "Ġisn": 1017,
      "Ġwater": 1018,
      "ple": 1019,
      "Ġsame": 1020,
      "how": 1021,
      "ank": 1022,
      "hank": 1023,
      "Ġwhile": 1024,
      "Ġ3": 1025,
      "Ġstr": 1026,
      "Ġsupp": 1027,
      "vers": 1028,
      "Ġnice": 1029,
      "ican": 1030,
      "Ġyes": 1031,
      "Ġroom": 1032,
      "led": 1033,
      "ute": 1034,
      "ations": 1035,
      "Ġcour": 1036,
      "ĠMar": 1037,
      "ident": 1038,
      "Ġpol": 1039,
      "Ġdoesn": 1040,
      "Ġball": 1041,
      "Ġmon": 1042,
      "Ġtold": 1043,
      "Ġfin": 1044,
      "ph": 1045,
      "ta": 1046,
      "ĠBe": 1047,
      "Ġschool": 1048,
      "Ġrun": 1049,
      "bab": 1050,
      "Ġfar": 1051,
      "Ġelse": 1052,
      "outh": 1053,
      "NAN": 1054,
      "ition": 1055,
      "mm": 1056,
      "Ġnext": 1057,
      "atter": 1058,
      "ds": 1059,
      "Ġbre": 1060,
      "she": 1061,
      "Ġset": 1062,
      "this": 1063,
      "ont": 1064,
      "Ġcle": 1065,
      "ung": 1066,
      "ins": 1067,
      "Ġear": 1068,
      "Ġdist": 1069,
      "Ġleft": 1070,
      "Ġalways": 1071,
      "ss": 1072,
      "mhm": 1073,
      "Ġpoint": 1074,
      "ĠTHE": 1075,
      "Ġwee": 1076,
      "!\"": 1077,
      "mber": 1078,
      "Ġpres": 1079,
      "Ġbeg": 1080,
      "Ġ200": 1081,
      "Ġdiffe": 1082,
      "ug": 1083,
      "Ġstop": 1084,
      "The": 1085,
      "ĠAmer": 1086,
      "Ġ_": 1087,
      "ness": 1088,
      "Ġhard": 1089,
      "Ġsw": 1090,
      "Ġread": 1091,
      "ĠDon": 1092,
      "aught": 1093,
      "ream": 1094,
      "Ġfather": 1095,
      "ret": 1096,
      "Ġacc": 1097,
      "ohn": 1098,
      "Ġbus": 1099,
      "Ġface": 1100,
      "Ġmen": 1101,
      "Ġunt": 1102,
      "ms": 1103,
      "ĠWhy": 1104,
      "Ġfun": 1105,
      "Ġdr": 1106,
      "Ġpret": 1107,
      "ĠAll": 1108,
      "Ġtook": 1109,
      ",âĢĿ": 1110,
      "vel": 1111,
      "Ġsaw": 1112,
      "Ġac": 1113,
      "ĠNow": 1114,
      "Ġquite": 1115,
      "not": 1116,
      "Ġmoney": 1117,
      "mp": 1118,
      "Ġdra": 1119,
      "Ġgone": 1120,
      "Ġcol": 1121,
      "Ġ202": 1122,
      "leep": 1123,
      "Ġfam": 1124,
      "ĠCHI": 1125,
      "gr": 1126,
      "Ġob": 1127,
      "ES": 1128,
      "br": 1129,
      "Ġwait": 1130,
      "Ġwalk": 1131,
      "wh": 1132,
      "they": 1133,
      "ows": 1134,
      "Ġuse": 1135,
      "ished": 1136,
      "----": 1137,
      "Ġhold": 1138,
      "Ġkne": 1139,
      "ER": 1140,
      "ane": 1141,
      "Ġplease": 1142,
      "pect": 1143,
      "Ġenough": 1144,
      "ec": 1145,
      "who": 1146,
      "Ġind": 1147,
      "Ġhear": 1148,
      "Ġsur": 1149,
      "me": 1150,
      "Ġbed": 1151,
      "erson": 1152,
      "Ġthough": 1153,
      "Ġgoes": 1154,
      "Ġbox": 1155,
      "Ġuntil": 1156,
      "ĠOn": 1157,
      "Ġsays": 1158,
      "ĠWhen": 1159,
      "Ġever": 1160,
      "ĠEr": 1161,
      "Ġreal": 1162,
      "Ġstand": 1163,
      "uff": 1164,
      "Ġcoming": 1165,
      "ump": 1166,
      "Ġnum": 1167,
      "Ġreg": 1168,
      "gether": 1169,
      "Ġdoor": 1170,
      "ush": 1171,
      "amp": 1172,
      "Ġcourse": 1173,
      "Ġret": 1174,
      "go": 1175,
      "Ġwar": 1176,
      "Ġfive": 1177,
      "ĠOkay": 1178,
      "ject": 1179,
      "Ġ18": 1180,
      "vent": 1181,
      "OU": 1182,
      "orning": 1183,
      "az": 1184,
      "Ġside": 1185,
      "ces": 1186,
      "ister": 1187,
      "Ġknown": 1188,
      "Ġele": 1189,
      "ĠMiss": 1190,
      "Ġwom": 1191,
      "Ġstay": 1192,
      "ĠMrs": 1193,
      "Ġpass": 1194,
      "Ġopen": 1195,
      "Ġeyes": 1196,
      "eak": 1197,
      "Ġfew": 1198,
      "cle": 1199,
      "ason": 1200,
      "ĠAn": 1201,
      "TEA": 1202,
      "ower": 1203,
      "ĠThen": 1204,
      "ational": 1205,
      "LL": 1206,
      "Ġbest": 1207,
      "Ġtoday": 1208,
      "Ġasked": 1209,
      "ning": 1210,
      "ible": 1211,
      "to": 1212,
      "don": 1213,
      "Ġ.": 1214,
      "ries": 1215,
      "\".": 1216,
      "ĠAr": 1217,
      "Ġter": 1218,
      "Ġyoung": 1219,
      "rew": 1220,
      "Ġlight": 1221,
      "ired": 1222,
      "Ġbelie": 1223,
      "Ġfr": 1224,
      "Ġyet": 1225,
      "ĠJohn": 1226,
      "Ġair": 1227,
      "Ġseen": 1228,
      "Ġum": 1229,
      "ĠDe": 1230,
      "der": 1231,
      "ger": 1232,
      "ames": 1233,
      "fta": 1234,
      "why": 1235,
      "ĠLet": 1236,
      "Ġchildren": 1237,
      "tern": 1238,
      "Ġupon": 1239,
      "ope": 1240,
      "orth": 1241,
      "ball": 1242,
      "ross": 1243,
      "ĠMay": 1244,
      "Ġsecond": 1245,
      "Ġfell": 1246,
      "aper": 1247,
      "ier": 1248,
      "ĠCome": 1249,
      "Ġdifferent": 1250,
      "ased": 1251,
      "Ġsing": 1252,
      "urt": 1253,
      "Ġmorning": 1254,
      "Ġchar": 1255,
      "Ġpick": 1256,
      "Ġnear": 1257,
      "ial": 1258,
      "fect": 1259,
      "uring": 1260,
      "Ġent": 1261,
      "ween": 1262,
      "Ġhafta": 1263,
      "ash": 1264,
      "Ġhands": 1265,
      "put": 1266,
      "Ġnothing": 1267,
      "Ġsorry": 1268,
      "ĠNew": 1269,
      "Ġfall": 1270,
      "ING": 1271,
      "Ġkill": 1272,
      "Ġlooking": 1273,
      "Ġtogether": 1274,
      "You": 1275,
      "Ġrel": 1276,
      "Ġdear": 1277,
      "Ġmar": 1278,
      "Ġsix": 1279,
      "ures": 1280,
      "Ġmind": 1281,
      "bo": 1282,
      "ines": 1283,
      "Ġi": 1284,
      "Ġgetting": 1285,
      "Ġround": 1286,
      "Ġlist": 1287,
      "ĠCan": 1288,
      "ating": 1289,
      "RA": 1290,
      "ork": 1291,
      "ollow": 1292,
      "Ġoh": 1293,
      "Ġrest": 1294,
      "Ġhimself": 1295,
      "Ġleave": 1296,
      "ĠEd": 1297,
      "Ġri": 1298,
      "ĠAt": 1299,
      "Ġremember": 1300,
      "its": 1301,
      "ĠMy": 1302,
      "any": 1303,
      "less": 1304,
      "mb": 1305,
      "Ġsound": 1306,
      "Ġred": 1307,
      "did": 1308,
      "Ġbetween": 1309,
      "Ġsmall": 1310,
      "Ġmil": 1311,
      "ĠInd": 1312,
      "ib": 1313,
      "most": 1314,
      "ĠGr": 1315,
      "oor": 1316,
      "ener": 1317,
      "ĠNot": 1318,
      "Ġonce": 1319,
      "ĠFor": 1320,
      "Ġsil": 1321,
      "ten": 1322,
      "FCH": 1323,
      "ĠHey": 1324,
      "stand": 1325,
      "ctor": 1326,
      "unt": 1327,
      "sh": 1328,
      "Ġbro": 1329,
      "Ġwatch": 1330,
      "Ġboth": 1331,
      "une": 1332,
      "Ġeach": 1333,
      "omb": 1334,
      "ange": 1335,
      "Ġheart": 1336,
      "Ġheard": 1337,
      "Ġbad": 1338,
      "Ġbir": 1339,
      "Ġtable": 1340,
      "Ġpie": 1341,
      ").": 1342,
      "Ġwithout": 1343,
      "ĠAmerican": 1344,
      "ale": 1345,
      "Ġhaving": 1346,
      "eb": 1347,
      "ular": 1348,
      "Ġ4": 1349,
      "Ġsleep": 1350,
      "ton": 1351,
      "Ġhalf": 1352,
      "reen": 1353,
      "Ġanim": 1354,
      "Ġdri": 1355,
      "ered": 1356,
      "Ġlater": 1357,
      "Ġcap": 1358,
      "Ġworld": 1359,
      "Ġï¿½": 1360,
      "Ġfoot": 1361,
      "ĠChr": 1362,
      "ents": 1363,
      "Ġcons": 1364,
      "AD": 1365,
      "ets": 1366,
      "ters": 1367,
      "Ġshall": 1368,
      "Ġdec": 1369,
      "Ġknew": 1370,
      "Ġnoise": 1371,
      "ma": 1372,
      "Ġsoon": 1373,
      "Ġperson": 1374,
      "ready": 1375,
      "ommy": 1376,
      "Ġsort": 1377,
      "Ġwind": 1378,
      "ĠGod": 1379,
      "Ġtop": 1380,
      "Oh": 1381,
      "Ġagainst": 1382,
      "ged": 1383,
      "ises": 1384,
      "Ġmaking": 1385,
      "ocal": 1386,
      "Ġdied": 1387,
      "Ġhigh": 1388,
      "form": 1389,
      "Ġmatter": 1390,
      "Ġlooked": 1391,
      "ama": 1392,
      "app": 1393,
      "Ġdire": 1394,
      "Ġinst": 1395,
      "Ġhappened": 1396,
      "Ġ5": 1397,
      "ared": 1398,
      "Ġwanted": 1399,
      "Ġ199": 1400,
      "ĠMm": 1401,
      "Ġchair": 1402,
      "Ġtalking": 1403,
      "Ġph": 1404,
      "www": 1405,
      "ined": 1406,
      "erest": 1407,
      "ĠMOT": 1408,
      "cept": 1409,
      "ĠGer": 1410,
      "tle": 1411,
      "ĠJust": 1412,
      "ĠâĢĵ": 1413,
      "aut": 1414,
      "\",": 1415,
      "Ġmus": 1416,
      "ched": 1417,
      "Ġpop": 1418,
      "ision": 1419,
      "ife": 1420,
      "Ġpretty": 1421,
      "pr": 1422,
      "ON": 1423,
      "iet": 1424,
      "Ġeverything": 1425,
      "Ġhaven": 1426,
      "Ġdep": 1427,
      "Ġsk": 1428,
      "ertain": 1429,
      "Ġfollow": 1430,
      "den": 1431,
      "ĠCl": 1432,
      "ĠUnited": 1433,
      "uss": 1434,
      "Ġmeet": 1435,
      "oe": 1436,
      "Ġans": 1437,
      "Ġbec": 1438,
      "Ġmiss": 1439,
      "Ġlive": 1440,
      "Ġblack": 1441,
      "Ġtri": 1442,
      "),": 1443,
      "osed": 1444,
      "Ġhour": 1445,
      "ĠAf": 1446,
      "ither": 1447,
      "wards": 1448,
      "key": 1449,
      "Ġnumber": 1450,
      "Ġinterest": 1451,
      "Ġvo": 1452,
      "Ġmove": 1453,
      "Ġgave": 1454,
      "cial": 1455,
      "Ġlar": 1456,
      "ubl": 1457,
      "ern": 1458,
      "ĠEng": 1459,
      "med": 1460,
      "OR": 1461,
      "Ġmoment": 1462,
      "Ġdays": 1463,
      "ches": 1464,
      "Ġass": 1465,
      "Ġtown": 1466,
      "Ġdog": 1467,
      "Ġfamily": 1468,
      "Ġfire": 1469,
      "hip": 1470,
      "ex": 1471,
      "clud": 1472,
      "ts": 1473,
      "Ġgame": 1474,
      "Ġquest": 1475,
      "bably": 1476,
      "ual": 1477,
      "iness": 1478,
      "Ġwond": 1479,
      "Ġready": 1480,
      "ĠGood": 1481,
      "Ġbreak": 1482,
      "ok": 1483,
      "Ġsub": 1484,
      "ised": 1485,
      "by": 1486,
      "Ġcity": 1487,
      "Ġbelieve": 1488,
      "Ġinv": 1489,
      "Ġid": 1490,
      "good": 1491,
      "Ġborn": 1492,
      "cha": 1493,
      "Ġactually": 1494,
      "Ġfood": 1495,
      "sel": 1496,
      "ced": 1497,
      "ĠAre": 1498,
      "ax": 1499,
      "Ġdar": 1500,
      "pped": 1501,
      "Ġmet": 1502,
      "Ġadd": 1503,
      "ĠGo": 1504,
      "Ġbring": 1505,
      "Ġtrying": 1506,
      "io": 1507,
      "Ġstory": 1508,
      "wo": 1509,
      "Ġalong": 1510,
      "Ġcut": 1511,
      "Ġwhole": 1512,
      "see": 1513,
      "ĠHar": 1514,
      "Ġfact": 1515,
      "ully": 1516,
      "Ġeight": 1517,
      "Ġsince": 1518,
      "Ġpaper": 1519,
      "ony": 1520,
      "Ġboys": 1521,
      "Ġhor": 1522,
      "ĠHis": 1523,
      "Ġkid": 1524,
      "It": 1525,
      "Ġeas": 1526,
      "ĠWho": 1527,
      "ield": 1528,
      "ĠCar": 1529,
      "Ġpict": 1530,
      "enty": 1531,
      "GRA": 1532,
      "Ġdel": 1533,
      "Ġinter": 1534,
      "uth": 1535,
      "ĠCha": 1536,
      "ative": 1537,
      "Ġwasn": 1538,
      "Ġhat": 1539,
      "ics": 1540,
      "oon": 1541,
      "Ġteam": 1542,
      "enn": 1543,
      "orrow": 1544,
      "Ġunderstand": 1545,
      "ats": 1546,
      "ped": 1547,
      "vern": 1548,
      "ants": 1549,
      "aj": 1550,
      "ĠWhere": 1551,
      "elt": 1552,
      "Ġcomes": 1553,
      "Ġalmost": 1554,
      "Ġjob": 1555,
      "Ġstarted": 1556,
      "ery": 1557,
      "And": 1558,
      "ĠZ": 1559,
      "ted": 1560,
      "Ġalready": 1561,
      "Ġsaying": 1562,
      "Ġimp": 1563,
      "Ġdraw": 1564,
      "Ġreturn": 1565,
      "Ġspeak": 1566,
      "ĠStates": 1567,
      "Ġdisc": 1568,
      "ĠThank": 1569,
      "ĠChrist": 1570,
      "Ġ6": 1571,
      "ĠRight": 1572,
      "aken": 1573,
      "EN": 1574,
      "aster": 1575,
      "ĠRe": 1576,
      "Ġclose": 1577,
      "Ġstuff": 1578,
      "Ġstick": 1579,
      "Ġdarling": 1580,
      "ities": 1581,
      "ouch": 1582,
      "Ġref": 1583,
      "Ġhot": 1584,
      "Ġ198": 1585,
      "Ġposs": 1586,
      "sha": 1587,
      "ina": 1588,
      "Ġwhe": 1589,
      "rict": 1590,
      "ives": 1591,
      "ĠFl": 1592,
      "Ġwouldn": 1593,
      "Ġdrink": 1594,
      "Ġsqu": 1595,
      "Ġlaugh": 1596,
      "Ġsign": 1597,
      "Ġswe": 1598,
      "ï¿½ï¿½": 1599,
      "oke": 1600,
      "Ġwonder": 1601,
      "Ġland": 1602,
      "cted": 1603,
      "Ġtimes": 1604,
      "Ġsent": 1605,
      "kes": 1606,
      "Ã©": 1607,
      "Ġword": 1608,
      "Ġguess": 1609,
      "Ġbrother": 1610,
      "Ġplaying": 1611,
      "Ġwoman": 1612,
      "Ġdoll": 1613,
      "Ġplayed": 1614,
      "oup": 1615,
      "Ġdro": 1616,
      "ues": 1617,
      "Ġhair": 1618,
      "ner": 1619,
      "Ġbuild": 1620,
      "ĠOne": 1621,
      "Ġson": 1622,
      "Ġcent": 1623,
      "Ġthir": 1624,
      "ĠCom": 1625,
      "Ġproble": 1626,
      "ying": 1627,
      "Ġwrong": 1628,
      "Ġprobably": 1629,
      "Ġminute": 1630,
      "Ġ8": 1631,
      "iew": 1632,
      "ĠWill": 1633,
      "Ġfeet": 1634,
      "Ġfriends": 1635,
      "Ġvoice": 1636,
      "hey": 1637,
      "?âĢĿ": 1638,
      "Ġpay": 1639,
      "Ġpull": 1640,
      "Ġinclud": 1641,
      "Ġrep": 1642,
      "Ġsy": 1643,
      "Ġhope": 1644,
      "ĠJap": 1645,
      "Ġgi": 1646,
      "ĠQ": 1647,
      "ĠSh": 1648,
      "ense": 1649,
      "Ġext": 1650,
      "19": 1651,
      "Ġduring": 1652,
      "ĠSp": 1653,
      "Ġmonth": 1654,
      "ĠDid": 1655,
      "Ġcountry": 1656,
      "du": 1657,
      "Ġfloor": 1658,
      "ĠAd": 1659,
      "ĠBen": 1660,
      "Ġstra": 1661,
      "Ġexc": 1662,
      "itting": 1663,
      "KF": 1664,
      "Ġwhite": 1665,
      "Ġmeans": 1666,
      "ĠLook": 1667,
      "gs": 1668,
      "ital": 1669,
      "Ġ7": 1670,
      "Ġplan": 1671,
      "Ġfull": 1672,
      "ently": 1673,
      "Ġthank": 1674,
      "Ġconf": 1675,
      "Mummy": 1676,
      "haps": 1677,
      "ĠCount": 1678,
      "Ġexp": 1679,
      "undred": 1680,
      "Ġidea": 1681,
      "Ġsim": 1682,
      "just": 1683,
      "Ġste": 1684,
      "aces": 1685,
      "child": 1686,
      "like": 1687,
      "airs": 1688,
      "UR": 1689,
      "ster": 1690,
      "Ġbecame": 1691,
      "Ġten": 1692,
      "Ġmovie": 1693,
      "Ġlost": 1694,
      "sing": 1695,
      "Ġdeath": 1696,
      "Ġbrought": 1697,
      "ones": 1698,
      "Ġstud": 1699,
      "Ġstate": 1700,
      "Ġyourself": 1701,
      "Ġtrain": 1702,
      "Ġseemed": 1703,
      "Ġrather": 1704,
      "oint": 1705,
      "Ġones": 1706,
      "Ġform": 1707,
      "ĠBart": 1708,
      "ize": 1709,
      "Ġpur": 1710,
      "ĠYOU": 1711,
      "ley": 1712,
      "room": 1713,
      "Ġcur": 1714,
      "ages": 1715,
      "Ġcoll": 1716,
      "Ġhundred": 1717,
      "dy": 1718,
      "inner": 1719,
      "Ġcertain": 1720,
      "eth": 1721,
      "eed": 1722,
      "ĠOr": 1723,
      "Ġbeaut": 1724,
      "enc": 1725,
      "cess": 1726,
      "ote": 1727,
      "Ġple": 1728,
      "ald": 1729,
      "Ġsir": 1730,
      "Ġshort": 1731,
      "Ġgirls": 1732,
      "thank": 1733,
      "Ġcontin": 1734,
      "Ġturned": 1735,
      "night": 1736,
      "Ġ197": 1737,
      "Ġbegan": 1738,
      "Ġcra": 1739,
      "bles": 1740,
      "Ġage": 1741,
      "Ġgotta": 1742,
      "wer": 1743,
      "Ġcat": 1744,
      "Ġweek": 1745,
      "ĠMummy": 1746,
      "Ġexpl": 1747,
      "Ġaw": 1748,
      "Ġmusic": 1749,
      "eter": 1750,
      "ask": 1751,
      "ese": 1752,
      "ica": 1753,
      "hind": 1754,
      "Uh": 1755,
      "Ġgener": 1756,
      "Ġwords": 1757,
      "Ġpain": 1758,
      "Ġinc": 1759,
      "Ġblue": 1760,
      "Ġmaybe": 1761,
      "aid": 1762,
      "ober": 1763,
      "rest": 1764,
      "Ġlead": 1765,
      "Ġmag": 1766,
      "ellow": 1767,
      "ief": 1768,
      "ided": 1769,
      "ments": 1770,
      "Ġfront": 1771,
      "Ġfine": 1772,
      "Ġgrand": 1773,
      "ene": 1774,
      "Ġmyself": 1775,
      "Ġtaken": 1776,
      "ention": 1777,
      "What": 1778,
      "]?": 1779,
      "Ġgra": 1780,
      "ĠPro": 1781,
      "Ġquick": 1782,
      "Ġpoor": 1783,
      "Ġmouth": 1784,
      "Ġmakes": 1785,
      "Ġprom": 1786,
      "got": 1787,
      "DAD": 1788,
      "Ġfav": 1789,
      "ison": 1790,
      "ured": 1791,
      "utes": 1792,
      "ĠChar": 1793,
      "Ġarea": 1794,
      "Ġable": 1795,
      "ressed": 1796,
      "Well": 1797,
      "Ġsat": 1798,
      "Ġhappy": 1799,
      "aser": 1800,
      "Ġparty": 1801,
      "ivers": 1802,
      "pri": 1803,
      "ĠBl": 1804,
      "ific": 1805,
      "Ġwants": 1806,
      "Ġhurt": 1807,
      "omba": 1808,
      "Ġfight": 1809,
      "ĠTom": 1810,
      "ford": 1811,
      "Ġdead": 1812,
      "oud": 1813,
      "rying": 1814,
      "Ġsong": 1815,
      "Ġ9": 1816,
      "ĠCounty": 1817,
      "ik": 1818,
      "ury": 1819,
      "Ġprov": 1820,
      "read": 1821,
      "llo": 1822,
      "ring": 1823,
      "used": 1824,
      "min": 1825,
      "ized": 1826,
      "Ġoutside": 1827,
      "ĠPe": 1828,
      "Ġhappen": 1829,
      "selves": 1830,
      "Ġimport": 1831,
      "head": 1832,
      "ruary": 1833,
      "ebruary": 1834,
      "iful": 1835,
      "Ġbehind": 1836,
      "olly": 1837,
      "ral": 1838,
      "Ġless": 1839,
      "son": 1840,
      "Ġlady": 1841,
      "more": 1842,
      "ĠDaddy": 1843,
      "Ġcolor": 1844,
      "fully": 1845,
      "Ġmain": 1846,
      "ipp": 1847,
      "Ġtele": 1848,
      "Ġtaking": 1849,
      "Ġfelt": 1850,
      "Ġgiven": 1851,
      "Ġbusiness": 1852,
      "ĠTo": 1853,
      "ĠLe": 1854,
      "Ġoffic": 1855,
      "ĠDav": 1856,
      "Ġes": 1857,
      "ouble": 1858,
      "iam": 1859,
      "Ġcase": 1860,
      "ĠGe": 1861,
      "ĠAfter": 1862,
      "Ġhuh": 1863,
      "ĠJapan": 1864,
      "Ġcir": 1865,
      "ĠMe": 1866,
      "ape": 1867,
      "ĠTO": 1868,
      "ĠHer": 1869,
      "Ġoften": 1870,
      "iver": 1871,
      "EL": 1872,
      "Yeah": 1873,
      "Ġmine": 1874,
      "Ġed": 1875,
      "Ġline": 1876,
      "ider": 1877,
      "ĠPh": 1878,
      "Ġminutes": 1879,
      "oes": 1880,
      "But": 1881,
      "lish": 1882,
      "Ġfro": 1883,
      "Ġrecord": 1884,
      "bb": 1885,
      "ĠâĢĺ": 1886,
      "Ġlear": 1887,
      "Ġserv": 1888,
      "Ġdeal": 1889,
      "Ġsister": 1890,
      "ole": 1891,
      "Ġtre": 1892,
      "anger": 1893,
      "Ġaren": 1894,
      "ĠFebruary": 1895,
      "Ġquestion": 1896,
      "ey": 1897,
      "Ġguys": 1898,
      "Ġbar": 1899,
      "essie": 1900,
      "Ġfunny": 1901,
      "Ġanimals": 1902,
      "Ġgreen": 1903,
      "ĠBomba": 1904,
      "Yes": 1905,
      "ada": 1906,
      "Ġ196": 1907,
      "Ġchange": 1908,
      "Ġlate": 1909,
      "ND": 1910,
      "unk": 1911,
      "Ġocc": 1912,
      "Ġbear": 1913,
      "Ġwrite": 1914,
      "ĠPr": 1915,
      "ĠĠĠĠĠĠĠĠĠĠĠĠĠĠĠĠ": 1916,
      "rence": 1917,
      "reet": 1918,
      "Ġev": 1919,
      "ander": 1920,
      "Ġtoys": 1921,
      "Ġpresent": 1922,
      "gin": 1923,
      "Ġtill": 1924,
      "Ġeither": 1925,
      "Ġmess": 1926,
      "Ġem": 1927,
      "Ġleast": 1928,
      "Ġpicture": 1929,
      "bye": 1930,
      "shall": 1931,
      "lean": 1932,
      "ĠWh": 1933,
      "fl": 1934,
      "ert": 1935,
      "ĠJan": 1936,
      "Ġclear": 1937,
      "ffe": 1938,
      "gan": 1939,
      "ara": 1940,
      "artment": 1941,
      "ze": 1942,
      "ĠEx": 1943,
      "ĠSome": 1944,
      "ides": 1945,
      "bs": 1946,
      "Ġmed": 1947,
      "LD": 1948,
      "gie": 1949,
      "amed": 1950,
      "Ġvis": 1951,
      "Ġcouldn": 1952,
      "Ġbase": 1953,
      "Ġpiece": 1954,
      "ĠYork": 1955,
      "ĠIndian": 1956,
      "fort": 1957,
      "Ġcold": 1958,
      "ĠSc": 1959,
      "Ã¡": 1960,
      "ards": 1961,
      "aughter": 1962,
      "uly": 1963,
      "Ġclot": 1964,
      "ality": 1965,
      "ĠMag": 1966,
      "ĠCon": 1967,
      "arent": 1968,
      "No": 1969,
      "Ġins": 1970,
      "bl": 1971,
      "Ġpubl": 1972,
      "Ġlarge": 1973,
      "RE": 1974,
      "Ġfig": 1975,
      "eng": 1976,
      "unch": 1977,
      "oops": 1978,
      "Ġsomeone": 1979,
      "illy": 1980,
      "ned": 1981,
      "Ġpri": 1982,
      "ĠGu": 1983,
      "Ġpolit": 1984,
      "een": 1985,
      "Ġroad": 1986,
      "ĠYour": 1987,
      "Ġago": 1988,
      "Ġstrong": 1989,
      "Ġhum": 1990,
      "Ġrock": 1991,
      "idge": 1992,
      "Ġ10": 1993,
      "Ġalone": 1994,
      "Ġguy": 1995,
      "Ġwife": 1996,
      "Ġcou": 1997,
      "Ġboat": 1998,
      "zz": 1999,
      "Ġgovern": 2000,
      "Ġwish": 2001,
      "ĠGet": 2002,
      "Ġtom": 2003,
      "Ġrepl": 2004,
      "ĠBar": 2005,
      "Ġsometimes": 2006,
      "Ġsweet": 2007,
      "Ġherself": 2008,
      "Ġtwenty": 2009,
      "Ġothers": 2010,
      "Ġwat": 2011,
      "20": 2012,
      "Ġeng": 2013,
      "Ġmid": 2014,
      "for": 2015,
      "Ġbody": 2016,
      "Ġbirth": 2017,
      "We": 2018,
      "aul": 2019,
      "iting": 2020,
      "uary": 2021,
      "alright": 2022,
      "ounc": 2023,
      "born": 2024,
      "Ġtrue": 2025,
      "because": 2026,
      "atur": 2027,
      "Ġhorse": 2028,
      "Ġimportant": 2029,
      "ĠMic": 2030,
      "Ġground": 2031,
      "Ġlisten": 2032,
      "Ġreason": 2033,
      "Ġdark": 2034,
      "Ġinside": 2035,
      "ming": 2036,
      "ĠBessie": 2037,
      "Ġfore": 2038,
      "Ġpower": 2039,
      "olog": 2040,
      "lly": 2041,
      "Ġpar": 2042,
      "ĠHere": 2043,
      "have": 2044,
      "Ġdef": 2045,
      "ement": 2046,
      "AS": 2047,
      "dle": 2048,
      "ety": 2049,
      "ĠTr": 2050,
      "aim": 2051,
      "Ġfif": 2052,
      "ĠErm": 2053,
      "RI": 2054,
      "over": 2055,
      "Ġduck": 2056,
      "Ġbeautiful": 2057,
      "Ġbooks": 2058,
      "lex": 2059,
      "Ġletter": 2060,
      "rie": 2061,
      "Ġseven": 2062,
      "att": 2063,
      "Ġgets": 2064,
      "Ġty": 2065,
      "icip": 2066,
      "Ġdistrict": 2067,
      "ĠWith": 2068,
      "ĠEl": 2069,
      "Ġopp": 2070,
      "Ġfing": 2071,
      "TER": 2072,
      "Ġworking": 2073,
      "Ġmill": 2074,
      "ept": 2075,
      "Ġcook": 2076,
      "Ġtrans": 2077,
      "Ġmark": 2078,
      "oof": 2079,
      "ator": 2080,
      "Ġ17": 2081,
      "ousand": 2082,
      "II": 2083,
      "ĠCH": 2084,
      "Ġdinner": 2085,
      "leanor": 2086,
      "els": 2087,
      "ists": 2088,
      "Ġadv": 2089,
      "Ġwear": 2090,
      "ately": 2091,
      "aced": 2092,
      "--------": 2093,
      "Ġgun": 2094,
      "iously": 2095,
      "LE": 2096,
      "Ġlay": 2097,
      "000": 2098,
      "Ġlov": 2099,
      "men": 2100,
      "Ġtree": 2101,
      "ional": 2102,
      "gy": 2103,
      "ooh": 2104,
      "Ġorder": 2105,
      "Ġfinished": 2106,
      "ney": 2107,
      "iding": 2108,
      "fic": 2109,
      "oub": 2110,
      "Ġfuck": 2111,
      "iving": 2112,
      "Ġexam": 2113,
      "Ġtried": 2114,
      "hael": 2115,
      "Ġpast": 2116,
      "Ġrece": 2117,
      "Ġlad": 2118,
      "Ġamong": 2119,
      "Ġsum": 2120,
      "Ġ195": 2121,
      "Ġcheck": 2122,
      "does": 2123,
      "Ġblock": 2124,
      "ĠPl": 2125,
      "Ġart": 2126,
      "itch": 2127,
      "AM": 2128,
      "Ġclean": 2129,
      "aur": 2130,
      "Ġfair": 2131,
      "ism": 2132,
      "Ġpos": 2133,
      "Ġhon": 2134,
      "ken": 2135,
      "Ġearly": 2136,
      "Ġacross": 2137,
      "rap": 2138,
      "Ġyellow": 2139,
      "ĠX": 2140,
      "owing": 2141,
      "angu": 2142,
      "ana": 2143,
      "Ġsn": 2144,
      "Ġlived": 2145,
      "de": 2146,
      "Ġdaddy": 2147,
      "Ġriver": 2148,
      "Ġreac": 2149,
      "pril": 2150,
      "ĠEnglish": 2151,
      "Ġjo": 2152,
      "ering": 2153,
      "ained": 2154,
      "Ġproblem": 2155,
      "Ġfish": 2156,
      "UN": 2157,
      "Ġprot": 2158,
      "ĠPhil": 2159,
      "Ġsun": 2160,
      "teen": 2161,
      "Ġchance": 2162,
      "Ġ...": 2163,
      "Ġglad": 2164,
      "gas": 2165,
      "ĠJanuary": 2166,
      "ric": 2167,
      "ature": 2168,
      "Ġran": 2169,
      "cri": 2170,
      "Ġexpect": 2171,
      "ĠOF": 2172,
      "ĠDavid": 2173,
      "ĠJack": 2174,
      "URS": 2175,
      "ham": 2176,
      "Ġfootball": 2177,
      "Ġstar": 2178,
      "cent": 2179,
      "ĠAh": 2180,
      "ĠMan": 2181,
      "Ġsitting": 2182,
      "ays": 2183,
      "Ġattack": 2184,
      "Ġfree": 2185,
      "umb": 2186,
      "Ġnews": 2187,
      "mon": 2188,
      "ices": 2189,
      "Ġdat": 2190,
      "Ġthousand": 2191,
      "acher": 2192,
      "ĠWor": 2193,
      "Ġclass": 2194,
      "ovember": 2195,
      "ek": 2196,
      "Ġbuy": 2197,
      "Ġtouch": 2198,
      "ots": 2199,
      "ĠSte": 2200,
      "col": 2201,
      "Ġsever": 2202,
      "Ġbath": 2203,
      "owed": 2204,
      "ges": 2205,
      "Ġwin": 2206,
      "raid": 2207,
      "Ġseems": 2208,
      "ĠBecause": 2209,
      "That": 2210,
      "Ġsilver": 2211,
      "Ġheld": 2212,
      "alth": 2213,
      "Ġknows": 2214,
      "Ġfavor": 2215,
      "que": 2216,
      "velop": 2217,
      "ĠAb": 2218,
      "Ġ15": 2219,
      "Ġlaw": 2220,
      "eared": 2221,
      "Ġkilled": 2222,
      "Ġphone": 2223,
      "Ġbag": 2224,
      "Ġobject": 2225,
      "AP": 2226,
      "ĠKing": 2227,
      "Ġthinking": 2228,
      "Ġappro": 2229,
      "OL": 2230,
      "Ġfast": 2231,
      "Ġseveral": 2232,
      "ĠWar": 2233,
      "ĠGerman": 2234,
      "ution": 2235,
      "ulation": 2236,
      "com": 2237,
      "Ġtakes": 2238,
      "ains": 2239,
      "ĠBrit": 2240,
      "ĠSir": 2241,
      "Ġcup": 2242,
      "Ġhit": 2243,
      "ĠGeor": 2244,
      "Ġseries": 2245,
      "US": 2246,
      "Ġcreat": 2247,
      "Ġresp": 2248,
      "Ġtea": 2249,
      "ĠIN": 2250,
      "Ġvill": 2251,
      "Ġroll": 2252,
      "itc": 2253,
      "Ġca": 2254,
      "duc": 2255,
      "ium": 2256,
      "ically": 2257,
      "vision": 2258,
      "Ġmod": 2259,
      "Ġnorth": 2260,
      "zy": 2261,
      "singing": 2262,
      "ĠNovember": 2263,
      "Ġ194": 2264,
      "iter": 2265,
      "Ġspe": 2266,
      "Ġgroup": 2267,
      "Ġpat": 2268,
      "ello": 2269,
      "TH": 2270,
      "Ġlangu": 2271,
      "Ġarm": 2272,
      "Ġcompany": 2273,
      "Ġsurpr": 2274,
      "ead": 2275,
      "Ġsend": 2276,
      "ĠJane": 2277,
      "Ġbra": 2278,
      "ued": 2279,
      "ilt": 2280,
      "Ġ2021": 2281,
      "ract": 2282,
      "Ġblood": 2283,
      "arch": 2284,
      "ĠCol": 2285,
      "uro": 2286,
      "Ġpu": 2287,
      "Ġ2020": 2288,
      "Ġconst": 2289,
      "ived": 2290,
      "amer": 2291,
      "Ġtomorrow": 2292,
      "then": 2293,
      "Ġwall": 2294,
      "itten": 2295,
      "iversity": 2296,
      "Ġkiss": 2297,
      "Ġmilk": 2298,
      "rench": 2299,
      "Ġap": 2300,
      "Ġwood": 2301,
      "Ġquiet": 2302,
      "ĠEvery": 2303,
      "Ġliving": 2304,
      "two": 2305,
      "osp": 2306,
      "Ġcounty": 2307,
      "gue": 2308,
      "Ġkept": 2309,
      "ician": 2310,
      "ĠPer": 2311,
      "Ġsomebody": 2312,
      "ining": 2313,
      "Ġafraid": 2314,
      "though": 2315,
      "Ġya": 2316,
      "Ġlo": 2317,
      "ĠCap": 2318,
      "stem": 2319,
      "ility": 2320,
      "Ġyours": 2321,
      "ya": 2322,
      "Ġalright": 2323,
      "Ġdress": 2324,
      "Ġtoy": 2325,
      "ĠFrance": 2326,
      "nock": 2327,
      "Ġpoints": 2328,
      "ient": 2329,
      "Ġdaughter": 2330,
      "erv": 2331,
      "Ġnine": 2332,
      "ED": 2333,
      "Ġbirthday": 2334,
      "Ġbab": 2335,
      "Ġrele": 2336,
      "Ġanswer": 2337,
      "ĠMaggie": 2338,
      "Ġheav": 2339,
      "Ġreport": 2340,
      "ĠBob": 2341,
      "Ġhist": 2342,
      "Ġsold": 2343,
      "Ġperhaps": 2344,
      "ĠMc": 2345,
      "overed": 2346,
      "Ġmot": 2347,
      "Ġusually": 2348,
      "ĠWorld": 2349,
      "ĠSw": 2350,
      "fess": 2351,
      "ĠAND": 2352,
      "che": 2353,
      "ls": 2354,
      "makes": 2355,
      "Ġcharac": 2356,
      "Ġvocal": 2357,
      "Ġseat": 2358,
      "Ġtrouble": 2359,
      "ounds": 2360,
      "OM": 2361,
      "Ġwithin": 2362,
      "Ġpot": 2363,
      "Ġstep": 2364,
      "ctober": 2365,
      "Ġmember": 2366,
      "hello": 2367,
      "Ġrunning": 2368,
      "Ġsoft": 2369,
      "ounter": 2370,
      "Ġda": 2371,
      "ĠCal": 2372,
      "when": 2373,
      "He": 2374,
      "par": 2375,
      "co": 2376,
      "dden": 2377,
      "ĠPar": 2378,
      "aint": 2379,
      "uhhuh": 2380,
      "Ġlovely": 2381,
      "Ġmonths": 2382,
      "Ġcho": 2383,
      "Ġnose": 2384,
      "ĠOf": 2385,
      "ĠSe": 2386,
      "band": 2387,
      "Ġcamp": 2388,
      "Ġbecome": 2389,
      "gram": 2390,
      "ding": 2391,
      "Ġhur": 2392,
      "ajor": 2393,
      "Ġain": 2394,
      "ler": 2395,
      "Ġhours": 2396,
      "Ġworked": 2397,
      "Ġfield": 2398,
      "Ġstood": 2399,
      "Ġ16": 2400,
      "wered": 2401,
      "Ġstraight": 2402,
      "bed": 2403,
      "Ġcannot": 2404,
      "ping": 2405,
      "inning": 2406,
      "say": 2407,
      "Ġfix": 2408,
      "irt": 2409,
      "ĠJuly": 2410,
      "hard": 2411,
      "ration": 2412,
      "Ġnamed": 2413,
      "ai": 2414,
      "Ġcorn": 2415,
      "Ġve": 2416,
      "Ġsudden": 2417,
      "ggy": 2418,
      "Ġz": 2419,
      "ĠApril": 2420,
      "Ġwhether": 2421,
      "urch": 2422,
      "Ġshop": 2423,
      "Ġbreat": 2424,
      "Ġ12": 2425,
      "Ġmarried": 2426,
      ".'": 2427,
      "ĠAm": 2428,
      "Ġnin": 2429,
      "!âĢĿ": 2430,
      "Ġla": 2431,
      "Ġforward": 2432,
      "Ġwomen": 2433,
      "Ġsea": 2434,
      "Ġcried": 2435,
      "actly": 2436,
      "Ġcor": 2437,
      "Ġthemselves": 2438,
      "entle": 2439,
      "Ġpartic": 2440,
      "Ġcray": 2441,
      "eptember": 2442,
      "hanks": 2443,
      "Ġanswered": 2444,
      "Ġdream": 2445,
      "ĠThese": 2446,
      "ccess": 2447,
      "ĠFraser": 2448,
      "Ġlives": 2449,
      "Ġpage": 2450,
      "ĠHave": 2451,
      "ĠPlease": 2452,
      "Ġtired": 2453,
      "Ġcross": 2454,
      "ĠNorth": 2455,
      "Ġsuppose": 2456,
      "ĠBy": 2457,
      "ugust": 2458,
      "Ġspecial": 2459,
      "ĠOctober": 2460,
      "Ġdevelop": 2461,
      "ude": 2462,
      "ging": 2463,
      "hel": 2464,
      "Ġhung": 2465,
      "âĢĵ": 2466,
      "Ġclothes": 2467,
      "Ġpassed": 2468,
      "ories": 2469,
      "Ġdepartment": 2470,
      "Ġmer": 2471,
      "empt": 2472,
      "ray": 2473,
      "Ġjump": 2474,
      "Ġband": 2475,
      "Ġfit": 2476,
      "Ġlow": 2477,
      "mother": 2478,
      "Ġeating": 2479,
      "sc": 2480,
      "Ġton": 2481,
      "Ġah": 2482,
      "Ġspec": 2483,
      "Ġpossible": 2484,
      "ouncil": 2485,
      "Ġsystem": 2486,
      "Ġcouple": 2487,
      "Ġfil": 2488,
      "Ġproper": 2489,
      "uk": 2490,
      "ĠAust": 2491,
      "fer": 2492,
      "Ġill": 2493,
      "Ġring": 2494,
      "Ġeasy": 2495,
      "rat": 2496,
      "ked": 2497,
      "Ġpost": 2498,
      "Ġconc": 2499,
      "Ġfeeling": 2500,
      "Ġpleas": 2501,
      "stairs": 2502,
      "may": 2503,
      "va": 2504,
      "Ġ193": 2505,
      "ondon": 2506,
      "Ġtelevision": 2507,
      "Ġdoctor": 2508,
      "Ġcommun": 2509,
      "ĠSha": 2510,
      "Ġdanger": 2511,
      "Ġfly": 2512,
      "Ġstation": 2513,
      "icks": 2514,
      "Ġexper": 2515,
      "ĠJoe": 2516,
      "ears": 2517,
      "ĠEdna": 2518,
      "ĠGrand": 2519,
      "Ġsand": 2520,
      "oth": 2521,
      "Ġnational": 2522,
      "net": 2523,
      "ĠTe": 2524,
      "ĠSeptember": 2525,
      "joy": 2526,
      "Ġshar": 2527,
      "Ġclim": 2528,
      "box": 2529,
      "Ġice": 2530,
      "Ġdoub": 2531,
      "Ġcontro": 2532,
      "Ġdiffic": 2533,
      "tom": 2534,
      "Ġdad": 2535,
      "rigin": 2536,
      "Ġpolic": 2537,
      "gasps": 2538,
      "Ġdest": 2539,
      "ĠCharl": 2540,
      "ĠSouth": 2541,
      "Ġarri": 2542,
      "Ġmillion": 2543,
      "ĠAlex": 2544,
      "hold": 2545,
      "ffect": 2546,
      "gar": 2547,
      "Ġlikes": 2548,
      "Ġdie": 2549,
      "Ġleg": 2550,
      "âĢĶ": 2551,
      "itty": 2552,
      "Ġsounds": 2553,
      "ĠAg": 2554,
      "Ġview": 2555,
      "ĠIT": 2556,
      "Ġcatch": 2557,
      "ogn": 2558,
      "ĠGreat": 2559,
      "ended": 2560,
      "Ġkids": 2561,
      "ID": 2562,
      "ĠAugust": 2563,
      "owers": 2564,
      "Ġneeds": 2565,
      "unicip": 2566,
      "ĠLondon": 2567,
      "Ġabs": 2568,
      "ager": 2569,
      "ÃŃ": 2570,
      "Ġdiv": 2571,
      "ĠPres": 2572,
      "play": 2573,
      "Ġslow": 2574,
      "Ġwindow": 2575,
      "ĠHi": 2576,
      "ĠLea": 2577,
      "friend": 2578,
      "ĠAny": 2579,
      "GH": 2580,
      "Ġord": 2581,
      "Ġreleased": 2582,
      "Ġstat": 2583,
      "ored": 2584,
      "Ġputting": 2585,
      "ances": 2586,
      "Ġgovernment": 2587,
      "ĠDr": 2588,
      "Ġcirc": 2589,
      "ĠCity": 2590,
      "Ġtick": 2591,
      "Ġwaiting": 2592,
      "Ġarms": 2593,
      "some": 2594,
      "Ġoper": 2595,
      "babbles": 2596,
      "Ġlots": 2597,
      "SS": 2598,
      "Ġforget": 2599,
      "Ġsupport": 2600,
      "Ġegg": 2601,
      "Ġbroken": 2602,
      "'.": 2603,
      "oop": 2604,
      "Ġterri": 2605,
      "Ġmoved": 2606,
      "which": 2607,
      "Ġsal": 2608,
      "Ġvar": 2609,
      "Ġnoises": 2610,
      "Ġfur": 2611,
      "Ġhus": 2612,
      "ardon": 2613,
      "Ġknock": 2614,
      "Ġabove": 2615,
      "Ġoffice": 2616,
      "Ġthrow": 2617,
      "ĠKe": 2618,
      ",--": 2619,
      "Ġevent": 2620,
      "emy": 2621,
      "uri": 2622,
      "ox": 2623,
      "Ġmur": 2624,
      "ĠHello": 2625,
      "Ġcos": 2626,
      "Ġgentle": 2627,
      "Ġking": 2628,
      "noon": 2629,
      "Ġhang": 2630,
      "Ġmiles": 2631,
      "Ġequ": 2632,
      "Ġhowever": 2633,
      "Ġeverybody": 2634,
      "ĠMaybe": 2635,
      "Ġest": 2636,
      "cember": 2637,
      "Ġputs": 2638,
      "cient": 2639,
      "ĠPol": 2640,
      "Ġsuccess": 2641,
      "Ġseason": 2642,
      "oren": 2643,
      "Ġchanged": 2644,
      "Ġorgan": 2645,
      "Ġmommy": 2646,
      "Ġrequ": 2647,
      "sings": 2648,
      "urs": 2649,
      "ĠPat": 2650,
      "Ġtelling": 2651,
      "Ste": 2652,
      "Ġ#": 2653,
      "Ġann": 2654,
      "resent": 2655,
      "aged": 2656,
      "Ġrecogn": 2657,
      "Ġpolice": 2658,
      "Ġtonight": 2659,
      "ĠĠĠĠĠĠ": 2660,
      "Ġtowards": 2661,
      "Ġwhom": 2662,
      "ĠRos": 2663,
      "ĠRep": 2664,
      "hile": 2665,
      "Ġfa": 2666,
      "lete": 2667,
      "ĠPaul": 2668,
      "Ġpig": 2669,
      "ĠFrench": 2670,
      "Ġwhatever": 2671,
      "Ġeye": 2672,
      "Ġmeant": 2673,
      "Ġju": 2674,
      "Ġforgot": 2675,
      "Ġparticular": 2676,
      "Ġstanding": 2677,
      "mas": 2678,
      "Ġeffect": 2679,
      "Ġshot": 2680,
      "ising": 2681,
      "oose": 2682,
      "ĠEuro": 2683,
      "fast": 2684,
      "Ġstru": 2685,
      "Ġgold": 2686,
      "your": 2687,
      "la": 2688,
      "Ġnor": 2689,
      "ceed": 2690,
      "mbers": 2691,
      "Ġhors": 2692,
      "ĠMarch": 2693,
      "Ġmist": 2694,
      "rop": 2695,
      "terday": 2696,
      "ĠRic": 2697,
      "Ġperfect": 2698,
      "ĠFrank": 2699,
      "Ġreturned": 2700,
      "ĠNe": 2701,
      "Ġ11": 2702,
      "Ġexcl": 2703,
      "Ġenjoy": 2704,
      "phone": 2705,
      "itchen": 2706,
      "Ġcaught": 2707,
      "ĠSee": 2708,
      "Ġwritten": 2709,
      "Ġluck": 2710,
      "omas": 2711,
      "amb": 2712,
      "ĠDan": 2713,
      "ror": 2714,
      "ĠWest": 2715,
      "con": 2716,
      "ĠJune": 2717,
      "Ġworry": 2718,
      "rs": 2719,
      "ĠAunt": 2720,
      "ffee": 2721,
      "time": 2722,
      "Ġpopulation": 2723,
      "ĠComm": 2724,
      "]!": 2725,
      "reed": 2726,
      "Ġmunicip": 2727,
      "wow": 2728,
      "bit": 2729,
      "Ġcow": 2730,
      "Ġinform": 2731,
      "iron": 2732,
      "Ġformer": 2733,
      "ĠFrom": 2734,
      "ĠUniversity": 2735,
      "ĠCaptain": 2736,
      "Ġcop": 2737,
      "Ġvocalises": 2738,
      "Ġcry": 2739,
      "Ġ2018": 2740,
      "ior": 2741,
      "Ġorigin": 2742,
      "ĠMichael": 2743,
      "counter": 2744,
      "ĠWH": 2745,
      "Ġprogram": 2746,
      "Ġafternoon": 2747,
      "Ġesc": 2748,
      "Ġanyway": 2749,
      "rupt": 2750,
      "Ġbur": 2751,
      "Ġdirect": 2752,
      "Ġtest": 2753,
      "Ġpen": 2754,
      "Ġboard": 2755,
      "Ġpract": 2756,
      "ggest": 2757,
      "Ġsight": 2758,
      "Ġcal": 2759,
      "Ġdet": 2760,
      "ĠOK": 2761,
      "Ġsick": 2762,
      "VE": 2763,
      "ĠMin": 2764,
      "Ġdisapp": 2765,
      "ĠDecember": 2766,
      "ency": 2767,
      "Ġlanguage": 2768,
      "Ġhusband": 2769,
      "Ġfill": 2770,
      "Ġkitchen": 2771,
      "Ġclos": 2772,
      "ground": 2773,
      "CHILD": 2774,
      "Ġcareful": 2775,
      "Ġ!": 2776,
      "Ġfellow": 2777,
      "ience": 2778,
      "lo": 2779,
      "ĠMommy": 2780,
      "Ġsuggest": 2781,
      "cially": 2782,
      "Ġmis": 2783,
      "Ġfear": 2784,
      "Ġcool": 2785,
      "Ġjack": 2786,
      "Ġfrog": 2787,
      "Ġtruck": 2788,
      "Ġtoward": 2789,
      "Ġchildes": 2790,
      "CHILDES": 2791,
      "Ġturns": 2792,
      "aimed": 2793,
      "ĠBritish": 2794,
      "Ġahead": 2795,
      "ĠNational": 2796,
      "ula": 2797,
      "Ġcost": 2798,
      "Ġhop": 2799,
      "Ġsecret": 2800,
      "Ġlonger": 2801,
      "Ġbuilding": 2802,
      "pes": 2803,
      "king": 2804,
      "ĠJe": 2805,
      "Ġought": 2806,
      "Ġdeep": 2807,
      "arden": 2808,
      "yl": 2809,
      "Ġnearly": 2810,
      "Ġposition": 2811,
      "OW": 2812,
      "Ġisland": 2813,
      "Ġship": 2814,
      "ips": 2815,
      "ĠThanks": 2816,
      "ĠChe": 2817,
      "Ġcover": 2818,
      "Ġfollowing": 2819,
      "Ġevening": 2820,
      "Ġcharacter": 2821,
      "Ġbroke": 2822,
      "ĠWas": 2823,
      "Ġfarm": 2824,
      "view": 2825,
      "Ġfort": 2826,
      "Ġshut": 2827,
      "Ġshoes": 2828,
      "Ġreplied": 2829,
      "Ġmembers": 2830,
      "Ġdrive": 2831,
      "Ġsafe": 2832,
      "ĠUh": 2833,
      "ĠAdam": 2834,
      "Ġvisit": 2835,
      "Th": 2836,
      "give": 2837,
      "Ġmad": 2838,
      "rill": 2839,
      "Ġride": 2840,
      "ĠMom": 2841,
      "reek": 2842,
      "Ġregion": 2843,
      "Ġthirty": 2844,
      "AL": 2845,
      "Ġav": 2846,
      "Ġexactly": 2847,
      "Ġpublic": 2848,
      "Ġfigure": 2849,
      "iff": 2850,
      "Ġquickly": 2851,
      "Ġsnow": 2852,
      "arr": 2853,
      "Ġcommon": 2854,
      "Ġdem": 2855,
      "Ġvillage": 2856,
      "was": 2857,
      "bur": 2858,
      "Ġtot": 2859,
      "Ġspend": 2860,
      "Ġ2019": 2861,
      "whis": 2862,
      "Ġhappens": 2863,
      "Ġworth": 2864,
      "ighb": 2865,
      "ELS": 2866,
      "Ġwild": 2867,
      "Ġparent": 2868,
      "Ġ14": 2869,
      "af": 2870,
      "ĠSm": 2871,
      "Ġwrote": 2872,
      "COL": 2873,
      "baby": 2874,
      "Ġsave": 2875,
      "uation": 2876,
      "ĠHel": 2877,
      "uthor": 2878,
      "ott": 2879,
      "Ġanyone": 2880,
      "Ġinstead": 2881,
      "would": 2882,
      "Ġru": 2883,
      "Ġpress": 2884,
      "sit": 2885,
      "ron": 2886,
      "Ġdecided": 2887,
      "Ġprotect": 2888,
      "ffic": 2889,
      "ĠEngland": 2890,
      "Ġcurrent": 2891,
      "gest": 2892,
      "Ġcast": 2893,
      "idence": 2894,
      "ums": 2895,
      "ĠBrad": 2896,
      "Ġmiddle": 2897,
      "ospital": 2898,
      "Ġinterested": 2899,
      "Ġban": 2900,
      "estern": 2901,
      "Ġprop": 2902,
      "Ġtem": 2903,
      "ino": 2904,
      "acy": 2905,
      "iny": 2906,
      "iling": 2907,
      "Ġmount": 2908,
      "Ġexcept": 2909,
      "oseph": 2910,
      "ĠQu": 2911,
      "Ġsus": 2912,
      "ians": 2913,
      "iod": 2914,
      "Ġplaces": 2915,
      "Ġbuilt": 2916,
      "Ġpieces": 2917,
      "Ġmeeting": 2918,
      "ege": 2919,
      "Ġtow": 2920,
      "Ġservice": 2921,
      "ĠList": 2922,
      "Ġsupposed": 2923,
      "bert": 2924,
      "Ġyesterday": 2925,
      "Ġgiving": 2926,
      "Ġhell": 2927,
      "Ġdoubt": 2928,
      "note": 2929,
      "ĠJim": 2930,
      "Ġprodu": 2931,
      "Ġlearn": 2932,
      "Ġtreat": 2933,
      "Ġsuper": 2934,
      "eal": 2935,
      "Ġusing": 2936,
      "Ġcomplete": 2937,
      "Fr": 2938,
      "Ġcamer": 2939,
      "Ġcarry": 2940,
      "Ġcommune": 2941,
      "Ġsilence": 2942,
      "Ġbes": 2943,
      "Ġstri": 2944,
      "Ġtrust": 2945,
      "orence": 2946,
      "Ġfollowed": 2947,
      "APTER": 2948,
      "Ġburn": 2949,
      "Eleanor": 2950,
      "Ġ13": 2951,
      "Ġheavy": 2952,
      "cuse": 2953,
      "Ġgames": 2954,
      "attle": 2955,
      "ushed": 2956,
      "olute": 2957,
      "Ġiss": 2958,
      "Ġdam": 2959,
      "ti": 2960,
      "Ġbas": 2961,
      "ĠEurope": 2962,
      "IC": 2963,
      "ishing": 2964,
      "ele": 2965,
      "Ġbow": 2966,
      "Ġlie": 2967,
      "Ġreached": 2968,
      "Daddy": 2969,
      "itted": 2970,
      "Ġperform": 2971,
      "Ġopened": 2972,
      "ĠCHAPTER": 2973,
      "oul": 2974,
      "Ġfail": 2975,
      "Ġang": 2976,
      "Ġrad": 2977,
      "ĠFlorence": 2978,
      "Ġpolitician": 2979,
      "Ġfavorite": 2980,
      "tered": 2981,
      "isc": 2982,
      "irty": 2983,
      "eally": 2984,
      "Ġcoffee": 2985,
      "Ġstuck": 2986,
      "Ġcertainly": 2987,
      "Ġdi": 2988,
      "ĠSu": 2989,
      "yn": 2990,
      "iled": 2991,
      "Ġval": 2992,
      "Ġgrow": 2993,
      "Ġappear": 2994,
      "Ġclub": 2995,
      "icken": 2996,
      "ĠPresident": 2997,
      "Ġstopped": 2998,
      "Ġwhose": 2999,
      "Ġlegs": 3000,
      "maybe": 3001,
      "aves": 3002,
      "Ġteacher": 3003,
      "Ġ2022": 3004,
      "please": 3005,
      "Ġled": 3006,
      "Ġbelong": 3007,
      "Ġindeed": 3008,
      "ĠGeorge": 3009,
      "Ġpretend": 3010,
      "Ġthird": 3011,
      "Ġstore": 3012,
      "Ġproduc": 3013,
      "ille": 3014,
      "Ġquar": 3015,
      "Ġprofess": 3016,
      "Ġgeneral": 3017,
      "Ġfinish": 3018,
      "rit": 3019,
      "ĠSorry": 3020,
      "Ġresult": 3021,
      "Ġconsider": 3022,
      "dd": 3023,
      "ĠSec": 3024,
      "Ġcomfort": 3025,
      "Ġstreet": 3026,
      "iles": 3027,
      "ode": 3028,
      "Ġmajor": 3029,
      "Ġpack": 3030,
      "ified": 3031,
      "Ġsomewhere": 3032,
      "Ġsingle": 3033,
      "Foot": 3034,
      "ĠNor": 3035,
      "IT": 3036,
      "will": 3037,
      "work": 3038,
      "Ġcause": 3039,
      "Ġmatch": 3040,
      "ĠTwo": 3041,
      "Ġlevel": 3042,
      "Ġleaving": 3043,
      "Ġpresident": 3044,
      "ird": 3045,
      "Ġbreakfast": 3046,
      "Ġlocal": 3047,
      "ĠLike": 3048,
      "Ġbought": 3049,
      "Ġwhis": 3050,
      "Ġshout": 3051,
      "Ġswim": 3052,
      "Ġaccount": 3053,
      "Ġlunch": 3054,
      "Ġreceived": 3055,
      "sp": 3056,
      "eder": 3057,
      "ĠWilliam": 3058,
      "Ġwatches": 3059,
      "Ġneck": 3060,
      "Ġweeks": 3061,
      "Ġholds": 3062,
      "onel": 3063,
      "mpions": 3064,
      "Ġworks": 3065,
      "Ġletters": 3066,
      "Ġremark": 3067,
      "Ġbutter": 3068,
      "Ġstrange": 3069,
      "ternational": 3070,
      "Ġanimal": 3071,
      "Ġdifficult": 3072,
      "ĠLuc": 3073,
      "Ġadm": 3074,
      "Footnote": 3075,
      "Ġcrayon": 3076,
      "Ġsense": 3077,
      "Ġsol": 3078,
      "itz": 3079,
      "Ġcre": 3080,
      "ribut": 3081,
      "Ġdecl": 3082,
      "igg": 3083,
      "Ġexample": 3084,
      "Ġhol": 3085,
      "phan": 3086,
      "Ġmaster": 3087,
      "Ġmention": 3088,
      "Ġpark": 3089,
      "ĠMa": 3090,
      "ĠChi": 3091,
      "unny": 3092,
      "Ġcareer": 3093,
      "aff": 3094,
      "Ġtape": 3095,
      "Ġwarm": 3096,
      "Ġut": 3097,
      "ĠâĢĻ": 3098,
      "Ġrain": 3099,
      "Ġjuice": 3100,
      "off": 3101,
      "ift": 3102,
      "Ġperiod": 3103,
      "Ġaccept": 3104,
      "Ġdefe": 3105,
      "AY": 3106,
      "Why": 3107,
      "iday": 3108,
      "Mommy": 3109,
      "Ġcamera": 3110,
      "ĠMama": 3111,
      "ĠEven": 3112,
      "Ġmonkey": 3113,
      "ris": 3114,
      "Ġreach": 3115,
      "Ġmunicipality": 3116,
      "Ġcompan": 3117,
      "Ġhuman": 3118,
      "ĠMal": 3119,
      "ĠEar": 3120,
      "Ġbottom": 3121,
      "Ġ30": 3122,
      "Ġexpress": 3123,
      "ET": 3124,
      "with": 3125,
      "ĠThomas": 3126,
      "Ġmoving": 3127,
      "JW": 3128,
      "wait": 3129,
      "ĠMark": 3130,
      "ills": 3131,
      "NA": 3132,
      "Ġalthough": 3133,
      "Ġlim": 3134,
      "Ġcrying": 3135,
      "ancy": 3136,
      "Ġdescri": 3137,
      "Ġbull": 3138,
      "Ġappeared": 3139,
      "Ġ$": 3140,
      "Ġbright": 3141,
      "ĠMad": 3142,
      "ĠReally": 3143,
      "Ġsuddenly": 3144,
      "nel": 3145,
      "Ġpush": 3146,
      "iforn": 3147,
      "chan": 3148,
      "Ġemp": 3149,
      "ĠJames": 3150,
      "ization": 3151,
      "Ġincluding": 3152,
      "pecially": 3153,
      "Ġhistory": 3154,
      "Ġsad": 3155,
      "Ġhospital": 3156,
      "acing": 3157,
      "ĠDad": 3158,
      "ilar": 3159,
      "cket": 3160,
      "Ġalb": 3161,
      "Ġspoke": 3162,
      "Ġ]": 3163,
      "Ġleaves": 3164,
      "Ġcrazy": 3165,
      "Ġkick": 3166,
      "Ġdev": 3167,
      "Ġcarried": 3168,
      "Ġelect": 3169,
      "Ġtype": 3170,
      "Ġfinger": 3171,
      "UNK": 3172,
      "Ġvide": 3173,
      "Ġeveryone": 3174,
      "Ġfifty": 3175,
      "Ġauthor": 3176,
      "Ġlab": 3177,
      "St": 3178,
      "ida": 3179,
      "Ġblow": 3180,
      "ording": 3181,
      "Ġprison": 3182,
      "Ġmam": 3183,
      "ĠCent": 3184,
      "ĠCaliforn": 3185,
      "There": 3186,
      "Ġloc": 3187,
      "Ġhig": 3188,
      "....": 3189,
      "Ġcompet": 3190,
      "Ġdesign": 3191,
      "Ġengine": 3192,
      "Ġlift": 3193,
      "Ġtruth": 3194,
      "ĠTHAT": 3195,
      "roy": 3196,
      "Ġallowed": 3197,
      "ograp": 3198,
      "Ġfurther": 3199,
      "Ġcand": 3200,
      "ĠWait": 3201,
      "Ġwatching": 3202,
      "ĠChristmas": 3203,
      "ĠUncle": 3204,
      "orts": 3205,
      "_,": 3206,
      "ĠPeter": 3207,
      "arty": 3208,
      "ensus": 3209,
      "Ġsummer": 3210,
      "ĠRuss": 3211,
      "Ġvol": 3212,
      "ĠItal": 3213,
      "Ġglass": 3214,
      "Ġanymore": 3215,
      "Ġincre": 3216,
      "Ġbased": 3217,
      "ĠSer": 3218,
      "ils": 3219,
      "Ġrub": 3220,
      "Ġpap": 3221,
      "ppy": 3222,
      "ĠCalifornia": 3223,
      "has": 3224,
      "Ġcab": 3225,
      "Ġhoney": 3226,
      "Ġhasn": 3227,
      "Ġimag": 3228,
      "vol": 3229,
      "Ġbank": 3230,
      "ĠAmerica": 3231,
      "Ġhungry": 3232,
      "Ġcake": 3233,
      "Ġnorm": 3234,
      "Ġbread": 3235,
      "Ġnecess": 3236,
      "Ġanybody": 3237,
      "Ġslight": 3238,
      "asket": 3239,
      "ĠRoy": 3240,
      "ously": 3241,
      "Ġbusy": 3242,
      "rief": 3243,
      "So": 3244,
      "ĠCo": 3245,
      "Ġlaughs": 3246,
      ",'": 3247,
      "mo": 3248,
      "take": 3249,
      "ĠMon": 3250,
      "Ġkn": 3251,
      "Ġvi": 3252,
      "bers": 3253,
      "nes": 3254,
      "ĠTell": 3255,
      "Ġneighb": 3256,
      "Ġspot": 3257,
      "Ġspir": 3258,
      "ĠHowever": 3259,
      "Ġwand": 3260,
      "Ġcond": 3261,
      "Ġsilly": 3262,
      "Ġgen": 3263,
      "Ġbrown": 3264,
      "rel": 3265,
      "Ġhealth": 3266,
      "\")": 3267,
      "lect": 3268,
      "ĠSam": 3269,
      "ĠDor": 3270,
      "Ġexclaimed": 3271,
      "Ġadded": 3272,
      "Ġbreath": 3273,
      "Ġsouth": 3274,
      "Ġbud": 3275,
      "eddy": 3276,
      "ales": 3277,
      "ourn": 3278,
      "Ġattention": 3279,
      "Ġaccident": 3280,
      "ĠAustral": 3281,
      "gu": 3282,
      "Ġgall": 3283,
      "Ġitself": 3284,
      "Ġinvol": 3285,
      "Ġdry": 3286,
      "Ġgarden": 3287,
      "Ġ25": 3288,
      "Ġhorses": 3289,
      "Ġgas": 3290,
      "Ġnames": 3291,
      "Ġcapital": 3292,
      "ĠHall": 3293,
      "aug": 3294,
      "ĠStop": 3295,
      "vin": 3296,
      "Ġself": 3297,
      "oman": 3298,
      "ission": 3299,
      "Ġtrees": 3300,
      "ĠAlexander": 3301,
      "Ġver": 3302,
      "ĠTake": 3303,
      "Ġsell": 3304,
      "Ġcorner": 3305,
      "Ġtast": 3306,
      "ĠIre": 3307,
      "Ġ192": 3308,
      "Ġknight": 3309,
      "Ġdistance": 3310,
      "Ġdance": 3311,
      "uts": 3312,
      "Ġparents": 3313,
      "iced": 3314,
      "Ġcompl": 3315,
      "Ġvict": 3316,
      "Ġbeginning": 3317,
      "Ġplayer": 3318,
      "Ġdelight": 3319,
      "Ġpause": 3320,
      "Ġlock": 3321,
      "Ġliked": 3322,
      "Ġwriting": 3323,
      "astic": 3324,
      "val": 3325,
      "house": 3326,
      "Ġ?": 3327,
      "Ġwash": 3328,
      "Ġcapt": 3329,
      "Ġsubject": 3330,
      "want": 3331,
      "ĠSomet": 3332,
      "Ġcollect": 3333,
      "Ġcontinued": 3334,
      "cy": 3335,
      "ĠMary": 3336,
      "ĠLo": 3337,
      "Ġshouldn": 3338,
      "Ġshowed": 3339,
      "Ġeduc": 3340,
      "light": 3341,
      "por": 3342,
      "Ġwet": 3343,
      "itive": 3344,
      "Ġhall": 3345,
      "Ġattempt": 3346,
      "tell": 3347,
      "wanna": 3348,
      "ston": 3349,
      "board": 3350,
      "Ġtail": 3351,
      "ĠON": 3352,
      "Ġsmell": 3353,
      "Ġholding": 3354,
      "Ġpuzz": 3355,
      "ELL": 3356,
      "ĠHouse": 3357,
      "Ġbird": 3358,
      "Ġdropped": 3359,
      "Ġspace": 3360,
      "Ġrespect": 3361,
      "Ġquestions": 3362,
      "lt": 3363,
      "Ġfut": 3364,
      "elve": 3365,
      "Ġloved": 3366,
      "UT": 3367,
      "wood": 3368,
      "Ġ,": 3369,
      "Ġnatur": 3370,
      "Ġsex": 3371,
      "Ġ21": 3372,
      "Ġsituation": 3373,
      "IR": 3374,
      "ply": 3375,
      "ĠHist": 3376,
      "Ġbabies": 3377,
      "How": 3378,
      "eh": 3379,
      "ases": 3380,
      "ĠRiver": 3381,
      "ĠMer": 3382,
      "ĠJes": 3383,
      "Ġrepresent": 3384,
      "haha": 3385,
      "Ġ(\"": 3386,
      "Ġtrack": 3387,
      "Ġfucking": 3388,
      "Ġbeat": 3389,
      "ades": 3390,
      "ume": 3391,
      "ĠBro": 3392,
      "gged": 3393,
      "Ġchief": 3394,
      "ien": 3395,
      "ference": 3396,
      "Don": 3397,
      "viously": 3398,
      "Ġmat": 3399,
      "Ġwalking": 3400,
      "cries": 3401,
      "Ã³": 3402,
      "Ġearth": 3403,
      "ky": 3404,
      "ran": 3405,
      "Ġchurch": 3406,
      "Ġcontrol": 3407,
      "mommy": 3408,
      "Ġhole": 3409,
      "ument": 3410,
      "ĠLou": 3411,
      "Ġhous": 3412,
      "Ġtor": 3413,
      "yep": 3414,
      "Ġfeed": 3415,
      "Ġfres": 3416,
      "Ġprin": 3417,
      "ength": 3418,
      "CK": 3419,
      "ires": 3420,
      "Ġhey": 3421,
      "sey": 3422,
      "Ġblocks": 3423,
      "ĠJoseph": 3424,
      "down": 3425,
      "ki": 3426,
      "ĠFather": 3427,
      "ancing": 3428,
      "Ġcommand": 3429,
      "Ġnone": 3430,
      "iger": 3431,
      "Ġweren": 3432,
      "Ġslowly": 3433,
      "Ġlose": 3434,
      "clock": 3435,
      "Ġhast": 3436,
      "ili": 3437,
      "uhoh": 3438,
      "10": 3439,
      "Ġport": 3440,
      "Ġrole": 3441,
      "Ġarr": 3442,
      "Steven": 3443,
      ".--": 3444,
      "ĠAct": 3445,
      "Ġrul": 3446,
      "Ġproblems": 3447,
      "sy": 3448,
      "Ġrid": 3449,
      "Ġseeing": 3450,
      "gon": 3451,
      "Ġcharge": 3452,
      "cell": 3453,
      "Ġ24": 3454,
      "aker": 3455,
      "Ġcrow": 3456,
      "hood": 3457,
      "Ġeff": 3458,
      "Ġdollars": 3459,
      "olutely": 3460,
      "Ġcream": 3461,
      "aps": 3462,
      "Ġfingers": 3463,
      "iant": 3464,
      "ination": 3465,
      "Ġinteresting": 3466,
      "Ġgar": 3467,
      "Ġteeth": 3468,
      "ounced": 3469,
      "Ġfuture": 3470,
      "Ġmach": 3471,
      "Ġpaid": 3472,
      "Ġanx": 3473,
      "Ġactiv": 3474,
      "pardon": 3475,
      "Ġbene": 3476,
      "Ġforce": 3477,
      "Ġmem": 3478,
      "isted": 3479,
      "Ġentire": 3480,
      "Ġdrop": 3481,
      "Ġsimilar": 3482,
      "They": 3483,
      "Ġpriv": 3484,
      "cious": 3485,
      "Ġstarts": 3486,
      "Ġregard": 3487,
      "Ġlaughing": 3488,
      "inite": 3489,
      "...?": 3490,
      "iers": 3491,
      "lymp": 3492,
      "ĠOk": 3493,
      "ĠLord": 3494,
      "Ġjud": 3495,
      "Ġshoot": 3496,
      "Ġinformation": 3497,
      "west": 3498,
      "ĠCharlie": 3499,
      "Ġvideo": 3500,
      "yond": 3501,
      "ĠCup": 3502,
      "Ġcomb": 3503,
      "aud": 3504,
      "Ġloud": 3505,
      "ĠMart": 3506,
      "riage": 3507,
      "ĠIts": 3508,
      "18": 3509,
      "Ġmm": 3510,
      "Ġmovies": 3511,
      "Ġbottle": 3512,
      "Ġwide": 3513,
      "omes": 3514,
      "Ġshare": 3515,
      "Ġhate": 3516,
      "Ġpal": 3517,
      "ĠTex": 3518,
      "ĠFred": 3519,
      "hips": 3520,
      "Ġneeded": 3521,
      "Ġgives": 3522,
      "Ġhost": 3523,
      "cture": 3524,
      "ĠIsland": 3525,
      "Ġwalked": 3526,
      "illa": 3527,
      "ĠEn": 3528,
      "Ġolder": 3529,
      "Ġ2010": 3530,
      "Ġshows": 3531,
      "Ġserious": 3532,
      "Ġreading": 3533,
      "pret": 3534,
      "Ġ&": 3535,
      "atives": 3536,
      "lin": 3537,
      "ounded": 3538,
      "Ġ23": 3539,
      "Ġdirection": 3540,
      "het": 3541,
      "Ġlying": 3542,
      "ĠGl": 3543,
      "Ġshit": 3544,
      "Ġextra": 3545,
      "aret": 3546,
      "Ġconcern": 3547,
      "know": 3548,
      "Ġeast": 3549,
      "ĠBE": 3550,
      "face": 3551,
      "uty": 3552,
      "pered": 3553,
      "under": 3554,
      "watch": 3555,
      "Ġtall": 3556,
      "inos": 3557,
      "ĠAir": 3558,
      "ĠOlymp": 3559,
      "Ġterm": 3560,
      "Ġwonderful": 3561,
      "ĠEve": 3562,
      "ggie": 3563,
      "dom": 3564,
      "Ġsepar": 3565,
      "Ġproject": 3566,
      "Ġscar": 3567,
      "Ġcreated": 3568,
      "cks": 3569,
      "ploy": 3570,
      "ption": 3571,
      "ĠIndia": 3572,
      "Ġbang": 3573,
      "anton": 3574,
      "ĠGive": 3575,
      "Ġpicked": 3576,
      "ĠPeople": 3577,
      "Ġlength": 3578,
      "ala": 3579,
      "Ġwel": 3580,
      "Ġhandle": 3581,
      "ipe": 3582,
      "ĠSund": 3583,
      "Ġcars": 3584,
      "Ġvers": 3585,
      "isy": 3586,
      "ĠST": 3587,
      "ads": 3588,
      "Ġgoin": 3589,
      "Ġplays": 3590,
      "ĠState": 3591,
      "Ġbridge": 3592,
      "Ġpopular": 3593,
      "Ġalbum": 3594,
      ".âĢĻ": 3595,
      "Ġmass": 3596,
      "ĠSchool": 3597,
      "soci": 3598,
      "----------------": 3599,
      "da": 3600,
      "sn": 3601,
      "three": 3602,
      "Ġhide": 3603,
      "ĠMex": 3604,
      "Ġconvers": 3605,
      "Ġoccas": 3606,
      "Ġep": 3607,
      "Ġflowers": 3608,
      "Ġpictures": 3609,
      "set": 3610,
      "ites": 3611,
      "uel": 3612,
      "Ġaut": 3613,
      "raft": 3614,
      "ij": 3615,
      "Ġcard": 3616,
      "ĠWould": 3617,
      "oph": 3618,
      "ĠNothing": 3619,
      "ĠUS": 3620,
      "Ġpers": 3621,
      "Ġinfl": 3622,
      "Ġarmy": 3623,
      "ĠPeggy": 3624,
      "ĠListen": 3625,
      "rian": 3626,
      "ĠBill": 3627,
      "Ġdue": 3628,
      "Ġorange": 3629,
      "Ġcomput": 3630,
      "Ġsinging": 3631,
      "ville": 3632,
      "Ġcensus": 3633,
      "Ġuncle": 3634,
      "su": 3635,
      "ĠEm": 3636,
      "ĠPre": 3637,
      "Ġdrawing": 3638,
      "Ġcircle": 3639,
      "Ġspecies": 3640,
      "Ġeggs": 3641,
      "Ġhy": 3642,
      "stop": 3643,
      "Ġpicks": 3644,
      "ka": 3645,
      "Ġrepe": 3646,
      "ĠRober": 3647,
      "Ġterrible": 3648,
      "Ġamount": 3649,
      "Ġremain": 3650,
      "Ġearl": 3651,
      "Ġespecially": 3652,
      "itions": 3653,
      "irm": 3654,
      "anced": 3655,
      "Ġaccom": 3656,
      "Ġwag": 3657,
      "itary": 3658,
      "elly": 3659,
      "Ġinvest": 3660,
      "My": 3661,
      "ba": 3662,
      "Ġfat": 3663,
      "ession": 3664,
      "Ġspell": 3665,
      "Ġtalked": 3666,
      "ĠGerva": 3667,
      "Ġcentury": 3668,
      "Ġdiscuss": 3669,
      "cher": 3670,
      "uge": 3671,
      "ĠHen": 3672,
      "Ġsmile": 3673,
      "ĠQue": 3674,
      "ĠJapanese": 3675,
      "Ġclimb": 3676,
      "IGH": 3677,
      "17": 3678,
      "Ġparts": 3679,
      "Ġactor": 3680,
      "Ġ2011": 3681,
      "ĠRichard": 3682,
      "ography": 3683,
      "point": 3684,
      "turn": 3685,
      "Ġears": 3686,
      "Ġgrass": 3687,
      "Ġbigger": 3688,
      "Ġtowel": 3689,
      "If": 3690,
      "Now": 3691,
      "ella": 3692,
      "ĠRob": 3693,
      "Ġspent": 3694,
      "Ġprep": 3695,
      "ĠLeague": 3696,
      "aven": 3697,
      "kiss": 3698,
      "Ġdate": 3699,
      "Ġ2012": 3700,
      "wr": 3701,
      "za": 3702,
      "ato": 3703,
      "Ġinterrupt": 3704,
      "aturday": 3705,
      "ĠGervaise": 3706,
      "Ġpounds": 3707,
      "chi": 3708,
      "ĠHarry": 3709,
      "Ġsurprise": 3710,
      "ĠTexas": 3711,
      "Ġsle": 3712,
      "roll": 3713,
      "hys": 3714,
      "Ġturning": 3715,
      "Ġcheese": 3716,
      "ĠAfr": 3717,
      "Ġviol": 3718,
      "inary": 3719,
      "Ġma": 3720,
      "Ġobs": 3721,
      "medi": 3722,
      "erve": 3723,
      "ĠMother": 3724,
      "Ġris": 3725,
      "Ġbackground": 3726,
      "Ġpocket": 3727,
      "Ġdifference": 3728,
      "llust": 3729,
      "ĠCor": 3730,
      "ĠEll": 3731,
      "Ġworse": 3732,
      "Ġmanner": 3733,
      "Ġpink": 3734,
      "ĠJer": 3735,
      "Ġasking": 3736,
      "Ġcaused": 3737,
      "In": 3738,
      "field": 3739,
      "Ġcouncil": 3740,
      "ural": 3741,
      "antly": 3742,
      "Ġcrack": 3743,
      "Ġdirected": 3744,
      "ĠHistory": 3745,
      "iot": 3746,
      "ĠAc": 3747,
      "Ġalive": 3748,
      "Ġtwelve": 3749,
      "Ġchicken": 3750,
      "ustom": 3751,
      "ĠPark": 3752,
      "pping": 3753,
      "uckles": 3754,
      "Ġthanks": 3755,
      "Ġcourt": 3756,
      "Ġsettle": 3757,
      "Ġpromise": 3758,
      "ology": 3759,
      "oom": 3760,
      "ĠMus": 3761,
      "ĠColl": 3762,
      "Ġbelow": 3763,
      "ius": 3764,
      "isf": 3765,
      "ids": 3766,
      "amund": 3767,
      "ĠRepubl": 3768,
      "bes": 3769,
      "raph": 3770,
      "Ġtech": 3771,
      "ĠJesus": 3772,
      "She": 3773,
      "ique": 3774,
      "yer": 3775,
      "ashed": 3776,
      "ament": 3777,
      "ĠDist": 3778,
      "ems": 3779,
      "Ġtit": 3780,
      "Ġsna": 3781,
      "ĠEleanor": 3782,
      "Ġclosed": 3783,
      "pose": 3784,
      "Ġbasket": 3785,
      "ingly": 3786,
      "Ġaff": 3787,
      "Ġkey": 3788,
      "ĠRosamund": 3789,
      "unting": 3790,
      "alt": 3791,
      "ĠSure": 3792,
      "Ġfinally": 3793,
      "olf": 3794,
      "Ġ2016": 3795,
      "Ġsky": 3796,
      "Ġrespons": 3797,
      "ĠAmy": 3798,
      "outher": 3799,
      "ĠJones": 3800,
      "Ġblank": 3801,
      "brother": 3802,
      "ĠSteven": 3803,
      "Ġstren": 3804,
      "roat": 3805,
      "Then": 3806,
      "back": 3807,
      "ĠSar": 3808,
      "Ġconne": 3809,
      "laughing": 3810,
      "ansas": 3811,
      "Ġraised": 3812,
      "Ġrefer": 3813,
      "Ġfle": 3814,
      "ico": 3815,
      "Ġbeyond": 3816,
      "Ġintro": 3817,
      "eneral": 3818,
      "Ġtend": 3819,
      "Ġmum": 3820,
      "Ġmix": 3821,
      "ĠFirst": 3822,
      "ĠJwww": 3823,
      "Ġhelped": 3824,
      "Ġpolicy": 3825,
      "Do": 3826,
      "tr": 3827,
      "Ġstage": 3828,
      "Ġstars": 3829,
      "Ġjoined": 3830,
      "OO": 3831,
      "vious": 3832,
      "ruction": 3833,
      "ĠIS": 3834,
      "ushing": 3835,
      "ĠDem": 3836,
      "ably": 3837,
      "ighs": 3838,
      "mit": 3839,
      "CE": 3840,
      "Ġfool": 3841,
      "ĠLa": 3842,
      "upid": 3843,
      "conom": 3844,
      "Ġdeter": 3845,
      "ĠWind": 3846,
      "ĠBra": 3847,
      "rage": 3848,
      "ĠFOR": 3849,
      "Ġmanage": 3850,
      "An": 3851,
      "aded": 3852,
      "ĠMany": 3853,
      "._": 3854,
      "wise": 3855,
      "ĠSan": 3856,
      "str": 3857,
      "Ġclever": 3858,
      "Ġbrief": 3859,
      "Ġ100": 3860,
      "hire": 3861,
      "Ġimmedi": 3862,
      "AMY": 3863,
      "Ġnobody": 3864,
      "ĠDuring": 3865,
      "Ġsquare": 3866,
      "yle": 3867,
      "zen": 3868,
      "Ġasleep": 3869,
      "Ġoppos": 3870,
      "Ġcommunity": 3871,
      "outhern": 3872,
      "Ġet": 3873,
      "Ġcovered": 3874,
      "ĠOur": 3875,
      "Ġspoon": 3876,
      "Ġ..": 3877,
      "ett": 3878,
      "Ġphot": 3879,
      "Ġmagnet": 3880,
      "Ġdestroy": 3881,
      "pers": 3882,
      "inct": 3883,
      "ĠTheir": 3884,
      "ĠRed": 3885,
      "rey": 3886,
      "Ġdirty": 3887,
      "ĠLady": 3888,
      "Ġspl": 3889,
      "Ġcrit": 3890,
      "ĠAnge": 3891,
      "kin": 3892,
      "Ġlikely": 3893,
      "Ġprocess": 3894,
      "ĠDoes": 3895,
      "Ġinclude": 3896,
      "ĠSunday": 3897,
      "cer": 3898,
      "Ġthreat": 3899,
      "iment": 3900,
      "Ġagree": 3901,
      "Ġarrest": 3902,
      "ivil": 3903,
      "Ġpossib": 3904,
      "four": 3905,
      "Ġmic": 3906,
      "Ġspeed": 3907,
      "ĠWhich": 3908,
      "rect": 3909,
      "Ġden": 3910,
      "Ġgrew": 3911,
      "ĠBer": 3912,
      "ĠGovern": 3913,
      "Ġstreng": 3914,
      "worth": 3915,
      "ĠSch": 3916,
      "Ġrese": 3917,
      "thern": 3918,
      "Ġscared": 3919,
      "ĠChristian": 3920,
      ":=": 3921,
      "car": 3922,
      "Ġhm": 3923,
      "ĠTw": 3924,
      "ittee": 3925,
      "azing": 3926,
      "ï¿½ï¿½ï¿½ï¿½": 3927,
      "Ġwest": 3928,
      "Ġfre": 3929,
      "ĠCr": 3930,
      "urb": 3931,
      "Ġcoat": 3932,
      "ĠMarie": 3933,
      "gen": 3934,
      "ĠWE": 3935,
      "ĠRem": 3936,
      "Ġ22": 3937,
      "Ġspring": 3938,
      "oughs": 3939,
      "bre": 3940,
      "gl": 3941,
      "uce": 3942,
      "vocal": 3943,
      "Ġthinks": 3944,
      "ago": 3945,
      "cul": 3946,
      "of": 3947,
      "ĠMac": 3948,
      "ĠDar": 3949,
      "Ġfamous": 3950,
      "Ġhi": 3951,
      "ĠMost": 3952,
      "Ġrace": 3953,
      "ĠBefore": 3954,
      "Ġcrowd": 3955,
      "VER": 3956,
      "raw": 3957,
      "ĠLittle": 3958,
      "ĠEast": 3959,
      "ĠGermany": 3960,
      "Ġninet": 3961,
      "Ġpleasure": 3962,
      "Fraser": 3963,
      "lden": 3964,
      "ĠJul": 3965,
      "Ġnumbers": 3966,
      "ĠIndians": 3967,
      "Ġdrew": 3968,
      "Ġfem": 3969,
      "ĠHE": 3970,
      "oved": 3971,
      "hal": 3972,
      "Ġcru": 3973,
      "asp": 3974,
      "othy": 3975,
      "ĠOther": 3976,
      "ashion": 3977,
      "Ġspeaking": 3978,
      "Ġprovince": 3979,
      "itor": 3980,
      "Ġfright": 3981,
      "ann": 3982,
      "Ġdriving": 3983,
      "Ġtotal": 3984,
      "Ġfresh": 3985,
      "Ġsens": 3986,
      "Ġlines": 3987,
      "ĠSaturday": 3988,
      "Ġmeat": 3989,
      "Ġupstairs": 3990,
      "oly": 3991,
      "ini": 3992,
      "Ġnaught": 3993,
      "chie": 3994,
      "Ġairport": 3995,
      "Ġgate": 3996,
      "Ġhero": 3997,
      "Ġweap": 3998,
      "ortun": 3999,
      "Ġelection": 4000,
      "ĠIrene": 4001,
      "five": 4002,
      "Ġbattle": 4003,
      "Ġsatisf": 4004,
      "line": 4005,
      "Ġpenc": 4006,
      "ĠGar": 4007,
      "Ġbroad": 4008,
      "ĠExcuse": 4009,
      "phant": 4010,
      "Ġnatural": 4011,
      "Ġdig": 4012,
      "ĠChair": 4013,
      "Ġapart": 4014,
      "Ġhiding": 4015,
      "uses": 4016,
      "Ġgod": 4017,
      "Ġrough": 4018,
      "ivid": 4019,
      "ĠHelen": 4020,
      "Ġvarious": 4021,
      "Ġye": 4022,
      "Ch": 4023,
      "FRI": 4024,
      "Ġident": 4025,
      "Ġteddy": 4026,
      "ĠSince": 4027,
      "Ġgrad": 4028,
      "cience": 4029,
      "Ġ2008": 4030,
      "Ġregular": 4031,
      "HH": 4032,
      "Ġtries": 4033,
      "erved": 4034,
      "ademy": 4035,
      "Ġanywhere": 4036,
      "Ġcalling": 4037,
      "Ġexplain": 4038,
      "ĠMhm": 4039,
      "ĠHigh": 4040,
      "ĠJenn": 4041,
      "Ġ27": 4042,
      "Ġcaptain": 4043,
      "Ġmissing": 4044,
      "inosaur": 4045,
      "Ġways": 4046,
      "Ġsett": 4047,
      "Ġsize": 4048,
      "Ġarrived": 4049,
      "ALL": 4050,
      "ĠBel": 4051,
      "ĠGot": 4052,
      "Ġ26": 4053,
      "Ġneedta": 4054,
      "reme": 4055,
      "vey": 4056,
      "antic": 4057,
      "ests": 4058,
      "Ġterms": 4059,
      "Ġskin": 4060,
      "Ġsimply": 4061,
      "initely": 4062,
      "ux": 4063,
      "Ġfol": 4064,
      "atic": 4065,
      "Ġstories": 4066,
      "ĠChampions": 4067,
      "Ġsandw": 4068,
      "ables": 4069,
      "Ġflat": 4070,
      "asons": 4071,
      "ongress": 4072,
      "berry": 4073,
      "Ġofficer": 4074,
      "ĠLoire": 4075,
      "aching": 4076,
      "ĠParty": 4077,
      "Ġ28": 4078,
      "cast": 4079,
      "ns": 4080,
      "Ġthrew": 4081,
      "Ġserved": 4082,
      "whoops": 4083,
      "Ġbirds": 4084,
      "LA": 4085,
      "fit": 4086,
      "Ġlion": 4087,
      "asure": 4088,
      "Ġformed": 4089,
      "ĠBu": 4090,
      "Ġstream": 4091,
      "Ġund": 4092,
      "Ġended": 4093,
      "ĠRE": 4094,
      "Ġlargest": 4095,
      "Ġsteps": 4096,
      "50": 4097,
      "Ġbell": 4098,
      "Ġforth": 4099,
      "Ġstorm": 4100,
      "MU": 4101,
      "ially": 4102,
      "Ġnur": 4103,
      "epend": 4104,
      "Ġsleeping": 4105,
      "Ġoriginal": 4106,
      "Ġtight": 4107,
      "ĠTur": 4108,
      "big": 4109,
      "ipped": 4110,
      "Ġtou": 4111,
      "itude": 4112,
      "ences": 4113,
      "ĠMore": 4114,
      "Ġrich": 4115,
      "Ġplaced": 4116,
      "Ġjoin": 4117,
      "Ġlaid": 4118,
      "ĠSy": 4119,
      "stit": 4120,
      "Ġnotice": 4121,
      "these": 4122,
      "order": 4123,
      "Ġrabb": 4124,
      "Ġentered": 4125,
      "Ġhappening": 4126,
      "ĠRobert": 4127,
      "Ġbound": 4128,
      "Ġdressed": 4129,
      "ĠMat": 4130,
      "Ġplane": 4131,
      "Ġsuff": 4132,
      "Ġrose": 4133,
      "Ġrelations": 4134,
      "ĠHenry": 4135,
      "Ġconside": 4136,
      "Ġpeace": 4137,
      "Ġguard": 4138,
      "Ġ2017": 4139,
      "Ġsurprised": 4140,
      "ĠBradford": 4141,
      "Ġwelcome": 4142,
      "Ġconsidered": 4143,
      "Ġonto": 4144,
      "Ġstudy": 4145,
      "burg": 4146,
      "AK": 4147,
      "pa": 4148,
      "erland": 4149,
      "Ġhardly": 4150,
      "Ġtax": 4151,
      "Ġspread": 4152,
      "Ġstarting": 4153,
      "Ġmarket": 4154,
      "Ġangry": 4155,
      "rer": 4156,
      "arm": 4157,
      "ĠAlbert": 4158,
      "oring": 4159,
      "ached": 4160,
      "Ġninety": 4161,
      "KAT": 4162,
      "ĠPlay": 4163,
      "Ġcollege": 4164,
      "log": 4165,
      "sil": 4166,
      "hand": 4167,
      "ita": 4168,
      "Ġstupid": 4169,
      "ĠCos": 4170,
      "ĠStreet": 4171,
      "Ġpray": 4172,
      "Ġmostly": 4173,
      "Ġwheel": 4174,
      "Ġbuck": 4175,
      "icious": 4176,
      "ĠCould": 4177,
      "Ġenv": 4178,
      "Ġshape": 4179,
      "Ġpurple": 4180,
      "mine": 4181,
      "Ġtower": 4182,
      "ĠInternational": 4183,
      "ĠOnly": 4184,
      "Ġloves": 4185,
      "anch": 4186,
      "ora": 4187,
      "ĠCouncil": 4188,
      "Ġmissed": 4189,
      "ĠGeneral": 4190,
      "Ġfinal": 4191,
      "ENT": 4192,
      "Ġinvolved": 4193,
      "edy": 4194,
      "Ġlaug": 4195,
      "Ġhello": 4196,
      "ĠMatt": 4197,
      "Ġur": 4198,
      "Ġtrad": 4199,
      "Ġmachine": 4200,
      "Ġyouth": 4201,
      "Ġplate": 4202,
      "Ġ29": 4203,
      "Ġsimple": 4204,
      "JO": 4205,
      "Ġmir": 4206,
      "ĠBo": 4207,
      "Ġfilm": 4208,
      "craft": 4209,
      "Ġtone": 4210,
      "Ġbomb": 4211,
      "Ġcult": 4212,
      "ival": 4213,
      "Ġsharp": 4214,
      "ST": 4215,
      "Ġpet": 4216,
      "osh": 4217,
      "Ġemploy": 4218,
      "ĠAbout": 4219,
      "Ġcabin": 4220,
      "Ġearlier": 4221,
      "Ġlaughed": 4222,
      "anda": 4223,
      "din": 4224,
      "ergy": 4225,
      "Ġforty": 4226,
      "Ġ()": 4227,
      "Ġswing": 4228,
      "Ġnaughty": 4229,
      "ooth": 4230,
      "ĠMum": 4231,
      "pper": 4232,
      "Ġaged": 4233,
      "Ġfighting": 4234,
      "boy": 4235,
      "Ġnet": 4236,
      "ours": 4237,
      "Ġaction": 4238,
      "Ġ50": 4239,
      "ION": 4240,
      "ĠII": 4241,
      "orough": 4242,
      "ĠME": 4243,
      "Ġsheep": 4244,
      "ĠRam": 4245,
      "Ġradio": 4246,
      "Ġlap": 4247,
      "Ġgoodness": 4248,
      "199": 4249,
      "Ġcompletely": 4250,
      "11": 4251,
      "ension": 4252,
      "Ġoccur": 4253,
      "Ġknights": 4254,
      "sorry": 4255,
      "outs": 4256,
      "ctions": 4257,
      "ensive": 4258,
      "itzerland": 4259,
      "LY": 4260,
      "Ġ)": 4261,
      "ĠGra": 4262,
      "Ġ186": 4263,
      "Ġcomputer": 4264,
      "ĠDistrict": 4265,
      "father": 4266,
      "inal": 4267,
      "ĠPort": 4268,
      "ousin": 4269,
      "ails": 4270,
      "Ġsupper": 4271,
      "Ġpleased": 4272,
      "Ġdangerous": 4273,
      "Ġconversation": 4274,
      "Ġdru": 4275,
      "Ġreact": 4276,
      "ĠBet": 4277,
      "Ġtherefore": 4278,
      "OME": 4279,
      "Ġareas": 4280,
      "Ġtwice": 4281,
      "Ġclown": 4282,
      "izes": 4283,
      "Ġannounced": 4284,
      "Ġtap": 4285,
      "Ġwake": 4286,
      "Ġpan": 4287,
      "Ġsevent": 4288,
      "ĠVery": 4289,
      "Ġladies": 4290,
      "ĠSwitzerland": 4291,
      "Ġsusp": 4292,
      "Ġtrick": 4293,
      "Ġfalling": 4294,
      "ĠLouis": 4295,
      "daddy": 4296,
      "ĠChan": 4297,
      "Ġsearch": 4298,
      "Ġ2013": 4299,
      "Ġ2006": 4300,
      "oken": 4301,
      "Ġphys": 4302,
      "hered": 4303,
      "ĠChic": 4304,
      "Ġfallen": 4305,
      "Ġeasily": 4306,
      "Ġnineteen": 4307,
      "ening": 4308,
      "usion": 4309,
      "ĠLaw": 4310,
      "uhuh": 4311,
      "'?": 4312,
      "anish": 4313,
      "oma": 4314,
      "lear": 4315,
      "Ġthroat": 4316,
      "Ġactress": 4317,
      "Ġ2007": 4318,
      "ĠBlack": 4319,
      "Ġduty": 4320,
      "Ġweather": 4321,
      "ĠJo": 4322,
      "Ġpolitical": 4323,
      "ĠSteve": 4324,
      "pos": 4325,
      "Ġcell": 4326,
      "ĠSl": 4327,
      "iance": 4328,
      "Ġmoves": 4329,
      "Ġstrugg": 4330,
      "Ġhouses": 4331,
      "Illust": 4332,
      "round": 4333,
      "Ġcuri": 4334,
      "ĠThree": 4335,
      "ples": 4336,
      "Ġscene": 4337,
      "Ġmistake": 4338,
      "make": 4339,
      "Ġbite": 4340,
      "oday": 4341,
      "Ġgrou": 4342,
      "Ġchap": 4343,
      "van": 4344,
      "Ġcrew": 4345,
      "Ġsocial": 4346,
      "Ġopportun": 4347,
      "Ġescape": 4348,
      "Ġfilled": 4349,
      "Ġdeclared": 4350,
      "Ġempty": 4351,
      "Ġpuzzle": 4352,
      "sm": 4353,
      "Ġunless": 4354,
      "ĠUnion": 4355,
      "gress": 4356,
      "Ġpir": 4357,
      "ĠAward": 4358,
      "Ġshirt": 4359,
      "Mama": 4360,
      "paper": 4361,
      "ĠKitty": 4362,
      "atherine": 4363,
      "ĠMinister": 4364,
      "Ġhigher": 4365,
      "30": 4366,
      "CAR": 4367,
      "IF": 4368,
      "Mic": 4369,
      "Ġide": 4370,
      "Ġwit": 4371,
      "Ġnote": 4372,
      "ĠFort": 4373,
      "Ġallow": 4374,
      "Ġrate": 4375,
      "ola": 4376,
      "ointed": 4377,
      "All": 4378,
      "uke": 4379,
      "rem": 4380,
      "ĠAlf": 4381,
      "Ġeconom": 4382,
      "ota": 4383,
      "ĠLem": 4384,
      "ockey": 4385,
      "Ġlearned": 4386,
      "Ġnecessary": 4387,
      "dat": 4388,
      "lected": 4389,
      "ungle": 4390,
      "Ġquarter": 4391,
      "IM": 4392,
      "Is": 4393,
      "another": 4394,
      "oos": 4395,
      "ĠBig": 4396,
      "ocrat": 4397,
      "Ġexcited": 4398,
      "Ġhonest": 4399,
      "Ġwinter": 4400,
      "Ġpencil": 4401,
      "Ġboot": 4402,
      "ĠBye": 4403,
      "ĠRo": 4404,
      "Ġsuit": 4405,
      "Ġcoach": 4406,
      "Ġfellows": 4407,
      "ĠPerhaps": 4408,
      "Ġtemper": 4409,
      "ja": 4410,
      "Ã¼": 4411,
      "Ġnature": 4412,
      "Ġ2014": 4413,
      "Ġ2009": 4414,
      "Illustration": 4415,
      ".,": 4416,
      "Ġcolors": 4417,
      "Ġpersonal": 4418,
      "Ġmentioned": 4419,
      "CT": 4420,
      "OP": 4421,
      "Ġate": 4422,
      "Ġ--": 4423,
      "ively": 4424,
      "Ġwalks": 4425,
      "Ġflying": 4426,
      "Ġstrength": 4427,
      "vo": 4428,
      "elest": 4429,
      "Ġappl": 4430,
      "Ġchem": 4431,
      "Ġpublished": 4432,
      "Ġestab": 4433,
      "Ġinflu": 4434,
      "igs": 4435,
      "ĠDoctor": 4436,
      "Ġaddress": 4437,
      "Ġpulled": 4438,
      "Ġlucky": 4439,
      "aries": 4440,
      "Ġplant": 4441,
      "eman": 4442,
      "Ġsinger": 4443,
      "Ġepis": 4444,
      "anny": 4445,
      "ĠTV": 4446,
      "ĠTony": 4447,
      "Ġnea": 4448,
      "ĠHy": 4449,
      "Ġroof": 4450,
      "Ġmilitary": 4451,
      "Ġble": 4452,
      "Ġthick": 4453,
      "ĠCreek": 4454,
      "Ġlips": 4455,
      "umber": 4456,
      "Ġimm": 4457,
      "Ġrelig": 4458,
      "Ġawful": 4459,
      "ĠDorothy": 4460,
      "SC": 4461,
      "imit": 4462,
      "Ġclock": 4463,
      "Ġenemy": 4464,
      "ĠChris": 4465,
      "reg": 4466,
      "Ġeager": 4467,
      "Ġnon": 4468,
      "ĠWI": 4469,
      "ĠCat": 4470,
      "Ġbye": 4471,
      "Ġoffer": 4472,
      "Ġexpected": 4473,
      "Ġpractice": 4474,
      "Ġspirit": 4475,
      "ĠSant": 4476,
      "rain": 4477,
      "Ġenc": 4478,
      "Ġpercent": 4479,
      "Ġsurface": 4480,
      "Ġdevelopment": 4481,
      "Ġfru": 4482,
      "noise": 4483,
      "ĠDO": 4484,
      "rab": 4485,
      "ucker": 4486,
      "Ġdesk": 4487,
      "Ġimmediately": 4488,
      "12": 4489,
      "heart": 4490,
      "ĠSen": 4491,
      "ĠMont": 4492,
      "Ġbeside": 4493,
      "Ġmamma": 4494,
      "ae": 4495,
      "bell": 4496,
      "ups": 4497,
      "ators": 4498,
      "Ġdeg": 4499,
      "Ġstands": 4500,
      "Ġmedic": 4501,
      "Ġoffe": 4502,
      "ĠNever": 4503,
      "Ġdeb": 4504,
      "Ġscr": 4505,
      "Ġwatched": 4506,
      "Ġfaith": 4507,
      "Ġtong": 4508,
      "Ġhadn": 4509,
      "ucky": 4510,
      "bered": 4511,
      "Ġproud": 4512,
      "hin": 4513,
      "Ġpun": 4514,
      "Ġscream": 4515,
      "Ġbill": 4516,
      "Ġpath": 4517,
      "those": 4518,
      "Ġadvent": 4519,
      "Ġhurry": 4520,
      "ĠMor": 4521,
      "ĠHam": 4522,
      "Ġkeeping": 4523,
      "ĠCharles": 4524,
      "elebr": 4525,
      "ĠAustralia": 4526,
      "could": 4527,
      "Ġsoul": 4528,
      "Ġinj": 4529,
      "ify": 4530,
      "Ġshore": 4531,
      "ciety": 4532,
      "Ġshoulder": 4533,
      "Ġinqu": 4534,
      "Ġham": 4535,
      "eless": 4536,
      "Ġusual": 4537,
      "Ġrights": 4538,
      "Ġappre": 4539,
      "Ġacqu": 4540,
      "minist": 4541,
      "Ġbother": 4542,
      "arily": 4543,
      "Ġshoe": 4544,
      "Ġcheer": 4545,
      "anche": 4546,
      "icle": 4547,
      "idden": 4548,
      "Ġplain": 4549,
      "Ġrap": 4550,
      "ĠDonald": 4551,
      "book": 4552,
      "iest": 4553,
      "Ġboo": 4554,
      "Ġmoon": 4555,
      "keep": 4556,
      "Ġnoticed": 4557,
      "colm": 4558,
      "Ġiron": 4559,
      "ĠAN": 4560,
      "ĠHa": 4561,
      "Ġjoy": 4562,
      "Ġsaved": 4563,
      "obile": 4564,
      "Ġpurpose": 4565,
      "Ġpromised": 4566,
      "Ġmessage": 4567,
      "Ġwoods": 4568,
      "RUS": 4569,
      "hem": 4570,
      "Ġaud": 4571,
      "Ġdinosaur": 4572,
      "ĠWhile": 4573,
      "eech": 4574,
      "Ġearn": 4575,
      "Ġtowns": 4576,
      "Ġoccup": 4577,
      "Ġfault": 4578,
      "Ġoccasion": 4579,
      "Ġgroups": 4580,
      "Ġtiny": 4581,
      "Ġspr": 4582,
      "Ġvan": 4583,
      "Ġimpro": 4584,
      "200": 4585,
      "IE": 4586,
      "ĠSH": 4587,
      "achel": 4588,
      "Ġmotion": 4589,
      "ĠMed": 4590,
      "ĠBobby": 4591,
      "Not": 4592,
      "ĠAye": 4593,
      "Ġsail": 4594,
      "Ġdogs": 4595,
      "Ġfigures": 4596,
      "ĠChairman": 4597,
      "Ġow": 4598,
      "Ġloss": 4599,
      "icated": 4600,
      "ummer": 4601,
      "Ġgrown": 4602,
      "Ġprim": 4603,
      "Ġapple": 4604,
      "Ġindust": 4605,
      "Ġprofessional": 4606,
      "ĠMalcolm": 4607,
      "eg": 4608,
      "show": 4609,
      "Ġbunny": 4610,
      "oming": 4611,
      "Ġemb": 4612,
      "ĠMot": 4613,
      "ira": 4614,
      "cely": 4615,
      "ĠOld": 4616,
      "aboo": 4617,
      "Ġourselves": 4618,
      "15": 4619,
      "Ġmater": 4620,
      "Ġstone": 4621,
      "ĠRoman": 4622,
      "ĠKore": 4623,
      "Ġremem": 4624,
      "Ġlights": 4625,
      "Ġdirector": 4626,
      "Ġnormal": 4627,
      "eleste": 4628,
      "Mum": 4629,
      "Ġdancing": 4630,
      "urity": 4631,
      "Ġagreed": 4632,
      "Ġcontinues": 4633,
      "Ġwearing": 4634,
      "eer": 4635,
      "Ġstates": 4636,
      "Ġbedroom": 4637,
      "Ġelephant": 4638,
      "Ġfifteen": 4639,
      "This": 4640,
      "Ġissue": 4641,
      "Ġproduced": 4642,
      "Ġswimming": 4643,
      "fall": 4644,
      "Ġcities": 4645,
      "Ġfashion": 4646,
      "ena": 4647,
      "ari": 4648,
      "ĠTy": 4649,
      "Ġexist": 4650,
      "Ġbegin": 4651,
      "ĠWAS": 4652,
      "Ġstruck": 4653,
      "Ġhotel": 4654,
      "Ġexperience": 4655,
      "Ġabsolutely": 4656,
      "ĠKeep": 4657,
      "Ġcalm": 4658,
      "jo": 4659,
      "vi": 4660,
      "Ġbutton": 4661,
      "Ġbless": 4662,
      "ĠCarl": 4663,
      "Ġevidence": 4664,
      "Ġmurder": 4665,
      "Ġavail": 4666,
      "IGHT": 4667,
      "ĠAcademy": 4668,
      "pro": 4669,
      "ugg": 4670,
      "Ġrevol": 4671,
      "cend": 4672,
      "Ġplenty": 4673,
      "Ġenergy": 4674,
      "Ġmeaning": 4675,
      "Ġsmoke": 4676,
      "Ġ2015": 4677,
      "Ġcountries": 4678,
      "Ġindivid": 4679,
      "Ġgentleman": 4680,
      "Ġremarked": 4681,
      "Ġutter": 4682,
      "John": 4683,
      "],": 4684,
      "mie": 4685,
      "utch": 4686,
      "ĠSim": 4687,
      "Ġnurs": 4688,
      "ĠCarol": 4689,
      "Celeste": 4690,
      "dam": 4691,
      "lor": 4692,
      "Ġcart": 4693,
      "Ġmud": 4694,
      "ĠNat": 4695,
      "Ġplans": 4696,
      "Ġflight": 4697,
      "ĠReg": 4698,
      "Ġmicro": 4699,
      "UD": 4700,
      "ero": 4701,
      "orter": 4702,
      "Ġhuge": 4703,
      "ĠSing": 4704,
      "ĠBert": 4705,
      "actually": 4706,
      "Ġtells": 4707,
      "Ġheads": 4708,
      "ĠAnn": 4709,
      "ĠDou": 4710,
      "ĠGames": 4711,
      "Ġjour": 4712,
      "iction": 4713,
      "ledge": 4714,
      "Ġleader": 4715,
      "ĠGuy": 4716,
      "ĠSarah": 4717,
      "cue": 4718,
      "asc": 4719,
      "ooper": 4720,
      "ĠSid": 4721,
      "ĠMike": 4722,
      "Ġdoc": 4723,
      "ĠUm": 4724,
      "Ġattract": 4725,
      "Ġeleven": 4726,
      "Ġlistening": 4727,
      "Ġchoice": 4728,
      "ĠTer": 4729,
      "irgin": 4730,
      "ĠOoh": 4731,
      "ĠLove": 4732,
      "ourt": 4733,
      "Ġsongs": 4734,
      "Ġguns": 4735,
      "aign": 4736,
      "dis": 4737,
      "Ġweight": 4738,
      "Ġfeat": 4739,
      "Ġpool": 4740,
      "ĠHal": 4741,
      "osta": 4742,
      "Ġcoast": 4743,
      "Ġsmart": 4744,
      "ares": 4745,
      "coughs": 4746,
      "vell": 4747,
      "Ġjungle": 4748,
      "aren": 4749,
      "ossible": 4750,
      "ĠRog": 4751,
      "oves": 4752,
      "Ġdesp": 4753,
      "ĠWhite": 4754,
      "Ġsoldiers": 4755,
      "Right": 4756,
      "water": 4757,
      "Ġturt": 4758,
      "asy": 4759,
      "ĠAcc": 4760,
      "oted": 4761,
      "ĠWil": 4762,
      "Ġremained": 4763,
      "Ġassist": 4764,
      "Ġgrave": 4765,
      "Ġhistor": 4766,
      "RR": 4767,
      "rated": 4768,
      "Ġcards": 4769,
      "ression": 4770,
      "ords": 4771,
      "Ġedge": 4772,
      "rees": 4773,
      "Ġthou": 4774,
      "uten": 4775,
      "ĠMel": 4776,
      "ĠCass": 4777,
      "ulf": 4778,
      "ending": 4779,
      "Ġgenerally": 4780,
      "Ġeducation": 4781,
      "Ġfund": 4782,
      "ĠMid": 4783,
      "Ġsugar": 4784,
      "Ġtravel": 4785,
      "Ġexcuse": 4786,
      "ification": 4787,
      "Ġmodern": 4788,
      "Ġtaste": 4789,
      "Ġprivate": 4790,
      "rist": 4791,
      "Ġlid": 4792,
      "Ġweak": 4793,
      "Ġnap": 4794,
      "Ġtext": 4795,
      "Ġofficers": 4796,
      "rilliant": 4797,
      "Ġcelebr": 4798,
      "ĠGold": 4799,
      "cky": 4800,
      "plane": 4801,
      "ĠVict": 4802,
      "ĠComp": 4803,
      "Ġdefinitely": 4804,
      "Ġwestern": 4805,
      "Ġdread": 4806,
      "arrow": 4807,
      "Ġbeha": 4808,
      "ĠMil": 4809,
      "osing": 4810,
      "Ġblind": 4811,
      "AND": 4812,
      "Ġcarefully": 4813,
      "going": 4814,
      "LLL": 4815,
      "Ġperfectly": 4816,
      "MB": 4817,
      "SE": 4818,
      "orks": 4819,
      "Ġinf": 4820,
      "ĠRy": 4821,
      "Ġrow": 4822,
      "Ġproceed": 4823,
      "Ġsits": 4824,
      "Ġclearly": 4825,
      "Ġimagine": 4826,
      "ĠMartin": 4827,
      "every": 4828,
      "ishes": 4829,
      "Ġcere": 4830,
      "ĠAlden": 4831,
      "ĠSaint": 4832,
      "ima": 4833,
      "Ġdownstairs": 4834,
      "Ġperm": 4835,
      "Ġtrip": 4836,
      "Ġbrave": 4837,
      "Ġtears": 4838,
      "Ġlog": 4839,
      "Ġwaste": 4840,
      "Ġprice": 4841,
      "inese": 4842,
      "Ġdiscovered": 4843,
      "ironment": 4844,
      "Ġrule": 4845,
      "Be": 4846,
      "IL": 4847,
      "Ġcustom": 4848,
      "Ġeh": 4849,
      "Ġships": 4850,
      "kins": 4851,
      "ram": 4852,
      "Ġfirm": 4853,
      "ĠMY": 4854,
      "iel": 4855,
      "open": 4856,
      "Ġbelieved": 4857,
      "Ġdriver": 4858,
      "otte": 4859,
      "ura": 4860,
      "Ġunc": 4861,
      "ĠLucy": 4862,
      "Ġversion": 4863,
      "Ġtongue": 4864,
      "!'": 4865,
      "vere": 4866,
      "Ġemer": 4867,
      "âĢĺ": 4868,
      "Ġspoken": 4869,
      "Ġcontract": 4870,
      "Ġballs": 4871,
      "Ġ187": 4872,
      "Ġbrothers": 4873,
      "chuckles": 4874,
      "ĠGO": 4875,
      "actor": 4876,
      "Ġyounger": 4877,
      "Ġseconds": 4878,
      "Ġfixed": 4879,
      "ĠSecret": 4880,
      "happy": 4881,
      "ushes": 4882,
      "Ġprint": 4883,
      "Ġmotor": 4884,
      "Ġcircum": 4885,
      "Ġwa": 4886,
      "Ġcro": 4887,
      "ĠAnt": 4888,
      "Ġdemand": 4889,
      "JJ": 4890,
      "bu": 4891,
      "zes": 4892,
      "Ġfaces": 4893,
      "ĠHA": 4894,
      "Ġsake": 4895,
      "Ġcalls": 4896,
      "Ġsurv": 4897,
      "ĠFlor": 4898,
      "Ġdefend": 4899,
      "ĠItalian": 4900,
      "cellent": 4901,
      "iber": 4902,
      "Ġsides": 4903,
      "aning": 4904,
      "Ġhill": 4905,
      "icy": 4906,
      "Ġnomin": 4907,
      "Ġstret": 4908,
      "Ġstairs": 4909,
      "Ġneg": 4910,
      "ĠOnce": 4911,
      "chair": 4912,
      "Ġhonor": 4913,
      "Ġchocol": 4914,
      "fish": 4915,
      "ĠNav": 4916,
      "elle": 4917,
      "ĠPal": 4918,
      "Ġshown": 4919,
      "Ġworried": 4920,
      "Ġbrush": 4921,
      "ilda": 4922,
      "ĠMarg": 4923,
      "ĠEuropean": 4924,
      "Ġnurse": 4925,
      "Mom": 4926,
      "Ġwed": 4927,
      "Ġdare": 4928,
      "enny": 4929,
      "Ġheat": 4930,
      "using": 4931,
      "Ġarrow": 4932,
      "Ġcraw": 4933,
      "Ġopposite": 4934,
      "Ġopportunity": 4935,
      "his": 4936,
      "Ġtaught": 4937,
      "Ġneither": 4938,
      "Ġafterwards": 4939,
      "Ġteach": 4940,
      "Ġmonster": 4941,
      "Ġdecision": 4942,
      "ĠScott": 4943,
      "Ġmodel": 4944,
      "Ġbal": 4945,
      "ĠGreen": 4946,
      "ĠRand": 4947,
      "istic": 4948,
      "ĠChurch": 4949,
      "Ġruns": 4950,
      "Ġlawyer": 4951,
      "_.": 4952,
      "oons": 4953,
      "somet": 4954,
      "iring": 4955,
      "Ġrail": 4956,
      "ĠSmith": 4957,
      "Ġanxious": 4958,
      "Ġtar": 4959,
      "Ġpill": 4960,
      "ĠCall": 4961,
      "Ġfounded": 4962,
      "Ġenter": 4963,
      "ĠTed": 4964,
      "Ġdistribut": 4965,
      "should": 4966,
      "Ġmountain": 4967,
      "Ġdouble": 4968,
      "Ġshad": 4969,
      "Ġaddition": 4970,
      "Ġbrain": 4971,
      "istan": 4972,
      "Ġpaint": 4973,
      "Ġpleasant": 4974,
      "Michael": 4975,
      "dad": 4976,
      "rid": 4977,
      "sed": 4978,
      "Ġce": 4979,
      "ĠHold": 4980,
      "Ġcomment": 4981,
      "Ġsnake": 4982,
      "Ġnorthwest": 4983,
      "ĠColonel": 4984,
      "eat": 4985,
      "nic": 4986,
      "rim": 4987,
      "Ġox": 4988,
      "Ġpa": 4989,
      "ĠDep": 4990,
      "ĠRes": 4991,
      "Ġhelping": 4992,
      "Ġaccording": 4993,
      "ĠQueen": 4994,
      "cut": 4995,
      "Ġwrest": 4996,
      "ĠSay": 4997,
      "ĠFoot": 4998,
      "fection": 4999,
      "Ġcentre": 5000,
      "Ġincluded": 5001,
      "Ġstraw": 5002,
      "Ġproperly": 5003,
      "Ġknife": 5004,
      "Ġjourney": 5005,
      "Ġtiger": 5006,
      "Ġreck": 5007,
      "Ġspeech": 5008,
      "ĠStone": 5009,
      "looking": 5010,
      "Ġcontact": 5011,
      "Ġharm": 5012,
      "blue": 5013,
      "Ġforest": 5014,
      "Ġtoast": 5015,
      "Ġstock": 5016,
      "ERE": 5017,
      "Ġprepared": 5018,
      "hod": 5019,
      "ĠMinn": 5020,
      "ĠBoy": 5021,
      "ĠPet": 5022,
      "Ġchoose": 5023,
      "Ġ2005": 5024,
      "ĠSpanish": 5025,
      "Ġeffort": 5026,
      "16": 5027,
      "hest": 5028,
      "Ġchat": 5029,
      "Ġlower": 5030,
      "ĠAT": 5031,
      "Ġant": 5032,
      "Ġvote": 5033,
      "angle": 5034,
      "arently": 5035,
      "Ġpound": 5036,
      "ĠSea": 5037,
      "ĠMond": 5038,
      "ĠBat": 5039,
      "ĠDada": 5040,
      "ĠOver": 5041,
      "ĠFin": 5042,
      "Ġopening": 5043,
      "Ġbathroom": 5044,
      "oid": 5045,
      "ua": 5046,
      "hee": 5047,
      "icate": 5048,
      "ĠRel": 5049,
      "Ġrange": 5050,
      "Ġdere": 5051,
      "Ġgrowing": 5052,
      "izing": 5053,
      "Ġeighty": 5054,
      "Ġservices": 5055,
      "Ġevident": 5056,
      "host": 5057,
      "Ġpin": 5058,
      "ashing": 5059,
      "ĠBern": 5060,
      "udd": 5061,
      "Ġobviously": 5062,
      "Ġbudget": 5063,
      "Ġsandwich": 5064,
      "UK": 5065,
      "Ġforces": 5066,
      "ĠChild": 5067,
      "aked": 5068,
      "Ġmagaz": 5069,
      "aura": 5070,
      "Ġstructure": 5071,
      "Ġrabbit": 5072,
      "making": 5073,
      "non": 5074,
      "ners": 5075,
      "Ġmut": 5076,
      "Ġfalls": 5077,
      "Ġwalls": 5078,
      "ĠAgain": 5079,
      "ĠWHAT": 5080,
      "oured": 5081,
      "Ġdun": 5082,
      "ĠTra": 5083,
      "ooting": 5084,
      "ĠPays": 5085,
      "ĠTHIS": 5086,
      "Ġkinda": 5087,
      "ĠCanada": 5088,
      "ĠGeorg": 5089,
      "ache": 5090,
      "ĠLee": 5091,
      "Ġquality": 5092,
      "ĠGerald": 5093,
      "Ġfairly": 5094,
      "Ġcomfortable": 5095,
      "iggles": 5096,
      "bly": 5097,
      "Ġrom": 5098,
      "Ġsour": 5099,
      "Ġcivil": 5100,
      "ĠLab": 5101,
      "Ġexec": 5102,
      "Ġimpossible": 5103,
      "Ġcontinue": 5104,
      "Ġparticularly": 5105,
      "Ġpapers": 5106,
      "ocratic": 5107,
      "ona": 5108,
      "Ġstro": 5109,
      "ĠDay": 5110,
      "soft": 5111,
      "Ġindepend": 5112,
      "chard": 5113,
      "sure": 5114,
      "enne": 5115,
      "ria": 5116,
      "ĠDes": 5117,
      "thew": 5118,
      "Ġbringing": 5119,
      "Ġvictim": 5120,
      "Ġconcerned": 5121,
      ",âĢĻ": 5122,
      "Ġtun": 5123,
      "Ġpants": 5124,
      "ĠStan": 5125,
      "pering": 5126,
      "Ġscrew": 5127,
      "Ġschools": 5128,
      "Ġcampaign": 5129,
      "Ġcorrect": 5130,
      "ĠJean": 5131,
      "ĠJennie": 5132,
      "Ãº": 5133,
      "Ġcases": 5134,
      "omen": 5135,
      "ication": 5136,
      "Ġdoggie": 5137,
      "ĠPut": 5138,
      "Ġwilling": 5139,
      "cip": 5140,
      "ĠVictor": 5141,
      "Ġchocolate": 5142,
      "fly": 5143,
      "Ġhunting": 5144,
      "ĠWow": 5145,
      "ĠFuck": 5146,
      "Ġsomewhat": 5147,
      "apa": 5148,
      "ĠChina": 5149,
      "ĠFriday": 5150,
      "Ġstayed": 5151,
      "Ġeasier": 5152,
      "Ġreaches": 5153,
      "silver": 5154,
      "mar": 5155,
      "Ġliter": 5156,
      "Ġstyle": 5157,
      "Ġmanaged": 5158,
      "ĠParis": 5159,
      "Ġcondition": 5160,
      "Ġwagon": 5161,
      "Ġinvestig": 5162,
      "Ġsettled": 5163,
      "ĠVirgin": 5164,
      "Ġknees": 5165,
      "Come": 5166,
      "cise": 5167,
      "Ġcanton": 5168,
      "Ġmult": 5169,
      "Ġoil": 5170,
      "ĠAwards": 5171,
      "Ġeld": 5172,
      "urry": 5173,
      "Ġcondu": 5174,
      "Ġlocated": 5175,
      "Ġrisk": 5176,
      "LES": 5177,
      "May": 5178,
      "liam": 5179,
      "Ġir": 5180,
      "Ġscient": 5181,
      "Ġgro": 5182,
      "Ġbeach": 5183,
      "Ġknowing": 5184,
      "Ġcancer": 5185,
      "Ġsuc": 5186,
      "Al": 5187,
      "aches": 5188,
      "eaks": 5189,
      "ĠDick": 5190,
      "ĠLos": 5191,
      "--\"": 5192,
      "Ġclaim": 5193,
      "ĠThose": 5194,
      "Ġsmaller": 5195,
      "Ġfemale": 5196,
      "Ġsucceed": 5197,
      "mn": 5198,
      "Ġlatter": 5199,
      "Ġslaves": 5200,
      "Ġmovement": 5201,
      "Ġcenter": 5202,
      "Ġobjects": 5203,
      "DS": 5204,
      "atoes": 5205,
      "Ġthus": 5206,
      "Ġstaff": 5207,
      "ĠDis": 5208,
      "Ġflower": 5209,
      "ounce": 5210,
      "lah": 5211,
      "itched": 5212,
      "nolog": 5213,
      "ĠSand": 5214,
      "sequ": 5215,
      "ĠBest": 5216,
      "Ġdozen": 5217,
      "Ġworst": 5218,
      "Ġvac": 5219,
      "Ġaffect": 5220,
      "appy": 5221,
      "GE": 5222,
      "mined": 5223,
      "pet": 5224,
      "Ġtask": 5225,
      "Ġpsy": 5226,
      "ĠSE": 5227,
      "Ġconv": 5228,
      "Ġprefer": 5229,
      "Ġprevious": 5230,
      "Ġcolonel": 5231,
      "Ġretired": 5232,
      "Ġmurd": 5233,
      "Ġcloser": 5234,
      "sighs": 5235,
      "Ġwha": 5236,
      "isa": 5237,
      "etch": 5238,
      "ented": 5239,
      "ĠAlthough": 5240,
      "Ġopin": 5241,
      "Ġstatement": 5242,
      "Ġproduct": 5243,
      "Ġtitle": 5244,
      "Ġresearch": 5245,
      "ĠFlorida": 5246,
      "$=": 5247,
      "hab": 5248,
      "Ġdoors": 5249,
      "Ġune": 5250,
      "ĠCamp": 5251,
      "ĠDel": 5252,
      "Ġchanges": 5253,
      "ĠFranc": 5254,
      "Ġbegins": 5255,
      "Ġofficial": 5256,
      "liament": 5257,
      "Ġho": 5258,
      "ĠPak": 5259,
      "Ġrout": 5260,
      "Ġcrime": 5261,
      "ĠCharlotte": 5262,
      "Ġsuspect": 5263,
      "Ġrules": 5264,
      "Åį": 5265,
      "Ġpony": 5266,
      "imate": 5267,
      "Ġkitty": 5268,
      "allas": 5269,
      "ĠNight": 5270,
      "Ġpoet": 5271,
      "ĠBarry": 5272,
      "Ġpossibly": 5273,
      "Ġrapid": 5274,
      "Ġcircumst": 5275,
      "hah": 5276,
      "Ġboss": 5277,
      "aly": 5278,
      "Ġprevent": 5279,
      "ograph": 5280,
      "Ġshower": 5281,
      "Ġobl": 5282,
      "Ġwindows": 5283,
      "Ġdeveloped": 5284,
      "SSS": 5285,
      "Ġevents": 5286,
      "ederal": 5287,
      "ĠRussian": 5288,
      "\".=": 5289,
      "essel": 5290,
      "ĠTucker": 5291,
      "ĠDiv": 5292,
      "Ġplayers": 5293,
      "ocks": 5294,
      "Ġaircraft": 5295,
      "Ġbloody": 5296,
      "Ġappearance": 5297,
      "Ġrepeated": 5298,
      "Ã¨": 5299,
      "Ġaver": 5300,
      "onse": 5301,
      "ĠMount": 5302,
      "abri": 5303,
      "ĠâĢľâĢĺ": 5304,
      "Ġstaying": 5305,
      "Bob": 5306,
      "asing": 5307,
      "ĠTri": 5308,
      "ĠApp": 5309,
      "aling": 5310,
      "ĠNO": 5311,
      "Ġbits": 5312,
      "Ġfinding": 5313,
      "ĠAsian": 5314,
      "Ġordered": 5315,
      "BC": 5316,
      "care": 5317,
      "uf": 5318,
      "wing": 5319,
      "Ġfold": 5320,
      "ĠIll": 5321,
      "Ġpair": 5322,
      "Ġforced": 5323,
      "Ġdoin": 5324,
      "ental": 5325,
      "berg": 5326,
      "ĠChinese": 5327,
      "Ġleading": 5328,
      "ĠRoyal": 5329,
      "die": 5330,
      "pen": 5331,
      "Ġsoup": 5332,
      "Ġmeal": 5333,
      "abr": 5334,
      "icked": 5335,
      "Ġmanager": 5336,
      "Ġtroops": 5337,
      "Ġflag": 5338,
      "Ġteams": 5339,
      "Ġrocks": 5340,
      "Ġslightly": 5341,
      "Ġmedicine": 5342,
      "IA": 5343,
      "spect": 5344,
      "ĠHay": 5345,
      "ĠHad": 5346,
      "Ġancient": 5347,
      "ĠOut": 5348,
      "adder": 5349,
      "Ġwriter": 5350,
      "Ġresol": 5351,
      "ĠAnne": 5352,
      "Ġcastle": 5353,
      "ĠSometimes": 5354,
      "Ġenvironment": 5355,
      "fa": 5356,
      "gn": 5357,
      "ĠÃ": 5358,
      "Ġtv": 5359,
      "iti": 5360,
      "isher": 5361,
      "anning": 5362,
      "stood": 5363,
      "ĠUp": 5364,
      "Ġshake": 5365,
      "Ġfeels": 5366,
      "Ġscarcely": 5367,
      "ĠMexico": 5368,
      "Ġappreci": 5369,
      "ga": 5370,
      "ker": 5371,
      "Ġ{": 5372,
      "Ġaward": 5373,
      "ĠMo": 5374,
      "enth": 5375,
      "ĠFenn": 5376,
      "ishment": 5377,
      "Ġremind": 5378,
      "Ġknee": 5379,
      "Ġsigned": 5380,
      "Ġavailable": 5381,
      "really": 5382,
      "atory": 5383,
      "aled": 5384,
      "ĠSus": 5385,
      "cean": 5386,
      "Ġexcit": 5387,
      "igsaw": 5388,
      "Ġfoc": 5389,
      "bey": 5390,
      "Ġscore": 5391,
      "Ġelected": 5392,
      "Ġpainting": 5393,
      "Ġsuccessful": 5394,
      "ĠCollege": 5395,
      "gi": 5396,
      "try": 5397,
      "ĠLaura": 5398,
      "Ġcarrying": 5399,
      "pretend": 5400,
      "Poss": 5401,
      "Ġfishing": 5402,
      "ĠMur": 5403,
      "ila": 5404,
      "ĠLat": 5405,
      "Ġneat": 5406,
      "ĠKat": 5407,
      "Ġpulls": 5408,
      "Ġfavour": 5409,
      "Ġtelephone": 5410,
      "Ġcopy": 5411,
      "Ġfruit": 5412,
      "14": 5413,
      "bow": 5414,
      "Ġtie": 5415,
      "itation": 5416,
      "Ġmail": 5417,
      "ĠIr": 5418,
      "eds": 5419,
      "ilian": 5420,
      "Ġknowledge": 5421,
      "ulous": 5422,
      "Ġsposta": 5423,
      "Ġvessel": 5424,
      "Ġsixty": 5425,
      "Ġdrinking": 5426,
      "ĠProv": 5427,
      "ĠRepublic": 5428,
      "bout": 5429,
      "Ġta": 5430,
      "Ġwhist": 5431,
      "umn": 5432,
      "ops": 5433,
      "Ġ2000": 5434,
      "Ġ2004": 5435,
      "Ġtraining": 5436,
      "fortun": 5437,
      "ĠEarly": 5438,
      "utenant": 5439,
      "rate": 5440,
      "Ġheaven": 5441,
      "ĠAnother": 5442,
      "Ġstre": 5443,
      "acks": 5444,
      "ols": 5445,
      "Ġplants": 5446,
      "Ġacting": 5447,
      "Ġsilent": 5448,
      "Ġdecide": 5449,
      "iety": 5450,
      "13": 5451,
      "ĠJew": 5452,
      "Ġafford": 5453,
      "Ġchoo": 5454,
      "Ġforgotten": 5455,
      "Ġdetermined": 5456,
      "Ġtour": 5457,
      "Ġfought": 5458,
      "ĠMam": 5459,
      "ste": 5460,
      "Ġ[.": 5461,
      "ĠDallas": 5462,
      "Ġrealize": 5463,
      "ĠCanad": 5464,
      "ĠOrder": 5465,
      "ekaboo": 5466,
      "Ġsuggested": 5467,
      "Ġetc": 5468,
      "Ġfancy": 5469,
      "ĠSummer": 5470,
      "ĠCO": 5471,
      "rost": 5472,
      "Ġassoci": 5473,
      "ĠLar": 5474,
      "Ġbutt": 5475,
      "Ġtrade": 5476,
      "Ġkeeps": 5477,
      "Ġ2003": 5478,
      "oking": 5479,
      "ĠMonday": 5480,
      "Ġcute": 5481,
      "Ġdom": 5482,
      "Ġdise": 5483,
      "tering": 5484,
      "hang": 5485,
      "ĠStill": 5486,
      "Ġslide": 5487,
      "Ġmemory": 5488,
      "Ġblanket": 5489,
      "fat": 5490,
      "Ġcred": 5491,
      "cho": 5492,
      "ĠRec": 5493,
      "Ġexer": 5494,
      "tained": 5495,
      "Ġpresence": 5496,
      "Ġmarry": 5497,
      "Ġ1990": 5498,
      "Ġdolls": 5499,
      "Ġextreme": 5500,
      "Ġorders": 5501,
      "Ġknocked": 5502,
      "ĠChicago": 5503,
      "little": 5504,
      "ado": 5505,
      "place": 5506,
      "Ġfeelings": 5507,
      "Ġrelated": 5508,
      "ĠProfess": 5509,
      "Ġburst": 5510,
      "ĠWashing": 5511,
      "NN": 5512,
      "rick": 5513,
      "Ġfond": 5514,
      "ĠSun": 5515,
      "ĠSel": 5516,
      "Ġsaf": 5517,
      "ĠUnder": 5518,
      "Ġstops": 5519,
      "Ġresponse": 5520,
      "Ġholiday": 5521,
      "Ġoffered": 5522,
      "Ġbike": 5523,
      "isn": 5524,
      "Ġmate": 5525,
      "Ġyell": 5526,
      "Ġhomes": 5527,
      "ĠLife": 5528,
      "ultan": 5529,
      "ĠArk": 5530,
      "ĠSomething": 5531,
      "Ġarrange": 5532,
      "Ġrelationship": 5533,
      "Ġthee": 5534,
      "ĠALL": 5535,
      "uments": 5536,
      "Ġupset": 5537,
      "Ġthrown": 5538,
      "ĠAlright": 5539,
      "Ġgrandma": 5540,
      "Ġpalace": 5541,
      "ĠWashington": 5542,
      "ses": 5543,
      "lend": 5544,
      "Ġhaha": 5545,
      "ĠPri": 5546,
      "think": 5547,
      "ĠArt": 5548,
      "Ġbarn": 5549,
      "mom": 5550,
      "pan": 5551,
      "Ġtoes": 5552,
      "Ġlake": 5553,
      "Ġrelease": 5554,
      "ĠHaw": 5555,
      "Ġdebut": 5556,
      "Ġuses": 5557,
      "action": 5558,
      "ĠChief": 5559,
      "Ġdragon": 5560,
      "ESS": 5561,
      "Ġ1980": 5562,
      "Ġaware": 5563,
      "Ġrespond": 5564,
      "duced": 5565,
      "Ġhanging": 5566,
      "Gr": 5567,
      "aa": 5568,
      "rot": 5569,
      "ule": 5570,
      "ĠÂ": 5571,
      "Ġtid": 5572,
      "Ġpred": 5573,
      "kend": 5574,
      "ĠVan": 5575,
      "izza": 5576,
      "Ġkinds": 5577,
      "Ġcheek": 5578,
      "Ġrequire": 5579,
      "Ġbi": 5580,
      "Ġgang": 5581,
      "ĠWel": 5582,
      "cel": 5583,
      "ĠNice": 5584,
      "olars": 5585,
      "aving": 5586,
      "Ġgreatest": 5587,
      "Ġgovernor": 5588,
      "ĠEverything": 5589,
      "Ġrecognized": 5590,
      "lahoma": 5591,
      "li": 5592,
      "isions": 5593,
      "OTH": 5594,
      "Ġshoulders": 5595,
      "ĠMarilla": 5596,
      "whoa": 5597,
      "ĠCla": 5598,
      "ajest": 5599,
      "ĠScot": 5600,
      "known": 5601,
      "ĠAccording": 5602,
      "Who": 5603,
      "ko": 5604,
      "Ġnarrow": 5605,
      "ĠDam": 5606,
      "Ġsports": 5607,
      "Ġprogress": 5608,
      "nee": 5609,
      "awa": 5610,
      "ĠOlympics": 5611,
      "Ġbatter": 5612,
      "ĠShow": 5613,
      "ĠHon": 5614,
      "Ġ[$=": 5615,
      "ĠNet": 5616,
      "ĠStep": 5617,
      "Ġpartner": 5618,
      "Ġthrowing": 5619,
      "Ġthoughts": 5620,
      "Ġstranger": 5621,
      "ĠSpain": 5622,
      "Ġmagic": 5623,
      "Ġexcitement": 5624,
      "sl": 5625,
      "rible": 5626,
      "ĠOx": 5627,
      "ĠLake": 5628,
      "ĠFour": 5629,
      "Ġtrunk": 5630,
      "ĠEdm": 5631,
      "Ġvalue": 5632,
      "Ġbare": 5633,
      "ĠTim": 5634,
      "Ġdeck": 5635,
      "Ġlarger": 5636,
      "Ġformula": 5637,
      "Ġcrayons": 5638,
      "Ġnorthern": 5639,
      "ĠOklahoma": 5640,
      "Ġtechn": 5641,
      "uit": 5642,
      "omm": 5643,
      "ĠTown": 5644,
      "Ġnovel": 5645,
      "ĠBay": 5646,
      "uns": 5647,
      "ĠJess": 5648,
      "ĠIsn": 5649,
      "Ġmatters": 5650,
      "Ġmagn": 5651,
      "Ġpatient": 5652,
      "Ġremembered": 5653,
      "ĠMargaret": 5654,
      "Chi": 5655,
      "Ġmor": 5656,
      "Ġfurn": 5657,
      "Ġfully": 5658,
      "ĠBull": 5659,
      "inky": 5660,
      "ĠYoung": 5661,
      "Ġshowing": 5662,
      "Ġfourth": 5663,
      "Ġwaited": 5664,
      "ban": 5665,
      "cream": 5666,
      "ship": 5667,
      "Ġbin": 5668,
      "ĠMaster": 5669,
      "Ġneighbor": 5670,
      "Ġwitness": 5671,
      "ĠRoger": 5672,
      "giggles": 5673,
      "Ġachie": 5674,
      "Ġmo": 5675,
      "ĠMos": 5676,
      "Ġeverywhere": 5677,
      "Ġ40": 5678,
      "Ġwan": 5679,
      "ingu": 5680,
      "otion": 5681,
      "ĠDE": 5682,
      "ĠLight": 5683,
      "ĠJud": 5684,
      "Ġ(;": 5685,
      "Ġamazing": 5686,
      "Ġprepar": 5687,
      "Ġscreen": 5688,
      "Ġadminist": 5689,
      "Ġdrama": 5690,
      "Ġdetect": 5691,
      "Ġnursery": 5692,
      "Ġbend": 5693,
      "ĠSal": 5694,
      "Ġjudge": 5695,
      "Ġfrightened": 5696,
      "Where": 5697,
      "inc": 5698,
      "ĠBur": 5699,
      "ĠDet": 5700,
      "ilities": 5701,
      "igan": 5702,
      "Ġcourage": 5703,
      "Ġescap": 5704,
      "Ġcompanion": 5705,
      "ĠAirport": 5706,
      "Let": 5707,
      "bel": 5708,
      "Ġsac": 5709,
      "Ġfox": 5710,
      "ĠMill": 5711,
      "ĠWomen": 5712,
      "romer": 5713,
      "annah": 5714,
      "Ġburied": 5715,
      "Ġstudied": 5716,
      "hum": 5717,
      "while": 5718,
      "Ġdying": 5719,
      "ĠToday": 5720,
      "Ġmere": 5721,
      "ĠLong": 5722,
      "Ġsquee": 5723,
      "Ġexplained": 5724,
      "ĠAngeles": 5725,
      "Ġmicrophone": 5726,
      "',": 5727,
      "KN": 5728,
      "yo": 5729,
      "Ġpushed": 5730,
      "ĠMax": 5731,
      "Ġrob": 5732,
      "Ġsmiling": 5733,
      "Ġserve": 5734,
      "Ġfrogs": 5735,
      "ĠGovernor": 5736,
      "Ġestabl": 5737,
      "ĠVirginia": 5738,
      "ault": 5739,
      "bing": 5740,
      "Ġtim": 5741,
      "Ġsite": 5742,
      "Ġcousin": 5743,
      "ata": 5744,
      "ĠBre": 5745,
      "ĠCast": 5746,
      "ĠRock": 5747,
      "oles": 5748,
      "olic": 5749,
      "Ġopens": 5750,
      "Ġinstant": 5751,
      "Ġdata": 5752,
      "UST": 5753,
      "Ġquietly": 5754,
      "Ġdirectly": 5755,
      "ĠHAVE": 5756,
      "Ġbod": 5757,
      "Ġder": 5758,
      "Ġfile": 5759,
      "lla": 5760,
      "icles": 5761,
      "ĠPil": 5762,
      "ateg": 5763,
      "Ġqual": 5764,
      "Ġgreater": 5765,
      "aws": 5766,
      "Ġpassing": 5767,
      "apping": 5768,
      "Ġpowerful": 5769,
      "KAR": 5770,
      "ients": 5771,
      "ube": 5772,
      "inger": 5773,
      "Ġgoal": 5774,
      "chief": 5775,
      "ĠFine": 5776,
      "asty": 5777,
      "Ġtrail": 5778,
      "azy": 5779,
      "ĠShut": 5780,
      "Ġsoftly": 5781,
      "ĠWindows": 5782,
      "tw": 5783,
      "Ã¤": 5784,
      "Ġfra": 5785,
      "ĠCare": 5786,
      "Ġjigsaw": 5787,
      "high": 5788,
      "Ġsentence": 5789,
      "Ġreply": 5790,
      "Ġzoo": 5791,
      "ĠAfrica": 5792,
      "Ġwedding": 5793,
      "Did": 5794,
      "only": 5795,
      "Ġpra": 5796,
      "ading": 5797,
      "ĠBilly": 5798,
      "ĠCatherine": 5799,
      "ĠLast": 5800,
      "Ġ190": 5801,
      "Ġroles": 5802,
      "uclear": 5803,
      "Ġplanning": 5804,
      "inois": 5805,
      "Ġaverage": 5806,
      "Ġsafety": 5807,
      "Okay": 5808,
      "fers": 5809,
      "oned": 5810,
      "ĠTurn": 5811,
      "semb": 5812,
      "ching": 5813,
      "lands": 5814,
      "Ġmission": 5815,
      "Ġincludes": 5816,
      "Ġ1960": 5817,
      "Ġconstruction": 5818,
      "iliar": 5819,
      "ĠGeorgia": 5820,
      "ials": 5821,
      "Ġbee": 5822,
      "Ġstir": 5823,
      "urance": 5824,
      "Ġ31": 5825,
      "ibility": 5826,
      "Ġmainly": 5827,
      "ĠBraz": 5828,
      "pot": 5829,
      "Ġbat": 5830,
      "Ġge": 5831,
      "Ġweird": 5832,
      "ĠPolly": 5833,
      "ĠFe": 5834,
      "Ġplat": 5835,
      "Ġentertain": 5836,
      "Ġeighteen": 5837,
      "ĠBlue": 5838,
      "Ġprize": 5839,
      "ĠWITH": 5840,
      "Ġopinion": 5841,
      "fle": 5842,
      "ware": 5843,
      "Ġsch": 5844,
      "astern": 5845,
      "Ġrecently": 5846,
      "ERS": 5847,
      "ĠĠĠĠĠĠĠĠĠĠĠĠĠĠĠĠĠĠĠĠĠĠĠĠ": 5848,
      "Ġadvant": 5849,
      "Ġrecognize": 5850,
      "Ġepisode": 5851,
      "Possum": 5852,
      "Mar": 5853,
      "year": 5854,
      "Ġgift": 5855,
      "aming": 5856,
      "ĠCont": 5857,
      "venue": 5858,
      "Ġbecoming": 5859,
      "ĠBarty": 5860,
      "Ġshopping": 5861,
      "ĠBradley": 5862,
      "Ġwhispered": 5863,
      "Ġexpression": 5864,
      "ĠRoad": 5865,
      "Ġwid": 5866,
      "Ġbrilliant": 5867,
      "Ġpour": 5868,
      "ĠCourt": 5869,
      "alley": 5870,
      "ĠLin": 5871,
      "Ġshook": 5872,
      "Ġflo": 5873,
      "ANT": 5874,
      "ĠZeal": 5875,
      "Steve": 5876,
      "Car": 5877,
      "Ġess": 5878,
      "ĠMove": 5879,
      "ĠFar": 5880,
      "ĠFam": 5881,
      "abeth": 5882,
      "Ġshock": 5883,
      "Ġarg": 5884,
      "Ġballoon": 5885,
      "ĠBecky": 5886,
      "Ġ188": 5887,
      "ĠMayenne": 5888,
      "Ġdepart": 5889,
      "Ġevil": 5890,
      "Ġbowl": 5891,
      "ĠIllinois": 5892,
      "?'": 5893,
      "Ġwow": 5894,
      "Ġsore": 5895,
      "Ġbub": 5896,
      "Ġforms": 5897,
      "ĠGirl": 5898,
      "Ġsocks": 5899,
      "ĠRuth": 5900,
      "olan": 5901,
      "Ġsticks": 5902,
      "Ġmirror": 5903,
      "boo": 5904,
      "hew": 5905,
      "Ġhunt": 5906,
      "ential": 5907,
      "Ġ[?": 5908,
      "Ġshel": 5909,
      "ĠFire": 5910,
      "Ġrings": 5911,
      "ishop": 5912,
      "Ġcarriage": 5913,
      "Ġ2002": 5914,
      "Ġturtle": 5915,
      "Ġcircumstances": 5916,
      "Ġsink": 5917,
      "ĠLie": 5918,
      "Ġshell": 5919,
      "Ġriding": 5920,
      "ulty": 5921,
      "Ġsplend": 5922,
      "ĠKim": 5923,
      "Ġcontr": 5924,
      "Ġwondering": 5925,
      "ĠYOUR": 5926,
      "ĠEarth": 5927,
      "ĠItaly": 5928,
      "Ġpapa": 5929,
      "ournament": 5930,
      "aed": 5931,
      "Ġcad": 5932,
      "ĠMajor": 5933,
      "ĠWin": 5934,
      "ĠHim": 5935,
      "Ġstom": 5936,
      "useum": 5937,
      "Ġtractor": 5938,
      "Ġweekend": 5939,
      "Ġairplane": 5940,
      "Ġproperty": 5941,
      "after": 5942,
      "vis": 5943,
      "Ġscience": 5944,
      "Ġcy": 5945,
      "ĠMet": 5946,
      "EST": 5947,
      "Ġmarriage": 5948,
      "ĠDidn": 5949,
      "Ġlanguages": 5950,
      "ĠRussia": 5951,
      "wan": 5952,
      "yellow": 5953,
      "heast": 5954,
      "Ġmale": 5955,
      "Ġfuss": 5956,
      "ros": 5957,
      "icking": 5958,
      "Ġqueer": 5959,
      "ĠVal": 5960,
      "Ġdesper": 5961,
      "Ġdepend": 5962,
      "Ġjobs": 5963,
      "Ġbeauty": 5964,
      "Ġreceive": 5965,
      "ĠMcG": 5966,
      "Ġfailed": 5967,
      "Ġtarget": 5968,
      "Ġestablished": 5969,
      "Good": 5970,
      "mark": 5971,
      "ugh": 5972,
      "uous": 5973,
      "Ġoo": 5974,
      "Ġinno": 5975,
      "Ġinternational": 5976,
      "Ġselected": 5977,
      "ĠDutch": 5978,
      "Ġplastic": 5979,
      "Ġbiggest": 5980,
      "Ġcooking": 5981,
      "Ġveh": 5982,
      "ĠJimmy": 5983,
      "Ġshouted": 5984,
      "Ġseparate": 5985,
      "ĠDemocratic": 5986,
      "ĠArkansas": 5987,
      "Ġwave": 5988,
      "isse": 5989,
      "Ġfal": 5990,
      "Ġyards": 5991,
      "Ġpow": 5992,
      "Ġreasons": 5993,
      "ĠFil": 5994,
      "Ġprove": 5995,
      "Ġbranch": 5996,
      "ĠArmy": 5997,
      "ĠKingdom": 5998,
      "ĠGrandma": 5999,
      "ĠFootball": 6000,
      "tin": 6001,
      "Ġgently": 6002,
      "ĠSa": 6003,
      "Ġnative": 6004,
      "road": 6005,
      "Ġsection": 6006,
      "Ġaside": 6007,
      "ĠDolly": 6008,
      "ĠFa": 6009,
      "Ġagent": 6010,
      "Ġfarmer": 6011,
      "Ġ1970": 6012,
      "Ġpressure": 6013,
      "Ġcurrently": 6014,
      "Ġperformance": 6015,
      "ĠProfessor": 6016,
      "Ã¶": 6017,
      "icans": 6018,
      "Ġthy": 6019,
      "ĠWent": 6020,
      "ĠBoth": 6021,
      "ulated": 6022,
      "eping": 6023,
      "Ġboats": 6024,
      "Ġ2001": 6025,
      "azed": 6026,
      "Ġtribe": 6027,
      "gypt": 6028,
      "whispers": 6029,
      "Ġperformed": 6030,
      "Ġnormally": 6031,
      "Ġmagazine": 6032,
      "Tilda": 6033,
      "Ġwished": 6034,
      "ĠSqu": 6035,
      "vert": 6036,
      "ĠMi": 6037,
      "ĠBes": 6038,
      "ĠEmp": 6039,
      "eme": 6040,
      "ĠHarold": 6041,
      "Ġadvice": 6042,
      "Ġhurried": 6043,
      "Ġdreams": 6044,
      "Ġelectric": 6045,
      "ĠChampionship": 6046,
      "ias": 6047,
      "ĠBrian": 6048,
      "Ġsees": 6049,
      "ĠDa": 6050,
      "ĠNE": 6051,
      "ellig": 6052,
      "Ġremoved": 6053,
      "Ġcontain": 6054,
      "Ġinterview": 6055,
      "Ġcentral": 6056,
      "Ġtotally": 6057,
      "ĠSuper": 6058,
      "Ġdunno": 6059,
      "Are": 6060,
      "draw": 6061,
      "Ġaim": 6062,
      "ĠIm": 6063,
      "rig": 6064,
      "ĠBa": 6065,
      "ĠHor": 6066,
      "ĠBrown": 6067,
      "Ġengaged": 6068,
      "Ġrequest": 6069,
      "Ġfrequ": 6070,
      ",]": 6071,
      "itar": 6072,
      "Ġodd": 6073,
      "Ġhook": 6074,
      "ĠAp": 6075,
      "ĠArab": 6076,
      "ulations": 6077,
      "Ġvoices": 6078,
      "Ġdescribed": 6079,
      "Ġentirely": 6080,
      "New": 6081,
      "UGH": 6082,
      "push": 6083,
      "Ġmummy": 6084,
      "Ġyo": 6085,
      "ooke": 6086,
      "ĠMAN": 6087,
      "Ġotherwise": 6088,
      "Ġterrit": 6089,
      "scream": 6090,
      "Ġdisappeared": 6091,
      "Ġfortune": 6092,
      "Ġhighest": 6093,
      "ĠAfrican": 6094,
      "Ġindividual": 6095,
      "green": 6096,
      "wa": 6097,
      "Ġthin": 6098,
      "ĠWolf": 6099,
      "iffe": 6100,
      "ĠEgypt": 6101,
      "ousers": 6102,
      "iano": 6103,
      "Ġchampions": 6104,
      "ĠEdward": 6105,
      "Ġexciting": 6106,
      "Ġartist": 6107,
      "Ġresults": 6108,
      "Ġtradition": 6109,
      "24": 6110,
      "Here": 6111,
      "dr": 6112,
      "Ġsouthern": 6113,
      "Ġpale": 6114,
      "ĠMu": 6115,
      "ĠHum": 6116,
      "Ġjail": 6117,
      "Ġactive": 6118,
      "Ġcrash": 6119,
      "Ġeaten": 6120,
      "Ġmedical": 6121,
      "ĠBritain": 6122,
      "Ġmatches": 6123,
      "DE": 6124,
      "IV": 6125,
      "dro": 6126,
      "Ġfac": 6127,
      "ĠBon": 6128,
      "opher": 6129,
      "anged": 6130,
      "Ġchest": 6131,
      "Ġmetal": 6132,
      "Ġwheels": 6133,
      "Ġincrease": 6134,
      "anchester": 6135,
      "\"?": 6136,
      "lock": 6137,
      "nice": 6138,
      "Ġtur": 6139,
      "Ġwine": 6140,
      "itiz": 6141,
      "Ġpatter": 6142,
      "Ġghost": 6143,
      "ications": 6144,
      "ĠBO": 6145,
      "ĠPop": 6146,
      "ilies": 6147,
      "ĠLater": 6148,
      "Ġjoke": 6149,
      "osen": 6150,
      "Ġthrows": 6151,
      "Ġadop": 6152,
      "Ġunderstood": 6153,
      "ONE": 6154,
      "playing": 6155,
      "press": 6156,
      "war": 6157,
      "ĠTime": 6158,
      "ĠCons": 6159,
      "Ġkm": 6160,
      "ĠPan": 6161,
      "ctors": 6162,
      "umbo": 6163,
      "geant": 6164,
      "Ġsomehow": 6165,
      "Ġsmiled": 6166,
      "Ġdrops": 6167,
      "Ġbaseball": 6168,
      "Ġpositive": 6169,
      "Ġnewspaper": 6170,
      "ĠJeff": 6171,
      "Ġdamn": 6172,
      "Ġdamage": 6173,
      "Anne": 6174,
      "ĠFrancis": 6175,
      "aft": 6176,
      "gent": 6177,
      "ridge": 6178,
      "six": 6179,
      "isha": 6180,
      "Ġgat": 6181,
      "ĠCongress": 6182,
      "Ġhelps": 6183,
      "Ġentr": 6184,
      "puts": 6185,
      "unts": 6186,
      "Ġpaying": 6187,
      "ĠEliz": 6188,
      "Ġtransfer": 6189,
      "Ġconstit": 6190,
      "ĠMatthew": 6191,
      "ĠZealand": 6192,
      "sung": 6193,
      "Ġfriendly": 6194,
      "Ġsignific": 6195,
      "Ġautom": 6196,
      "Ġcruel": 6197,
      "Ġideas": 6198,
      "ĠSecretary": 6199,
      "ajesty": 6200,
      "Ġmouse": 6201,
      "ĠSO": 6202,
      "oto": 6203,
      "herry": 6204,
      "iece": 6205,
      "ĠRay": 6206,
      "Ġcommittee": 6207,
      "Ġforever": 6208,
      "III": 6209,
      "ĠXX": 6210,
      "Ġgentlemen": 6211,
      "Ġtouched": 6212,
      "Of": 6213,
      "Ġpil": 6214,
      "Ġvot": 6215,
      "ĠNobody": 6216,
      "Ġparticip": 6217,
      "Ġtalks": 6218,
      "Ġglance": 6219,
      "Ġstudents": 6220,
      "Ġprovide": 6221,
      "Ġveget": 6222,
      "Ġissues": 6223,
      "Ġgradu": 6224,
      "ĠMass": 6225,
      "ĠBaby": 6226,
      "ĠHmm": 6227,
      "âĢĿ.": 6228,
      "Ġdesire": 6229,
      "ĠWhoa": 6230,
      "Ġprovided": 6231,
      "Ġbeneath": 6232,
      "Ġresponsible": 6233,
      "ĠSanta": 6234,
      "nology": 6235,
      "ĠEdmund": 6236,
      "PE": 6237,
      "gency": 6238,
      "squ": 6239,
      "Ġmort": 6240,
      "Ġhesit": 6241,
      "umble": 6242,
      "ĠAlaed": 6243,
      "Ġdrawn": 6244,
      "Ġfamiliar": 6245,
      "Ġfairy": 6246,
      "Ġinfluence": 6247,
      "Ġreckon": 6248,
      "ĠProvince": 6249,
      "ĠAlaeddin": 6250,
      "icing": 6251,
      "usted": 6252,
      "ĠNed": 6253,
      "ĠOw": 6254,
      "ĠFre": 6255,
      "Ġapparently": 6256,
      "Ġends": 6257,
      "Ġreplaced": 6258,
      "Dada": 6259,
      "rd": 6260,
      "Ġpump": 6261,
      "Ġnation": 6262,
      "ĠBi": 6263,
      "ĠHill": 6264,
      "ĠCross": 6265,
      "Ġsole": 6266,
      "ĠVer": 6267,
      "Ġadult": 6268,
      "Ġdrunk": 6269,
      "Ġoccurred": 6270,
      "MW": 6271,
      "Ġwipe": 6272,
      "Ġnut": 6273,
      "ĠLara": 6274,
      "Ġsecurity": 6275,
      "Ġslave": 6276,
      "Ġattend": 6277,
      "Ġterror": 6278,
      "Ġcharacters": 6279,
      "Ġmountains": 6280,
      "Ġauthority": 6281,
      "ĠAlfgar": 6282,
      "Ġdegree": 6283,
      "90": 6284,
      "Ma": 6285,
      "pir": 6286,
      "vest": 6287,
      "walk": 6288,
      "riff": 6289,
      "amin": 6290,
      "Ġliber": 6291,
      "thur": 6292,
      "ĠRachel": 6293,
      "apt": 6294,
      "Ġinstr": 6295,
      "ĠPrince": 6296,
      "Ġfolks": 6297,
      "TT": 6298,
      "UCK": 6299,
      "eral": 6300,
      "nothing": 6301,
      "ĠSon": 6302,
      "ilty": 6303,
      "ĠOb": 6304,
      "ĠFore": 6305,
      "ongrat": 6306,
      "ĠKN": 6307,
      "ĠRamsey": 6308,
      "Ġgathered": 6309,
      "CA": 6310,
      "Eve": 6311,
      "cr": 6312,
      "hor": 6313,
      "miss": 6314,
      "Ã±": 6315,
      "llen": 6316,
      "ĠGreek": 6317,
      "ĠRush": 6318,
      "ĠKansas": 6319,
      "ĠStand": 6320,
      "brary": 6321,
      "ĠMission": 6322,
      "ĠBarb": 6323,
      "Ġenjoyed": 6324,
      "Ġweapons": 6325,
      "Ġoblig": 6326,
      "Ġdisease": 6327,
      "morrow": 6328,
      "sa": 6329,
      "Ġwound": 6330,
      "Ġbisc": 6331,
      "Ġcam": 6332,
      "Ġfaint": 6333,
      "Ġtooth": 6334,
      "orge": 6335,
      "Ġpant": 6336,
      "Ġloose": 6337,
      "Ġreve": 6338,
      "ĠBUT": 6339,
      "ĠHas": 6340,
      "ĠDun": 6341,
      "gel": 6342,
      "ĠAssoci": 6343,
      "ĠEric": 6344,
      "together": 6345,
      "Ġsweetheart": 6346,
      "picks": 6347,
      "oura": 6348,
      "Ġwore": 6349,
      "Ġfan": 6350,
      "ĠSov": 6351,
      "ĠFive": 6352,
      "Ġshooting": 6353,
      "inda": 6354,
      "ĠAtl": 6355,
      "Ġjumped": 6356,
      "Ġspecific": 6357,
      "iffs": 6358,
      "ĠCenter": 6359,
      "Ġdestroyed": 6360,
      "Ġnearer": 6361,
      "Amer": 6362,
      "cow": 6363,
      "law": 6364,
      "sque": 6365,
      "Ġtummy": 6366,
      "Ġfart": 6367,
      "Ġpor": 6368,
      "athan": 6369,
      "Ġitems": 6370,
      "ĠBost": 6371,
      "ĠHot": 6372,
      "Ġstones": 6373,
      "Ġmel": 6374,
      "ĠPost": 6375,
      "throw": 6376,
      "ĠKar": 6377,
      "Ġarch": 6378,
      "ĠThink": 6379,
      "OULD": 6380,
      "Ġinstru": 6381,
      "Ġ1994": 6382,
      "Ġpossess": 6383,
      "Ġstepped": 6384,
      "Ġsoldier": 6385,
      "Ġburning": 6386,
      "ĠTurk": 6387,
      "Ġchemical": 6388,
      "As": 6389,
      "pull": 6390,
      "yay": 6391,
      "Ġbump": 6392,
      "Ġamb": 6393,
      "Ġtickle": 6394,
      "points": 6395,
      "Ġweapon": 6396,
      "hun": 6397,
      "Ġfier": 6398,
      "ette": 6399,
      "ĠWal": 6400,
      "ĠWood": 6401,
      "Ġlies": 6402,
      "ĠNOT": 6403,
      "eps": 6404,
      "hib": 6405,
      "ĠUN": 6406,
      "Ġuseful": 6407,
      "Ġ1995": 6408,
      "Ġinvited": 6409,
      "ointment": 6410,
      "iamond": 6411,
      "engu": 6412,
      "ological": 6413,
      "Ġexecut": 6414,
      "MP": 6415,
      "ught": 6416,
      "Ġdim": 6417,
      "Ġinvent": 6418,
      "ĠSultan": 6419,
      "ĠBible": 6420,
      "alled": 6421,
      "ores": 6422,
      "Ġsuffe": 6423,
      "agu": 6424,
      "ondisse": 6425,
      "Ġcoal": 6426,
      "Ġ1996": 6427,
      "Ġ1997": 6428,
      "ĠShould": 6429,
      "Ġpropos": 6430,
      "ĠCanadian": 6431,
      "ĠWentworth": 6432,
      "Ġ~": 6433,
      "aring": 6434,
      "Ġforgive": 6435,
      "Ġsociety": 6436,
      "Ġsaving": 6437,
      "ocr": 6438,
      "Ġbitch": 6439,
      "ĠBrother": 6440,
      "Ġ1999": 6441,
      "Ġhorrible": 6442,
      "Ġeastern": 6443,
      "Ġlearning": 6444,
      "Ġordinary": 6445,
      "Ġgarage": 6446,
      "--------------------------------": 6447,
      "When": 6448,
      "Ġtied": 6449,
      "Ġlone": 6450,
      "Ġhabit": 6451,
      "ĠSouthern": 6452,
      "ĠGil": 6453,
      "gend": 6454,
      "ĠRod": 6455,
      "estival": 6456,
      "ANG": 6457,
      "Ġchosen": 6458,
      "igned": 6459,
      "Ġhearing": 6460,
      "Ġdrove": 6461,
      "ĠDavis": 6462,
      "Ġcookies": 6463,
      "Ġlifted": 6464,
      "Ġearnest": 6465,
      "Ġstomach": 6466,
      "KE": 6467,
      "Ġyard": 6468,
      "Ġgir": 6469,
      "Ġgather": 6470,
      "ĠBack": 6471,
      "ĠCON": 6472,
      "Ġspill": 6473,
      "Ġvent": 6474,
      "weet": 6475,
      "Ġgrate": 6476,
      "Ġwarri": 6477,
      "shouts": 6478,
      "Ġmusical": 6479,
      "Ġclosely": 6480,
      "ĠSwed": 6481,
      "ĠCentral": 6482,
      "ournal": 6483,
      "ĠElizabeth": 6484,
      "bor": 6485,
      "from": 6486,
      "Ġfant": 6487,
      "Ġfired": 6488,
      "esota": 6489,
      "Ġhorn": 6490,
      "ĠFanning": 6491,
      "Ġrushed": 6492,
      "Ġrare": 6493,
      "goes": 6494,
      "Ġapproach": 6495,
      "Ġobserved": 6496,
      "Ġarrested": 6497,
      "HHH": 6498,
      "Ġcurious": 6499,
      "talk": 6500,
      "Ġbeast": 6501,
      "imme": 6502,
      "keys": 6503,
      "Ġ\"'": 6504,
      "ĠPen": 6505,
      "Ġrank": 6506,
      "Ġrush": 6507,
      "Ġshr": 6508,
      "ĠEv": 6509,
      "Ġcomedy": 6510,
      "Ġowner": 6511,
      "Ġcutting": 6512,
      "Ġdelicious": 6513,
      "ĠTrans": 6514,
      "Ġaccepted": 6515,
      "Ġgalley": 6516,
      "Ġmaterial": 6517,
      "ĠBoston": 6518,
      "At": 6519,
      "bon": 6520,
      "long": 6521,
      "Ġdust": 6522,
      "Ġfreed": 6523,
      "Ġpic": 6524,
      "Ġpile": 6525,
      "Ġpizza": 6526,
      "rog": 6527,
      "ability": 6528,
      "hards": 6529,
      "ilet": 6530,
      "Ġcomplet": 6531,
      "Ġswitch": 6532,
      "Ġboxes": 6533,
      "Ġdarkness": 6534,
      "Ġtypes": 6535,
      "aspberry": 6536,
      "ĠMinnesota": 6537,
      "\"]": 6538,
      "cat": 6539,
      "mot": 6540,
      "rant": 6541,
      "Ġcash": 6542,
      "Ġgodd": 6543,
      "ĠUk": 6544,
      "Ġacid": 6545,
      "Ġfailure": 6546,
      "remember": 6547,
      "ĠPakistan": 6548,
      "Lara": 6549,
      "fin": 6550,
      "Ġcas": 6551,
      "Ġlack": 6552,
      "ĠMich": 6553,
      "umps": 6554,
      "odes": 6555,
      "Ġproced": 6556,
      "were": 6557,
      "Ġminor": 6558,
      "ception": 6559,
      "Ġintrodu": 6560,
      "22": 6561,
      "lers": 6562,
      "mond": 6563,
      "Ġtip": 6564,
      "Ġfacing": 6565,
      "Ġpages": 6566,
      "Ġgained": 6567,
      "Ġlord": 6568,
      "ĠSpe": 6569,
      "ands": 6570,
      "Ġexcellent": 6571,
      "onder": 6572,
      "ivity": 6573,
      "Ġshame": 6574,
      "Ġthroughout": 6575,
      "Ġhighly": 6576,
      "Ġkidding": 6577,
      "RIC": 6578,
      "Ġreported": 6579,
      "ĠOlympic": 6580,
      "ĠCasson": 6581,
      "Cl": 6582,
      "Ġbark": 6583,
      "Ġbones": 6584,
      "ĠBea": 6585,
      "ĠNick": 6586,
      "Ġtrousers": 6587,
      "Ġguilty": 6588,
      "Ġsmooth": 6589,
      "Ġraise": 6590,
      "anches": 6591,
      "Ġowned": 6592,
      "Ġincident": 6593,
      "Ġequip": 6594,
      "Ġdesigned": 6595,
      "Ġdocument": 6596,
      "Ġsen": 6597,
      "Ġtoss": 6598,
      "eta": 6599,
      "ĠAB": 6600,
      ".\"]": 6601,
      "Ġcraft": 6602,
      "ipper": 6603,
      "Ġtransport": 6604,
      "Ġjacket": 6605,
      "Ġcreate": 6606,
      "ĠAustralian": 6607,
      "ĠEllie": 6608,
      "Ġintroduced": 6609,
      "OOK": 6610,
      "Ġbodies": 6611,
      "Ġsplendid": 6612,
      "Ġwoof": 6613,
      "ĠHuh": 6614,
      "emies": 6615,
      "Ġpron": 6616,
      "gging": 6617,
      "Ġcrim": 6618,
      "Ġcontribut": 6619,
      "Ġchanging": 6620,
      "Ġbreaking": 6621,
      "Ġ1992": 6622,
      "Ġchairs": 6623,
      "ĠPrime": 6624,
      "ĠConf": 6625,
      "Ġpoliceman": 6626,
      "ĠNext": 6627,
      "views": 6628,
      "Ġcompetition": 6629,
      "ĠActually": 6630,
      "Ġboots": 6631,
      "BE": 6632,
      "lie": 6633,
      "Ġtal": 6634,
      "Ġtough": 6635,
      "Ġyum": 6636,
      "ĠSix": 6637,
      "Ġnerv": 6638,
      "ĠHome": 6639,
      "stead": 6640,
      "Ġsem": 6641,
      "ĠGabri": 6642,
      "ĠFair": 6643,
      "ĠEach": 6644,
      "Ġcompos": 6645,
      "ennis": 6646,
      "ĠGreater": 6647,
      "kisses": 6648,
      "Ġadvantage": 6649,
      "40": 6650,
      "Ell": 6651,
      "ĠSil": 6652,
      "rier": 6653,
      "ĠWestern": 6654,
      "ĠBir": 6655,
      "rol": 6656,
      "Ġbadly": 6657,
      "priate": 6658,
      "ĠAgnes": 6659,
      "ĠLeave": 6660,
      "ropical": 6661,
      "Ġstrike": 6662,
      "eks": 6663,
      "ios": 6664,
      "Ġtear": 6665,
      "ouds": 6666,
      "had": 6667,
      "Ġcitiz": 6668,
      "enced": 6669,
      "Ġwashing": 6670,
      "ĠServ": 6671,
      "ĠFrost": 6672,
      "Ġsport": 6673,
      "Ġconce": 6674,
      "Ġconcent": 6675,
      "Ġcovers": 6676,
      "Ġpicking": 6677,
      "Ġ1998": 6678,
      "Ġmethod": 6679,
      "ĠPatty": 6680,
      "GIN": 6681,
      "bal": 6682,
      "eight": 6683,
      "Ġmap": 6684,
      "Ġfaster": 6685,
      "enger": 6686,
      "uchi": 6687,
      "avid": 6688,
      "Ġfamilies": 6689,
      "Ġrealized": 6690,
      "ĠJohnson": 6691,
      "Ġpulling": 6692,
      "Ġincred": 6693,
      "ĠTeam": 6694,
      "Ġdifficulty": 6695,
      "ĠCommun": 6696,
      "Ġprogramme": 6697,
      "ĠMexican": 6698,
      "Ġinterrupts": 6699,
      "UL": 6700,
      "bury": 6701,
      "nie": 6702,
      "Ġtournament": 6703,
      "Ġcave": 6704,
      "Ġcats": 6705,
      "Ġmile": 6706,
      "ĠCam": 6707,
      "Ġliqu": 6708,
      "Ġquit": 6709,
      "ĠStud": 6710,
      "Ġtribes": 6711,
      "Ġsignal": 6712,
      "ipping": 6713,
      "Ġrecords": 6714,
      "ĠWarren": 6715,
      "Ġactivity": 6716,
      "Ġsprang": 6717,
      "Ġelder": 6718,
      "ĠMichigan": 6719,
      "KK": 6720,
      "Mr": 6721,
      "Ġdiss": 6722,
      "Ġpushing": 6723,
      "Ġlem": 6724,
      "icop": 6725,
      "ĠSpr": 6726,
      "umed": 6727,
      "Ġsav": 6728,
      "ARD": 6729,
      "Ġpeas": 6730,
      "Ġuniversity": 6731,
      "Ġstring": 6732,
      "Ġrestaur": 6733,
      "bbed": 6734,
      "Ġdivor": 6735,
      "ĠMusic": 6736,
      "To": 6737,
      "lim": 6738,
      "sis": 6739,
      "ĠBru": 6740,
      "Ġseek": 6741,
      "Ġtruly": 6742,
      "Ġbricks": 6743,
      "hmm": 6744,
      "Ġresour": 6745,
      "Ġdrown": 6746,
      "Ġlistened": 6747,
      "Ġhurts": 6748,
      "Ġcandy": 6749,
      "Ġsuffered": 6750,
      "HAR": 6751,
      "gt": 6752,
      "win": 6753,
      "Ġstol": 6754,
      "ĠDen": 6755,
      "ĠDON": 6756,
      "ĠJason": 6757,
      "Ġrise": 6758,
      "ĠUrs": 6759,
      "ĠAlso": 6760,
      "Ġsurely": 6761,
      "engers": 6762,
      "Ġcircus": 6763,
      "ĠCommittee": 6764,
      "ĠOxford": 6765,
      "HL": 6766,
      "hus": 6767,
      "Ġsang": 6768,
      "ĠHolly": 6769,
      "angers": 6770,
      "Ġminister": 6771,
      "standing": 6772,
      "Ġgiant": 6773,
      "Ġprotest": 6774,
      "Ġrolling": 6775,
      "Ġdrugs": 6776,
      "ĠCompany": 6777,
      "Ġwounded": 6778,
      "erable": 6779,
      "Ġbone": 6780,
      "Ġfence": 6781,
      "Ġnuts": 6782,
      "ĠWatch": 6783,
      "Ġsevere": 6784,
      "ĠYe": 6785,
      "Ġupper": 6786,
      "Ġcommer": 6787,
      "fecture": 6788,
      "Ġapartment": 6789,
      "ĠRichards": 6790,
      "Ġcredit": 6791,
      "ĠSoviet": 6792,
      "Cause": 6793,
      "too": 6794,
      "Ġaid": 6795,
      "Ġwra": 6796,
      "onia": 6797,
      "sell": 6798,
      "ĠCy": 6799,
      "sters": 6800,
      "ĠEmm": 6801,
      "Ġintended": 6802,
      "wey": 6803,
      "Ġseriously": 6804,
      "ĠĠĠĠĠĠĠĠĠĠĠĠĠĠĠĠĠĠĠĠĠĠĠĠĠĠĠĠĠĠĠĠ": 6805,
      "ĠWilliams": 6806,
      "ĠRepublican": 6807,
      "ĠBuild": 6808,
      "bro": 6809,
      "pur": 6810,
      "sk": 6811,
      "ties": 6812,
      "Ġ0": 6813,
      "Ġborder": 6814,
      "Ġpup": 6815,
      "ĠARE": 6816,
      "ali": 6817,
      "ĠBook": 6818,
      "ĠBang": 6819,
      "Ġspo": 6820,
      "ĠStay": 6821,
      "ĠThr": 6822,
      "Ġeats": 6823,
      "Ġaccess": 6824,
      "Ġstandard": 6825,
      "aze": 6826,
      "Ġdelay": 6827,
      "byebye": 6828,
      "Ġcrossed": 6829,
      "Ġequal": 6830,
      "ĠBesides": 6831,
      "JUD": 6832,
      "Ġooh": 6833,
      "Ġgain": 6834,
      "Ġladder": 6835,
      "ĠBas": 6836,
      "ĠCath": 6837,
      "ĠOl": 6838,
      "Ġjeal": 6839,
      "quar": 6840,
      "Ġspare": 6841,
      "ĠStr": 6842,
      "Ġimit": 6843,
      "Ġactual": 6844,
      "Ġleague": 6845,
      "----\"": 6846,
      "ĠArthur": 6847,
      "Ġhearts": 6848,
      "Ġï¿½ï¿½ï¿½ï¿½ï¿½": 6849,
      "ĠClub": 6850,
      "ĠHarris": 6851,
      "Ġhonour": 6852,
      "Ġmadam": 6853,
      "ĠSecond": 6854,
      "Ġholes": 6855,
      "Ġcaptured": 6856,
      "ĠJerry": 6857,
      "Ġsettlement": 6858,
      "Ġindustry": 6859,
      "Ġfeatures": 6860,
      "American": 6861,
      "bling": 6862,
      "num": 6863,
      "Ġwaves": 6864,
      "Ġcongress": 6865,
      "ĠSav": 6866,
      "ĠCromer": 6867,
      "olph": 6868,
      "Ġpoison": 6869,
      "Ġdisp": 6870,
      "Ġtrial": 6871,
      "Ġcloth": 6872,
      "ĠHelp": 6873,
      "Ġproposed": 6874,
      "Ġbesides": 6875,
      "Ġslept": 6876,
      "ĠRemember": 6877,
      "ĠKorea": 6878,
      "Ġequipment": 6879,
      "MC": 6880,
      "Ġgay": 6881,
      "andy": 6882,
      "ĠPo": 6883,
      "ĠLand": 6884,
      "Ġconsequ": 6885,
      "ĠKelly": 6886,
      "Ġsmiles": 6887,
      "Ġappointed": 6888,
      "mpat": 6889,
      "Ġregret": 6890,
      "Ġsweetie": 6891,
      "Ġsending": 6892,
      "Ġlocked": 6893,
      "Ġhasta": 6894,
      "Ġsplit": 6895,
      "21": 6896,
      "||": 6897,
      "Ġmama": 6898,
      "Ġtoilet": 6899,
      "ĠSit": 6900,
      "ĠSara": 6901,
      "unning": 6902,
      "ĠLu": 6903,
      "Ġrhy": 6904,
      "reeks": 6905,
      "Ġunus": 6906,
      "Ġkindly": 6907,
      "Ġharder": 6908,
      "ĠDewey": 6909,
      "Ġrecording": 6910,
      "Ġapolog": 6911,
      "ĠRepresent": 6912,
      "Ġavoid": 6913,
      "Ġproduction": 6914,
      "Ġprincess": 6915,
      "Ġefforts": 6916,
      "David": 6917,
      "Ġaston": 6918,
      "Ġwinning": 6919,
      "reck": 6920,
      "Ġfoll": 6921,
      "ĠAbe": 6922,
      "ĠMake": 6923,
      "rial": 6924,
      "Ġmeas": 6925,
      "ĠOff": 6926,
      "...\"": 6927,
      "Ġbrings": 6928,
      "Ġdishes": 6929,
      "uced": 6930,
      "Ġtrains": 6931,
      "Ġpresently": 6932,
      "ĠEverybody": 6933,
      "Ġstreets": 6934,
      "Per": 6935,
      "ni": 6936,
      "Ġast": 6937,
      "Ġtheory": 6938,
      "Ġcough": 6939,
      "Ġdwell": 6940,
      "Ġhidden": 6941,
      "Ġstern": 6942,
      "addressed": 6943,
      "Ġgreatly": 6944,
      "Ġchain": 6945,
      "Ġrooms": 6946,
      "Ġsigns": 6947,
      "Ġbuildings": 6948,
      "Ġplanned": 6949,
      "Ġrecorded": 6950,
      "Ġlads": 6951,
      "ĠEveryone": 6952,
      "Ġcompanies": 6953,
      "Ġcandid": 6954,
      "Ġaffair": 6955,
      "Ġappreciate": 6956,
      "**": 6957,
      "zer": 6958,
      "Ġborrow": 6959,
      "ĠSOME": 6960,
      "Ġnic": 6961,
      "lyn": 6962,
      "ĠCho": 6963,
      "eable": 6964,
      "Ġanti": 6965,
      "ĠNa": 6966,
      "ĠPenn": 6967,
      "rael": 6968,
      "ĠJumbo": 6969,
      "Ġroot": 6970,
      "odd": 6971,
      "Ġbranches": 6972,
      "Ġenemies": 6973,
      "Ġours": 6974,
      "ĠAmericans": 6975,
      "Ġkilling": 6976,
      "Ġ60": 6977,
      "Ġkissed": 6978,
      "Ġtreated": 6979,
      "Ġnominated": 6980,
      "Ġbalance": 6981,
      "Ġsource": 6982,
      "60": 6983,
      "met": 6984,
      "Å«": 6985,
      "Ġaunt": 6986,
      "nope": 6987,
      "Ġhen": 6988,
      "ĠSur": 6989,
      "Ġsuck": 6990,
      "lfriend": 6991,
      "Ġcloud": 6992,
      "ialect": 6993,
      "Ġcrown": 6994,
      "Ġresist": 6995,
      "ailed": 6996,
      "ĠAsh": 6997,
      "Ġrecorder": 6998,
      "Ġrolls": 6999,
      "Ġpuppy": 7000,
      "Ġmajority": 7001,
      "Ġvictory": 7002,
      "Ġmixed": 7003,
      "Ġdistributed": 7004,
      "ĠKNOW": 7005,
      "ĠAssociation": 7006,
      "Jwww": 7007,
      "ige": 7008,
      "pop": 7009,
      "Ġdoo": 7010,
      "ani": 7011,
      "Ġhockey": 7012,
      "Ġath": 7013,
      "Ġprecious": 7014,
      "Ġhousehold": 7015,
      "Ġwondered": 7016,
      "alds": 7017,
      "ippi": 7018,
      "Ġtyp": 7019,
      "ĠAnyway": 7020,
      "whispered": 7021,
      "Ġcompanions": 7022,
      "Ġflew": 7023,
      "Ġplatform": 7024,
      "Ġlonely": 7025,
      "corn": 7026,
      "ees": 7027,
      "ĠLower": 7028,
      "ĠVis": 7029,
      "Ġpregn": 7030,
      "Ġguest": 7031,
      "Ġdeser": 7032,
      "Ġtraffic": 7033,
      "Ġsword": 7034,
      "Ġbecomes": 7035,
      "Ġdolly": 7036,
      "Ġpursu": 7037,
      "Ġproduce": 7038,
      "Ġbriefly": 7039,
      "Ġrapidly": 7040,
      "bour": 7041,
      "cod": 7042,
      "overy": 7043,
      "Ġwire": 7044,
      "Ġpadd": 7045,
      "Ġwashed": 7046,
      "Ġupside": 7047,
      "Ġspeaks": 7048,
      "Ġleans": 7049,
      "iana": 7050,
      "Ġscri": 7051,
      "ĠMississ": 7052,
      "Ġhandsome": 7053,
      "Ġleaders": 7054,
      "Ġhoping": 7055,
      "Ġcritic": 7056,
      "Ġjealous": 7057,
      "Adam": 7058,
      "RY": 7059,
      "ca": 7060,
      "Ġtent": 7061,
      "ano": 7062,
      "Ġdoggy": 7063,
      "Ġsofa": 7064,
      "ĠRal": 7065,
      "Ġsuffic": 7066,
      "Ġrelax": 7067,
      "Ġdeliver": 7068,
      "Ġdivision": 7069,
      "ĠPortug": 7070,
      "Ġscratch": 7071,
      "Ġpillow": 7072,
      "careful": 7073,
      "ĠFaith": 7074,
      "CI": 7075,
      "Just": 7076,
      "iar": 7077,
      "Ġbent": 7078,
      "Ġpension": 7079,
      "Ġinha": 7080,
      "hia": 7081,
      "ĠKen": 7082,
      "neath": 7083,
      "Ġrope": 7084,
      "Ġgrant": 7085,
      "rences": 7086,
      "Ġcris": 7087,
      "Ġslipped": 7088,
      "Ġpointed": 7089,
      "boat": 7090,
      "Ġphil": 7091,
      "atively": 7092,
      "Ġ1986": 7093,
      "Ġmedal": 7094,
      "Ġoriginally": 7095,
      "Ġburned": 7096,
      "Ġprisoner": 7097,
      "Ar": 7098,
      "sw": 7099,
      "hall": 7100,
      "Ġcot": 7101,
      "Ġdump": 7102,
      "Ġdialect": 7103,
      "oms": 7104,
      "ĠBurt": 7105,
      "ĠYear": 7106,
      "ĠDra": 7107,
      "ĠDire": 7108,
      "Ġaltogether": 7109,
      "Ġcolour": 7110,
      "eaking": 7111,
      "vocalizes": 7112,
      "Ġhammer": 7113,
      ").=": 7114,
      "FAD": 7115,
      "bage": 7116,
      "Ġpity": 7117,
      "ĠTor": 7118,
      "ĠTry": 7119,
      "ador": 7120,
      "stery": 7121,
      "Ġmyster": 7122,
      "ĠRad": 7123,
      "Ġrang": 7124,
      "ĠStar": 7125,
      "uddle": 7126,
      "cca": 7127,
      "Ġoldest": 7128,
      "ibi": 7129,
      "Ġattacked": 7130,
      "Ġdivided": 7131,
      "ĠAdams": 7132,
      "1999": 7133,
      "iraffe": 7134,
      "Ġindependent": 7135,
      "ĠMississippi": 7136,
      "cont": 7137,
      "Ġpiano": 7138,
      "ĠBaker": 7139,
      "Ġseats": 7140,
      "ĠPoor": 7141,
      "uma": 7142,
      "door": 7143,
      "Ġdistinct": 7144,
      "gery": 7145,
      "Ġexpensive": 7146,
      "Ġgrandmother": 7147,
      "Ġtransl": 7148,
      "Ġchecked": 7149,
      "Ġexperien": 7150,
      "Ġorganization": 7151,
      "ĠDaniel": 7152,
      "ĠRobin": 7153,
      "ĠGovernment": 7154,
      "IG": 7155,
      "Paul": 7156,
      "gly": 7157,
      "Ġx": 7158,
      "Ġdish": 7159,
      "ancial": 7160,
      "ĠMolly": 7161,
      "ĠPers": 7162,
      "umm": 7163,
      "Ġrising": 7164,
      "new": 7165,
      "Ġsomethin": 7166,
      "intend": 7167,
      "Ġbetray": 7168,
      "Ġunfortun": 7169,
      "lings": 7170,
      "Ġcontent": 7171,
      "Ġchannel": 7172,
      "Ġdesert": 7173,
      "Ġbreast": 7174,
      "198": 7175,
      "aska": 7176,
      "Ġmanagement": 7177,
      "Ġculture": 7178,
      "ĠDivision": 7179,
      "olarship": 7180,
      "Dad": 7181,
      "For": 7182,
      "Ġthorough": 7183,
      "ĠAng": 7184,
      "Ġrejo": 7185,
      "elia": 7186,
      "Ġdemon": 7187,
      "Ġprof": 7188,
      "Ġagre": 7189,
      "Ġblame": 7190,
      "Ġkeys": 7191,
      "IST": 7192,
      "Ġthirteen": 7193,
      "Ġstudio": 7194,
      "Ġcreature": 7195,
      "hetti": 7196,
      "Ġsatisfied": 7197,
      "Ġescaped": 7198,
      "ĠFamily": 7199,
      "Ġnervous": 7200,
      "ĠRalph": 7201,
      "April": 7202,
      "Ġdea": 7203,
      "Ġpushes": 7204,
      "seven": 7205,
      "dog": 7206,
      "Ġsuppl": 7207,
      "Ġsurround": 7208,
      "Ġ1993": 7209,
      "Ġsympat": 7210,
      "Ġconfidence": 7211,
      "Ġfields": 7212,
      "Ġhorsie": 7213,
      "Ġproducer": 7214,
      "Ġprofessor": 7215,
      "moans": 7216,
      "Ġclimbing": 7217,
      "Ġinquired": 7218,
      "Ġemergency": 7219,
      "Ġevidently": 7220,
      "bag": 7221,
      "Ġbunch": 7222,
      "Ġlin": 7223,
      "icide": 7224,
      "ĠAS": 7225,
      "ĠSuch": 7226,
      "Ġsequ": 7227,
      "Ġclap": 7228,
      "oving": 7229,
      "ileen": 7230,
      "Ġbitter": 7231,
      "Ġrecomm": 7232,
      "Ġfourteen": 7233,
      "Ġrelief": 7234,
      "Ġsixteen": 7235,
      "Ġrifle": 7236,
      "Ġsorts": 7237,
      "ĠLooks": 7238,
      "Ġsisters": 7239,
      "Ġmarked": 7240,
      "umbled": 7241,
      "ĠParliament": 7242,
      "ĠAnything": 7243,
      "Ġshadow": 7244,
      "stein": 7245,
      "25": 7246,
      "aunt": 7247,
      "gues": 7248,
      "Ġmig": 7249,
      "ĠTommy": 7250,
      "Ġbears": 7251,
      "ĠSax": 7252,
      "ĠCooper": 7253,
      "ourse": 7254,
      "again": 7255,
      "Ġgrace": 7256,
      "Ġuncom": 7257,
      "ĠAlan": 7258,
      "Ġpresented": 7259,
      "ĠMickey": 7260,
      "Ġcookie": 7261,
      "Ġrequired": 7262,
      "Ġdelighted": 7263,
      "Ġpersons": 7264,
      "Ġpirates": 7265,
      "Ġadventure": 7266,
      "On": 7267,
      "uries": 7268,
      "zo": 7269,
      "zing": 7270,
      "Ġsorrow": 7271,
      "Ġowe": 7272,
      "eding": 7273,
      "Ġbeer": 7274,
      "ĠWed": 7275,
      "ĠHappy": 7276,
      "ĠCAN": 7277,
      "ĠPir": 7278,
      "Ġspite": 7279,
      "Ġproved": 7280,
      "ĠWhatever": 7281,
      "Ġflu": 7282,
      "Ġchick": 7283,
      "Ġmoments": 7284,
      "Ġsetting": 7285,
      "brush": 7286,
      "apped": 7287,
      "Ġawake": 7288,
      "Ġincreased": 7289,
      "writer": 7290,
      "stitute": 7291,
      "OB": 7292,
      "Um": 7293,
      "ev": 7294,
      "Ġcents": 7295,
      "Ġduh": 7296,
      "Ġfed": 7297,
      "ĠIran": 7298,
      "Ġlamb": 7299,
      "asant": 7300,
      "ĠMajesty": 7301,
      "ĠHurry": 7302,
      "ĠJake": 7303,
      "acker": 7304,
      "igger": 7305,
      "ĠInter": 7306,
      "Ġscare": 7307,
      "ĠIsrael": 7308,
      "Ġdecor": 7309,
      "Ġ1991": 7310,
      "Ġ90": 7311,
      "Ġlessons": 7312,
      "Ġprior": 7313,
      "Ġheavily": 7314,
      "Ġrepresented": 7315,
      "Ġtender": 7316,
      "Ġseventy": 7317,
      "ĠLatin": 7318,
      "Ġexercise": 7319,
      "bar": 7320,
      "gb": 7321,
      "Ġwise": 7322,
      "Ġlit": 7323,
      "adium": 7324,
      "ĠMen": 7325,
      "ĠYorks": 7326,
      "aine": 7327,
      "quest": 7328,
      "peror": 7329,
      "Ġcontest": 7330,
      "OUT": 7331,
      "Ġ1988": 7332,
      "Ġextent": 7333,
      "ĠSomeone": 7334,
      "Ġadvanced": 7335,
      "Ġcontroll": 7336,
      "Ġlegal": 7337,
      "Ġbutterfly": 7338,
      "ĠMadam": 7339,
      "Ġpowder": 7340,
      "Ġfarther": 7341,
      "case": 7342,
      "duck": 7343,
      "nor": 7344,
      "ouri": 7345,
      "refers": 7346,
      "hamed": 7347,
      "Ġmike": 7348,
      "lying": 7349,
      "Ġmechan": 7350,
      "ĠPac": 7351,
      "ĠOpen": 7352,
      "ĠLes": 7353,
      "Ġarmed": 7354,
      "Ġqueen": 7355,
      "aval": 7356,
      "onsense": 7357,
      "ĠTHERE": 7358,
      "Ġswift": 7359,
      "Ġsooner": 7360,
      "Ġsquir": 7361,
      "ĠWillie": 7362,
      "Ġregarded": 7363,
      "Ġdrug": 7364,
      "Ġstruggle": 7365,
      "py": 7366,
      "shar": 7367,
      "ĠIII": 7368,
      "Ġlosing": 7369,
      "Ġinn": 7370,
      "ĠMia": 7371,
      "ĠMars": 7372,
      "Ġstove": 7373,
      "ĠCOM": 7374,
      "Ġclient": 7375,
      "Ġcock": 7376,
      "ISS": 7377,
      "Ġdescend": 7378,
      "Ġpassion": 7379,
      "ĠNorthern": 7380,
      "nesday": 7381,
      "ĠEmpire": 7382,
      "ĠYorkshire": 7383,
      "AB": 7384,
      "lory": 7385,
      "zed": 7386,
      "Ġtiss": 7387,
      "Ġpure": 7388,
      "Ġbelly": 7389,
      "ĠLE": 7390,
      "Ġshed": 7391,
      "Ġsheet": 7392,
      "ĠJon": 7393,
      "ATION": 7394,
      "istry": 7395,
      "Ġworn": 7396,
      "Ġvain": 7397,
      "hoe": 7398,
      "innie": 7399,
      "Ġrefused": 7400,
      "Ġforeign": 7401,
      "LEA": 7402,
      "Ġoperation": 7403,
      "ĠPatrick": 7404,
      "Ġbelongs": 7405,
      "Ġcomplain": 7406,
      "Ġcollection": 7407,
      "IFA": 7408,
      "AIN": 7409,
      "hu": 7410,
      "Ġign": 7411,
      "Ġfate": 7412,
      "Ġhug": 7413,
      "ĠAle": 7414,
      "ĠHoney": 7415,
      "elled": 7416,
      "ĠGi": 7417,
      "ĠFox": 7418,
      "Ġconclud": 7419,
      "Ġunit": 7420,
      "Ġsche": 7421,
      "Ġcompar": 7422,
      "Ġremains": 7423,
      "Ġcheeks": 7424,
      "ĠGroup": 7425,
      "Ġsymb": 7426,
      "iverse": 7427,
      "blows": 7428,
      "Ġvillages": 7429,
      "Ġresponsibility": 7430,
      "Ġreligion": 7431,
      "ĠSenate": 7432,
      "low": 7433,
      "sur": 7434,
      "Ġben": 7435,
      "Ġcouch": 7436,
      "ayne": 7437,
      "Ġnuclear": 7438,
      "ĠHart": 7439,
      "ĠHol": 7440,
      "stick": 7441,
      "ĠYep": 7442,
      "ĠNan": 7443,
      "ĠPorter": 7444,
      "ĠLI": 7445,
      "Ġjournal": 7446,
      "Ġcannon": 7447,
      "ĠJr": 7448,
      "Ġplus": 7449,
      "Ġalarm": 7450,
      "Ġwhenever": 7451,
      "Ġroy": 7452,
      "Ġrescue": 7453,
      "Ġchamp": 7454,
      "Ġinstance": 7455,
      "Ġ1987": 7456,
      "Ġmarks": 7457,
      "help": 7458,
      "Ġbanana": 7459,
      "Ġaccompl": 7460,
      "Ġreferred": 7461,
      "Ġpirate": 7462,
      "Ġpsych": 7463,
      "lots": 7464,
      "rels": 7465,
      "Ġbord": 7466,
      "Ġintern": 7467,
      "Ġheight": 7468,
      "ĠHard": 7469,
      "Ġmeasure": 7470,
      "ĠFer": 7471,
      "ĠFIFA": 7472,
      "Ġblowing": 7473,
      "ĠAsia": 7474,
      "Ġstudent": 7475,
      "ĠPolice": 7476,
      "Ġneighborhood": 7477,
      "Ġfollows": 7478,
      "TS": 7479,
      "bang": 7480,
      "Ġbon": 7481,
      "Ġcode": 7482,
      "aned": 7483,
      "ĠAL": 7484,
      "ĠBed": 7485,
      "stone": 7486,
      "ĠNic": 7487,
      "about": 7488,
      "Ġrat": 7489,
      "Ġbold": 7490,
      "ĠAndy": 7491,
      "ĠStanton": 7492,
      "Ġunderneath": 7493,
      "Ġbelt": 7494,
      "Ġ185": 7495,
      "Ġpurcha": 7496,
      "Ġfifth": 7497,
      "Ġadvance": 7498,
      "Ġlaws": 7499,
      "ĠDanny": 7500,
      "whispering": 7501,
      "Ġpaused": 7502,
      "ĠMcGlory": 7503,
      "ondissement": 7504,
      "Ġpicnic": 7505,
      "ĠCatholic": 7506,
      "Can": 7507,
      "Your": 7508,
      "dri": 7509,
      "mus": 7510,
      "syl": 7511,
      "Ġwinner": 7512,
      "iture": 7513,
      "Ġpoo": 7514,
      "asa": 7515,
      "ĠTem": 7516,
      "sec": 7517,
      "rose": 7518,
      "ĠDu": 7519,
      "ĠOUT": 7520,
      "Ġrac": 7521,
      "Ġsale": 7522,
      "Ġspect": 7523,
      "hess": 7524,
      "pected": 7525,
      "ĠEddie": 7526,
      "Ġsubst": 7527,
      "Ġ1989": 7528,
      "Ġtrem": 7529,
      "Ġengines": 7530,
      "Ġamongst": 7531,
      "Ġspirits": 7532,
      "AKE": 7533,
      "Ġentrance": 7534,
      "Ġstolen": 7535,
      "__": 7536,
      "western": 7537,
      "wyn": 7538,
      "Ġcig": 7539,
      "Ġcaut": 7540,
      "Ġdiamond": 7541,
      "ĠInt": 7542,
      "Ġpitch": 7543,
      "Ġincome": 7544,
      "ĠAri": 7545,
      "ĠWork": 7546,
      "Ġugly": 7547,
      "ĠCa": 7548,
      "Ġlibrary": 7549,
      "choo": 7550,
      "ĠDave": 7551,
      "Ġgotten": 7552,
      "ĠKenn": 7553,
      "issa": 7554,
      "Ġworkers": 7555,
      "inton": 7556,
      "oyal": 7557,
      "ĠClar": 7558,
      "Ġ1972": 7559,
      "coming": 7560,
      "Ġvolume": 7561,
      "Ġimprove": 7562,
      "Ġromantic": 7563,
      "tt": 7564,
      "Ġchips": 7565,
      "Ġdu": 7566,
      "ĠShar": 7567,
      "ĠCur": 7568,
      "ĠLilian": 7569,
      "Ġvast": 7570,
      "hio": 7571,
      "Ġclouds": 7572,
      "looks": 7573,
      "Ġtravell": 7574,
      "197": 7575,
      "Ġgrandfather": 7576,
      "ĠJackson": 7577,
      "ursday": 7578,
      "Ġglasses": 7579,
      "Ġfleet": 7580,
      "Ġfolk": 7581,
      "Ġeagerly": 7582,
      "WE": 7583,
      "foot": 7584,
      "move": 7585,
      "ym": 7586,
      "Ġwitch": 7587,
      "itan": 7588,
      "Ġbast": 7589,
      "Ġwealth": 7590,
      "hers": 7591,
      "ĠDown": 7592,
      "ĠFord": 7593,
      "ĠRome": 7594,
      "ĠĠĠĠĠ": 7595,
      "Ġpartly": 7596,
      "Ġflash": 7597,
      "Ġchums": 7598,
      "Ġswall": 7599,
      "Ġstronger": 7600,
      "ĠINV": 7601,
      "Ġjumping": 7602,
      "Ġsuspic": 7603,
      "Ġsucceeded": 7604,
      "ĠBrazil": 7605,
      "ĠLincol": 7606,
      "Ġgrateful": 7607,
      "Ġinhabit": 7608,
      "Thank": 7609,
      "iation": 7610,
      "Ġsession": 7611,
      "Ġcounter": 7612,
      "Ġhut": 7613,
      "ĠTen": 7614,
      "ĠAD": 7615,
      "rif": 7616,
      "ĠWall": 7617,
      "amps": 7618,
      "ĠHockey": 7619,
      "ĠCL": 7620,
      "ĠJeth": 7621,
      "ĠRah": 7622,
      "Ġcomr": 7623,
      "Ġuseta": 7624,
      "Ġparties": 7625,
      "icture": 7626,
      "lets": 7627,
      "excuse": 7628,
      "Ġ1985": 7629,
      "Ġsteal": 7630,
      "ĠProbably": 7631,
      "Ġ1950": 7632,
      "Ġticket": 7633,
      "Ġpigs": 7634,
      "Ġhoped": 7635,
      "idae": 7636,
      "Ġpersu": 7637,
      "Ġreligious": 7638,
      "ĠCarolina": 7639,
      "find": 7640,
      "top": 7641,
      "wha": 7642,
      "Ġocean": 7643,
      "ĠAileen": 7644,
      "ams": 7645,
      "ĠHannah": 7646,
      "Ġnotes": 7647,
      "ĠLi": 7648,
      "ĠRom": 7649,
      "ĠRose": 7650,
      "Ġaltern": 7651,
      "Ġunf": 7652,
      "Ġcheap": 7653,
      "Ġconsult": 7654,
      "Ġpupp": 7655,
      "Ġeffects": 7656,
      "Ġbasically": 7657,
      "ophie": 7658,
      "Ġinnocent": 7659,
      "'...": 7660,
      "23": 7661,
      "OS": 7662,
      "bi": 7663,
      "gate": 7664,
      "Ġaye": 7665,
      "leave": 7666,
      "ĠTan": 7667,
      "ĠAha": 7668,
      "ĠHind": 7669,
      "umes": 7670,
      "ĠLola": 7671,
      "Ġsoap": 7672,
      "Ġspin": 7673,
      "leton": 7674,
      "Ġfinds": 7675,
      "ĠAlice": 7676,
      "Ġbush": 7677,
      "Ġtermin": 7678,
      "Ġlanded": 7679,
      "Ġthousands": 7680,
      "Ġdaily": 7681,
      "Ġspending": 7682,
      "Ġprotection": 7683,
      "Ġconditions": 7684,
      "Ġsuffer": 7685,
      "Ġterritory": 7686,
      "screams": 7687,
      "cles": 7688,
      "hot": 7689,
      "hta": 7690,
      "lam": 7691,
      "mummy": 7692,
      "Ġtub": 7693,
      "lection": 7694,
      "Ġnoisy": 7695,
      "ĠShan": 7696,
      "ĠGord": 7697,
      "Ġrug": 7698,
      "Ġletting": 7699,
      "Ġguide": 7700,
      "Ġhelicop": 7701,
      "Ġcounties": 7702,
      "Ġpassengers": 7703,
      "Ġstuffed": 7704,
      "Ġpiggy": 7705,
      "Ġadmit": 7706,
      "ĠDepartment": 7707,
      "ĠDisney": 7708,
      "Ġcompleted": 7709,
      "Ġunusual": 7710,
      "AA": 7711,
      "Qu": 7712,
      "bird": 7713,
      "uction": 7714,
      "oubles": 7715,
      "ammy": 7716,
      "Ġanno": 7717,
      "ulate": 7718,
      "aste": 7719,
      "aging": 7720,
      "Ġhanded": 7721,
      "Ġchose": 7722,
      "Ġdeserve": 7723,
      "Ġ189": 7724,
      "ĠDeath": 7725,
      "Ġpotatoes": 7726,
      "burgh": 7727,
      "ĠLucas": 7728,
      "Ġarranged": 7729,
      "ĠLawrence": 7730,
      "ĠGolden": 7731,
      "ĠHayden": 7732,
      "ĠPilchard": 7733,
      "Ġgirlfriend": 7734,
      "Ġscheme": 7735,
      "Ah": 7736,
      "first": 7737,
      "fire": 7738,
      "gro": 7739,
      "gment": 7740,
      "rison": 7741,
      "toy": 7742,
      "yard": 7743,
      "Ġmole": 7744,
      "Ġlat": 7745,
      "atre": 7746,
      "iches": 7747,
      "ĠAyl": 7748,
      "Ġstool": 7749,
      "ĠJenny": 7750,
      "elp": 7751,
      "ements": 7752,
      "ĠKy": 7753,
      "Ġlets": 7754,
      "Ġrecent": 7755,
      "Ġphr": 7756,
      "Ġsteady": 7757,
      "Ġ1979": 7758,
      "Ġgrab": 7759,
      "Ġlately": 7760,
      "Ġcauses": 7761,
      "Ġreports": 7762,
      "Ġsalt": 7763,
      "Ġmurm": 7764,
      "Ġestim": 7765,
      "Ġfortun": 7766,
      "Ġselling": 7767,
      "Ġpermission": 7768,
      "Ġachieve": 7769,
      "Ġfalse": 7770,
      "Joseph": 7771,
      "phew": 7772,
      "Ġmood": 7773,
      "Ġpowers": 7774,
      "Ġpardon": 7775,
      "ĠAy": 7776,
      "ĠSA": 7777,
      "acle": 7778,
      "ĠMmm": 7779,
      "iform": 7780,
      "ĠRoss": 7781,
      "Ġsaus": 7782,
      "Ġability": 7783,
      "aki": 7784,
      "Ġspark": 7785,
      "Ġexha": 7786,
      "osely": 7787,
      "Ġshaking": 7788,
      "Ġappears": 7789,
      "mme": 7790,
      "Ġ184": 7791,
      "ĠAnna": 7792,
      "ĠDev": 7793,
      "Ġexplan": 7794,
      "Ġservants": 7795,
      "Ġmedia": 7796,
      "Ġloving": 7797,
      "Ġsuffering": 7798,
      "Ġdreadful": 7799,
      "ufact": 7800,
      "ĠIrish": 7801,
      "ĠScotland": 7802,
      "ĠAylmer": 7803,
      "bits": 7804,
      "iable": 7805,
      "ture": 7806,
      "Ġwings": 7807,
      "also": 7808,
      "ĠSik": 7809,
      "ĠBY": 7810,
      "Ġashamed": 7811,
      "ĠOak": 7812,
      "ĠOhio": 7813,
      "Ġrust": 7814,
      "Ġconver": 7815,
      "icted": 7816,
      "Ġelev": 7817,
      "Ġdriven": 7818,
      "Ġdisappear": 7819,
      "arrass": 7820,
      "Ġlimited": 7821,
      "Ġmummie": 7822,
      "ĠBatala": 7823,
      "Ġbuttons": 7824,
      "ĠDamn": 7825,
      "Äģ": 7826,
      "ĠSoo": 7827,
      "ĠWater": 7828,
      "Ġstole": 7829,
      "ĠYet": 7830,
      "ĠPerson": 7831,
      "ĠPooh": 7832,
      "Ġjoint": 7833,
      "Ġlegend": 7834,
      "Ġaffection": 7835,
      "hedral": 7836,
      "ĠVill": 7837,
      "ruct": 7838,
      "Ġ183": 7839,
      "didn": 7840,
      "ennes": 7841,
      "Ġ1982": 7842,
      "ĠGeography": 7843,
      "Ġcleaning": 7844,
      "Ġillness": 7845,
      "Ġconnection": 7846,
      "vania": 7847,
      "RRR": 7848,
      "ĠLabour": 7849,
      "26": 7850,
      "named": 7851,
      "rr": 7852,
      "uan": 7853,
      "erous": 7854,
      "Ġbounc": 7855,
      "ingle": 7856,
      "Ġtoe": 7857,
      "Ġthrill": 7858,
      "idays": 7859,
      "ĠSol": 7860,
      "cts": 7861,
      "ĠOH": 7862,
      "ĠRus": 7863,
      "Ġrice": 7864,
      "emic": 7865,
      "osity": 7866,
      "Ġgray": 7867,
      "teacher": 7868,
      "Ġpride": 7869,
      "Ġnights": 7870,
      "ĠTHEY": 7871,
      "Ġwarning": 7872,
      "ĠMissouri": 7873,
      "Ġframe": 7874,
      "Ġfoods": 7875,
      "Ġexplos": 7876,
      "Ġdisappointed": 7877,
      "ĠBroad": 7878,
      "sname": 7879,
      "JJJ": 7880,
      "Ġobliged": 7881,
      "ĠLincoln": 7882,
      "tick": 7883,
      "omed": 7884,
      "ĠSub": 7885,
      "Ġrear": 7886,
      "Ġanal": 7887,
      "ĠPra": 7888,
      "resp": 7889,
      "achus": 7890,
      "Ġslip": 7891,
      "Ġleaf": 7892,
      "inned": 7893,
      "ĠGrace": 7894,
      "Ġwaters": 7895,
      "Ġloft": 7896,
      "Ġphysical": 7897,
      "Ġrevolution": 7898,
      "Ġwhistle": 7899,
      "ĠTurkish": 7900,
      "sylvania": 7901,
      "IES": 7902,
      "Miss": 7903,
      "VID": 7904,
      "dale": 7905,
      "mes": 7906,
      "Ġsings": 7907,
      "onge": 7908,
      "isl": 7909,
      "Ġfederal": 7910,
      "Ġyummy": 7911,
      "lemme": 7912,
      "iculous": 7913,
      "ĠSally": 7914,
      "ĠSud": 7915,
      "umper": 7916,
      "Ġaband": 7917,
      "berries": 7918,
      "Ġunable": 7919,
      "Ġraining": 7920,
      "azz": 7921,
      "okes": 7922,
      "uesday": 7923,
      "Ġconfl": 7924,
      "bbing": 7925,
      "ĠTrump": 7926,
      "Ġstarring": 7927,
      "umbling": 7928,
      "Ġrolled": 7929,
      "Ġsales": 7930,
      "Ġbasis": 7931,
      "Ġpresidential": 7932,
      "ĠBertha": 7933,
      "Ġfocus": 7934,
      "Com": 7935,
      "list": 7936,
      "vy": 7937,
      "yy": 7938,
      "Ġtank": 7939,
      "real": 7940,
      "Ġcows": 7941,
      "orious": 7942,
      "ĠBad": 7943,
      "ĠBall": 7944,
      "ĠPapa": 7945,
      "unior": 7946,
      "raine": 7947,
      "istics": 7948,
      "ĠUs": 7949,
      "orden": 7950,
      "ĠIsa": 7951,
      "Ġlanding": 7952,
      "ĠTele": 7953,
      "Ġprograms": 7954,
      "Ġcalcul": 7955,
      "ĠWilson": 7956,
      "Ġextremely": 7957,
      "Ġig": 7958,
      "Ġlink": 7959,
      "Ġlamp": 7960,
      "Ġincl": 7961,
      "ati": 7962,
      "ĠAwww": 7963,
      "ĠEnd": 7964,
      "hens": 7965,
      "aka": 7966,
      "aghetti": 7967,
      "Ġamend": 7968,
      "Ġflood": 7969,
      "Ġnicely": 7970,
      "whines": 7971,
      "Ġsleepy": 7972,
      "ĠPhilipp": 7973,
      "Ġoccupied": 7974,
      "ĠCampbell": 7975,
      "ĠPacific": 7976,
      "dra": 7977,
      "pick": 7978,
      "poor": 7979,
      "uj": 7980,
      "yum": 7981,
      "Ġwip": 7982,
      "hamm": 7983,
      "anks": 7984,
      "ĠSC": 7985,
      "ĠJac": 7986,
      "ints": 7987,
      "Ġsched": 7988,
      "Ġkeen": 7989,
      "Ġchop": 7990,
      "Ġcontains": 7991,
      "Ġpointing": 7992,
      "Ġbreathing": 7993,
      "Ġsystems": 7994,
      "Ġadmir": 7995,
      "Ġtracks": 7996,
      "ĠLieutenant": 7997,
      "GG": 7998,
      "gonna": 7999,
      "mic": 8000,
      "woof": 8001,
      "ito": 8002,
      "etts": 8003,
      "ĠAbs": 8004,
      "amma": 8005,
      "ĠRich": 8006,
      "Ġrot": 8007,
      "hole": 8008,
      "becca": 8009,
      "ĠVaud": 8010,
      "Ġchew": 8011,
      "Ġfunction": 8012,
      "Ġdraws": 8013,
      "Ġstudies": 8014,
      "Ġprompt": 8015,
      "ĠPhilip": 8016,
      "Ġwooden": 8017,
      "Ġbanks": 8018,
      "Ġadventures": 8019,
      "Go": 8020,
      "ILL": 8021,
      "]...": 8022,
      "love": 8023,
      "Ġbay": 8024,
      "iser": 8025,
      "Ġhills": 8026,
      "Ġthirst": 8027,
      "ĠTok": 8028,
      "ĠMosely": 8029,
      "ĠWOR": 8030,
      "ĠPot": 8031,
      "ĠPart": 8032,
      "ĠEst": 8033,
      "Ġcomed": 8034,
      "ĠUP": 8035,
      "Ġguests": 8036,
      "Ġreality": 8037,
      "ibly": 8038,
      "ĠGran": 8039,
      "Ġattacks": 8040,
      "ervation": 8041,
      "Ġarrival": 8042,
      "Ġembarrass": 8043,
      "ongratulations": 8044,
      "ĠPennsylvania": 8045,
      "cur": 8046,
      "mouth": 8047,
      "Ġgreet": 8048,
      "Ġrent": 8049,
      "ĠDie": 8050,
      "ĠJUST": 8051,
      "ĠRun": 8052,
      "abel": 8053,
      "ardo": 8054,
      "Ġunion": 8055,
      "TED": 8056,
      "Ġdraft": 8057,
      "Ġdollar": 8058,
      "Ġcountryside": 8059,
      "Ġdistricts": 8060,
      "Ġbullet": 8061,
      "ĠRemi": 8062,
      "Ġnetwork": 8063,
      "Ġdesperate": 8064,
      "enguin": 8065,
      "Ellie": 8066,
      "Ġcongressional": 8067,
      "\").": 8068,
      "De": 8069,
      "Sp": 8070,
      "cray": 8071,
      "even": 8072,
      "gone": 8073,
      "pol": 8074,
      "Ġpond": 8075,
      "Ġpipe": 8076,
      "aye": 8077,
      "ĠMobile": 8078,
      "Ġnest": 8079,
      "ĠWhe": 8080,
      "Ġseized": 8081,
      "Ġsock": 8082,
      "Ġmanufact": 8083,
      "Ġcommitted": 8084,
      "Ġattended": 8085,
      "Ġsets": 8086,
      "Ġdistant": 8087,
      "Ġï¿½ï¿½ï¿½": 8088,
      "ORE": 8089,
      "Ġsubs": 8090,
      "Ġrefers": 8091,
      "Ġpossession": 8092,
      "Ġtreasure": 8093,
      "Ġvisited": 8094,
      "ĠJoey": 8095,
      "Ġeventually": 8096,
      "OOD": 8097,
      "Ġresources": 8098,
      "Ġpregnant": 8099,
      "Ġinhabitants": 8100,
      "War": 8101,
      "name": 8102,
      "Ġsin": 8103,
      "Ġsam": 8104,
      "Ġfits": 8105,
      "ĠBear": 8106,
      "ĠCle": 8107,
      "Ġhers": 8108,
      "Ġsauce": 8109,
      "olk": 8110,
      "Ġplot": 8111,
      "igator": 8112,
      "Ġsecure": 8113,
      "Ġacted": 8114,
      "Ġapples": 8115,
      "ective": 8116,
      "Ġboyfriend": 8117,
      "Ġchase": 8118,
      "Ġbeds": 8119,
      "Ġidiot": 8120,
      "Ġsteel": 8121,
      "Ġkingdom": 8122,
      "Ġdetails": 8123,
      "Ġwhisper": 8124,
      "ĠConfeder": 8125,
      "Ġrestaurant": 8126,
      "Look": 8127,
      "Ġwoke": 8128,
      "onies": 8129,
      "Ġmaid": 8130,
      "Ġfo": 8131,
      "Ġpressed": 8132,
      "Ġgrey": 8133,
      "Ġanger": 8134,
      "Ġnoted": 8135,
      "unched": 8136,
      "ĠĠĠ": 8137,
      "ques": 8138,
      "Ġexped": 8139,
      "orted": 8140,
      "Ġload": 8141,
      "Ġbroadcast": 8142,
      "Ġtemperature": 8143,
      "something": 8144,
      "Ġpattern": 8145,
      "squeals": 8146,
      "Ġfreedom": 8147,
      "ĠRepresentatives": 8148,
      "enes": 8149,
      "ĠHang": 8150,
      "Ġseated": 8151,
      "ĠDear": 8152,
      "ĠField": 8153,
      "ATH": 8154,
      "Ġconference": 8155,
      "Ġbrace": 8156,
      "ĠWere": 8157,
      "into": 8158,
      "Ġflung": 8159,
      "Ġfuneral": 8160,
      "ĠCarter": 8161,
      "ĠMean": 8162,
      "ĠCHAR": 8163,
      "Ġarrive": 8164,
      "IDS": 8165,
      "Ġgolden": 8166,
      "Ġmammy": 8167,
      "Ġrubber": 8168,
      "Ġhousing": 8169,
      "Ġviolence": 8170,
      "Ġtechnology": 8171,
      "ĠNavy": 8172,
      "ĠStanley": 8173,
      "ĠStephen": 8174,
      "Ġpilot": 8175,
      "Ġroyal": 8176,
      "ĠJethro": 8177,
      "kia": 8178,
      "mun": 8179,
      "song": 8180,
      "orange": 8181,
      "Ġgri": 8182,
      "Ġfork": 8183,
      "ĠBell": 8184,
      "ilst": 8185,
      "ĠLA": 8186,
      "ĠJung": 8187,
      "inder": 8188,
      "ivered": 8189,
      "Ġspots": 8190,
      "Ġgrat": 8191,
      "clever": 8192,
      "Ġcharges": 8193,
      "Ġsounded": 8194,
      "shh": 8195,
      "Ġrepro": 8196,
      "Ġconfir": 8197,
      "Ġlesson": 8198,
      "Ġ1969": 8199,
      "Ġmiserable": 8200,
      "Ġshouting": 8201,
      "Mother": 8202,
      "pre": 8203,
      "Ġwishes": 8204,
      "Ġbore": 8205,
      "Ġbul": 8206,
      "Ġcakes": 8207,
      "Ġfetch": 8208,
      "omi": 8209,
      "ĠAC": 8210,
      "eau": 8211,
      "Ġash": 8212,
      "ĠPoint": 8213,
      "agle": 8214,
      "Ġintake": 8215,
      "Ġrode": 8216,
      "Ġunknown": 8217,
      "Ġdisplay": 8218,
      "Ġmustn": 8219,
      "Ġfinancial": 8220,
      "Ġpresents": 8221,
      "Ġbushes": 8222,
      "Ġretire": 8223,
      "Ġconscious": 8224,
      "Ġcoloring": 8225,
      "Ġshark": 8226,
      "ĠCheck": 8227,
      "Ġteachers": 8228,
      "volution": 8229,
      "Ġprinci": 8230,
      "Ġremaining": 8231,
      "glas": 8232,
      "Ġtunnel": 8233,
      "Ġroute": 8234,
      "ĠBurton": 8235,
      "ĠWednesday": 8236,
      "cest": 8237,
      "mod": 8238,
      "takes": 8239,
      "Ġeth": 8240,
      "Ġwicked": 8241,
      "inging": 8242,
      "Ġgle": 8243,
      "arian": 8244,
      "Ġhay": 8245,
      "Ġitem": 8246,
      "ĠSophie": 8247,
      "ĠMall": 8248,
      "ĠBus": 8249,
      "Ġkil": 8250,
      "urg": 8251,
      "Ġshy": 8252,
      "quick": 8253,
      "Ġexceed": 8254,
      "ague": 8255,
      "Ġmighty": 8256,
      "Ġtrave": 8257,
      "Ġ35": 8258,
      "Ġauthorities": 8259,
      "Ġbuddy": 8260,
      "ĠPrefecture": 8261,
      "Ġinterrupted": 8262,
      "break": 8263,
      "icycle": 8264,
      "achusetts": 8265,
      "Will": 8266,
      "di": 8267,
      "ez": 8268,
      "fs": 8269,
      "uzz": 8270,
      "Ġtin": 8271,
      "Ġsigh": 8272,
      "ĠWalk": 8273,
      "Ġseasons": 8274,
      "Ġdeer": 8275,
      "Ġjustice": 8276,
      "Ġintellig": 8277,
      "ĠThough": 8278,
      "ptions": 8279,
      "Ġguid": 8280,
      "Ġimpl": 8281,
      "Ġbug": 8282,
      "Ġdrag": 8283,
      "Ġenthus": 8284,
      "Ġrelie": 8285,
      "Ġminds": 8286,
      "Ġ1981": 8287,
      "Ġ1976": 8288,
      "Ġtremb": 8289,
      "doesn": 8290,
      "Ġlimit": 8291,
      "ĠJersey": 8292,
      "Ġaffairs": 8293,
      "Ġnearest": 8294,
      "Ġdebate": 8295,
      "Ġstroke": 8296,
      "Ġvehicle": 8297,
      "Un": 8298,
      "nut": 8299,
      "ois": 8300,
      "wick": 8301,
      "acity": 8302,
      "ĠLau": 8303,
      "ĠLew": 8304,
      "Ġnephew": 8305,
      "Ġracing": 8306,
      "Ġconcl": 8307,
      "Ġbrand": 8308,
      "rub": 8309,
      "lessly": 8310,
      "Ġapproached": 8311,
      "Ġclimate": 8312,
      "Ġicecream": 8313,
      "Ġconsiderable": 8314,
      "Ġbenefit": 8315,
      "codile": 8316,
      "bot": 8317,
      "gal": 8318,
      "pill": 8319,
      "Ġpit": 8320,
      "acious": 8321,
      "Ġrev": 8322,
      "Ġforb": 8323,
      "irts": 8324,
      "ilight": 8325,
      "Ġbackwards": 8326,
      "Ġscored": 8327,
      "âĻ«": 8328,
      "Ġattached": 8329,
      "Ġsupply": 8330,
      "umpy": 8331,
      "ĠAtt": 8332,
      "Ġconsist": 8333,
      "Ġcurtain": 8334,
      "Ġroads": 8335,
      "Ġappropriate": 8336,
      "Ġthreatened": 8337,
      "Because": 8338,
      "ĠRahul": 8339,
      "ii": 8340,
      "ĠâĻ«": 8341,
      "Ġward": 8342,
      "Ġcries": 8343,
      "Ġbeans": 8344,
      "ĠHea": 8345,
      "ĠLO": 8346,
      "ĠLiber": 8347,
      "Ġconvin": 8348,
      "pless": 8349,
      "ĠSociety": 8350,
      "Ġglanced": 8351,
      "Ġ36": 8352,
      "Ġbegun": 8353,
      "Ġ1984": 8354,
      "Ġpoorly": 8355,
      "Ġdressing": 8356,
      "ĠONE": 8357,
      "vocalization": 8358,
      "Ġblew": 8359,
      "ĠSusan": 8360,
      "sembly": 8361,
      "ĠBiography": 8362,
      "27": 8363,
      "IAN": 8364,
      "Man": 8365,
      "wide": 8366,
      "uties": 8367,
      "Ġjam": 8368,
      "Ġintense": 8369,
      "ĠKir": 8370,
      "need": 8371,
      "Ġdisag": 8372,
      "Ġappeal": 8373,
      "ĠNews": 8374,
      "Ġcuts": 8375,
      "Ġexchan": 8376,
      "Ġconfess": 8377,
      "Ġofficially": 8378,
      "Ã¡n": 8379,
      "uki": 8380,
      "Ġsolid": 8381,
      "Ġcompeted": 8382,
      "Ġtorn": 8383,
      "Ġloudly": 8384,
      "Ġconnected": 8385,
      "sometimes": 8386,
      "Ġmultip": 8387,
      "Ġshelter": 8388,
      "Amy": 8389,
      "away": 8390,
      "sar": 8391,
      "Ġcott": 8392,
      "ĠTall": 8393,
      "ĠHoly": 8394,
      "Ġlif": 8395,
      "ĠDog": 8396,
      "rah": 8397,
      "Ġrude": 8398,
      "inkle": 8399,
      "akin": 8400,
      "venge": 8401,
      "ART": 8402,
      "Ġblows": 8403,
      "izz": 8404,
      "Ġhappiness": 8405,
      "Ġ2023": 8406,
      "clears": 8407,
      "ĠShit": 8408,
      "Ġpurs": 8409,
      "ĠPrin": 8410,
      "Ġemot": 8411,
      "AME": 8412,
      "Ġstarred": 8413,
      "ĠĠĠĠĠĠĠ": 8414,
      "Ġmunicipal": 8415,
      "Ġnecessarily": 8416,
      "Ġgenus": 8417,
      "Ġdelightful": 8418,
      "culiar": 8419,
      "Ġinjured": 8420,
      "Ġmurdered": 8421,
      "Grand": 8422,
      "uits": 8423,
      "oni": 8424,
      "Ġbid": 8425,
      "Ġlt": 8426,
      "asters": 8427,
      "ĠHond": 8428,
      "ĠNancy": 8429,
      "ĠPL": 8430,
      "ĠFle": 8431,
      "Ġmyth": 8432,
      "IND": 8433,
      "ĠNokia": 8434,
      "Ġuniform": 8435,
      "Ġteaching": 8436,
      "Ġslipp": 8437,
      "Ġearned": 8438,
      "ussy": 8439,
      "Ġimportance": 8440,
      "ĠShall": 8441,
      "Ġsupported": 8442,
      "Ġenvironmental": 8443,
      "ĠWelcome": 8444,
      "DEB": 8445,
      "Ġtissue": 8446,
      "EP": 8447,
      "aah": 8448,
      "bet": 8449,
      "des": 8450,
      "rots": 8451,
      "Ġtale": 8452,
      "Ġdull": 8453,
      "anas": 8454,
      "ĠTalk": 8455,
      "ĠAF": 8456,
      "ĠMod": 8457,
      "Ġreward": 8458,
      "ĠPink": 8459,
      "Ġmystery": 8460,
      "Ġprospect": 8461,
      "Ġtroubles": 8462,
      "Ġpeculiar": 8463,
      "text": 8464,
      "Ġcarpet": 8465,
      "close": 8466,
      "Ġswept": 8467,
      "Ġpassage": 8468,
      "shine": 8469,
      "Ġ80": 8470,
      "ĠLeon": 8471,
      "ĠâĢĺ_": 8472,
      "Ġducks": 8473,
      "ĠWithout": 8474,
      "ĠXV": 8475,
      "Ġringing": 8476,
      "Ġcosts": 8477,
      "Ġlevels": 8478,
      "Ġprincip": 8479,
      "Ġridiculous": 8480,
      "hetic": 8481,
      "Ġconduct": 8482,
      "ĠMassachusetts": 8483,
      "Ġigno": 8484,
      "Rem": 8485,
      "crying": 8486,
      "Ġwars": 8487,
      "Ġwreck": 8488,
      "ader": 8489,
      "ilton": 8490,
      "ĠGre": 8491,
      "ĠEh": 8492,
      "icket": 8493,
      "ĠKang": 8494,
      "Ġguitar": 8495,
      "Ġimpression": 8496,
      "Ġbearing": 8497,
      "black": 8498,
      "cription": 8499,
      "Ġdiag": 8500,
      "ĠScholarship": 8501,
      "giving": 8502,
      "mission": 8503,
      "til": 8504,
      "Ġtack": 8505,
      "heim": 8506,
      "Ġbatt": 8507,
      "nda": 8508,
      "Ġtox": 8509,
      "Ġhipp": 8510,
      "utiful": 8511,
      "Ġnoble": 8512,
      "ĠMA": 8513,
      "Ġdoctors": 8514,
      "ĠHan": 8515,
      "ĠPope": 8516,
      "ĠLang": 8517,
      "ĠLisa": 8518,
      "Ġprem": 8519,
      "Ġproof": 8520,
      "rett": 8521,
      "Ġchart": 8522,
      "ertainly": 8523,
      "Ġ1964": 8524,
      "ĠTech": 8525,
      "ĠIreland": 8526,
      "Ġactivities": 8527,
      "Ġviolent": 8528,
      "softly": 8529,
      "ĠFilm": 8530,
      "Ġchampionship": 8531,
      "Ġmysterious": 8532,
      "works": 8533,
      "Ġtempt": 8534,
      "Ġtools": 8535,
      "ĠAren": 8536,
      "ĠFRO": 8537,
      "ĠKo": 8538,
      "Ġpeekaboo": 8539,
      "Ġfever": 8540,
      "Ġscary": 8541,
      "Ġremove": 8542,
      "Ġswear": 8543,
      "Ġexpecting": 8544,
      "ĠIslands": 8545,
      "Ġsnakes": 8546,
      "Ġwhale": 8547,
      "Ġsolemn": 8548,
      "sharp": 8549,
      "ĠAbsolutely": 8550,
      "500": 8551,
      "Con": 8552,
      "Ġlou": 8553,
      "omer": 8554,
      "ĠTa": 8555,
      "ĠAw": 8556,
      "ĠWant": 8557,
      "Ġ\"\"": 8558,
      "Ġjew": 8559,
      "arts": 8560,
      "Ġdey": 8561,
      "Ġwanting": 8562,
      "Ġpros": 8563,
      "Ġleather": 8564,
      "Ġunhappy": 8565,
      "Ġbuying": 8566,
      "ĠBrid": 8567,
      "inson": 8568,
      "Ġribb": 8569,
      "Ġbags": 8570,
      "Ġmerc": 8571,
      "Ã³n": 8572,
      "Ġincredible": 8573,
      "Ġphilos": 8574,
      "ĠMeanwhile": 8575,
      "breat": 8576,
      "refer": 8577,
      "Ġsons": 8578,
      "erg": 8579,
      "Ġcage": 8580,
      "ington": 8581,
      "asion": 8582,
      "Ġhits": 8583,
      "ĠMem": 8584,
      "Ġstack": 8585,
      "ĠLy": 8586,
      "ĠForm": 8587,
      "ĠKi": 8588,
      "ahhah": 8589,
      "Ġwrites": 8590,
      "Ġchildhood": 8591,
      "oki": 8592,
      "Ġextended": 8593,
      "Ġhundreds": 8594,
      "Ġ1968": 8595,
      "Ġ1930": 8596,
      "Ġpenny": 8597,
      "Ġbelonged": 8598,
      "Ġlocation": 8599,
      "Ġcapture": 8600,
      "ALLY": 8601,
      "ĠTyler": 8602,
      "ĠDouglas": 8603,
      "Ġassistant": 8604,
      "ĠVictoria": 8605,
      "Ġunex": 8606,
      "Ġargument": 8607,
      "bie": 8608,
      "Ġwing": 8609,
      "Ġsout": 8610,
      "Ġcord": 8611,
      "Ġdies": 8612,
      "Ġpitched": 8613,
      "ĠSong": 8614,
      "Ġreform": 8615,
      "ĠWales": 8616,
      "still": 8617,
      "stra": 8618,
      "alls": 8619,
      "ĠName": 8620,
      "umin": 8621,
      "Ġje": 8622,
      "ĠAndrew": 8623,
      "Ġfeather": 8624,
      "ĠVic": 8625,
      "Ġpole": 8626,
      "Ġunits": 8627,
      "Ġprince": 8628,
      "gets": 8629,
      "Ġcommander": 8630,
      "mmm": 8631,
      "Ġcolored": 8632,
      "Ġreturning": 8633,
      "ologist": 8634,
      "ĠEliot": 8635,
      "Ġapproaching": 8636,
      "Ġkissing": 8637,
      "ĠPoland": 8638,
      "Ġcloses": 8639,
      "Thomas": 8640,
      "Ġtempor": 8641,
      "Ġportion": 8642,
      "Ġdiscussion": 8643,
      "Ġcitizens": 8644,
      "bir": 8645,
      "jack": 8646,
      "uals": 8647,
      "whee": 8648,
      "Ġdough": 8649,
      "ĠThing": 8650,
      "imately": 8651,
      "ĠJoy": 8652,
      "ĠRon": 8653,
      "aba": 8654,
      "Ġconqu": 8655,
      "Ġuseless": 8656,
      "ĠUnt": 8657,
      "pton": 8658,
      "Ġcompared": 8659,
      "Ġcomplex": 8660,
      "Ġreturns": 8661,
      "Ġplanet": 8662,
      "Ġ1975": 8663,
      "ĠKevin": 8664,
      "ĠSergeant": 8665,
      "sniffs": 8666,
      "ĠReliance": 8667,
      "ĠCastle": 8668,
      "ĠFrancisco": 8669,
      "Ġsignificant": 8670,
      "ĠGabriella": 8671,
      "28": 8672,
      "belt": 8673,
      "girl": 8674,
      "oise": 8675,
      "uable": 8676,
      "inity": 8677,
      "Ġbac": 8678,
      "Ġcateg": 8679,
      "Ġlic": 8680,
      "ĠDi": 8681,
      "unter": 8682,
      "Ġshining": 8683,
      "ĠEs": 8684,
      "Ġpean": 8685,
      "ĠThursday": 8686,
      "asses": 8687,
      "ANK": 8688,
      "Ġcomposed": 8689,
      "Ġhelpless": 8690,
      "Ġchim": 8691,
      "Ġattitude": 8692,
      "Ġmonkeys": 8693,
      "Ġstopping": 8694,
      "bridge": 8695,
      "Ġumbre": 8696,
      "Ġskill": 8697,
      "ĠBenj": 8698,
      "Ġservant": 8699,
      "fortable": 8700,
      "Ġcreatures": 8701,
      "Ġpotato": 8702,
      "Ġdawn": 8703,
      "Ġshops": 8704,
      "Ġmerged": 8705,
      "Ġclimbed": 8706,
      "Ġvisitors": 8707,
      "Ġtreatment": 8708,
      "Ġprisoners": 8709,
      "ĠChampionships": 8710,
      "Ġdegrees": 8711,
      "keeper": 8712,
      "Ġprimary": 8713,
      "ĠKorean": 8714,
      "Ġbubbles": 8715,
      "Ġadopted": 8716,
      "Ex": 8717,
      "LIN": 8718,
      "san": 8719,
      "wers": 8720,
      "Ġawards": 8721,
      "Ġarose": 8722,
      "Ġsought": 8723,
      "Ġfestival": 8724,
      "omin": 8725,
      "ĠTre": 8726,
      "riger": 8727,
      "Ġstations": 8728,
      "Ġknot": 8729,
      "Ġgoals": 8730,
      "unte": 8731,
      "ĠGall": 8732,
      "earch": 8733,
      "ĠKnight": 8734,
      "peekaboo": 8735,
      "Ġdisg": 8736,
      "Ġresident": 8737,
      "Ġsites": 8738,
      "Ġdrank": 8739,
      "Ġrivers": 8740,
      "Ġtouching": 8741,
      "Ġsatisfaction": 8742,
      "ĠWinter": 8743,
      "ĠABOUT": 8744,
      "ennessee": 8745,
      "gabr": 8746,
      "kind": 8747,
      "mony": 8748,
      "Ġbishop": 8749,
      "Ġcups": 8750,
      "Ġded": 8751,
      "ĠTop": 8752,
      "imum": 8753,
      "ĠMR": 8754,
      "ĠMir": 8755,
      "ĠMoon": 8756,
      "Ġreview": 8757,
      "amas": 8758,
      "Ġstout": 8759,
      "Ġstamp": 8760,
      "Ġancest": 8761,
      "ĠNHL": 8762,
      "ĠLwww": 8763,
      "ĠHend": 8764,
      "ighed": 8765,
      "Ġclip": 8766,
      "people": 8767,
      "Ġchuck": 8768,
      "Ġsurr": 8769,
      "Ġhorror": 8770,
      "Ġconfused": 8771,
      "Ġ1977": 8772,
      "Ġpainted": 8773,
      "Ġprovin": 8774,
      "ĠAustria": 8775,
      "Ġpolicies": 8776,
      "somebody": 8777,
      "Ġislands": 8778,
      "Ġgrowth": 8779,
      "Inter": 8780,
      "hemat": 8781,
      "Ġtidy": 8782,
      "Ġarchite": 8783,
      "Ġphrase": 8784,
      "referring": 8785,
      "GR": 8786,
      "gog": 8787,
      "nam": 8788,
      "nine": 8789,
      "uy": 8790,
      "Ġmac": 8791,
      "Ġmental": 8792,
      "ĠTennessee": 8793,
      "ĠSk": 8794,
      "adies": 8795,
      "Ġreference": 8796,
      "ĠDuke": 8797,
      "ĠPRO": 8798,
      "ophy": 8799,
      "uled": 8800,
      "Ġgettin": 8801,
      "theless": 8802,
      "Ġchamber": 8803,
      "Ġcharged": 8804,
      "196": 8805,
      "Ġ1974": 8806,
      "Ġcrap": 8807,
      "Ġconstant": 8808,
      "Ġillust": 8809,
      "Ġexperiment": 8810,
      "Ġphotograph": 8811,
      "ĠAtlantic": 8812,
      "45": 8813,
      "KT": 8814,
      "eys": 8815,
      "phab": 8816,
      "onation": 8817,
      "Ġfake": 8818,
      "Ġgal": 8819,
      "ĠTuesday": 8820,
      "ĠSever": 8821,
      "Ġrefe": 8822,
      "Ġna": 8823,
      "Ġnick": 8824,
      "Ġnonsense": 8825,
      "Ġstiff": 8826,
      "star": 8827,
      "andra": 8828,
      "geun": 8829,
      "oland": 8830,
      "Ġvig": 8831,
      "ĠInstead": 8832,
      "ysis": 8833,
      "Ġguards": 8834,
      "Ġheaded": 8835,
      "ĠHoward": 8836,
      "Ġ33": 8837,
      "ĠMayor": 8838,
      "Ġinstit": 8839,
      "ĠKeith": 8840,
      "Ġbasic": 8841,
      "Ġadmitted": 8842,
      "ĠGarth": 8843,
      "Ġaudience": 8844,
      "Ġproceeded": 8845,
      "Ġaffected": 8846,
      "ĠJewish": 8847,
      "Ġsenior": 8848,
      "Ġscript": 8849,
      "ĠLewis": 8850,
      ",...": 8851,
      "Bl": 8852,
      "Have": 8853,
      "egr": 8854,
      "mind": 8855,
      "wind": 8856,
      "Ġaft": 8857,
      "Ġdining": 8858,
      "Ġpist": 8859,
      "utt": 8860,
      "ĠCreeks": 8861,
      "eling": 8862,
      "ĠEastern": 8863,
      "ATE": 8864,
      "apers": 8865,
      "ĠKas": 8866,
      "Ġgoodbye": 8867,
      "Ġsla": 8868,
      "inners": 8869,
      "Ġpolite": 8870,
      "ĠArm": 8871,
      "Ġanimated": 8872,
      "Ġdrift": 8873,
      "Ġfacts": 8874,
      "Ġfriendship": 8875,
      "Ġ70": 8876,
      "Ġthankful": 8877,
      "Ġconfident": 8878,
      "Ġinspect": 8879,
      "ĠPolish": 8880,
      "Ġcommonly": 8881,
      "Ġmuttered": 8882,
      "Ġvotes": 8883,
      "ĠUkraine": 8884,
      "Ġconcluded": 8885,
      "Ġcigaret": 8886,
      "count": 8887,
      "gain": 8888,
      "Ġhee": 8889,
      "imp": 8890,
      "Ġnit": 8891,
      "Ġstares": 8892,
      "ĠCivil": 8893,
      "Ġjer": 8894,
      "Ġven": 8895,
      "Ġintention": 8896,
      "Ġcompound": 8897,
      "Ġactions": 8898,
      "mann": 8899,
      "Ġobtained": 8900,
      "Ġwinds": 8901,
      "Ġkidna": 8902,
      "Ġimpress": 8903,
      "Ġdiscover": 8904,
      "Ġsticking": 8905,
      "Ġshortly": 8906,
      "Ġleads": 8907,
      "Ġgrape": 8908,
      "Ġdefence": 8909,
      "oubled": 8910,
      "Ġpacked": 8911,
      "Ġholidays": 8912,
      "Ġdescribe": 8913,
      "Ġpossibility": 8914,
      "Ġutterance": 8915,
      "Ġmerely": 8916,
      "Ġbastard": 8917,
      "Ġhelicopter": 8918,
      "Rat": 8919,
      "mat": 8920,
      "sound": 8921,
      "uct": 8922,
      "eness": 8923,
      "Ġgon": 8924,
      "Ġlover": 8925,
      "ĠCas": 8926,
      "ookie": 8927,
      "ĠPip": 8928,
      "ĠOs": 8929,
      "ĠGET": 8930,
      "ĠFif": 8931,
      "Ġexact": 8932,
      "Ġnowhere": 8933,
      "Ġquack": 8934,
      "ĠIntern": 8935,
      "Ġshapes": 8936,
      "arson": 8937,
      "Ġelement": 8938,
      "Ġassured": 8939,
      "Ġfactory": 8940,
      "Ã©e": 8941,
      "Ġsteam": 8942,
      "Ġ1973": 8943,
      "Ġmistaken": 8944,
      "ĠAuntie": 8945,
      "Ġhealthy": 8946,
      "Ġhistorical": 8947,
      "Ġdemanded": 8948,
      "build": 8949,
      "Ġliquid": 8950,
      "Ġconfirmed": 8951,
      "Ġunexpected": 8952,
      "ĠBenjamin": 8953,
      "29": 8954,
      "jump": 8955,
      "last": 8956,
      "Ġaer": 8957,
      "inem": 8958,
      "haw": 8959,
      "Ġmast": 8960,
      "Ġdug": 8961,
      "ĠIF": 8962,
      "alo": 8963,
      "ĠDal": 8964,
      "ĠRh": 8965,
      "Ġ(,": 8966,
      "Ġkindness": 8967,
      "Ġnearby": 8968,
      "ĠExactly": 8969,
      "urious": 8970,
      "Ġorganized": 8971,
      "ICE": 8972,
      "Ġkicked": 8973,
      "Ġseparated": 8974,
      "Ġphoto": 8975,
      "Ġfurniture": 8976,
      "Ġintroduce": 8977,
      "ĠService": 8978,
      "bud": 8979,
      "thanks": 8980,
      "onom": 8981,
      "Ġmister": 8982,
      "asped": 8983,
      "ĠAP": 8984,
      "Ġere": 8985,
      "kee": 8986,
      "ĠWacker": 8987,
      "eav": 8988,
      "ĠPubl": 8989,
      "ilk": 8990,
      "ĠJosh": 8991,
      "ĠEver": 8992,
      "udding": 8993,
      "Ġbrick": 8994,
      "ava": 8995,
      "Ġpoem": 8996,
      "Ġsurgery": 8997,
      "ĠArgent": 8998,
      "ĠJohnny": 8999,
      "Ġtriangle": 9000,
      "Ġaddressed": 9001,
      "Ġconfusion": 9002,
      "ĠConst": 9003,
      "Ġreaching": 9004,
      "Ġclasses": 9005,
      "Ġpotty": 9006,
      "Ġeconomy": 9007,
      "Ġcheerful": 9008,
      "Ġcereal": 9009,
      "Ġrailway": 9010,
      "Ġresolution": 9011,
      "ĠCOVID": 9012,
      "ĠDetective": 9013,
      "Ġathlet": 9014,
      "Ġuncomfortable": 9015,
      "Nat": 9016,
      "UP": 9017,
      "Ġtropical": 9018,
      "ourage": 9019,
      "Ġsadd": 9020,
      "Ġdumb": 9021,
      "Ġreign": 9022,
      "ĠBank": 9023,
      "Ġstable": 9024,
      "Ġstated": 9025,
      "ĠNich": 9026,
      "umption": 9027,
      "ĠGun": 9028,
      "Ġpreviously": 9029,
      "gger": 9030,
      "Ġlasted": 9031,
      "ĠChap": 9032,
      "Ġmidnight": 9033,
      "Ġabsence": 9034,
      "Ġpackage": 9035,
      "Ġmagnetic": 9036,
      "ĠSHE": 9037,
      "ĠMiddle": 9038,
      "NNN": 9039,
      "Ġinstrument": 9040,
      "Ġwarriors": 9041,
      "gbark": 9042,
      "Ġumbrella": 9043,
      "dear": 9044,
      "picture": 9045,
      "erry": 9046,
      "ori": 9047,
      "orial": 9048,
      "orpor": 9049,
      "ettle": 9050,
      "vering": 9051,
      "ĠMust": 9052,
      "ĠBA": 9053,
      "entine": 9054,
      "ĠHoll": 9055,
      "ĠHung": 9056,
      "ĠHER": 9057,
      "Ġwhilst": 9058,
      "ĠNas": 9059,
      "ĠNOW": 9060,
      "ĠOffic": 9061,
      "ĠJos": 9062,
      "Ġrider": 9063,
      "Ġerr": 9064,
      "places": 9065,
      "Ġwrit": 9066,
      "enses": 9067,
      "aughters": 9068,
      "bring": 9069,
      "OUR": 9070,
      "Ġalongside": 9071,
      "ĠBlood": 9072,
      "THING": 9073,
      "Ġlaunched": 9074,
      "Ġmerry": 9075,
      "Ġstatus": 9076,
      "Ġsexual": 9077,
      "ĠMerrim": 9078,
      "ĠFreder": 9079,
      "Ġbasketball": 9080,
      "ĠHyun": 9081,
      "Joe": 9082,
      "mate": 9083,
      "Â°": 9084,
      "inini": 9085,
      "Ġwolf": 9086,
      "Ġdirt": 9087,
      "arant": 9088,
      "ĠToo": 9089,
      "acco": 9090,
      "ĠBor": 9091,
      "ĠBour": 9092,
      "ami": 9093,
      "Ġgods": 9094,
      "urd": 9095,
      "ĠFel": 9096,
      "ĠStart": 9097,
      "Ġunivers": 9098,
      "Ġteen": 9099,
      "Ġstrict": 9100,
      "ĠMaria": 9101,
      "ĠArch": 9102,
      "Ġreduced": 9103,
      "ĠGrant": 9104,
      "Ġhumans": 9105,
      "Ġ1957": 9106,
      "Ġhurting": 9107,
      "ĠSeries": 9108,
      "Ġextraord": 9109,
      "Ġgradually": 9110,
      "Ġcommercial": 9111,
      "ĠDirector": 9112,
      "Le": 9113,
      "Mus": 9114,
      "wah": 9115,
      "Ġsank": 9116,
      "Ġbeard": 9117,
      "ĠWes": 9118,
      "aman": 9119,
      "Ġstared": 9120,
      "ĠChat": 9121,
      "ĠCut": 9122,
      "Ġgosh": 9123,
      "ĠLit": 9124,
      "---": 9125,
      "ender": 9126,
      "ĠAndre": 9127,
      "hart": 9128,
      "Ġrage": 9129,
      "Ġdistingu": 9130,
      "Ġmidst": 9131,
      "Ġconcer": 9132,
      "Ġburden": 9133,
      "whisper": 9134,
      "Ġexception": 9135,
      "Ġneighbour": 9136,
      "Ġpunishment": 9137,
      "Ġceremony": 9138,
      "Ġinvestigation": 9139,
      "ĠGordon": 9140,
      "ĠSudden": 9141,
      "phabet": 9142,
      "?]": 9143,
      "CLA": 9144,
      "FF": 9145,
      "itors": 9146,
      "Ġmal": 9147,
      "ĠIV": 9148,
      "Ġpace": 9149,
      "Ġlos": 9150,
      "ĠAvenue": 9151,
      "Ġwebs": 9152,
      "ĠBattle": 9153,
      "ĠNone": 9154,
      "ifts": 9155,
      "ĠFree": 9156,
      "ĠFederal": 9157,
      "Ġroast": 9158,
      "Ġblast": 9159,
      "Ġenqu": 9160,
      "Ġprey": 9161,
      "ultural": 9162,
      "Ġtrained": 9163,
      "whose": 9164,
      "ĠDef": 9165,
      "Ġcapable": 9166,
      "Ġdecent": 9167,
      "Ġevol": 9168,
      "ĠShagbark": 9169,
      "Ġannounce": 9170,
      "ĠWHO": 9171,
      "Ġclosing": 9172,
      "Ġsafely": 9173,
      "arrondissement": 9174,
      "Ġkicking": 9175,
      "Ġvolunte": 9176,
      "Ġnaturally": 9177,
      "ĠEmily": 9178,
      "Ġaccompan": 9179,
      "ĠCorpor": 9180,
      "Ġfoolish": 9181,
      "Chris": 9182,
      "Ġeconomic": 9183,
      "Ġencoura": 9184,
      "Ġresponded": 9185,
      "Ġbattery": 9186,
      "ĠCareer": 9187,
      "Ġdepends": 9188,
      "Ġlemon": 9189,
      "Ġwrapped": 9190,
      "hammad": 9191,
      "ĠTokyo": 9192,
      "Warren": 9193,
      "One": 9194,
      "cing": 9195,
      "great": 9196,
      "Ã¦": 9197,
      "Ġ:": 9198,
      "Ġwret": 9199,
      "era": 9200,
      "Ġcuddle": 9201,
      "anim": 9202,
      "escue": 9203,
      "Ġgest": 9204,
      "Ġgiraffe": 9205,
      "aro": 9206,
      "Ġhal": 9207,
      "Ġthief": 9208,
      "ĠAut": 9209,
      "kel": 9210,
      "urbed": 9211,
      "ĠDream": 9212,
      "ĠLine": 9213,
      "ĠJam": 9214,
      "geon": 9215,
      "ĠEle": 9216,
      "Ġplates": 9217,
      "ĠHee": 9218,
      "Ġbyeb": 9219,
      "Ġvoy": 9220,
      "Ġvirt": 9221,
      "aga": 9222,
      "ĠKong": 9223,
      "next": 9224,
      "Ġfee": 9225,
      "aterpill": 9226,
      "cipl": 9227,
      "oca": 9228,
      "Ġendeav": 9229,
      "grand": 9230,
      "Ġobst": 9231,
      "Ġlisted": 9232,
      "ĠHarvey": 9233,
      "Ġ1966": 9234,
      "ĠColin": 9235,
      "Ġmercy": 9236,
      "Ġopera": 9237,
      "Ġlabel": 9238,
      "Ġfeeding": 9239,
      "Ġprepare": 9240,
      "Ġseventeen": 9241,
      "Ġscreaming": 9242,
      "Ġsurrounded": 9243,
      "Ġped": 9244,
      "Ġhired": 9245,
      "amation": 9246,
      "Ġgoat": 9247,
      "âĢľ": 9248,
      "ĠOt": 9249,
      "ĠRen": 9250,
      "elen": 9251,
      "endous": 9252,
      "itei": 9253,
      "ĠValley": 9254,
      "manRat": 9255,
      "Ġasks": 9256,
      "Ġcounting": 9257,
      "ĠAlger": 9258,
      "Ġexpressed": 9259,
      "Ġclothing": 9260,
      "Ġopposed": 9261,
      "Ġ1940": 9262,
      "Ġorganis": 9263,
      "Ġtesting": 9264,
      "Ġlabor": 9265,
      "ĠGraeme": 9266,
      "Ġepisodes": 9267,
      "Ġexistence": 9268,
      "ĠSimon": 9269,
      "Ġcycl": 9270,
      "NewmanRat": 9271,
      "Ġtraditional": 9272,
      "ĠUrsula": 9273,
      "quarters": 9274,
      "ĠSikander": 9275,
      "ĠUntil": 9276,
      "ĠHenderson": 9277,
      "Interviews": 9278,
      "NewmanRatner": 9279,
      "48": 9280,
      "99": 9281,
      ";\"": 9282,
      "Har": 9283,
      "Sh": 9284,
      "bear": 9285,
      "pha": 9286,
      "rad": 9287,
      "uing": 9288,
      "Ġtables": 9289,
      "Ġax": 9290,
      "Ġbars": 9291,
      "Ġpiss": 9292,
      "ĠSP": 9293,
      "ĠSno": 9294,
      "ĠMAR": 9295,
      "ĠCad": 9296,
      "ĠGreg": 9297,
      "ĠLOOK": 9298,
      "cker": 9299,
      "inking": 9300,
      "agger": 9301,
      "ĠKate": 9302,
      "ĠKaren": 9303,
      "Ġquant": 9304,
      "Ġsmoking": 9305,
      "rows": 9306,
      "umpty": 9307,
      "ĠForce": 9308,
      "apple": 9309,
      "Ġreflect": 9310,
      "encies": 9311,
      "Ġ1971": 9312,
      "Ġ1978": 9313,
      "Ġeditor": 9314,
      "Ġarticle": 9315,
      "Ġloads": 9316,
      "Ġtickets": 9317,
      "ĠSupp": 9318,
      "Ġdevice": 9319,
      "Ġbenef": 9320,
      "Ġhydro": 9321,
      "Ġbillion": 9322,
      "ĠCaroline": 9323,
      "Ġnapkin": 9324,
      "mosp": 9325,
      "pool": 9326,
      "vior": 9327,
      "Ġ/": 9328,
      "Ġbeating": 9329,
      "ĠShi": 9330,
      "iments": 9331,
      "otted": 9332,
      "ĠCT": 9333,
      "Ġmend": 9334,
      "ĠDever": 9335,
      "elling": 9336,
      "ĠPa": 9337,
      "unks": 9338,
      "ĠGame": 9339,
      "ĠFollow": 9340,
      "Ġcomments": 9341,
      "Ġclay": 9342,
      "ĠUK": 9343,
      "ĠInc": 9344,
      "Ġthrust": 9345,
      "Ġunlike": 9346,
      "ĠBrook": 9347,
      "ĠBrooke": 9348,
      "ĠAss": 9349,
      "Ġnumerous": 9350,
      "Ġdiscovery": 9351,
      "ĠJapazy": 9352,
      "ĠBlake": 9353,
      "ĠProt": 9354,
      "Ġsunshine": 9355,
      "Ġquarters": 9356,
      "dded": 9357,
      "mitage": 9358,
      "Ġproducts": 9359,
      "ocracy": 9360,
      "Ġdivorced": 9361,
      "Ġslavery": 9362,
      "LING": 9363,
      "TO": 9364,
      "TLE": 9365,
      "bin": 9366,
      "yup": 9367,
      "itter": 9368,
      "etime": 9369,
      "ĠSem": 9370,
      "ĠHERE": 9371,
      "ĠDID": 9372,
      "ainted": 9373,
      "eline": 9374,
      "Ġspaghetti": 9375,
      "Ġages": 9376,
      "never": 9377,
      "Ġtrace": 9378,
      "Ġchin": 9379,
      "Ġdragged": 9380,
      "grunts": 9381,
      "Ġobtain": 9382,
      "Ġwarn": 9383,
      "Ġimpact": 9384,
      "Ġspeaker": 9385,
      "Ġ1983": 9386,
      "Ġcatches": 9387,
      "Ġinsisted": 9388,
      "force": 9389,
      "Ġkisses": 9390,
      "ĠSeven": 9391,
      "Ġvariety": 9392,
      "Ġcowboy": 9393,
      "Ġattempts": 9394,
      "Ġanxiety": 9395,
      "Ġactivist": 9396,
      "Ġmemories": 9397,
      "annine": 9398,
      "Ġoccasionally": 9399,
      "ĠChildsname": 9400,
      "ifferent": 9401,
      "Ġvegetables": 9402,
      "ĠBarbara": 9403,
      "Mc": 9404,
      "gimme": 9405,
      "vant": 9406,
      "eram": 9407,
      "Ġbond": 9408,
      "Ġcreek": 9409,
[...]
